#version: 0.2
à ¤
à ¥
Ġ à¤
à¤ ¾
à¥ į
à¤ °
à¥ ĩ
à¥ Ģ
à¤ ¤
à¤ ¯
à¤ ²
à¤ ¿
à¤ ¨
à¤ Ĥ
à¤ ¹
à¤ ķ
à¤ ļ
à¤ µ
à¤ ¸
à¤ £
à¤ ®
à¥ ĭ
Ġà¤ Ĩ
Ġà¤ ķ
à¤ ª
à¥ ģ
Ġà¤ ¸
à¤ ¦
Ġà¤ ª
à¤¾ à¤Ĥ
Ġà¤ ®
à¤ Ł
à¥ Ĥ
à¤ Ĺ
Ġà¤ ħ
à¤ §
Ġà¤Ĩ à¤¹
Ġà¤ ¨
à¤ ľ
Ġà¤ µ
à¤ ¶
Ġà¤ ¤
à¤ ¡
Ġà¤ ¹
Ġà¤ ¦
Ġà¤ ¯
à¤ ³
à¤ ·
à¤ ¬
Ġà¤ ľ
Ġà¤ °
Ġà¤ķ à¤°
à¤ ĸ
Ġà¤ ¬
Ġà¤ ¶
à¤ ¥
à¤ ł
à¤µ à¤°
à¤ Ń
Ġà¤ Ĺ
Ġà¤ Ń
Ġà¤ħ à¤¸
Ġà¤Ĩ à¤£
Ġà¤ ļ
Ġà¤ ²
Ġà¤ ĺ
Ġà¤ Ŀ
Ġà¤ ī
à¤° à¤ķ
à¤° à¤¤
à¤¤ à¤°
à¤® à¤§
Ġà¤Ĩ à¤²
Ġà¤ķà¤° à¤£
Ġà¤ ĸ
Ġà¤ ı
à¤ Ī
à¤° à¤£
à¤¯ à¤ķ
à¤ ĺ
à¤ Ĩ
à¤¿ à¤Ĥ
Ġà¤ «
à¥ ĥ
à¤ ¢
à¤ ħ
à¥ ī
à¤° à¤®
Ġà¤ı à¤ķ
Ġà¤ Ł
à¥ĩ à¤Ĥ
à¤ª à¤£
à¤ «
Ġ à¥
à¤° à¤µ
à¤¤ à¤²
Ġà¤ ł
à¤µ à¤¸
Ġà¤® à¤¹
à¤ķ à¤°
à¥ Ī
Ġà¤ ĩ
à¤ª à¤°
à¤¹ à¤£
Ġà¤ª à¤°
Ġà¤¸ à¤°
à¥ ħ
à¤ķ à¤¡
à¤ª à¤²
à¤° à¤ª
Ġà¤ §
à¤ ±
à¤¯ à¤®
Ġà¤ħ à¤§
Ġà¤¸ à¤®
à¤µ à¤²
à¤ ı
à¤° à¤¸
à¤ Ĭ
à¥ģ à¤Ĥ
Ġà¤ħ à¤¨
Ġà¤ī à¤ª
à¤Ł à¤¨
à¥ Į
à¤ Ŀ
à¥Ģ à¤Ĥ
Ġà¤ķà¤° à¤¤
à¤² à¤¯
Ġà¤ ¡
à¤ľ à¤ª
à¤µ à¤¡
Ġà¤¤ à¤°
à¤¦ à¤°
à¤µ à¤£
à¤° à¤²
à¤° à¤ļ
Ġà¤ħà¤¸ à¤²
à¤¬ à¤¤
à¤¹ à¤¤
à¤ ģ
Ġà¤¶ à¤ķ
Ġà¤Ĩ à¤°
à¤Ĺ à¤²
à¤· à¤£
à¤ĸ à¤²
Ġà¤¸ à¤°à¤ķ
Ġà¤¨ à¤µ
à¤¸ à¤°
Ġà¤Ĩ à¤®
à¤¤ à¤ª
à¤° à¤§
Ġà¤Ĩ à¤ªà¤²
à¤° à¤¦
à¤°à¤ª à¤Ł
à¤Ł à¤ķ
à¥ ¦
Ġà¤µ à¤°
à¤°à¤ķ à¤°à¤£
à¤µ à¤¤
à¤¡ à¤²
Ġà¤ħà¤¸ à¤¤
à¤° à¤¶
à¤Ł à¤²
à¤Ĺ à¤¤
à¤¯ à¤¤
Ġà¤ħ à¤¶
â Ģ
à¤ľ à¤¨
à¤® à¤¨
à¤¨ à¤ļ
à¤¾ à¤ģ
à¤¬ à¤°
âĢ į
Ġà¤ī à¤¤
à¤¬ à¤Ī
Ġ (
à¤¦ à¤²
à¤Ĺ à¤°
Ġà¤ĺ à¤Łà¤¨
à¤Ł à¤°
Ġà¤¸ à¤¹
à¤¶ à¤¨
Ġà¤ħ à¤Ń
à¤Ĺ à¤³
à¤Ĺ à¤£
Ġà¤Ĩ à¤¯
à¤£ à¤¤
à¤¹ à¤°
à¤¤ à¤ķ
à¤Ī à¤²
Ġà¤ħ à¤°
à¥į âĢį
à¤µà¤¡ à¤£
à¤¯ à¤²
§ à¥
à¤² à¤ķ
Ġ 1
à¤ª à¤¨
Ġà¤Ĩ à¤¤
à¤¸ à¤²
à¤ ĩ
à¤ķ à¤²
à¤® à¤ļ
à¤¸ à¤Ń
Ġà¤ª à¤ķ
à¤ľ à¤¯
Ġ 2
Ġà¤ħ à¤ª
à¤¸ à¤¨
Ġà¤ ĳ
à¤¯ à¤ļ
Ġà¤Ĩ à¤µ
à¤¸ à¤ļ
à¤¤ à¤¸
Ġà¤¶à¤ķ à¤¤
à¤ľ à¤°
à¤µ à¤³
à¤° à¤ľ
Ġà¤ª à¤¹
à¤® à¤¤
à¥ĭ à¤Ĥ
à¤¤ à¤µ
à¤£ à¤¯
Ġà¤ħ à¤®
à¤· à¤ķ
à¤¬ à¤¦
Ġà¤ª à¤¤
à¤¸ à¤¹
Ġà¤ī à¤¦
Ġà¤® à¤¤
Ġà¤¨ à¤°
à¤ ĵ
à¤¯ à¤¦
Ġà¤ķ à¤®
à¤¡ à¤£
Ġà¤īà¤ª à¤¸
Ġà¤ª à¤¦
à¤Ĩ à¤¯
Ġà¥ ¨
à¤¨ à¤µ
Ġà¤® à¤§
Ġà¤® à¤²
Ġà¤¤ à¤ª
à¤ª à¤¤
à¤° à¤¨
à¤¸ à¤¤
à¤µ à¤¨
à¤³ à¤¤
à¤ħ à¤°
à¤ Ľ
à¤² à¤¨
à¤ ī
Ġà¤ ¥
Ġà¤ ĵ
Ġà¤ļ à¤°
à¤® à¤²
à¤ª à¤¦
à¤® à¤ķ
à¤¹ à¤¨
à¤Ĭ à¤¨
à¤¦ à¤µ
à¤¤ à¤ļ
à¤ĸ à¤®
à¤¯ à¤¨
Ġà¤ħ à¤¤
à¤ķ à¤¶
Ġà¥ §à¥
à¤ľ à¤ķ
Ġà¤ľ à¤£
Ġà¤® à¤¨
Ġà¤ħ à¤ľ
Ġà¤Ĩ à¤ªà¤£
à¤ķ à¤¤
à¤ª à¤¯
à¤¦ à¤¨
Ġà¤ħ à¤Łà¤ķ
Ġà¤®à¤¹ à¤¤
Ġà¤Ĩ à¤¦
à¤§ à¤¨
à¤¹ à¤®
Ġà¤¦ à¤°
Ġà¤¹ à¤µ
à¤¶ à¤²
Ġà¤ĸ à¤°
Ġà¤² à¤ķ
Ġà¤ħ à¤¦
Ġà¤¤ à¤¸
à¤ ŀ
Ġà¤ľ à¤¨
à¤ķ à¤¸
Ġà¤ľ à¤ĸà¤®
à¤¯ à¤µà¤¸
Ġà¤¹ à¤²
à¤¦ à¤°à¤®
à¤· à¤¯
Ġà¤¨ à¤ķ
à¤³ à¤²
Ġà¤ĺ à¤°
à¤° à¤¯à¤¤
à¤¦ à¤¤
à¤¨ à¤²
Ġà¤¸ à¤¤
à¤ļ à¤²
Ġà¤ķ à¤²
à¤² à¤Ĺ
Ġà¤ķ à¤ª
Ġà¤ķ à¤¸
à¤³ à¤£
Ġà¤Ĩ à¤ľ
à¤° à¤ĸ
à¤¹ à¤Łà¤²
à¤ħ à¤¸
Ġà¤®à¤¤ à¤¦
à¤ľà¤ª à¤ļ
à¤¸ à¤¦
Ġà¤¶ à¤°
Ġ2 0
Ġà¤īà¤ª à¤ļ
à¤® à¤¹
à¥ ¨
Ġà¤¤ à¤¯
à¤Ń à¤°
à¤§ à¤µ
à¤Ĩ à¤®
à¤² à¤¤
à¤¥ à¤³
à¤¢ à¤¤
Ġà¤Ĩà¤µ à¤¶
Ġà¤ī à¤®
à¤¡ à¤ļ
Ġà¤Ł à¤ķ
à¤ĺ à¤Łà¤¨
Ġà¤¦ à¤¹
à¤° à¤¹
Ġà¤® à¤¦à¤¤
Ġà¤¬ à¤¦à¤²
Ġà¤Ĺ à¤°à¤ľ
à¤² à¤ļ
à¤ł à¤ķ
à¤ı à¤¸
Ġà¤¸ à¤§
Ġà¤Ĩ à¤Ĺ
Ġà¤¹ à¤ľ
à¤¹à¤£ à¤ľ
à¤® à¤Ĺ
Ġà¤Ĩ à¤§
à¤¤ à¤®
à¤¯ à¤µ
Ġà¤ Ľ
à¤ļ à¤¨
à¤ķ à¤°à¤£
à¤¨ à¤¸à¤Ń
à¤¡ à¤¤
Ġà¤¯ à¤¶
à¤¢ à¤²
à¤µ à¤ļ
Ġà¤¬ à¤°
Ġà¤Ĩ à¤¶
à¤¡ à¤ķ
à¤¤ à¤¹
à¤Ń à¤µ
Ġà¤¤ à¤ķ
à¤¨ à¤°
Ġ 3
à¤¶ à¤¤à¤µ
à¤Ĩ à¤°
à¤ķ à¤¸à¤Ń
à¤¸ à¤®
à¤¨ à¤¹
Ġà¤ľ à¤Ĺ
Ġà¤¸ à¤²
Ġà¤ª à¤¡à¤²
à¤¹ à¤²
à¤¡ à¤³
Ġà¤ª à¤µ
Ġ '
Ġà¤¶ à¤¹à¤°
à¤ª à¤ķ
à¤µ à¤ķà¤°
Ġà¤Ĩà¤® à¤ļ
à¤ª à¤·
Ġà¤ħà¤ª à¤ĺ
Ġà¤ľ à¤®
à¥ §à¥
à¤ĸ à¤°
Ġà¤ķ à¤§
à¤Ł à¤¤
0 0
à¤Ĩ à¤£
Ġà¤¦ à¤²
Ġà¤ĺ à¤¡à¤²
à¤µ à¤ķ
Ġà¤° à¤¸
Ġà¤ħ à¤²
à¤ħ à¤¨
Ġà¤Ĩà¤® à¤¦
à¤¸ à¤±
Ġà¤ħà¤¸ à¤£
Ġà¤¸ à¤Ĺà¤³
Ġà¤¦à¤¹ à¤¶à¤¤à¤µ
à¤· à¤¦
à¤° à¤®à¤§
à¤ħ à¤¶
Ġà¤Ĩ à¤ł
Ġà¤¬ à¤¹
à¥ «
à¤¬ à¤²
à¤ª à¤Ł
à¤¶ à¤ķ
à¤¶ à¤¯
à¤¸ à¤£
à¥ Ł
à¤ ĥ
Ġà¥ ©
à¤ľ à¤²
à¤ı à¤ķ
à¤¡à¤£ à¤µ
Ġà¤ĩ à¤¤à¤°
Ġà¤« à¤¡à¤£à¤µ
à¤¤ à¤¤
à¤¯ à¤ª
à¤µà¤° à¤£
Ġà¥¨ à¥¦
à¤Ł à¤ļ
Ġà¤¶ à¤¹
à¤¥ à¤®
Ġà¤¸à¤¹ à¤Ń
à¤Ĩ à¤¤
Ġà¤ł à¤°à¤²
Ġà¤¸ à¤¦
à¤Ĺ à¤¦
à¤¸ à¤ķ
à¤ķ à¤£
à¤¤à¤ķ à¤±
Ġ 5
à¤¹ à¤µ
à¤Ĩ à¤ªà¤²
à¤§ à¤¤
Ġà¤Ĩ à¤¨
à¤¤ à¤³
à¤° à¤Ń
à¤¬à¤¤ à¤ļ
à¤£ à¤§
à¤¤ à¤¨
Ġà¤ħ à¤µ
Ġà¤¸ à¤ķ
à¤¨ à¤¨
à¤¸ à¤§
Â ł
à¥Ĥ à¤Ĥ
Ġà¤ľ à¤¬
Ġà¤ľ à¤µ
à¤¨ à¤ķ
Ġà¤ħ à¤ķ
Ġà¤² à¤¢
Ġà¤ī à¤ļ
Ġà¤² à¤µà¤ķà¤°
à¤Ĺ à¤µ
à¤¨ à¤¸
à¤ł à¤²
à¤ľ à¤Ĺ
Ġà¤ľà¤¨ à¤¤
Ġà¤Ĩà¤£ à¤ĸ
à¤ľ à¤¸
Ġà¤® à¤°
à¤² à¤µ
Ġà¤ĳ à¤«
à¤® à¤°
Ġà¤Ĩ à¤ĺ
à¤³ à¤µ
Ġà¤² à¤Ĺ
à¤µ à¤¶
à¤°à¤ª à¤¤
Ġà¥ §
Ġ 4
à¤® à¤¹à¤¤
Ġà¤¨ à¤¸à¤²
Ġ20 1
à¤ı à¤®
Ġà¤° à¤µ
Ġà¤ıà¤ķ à¤¤
à¤¬ à¤³
Ġà¤ķ à¤¶
à¤Ĺ à¤¡
Ġà¤¹ à¤¤
à¤ľ à¤®
à¤µ à¤¯
Ġà¤ Ĳ
à¤°à¤ķ à¤²
à¤¤ à¤ķà¤°
à¤¨ à¤®à¤§
à¤ª à¤ļ
à¥ ª
à¤° à¤¦à¤°
à¤² à¤²
Ġà¤ª à¤£
à¤¯ à¤°à¤²
à¤¯ à¤°
à¥ ©
à¤¡ à¤µ
Ġà¤ĵ à¤³
à¤§ à¤ķ
Ġà¤µ à¤ķ
Ġà¥ «
à¤ļ à¤°
Ġà¥ ª
à¤® à¤¦
Ġà¤° à¤ķ
Ġà¤¸à¤¦ à¤¸
Ġà¤ľ à¤µà¤³
Ġà¤¸à¤® à¤ľ
à¤¬à¤Ī à¤¤
à¤¤à¤° à¤°
à¤µ à¤ª
à¤¨ à¤Ĺ
à¤ª à¤¹
à¥ §
Ġà¤ª à¤¶
Ġà¤¸ à¤ļ
à¤² à¤£
Ġà¤¸à¤¹ à¤ķ
à¤ªà¤² à¤¬
Ġà¤Ĩ à¤Ī
Ġà¤Ĩ à¤ķ
Ġà¤ī à¤ªà¤²à¤¬
Ġà¤Ĺ à¤°
à¤¯ à¤¸
Ġà¤ª à¤°à¤¤
Ġà¤¨ à¤¯
à¤Ĩ à¤ªà¤£
à¤® à¤µ
Ġà¤ī à¤Ń
à¥ ¯
à¤¥ à¤µ
à¥ ¬
Ġà¤ī à¤²
à¤ķ à¤ļ
à¤¤ à¤¦
Ġà¤Ĩ à¤µà¤¡
à¥ Ń
Ġà¤ıà¤ķ à¤¦
à¤¹à¤£ à¤¤
à¤ķ à¤¨
Ġà¤¶à¤ķ à¤²
à¤ı à¤¨
Ġà¤¸ à¤Ń
à¥ ®
Ġà¤Ĩ à¤¢
à¤ħ à¤®
Ġà¤¬ à¤¨
Ġà¤µ à¤¡
à¤¯à¤ķ à¤°
Ġà¤ľ à¤°
à¥ī à¤Ĥ
Ġà¤¬ à¤ļ
à¤ĺ à¤°
à¥¦ à¥¦
à¤¢ à¤£
à¤¸ à¤µ
à¤Ĩ à¤§
à¤µ à¤¢
Ġà¤ħ à¤ĸ
à¤¡ à¤®à¤§
à¤¸ à¤°à¤ķ
Ġà¤ Ī
à¤¥ à¤ķ
à¤³ à¤µà¤²
Ġà¤¸à¤® à¤¸
à¤Ĭ à¤¸
Ġà¤ı à¤¸
Ġà¤ĩ à¤¨
à¤ľ à¤£
à¤Ł à¤£
Ġà¤ħ à¤Ĺ
Ġà¤° à¤£
Ġà¤ı à¤¨
Ġà¤ĳ à¤¸
à¤Ł à¤®à¤§
à¤³ à¤ľ
à¤¹ à¤³
Ġà¤Ń à¤°
à¤¸ à¤ª
à¤ ĳ
à¤² à¤°
à¤ľ à¤µ
Ġà¤ī à¤¡
Ġà¤¨ à¤¸à¤¤
à¤ī à¤¤
à¤² à¤®à¤§
à¤Ł à¤µà¤°
à¤¤ à¤µà¤£
Ġà¤« à¤²
Ġà¤« à¤ķ
Ġà¤µ à¤¸
à¤° à¤³
Ġà¤ª à¤¸
Ġà¤§ à¤ķ
Ġà¤§ à¤°
Ġà¤²à¤µà¤ķà¤° à¤ļ
à¤ķ à¤¦
2 0
à¤Ī à¤¨
à¤¸ à¤®à¤§
à¤ļ à¤£
Ġà¤¬ à¤¸à¤²
à¤Ĺ à¤ļ
Ġà¤¬ à¤²
Ġà¤ħ à¤¹à¤µ
Ġà¤¹ à¤¸
à¤ķ à¤Ł
Ġà¤¹ à¤°
à¤ı à¤«
Ġà¤¦ à¤ķ
Ġà¤ĩ à¤ļ
Ġà¤ª à¤Ł
Ġà¤ľ à¤ª
Ġà¤ļ à¤ķ
Ġà¤¸ à¤µ
Ġà¤ª à¤°à¤µ
à¤¡ à¤¨
Ġà¤ĩ à¤®
Ġ 6
à¤ħ à¤Ń
Ġà¤ Ķ
Ġà¥ ¬
à¤Ĺ à¤¨
à¤µ à¤§
Ġà¤¸ à¤¨
à¤Ī à¤ķ
Ġà¤ĵà¤³ à¤ĸ
à¤· à¤¤
Ġà¤ı à¤®
à¥Ģ )
à¤ľà¤ª à¤¨
Ġà¤ĩ à¤¤à¤ķ
à¤ķ à¤®
à¤¬ à¤¸
Ġà¤ľ à¤¯
Ġ1 0
Ġà¤Ł à¤ª
à¤§ à¤²
à¤® à¤¸
Ġà¤° à¤¦
à¤Ĩ à¤®à¤ļ
Ġà¤ķ à¤ł
Ġà¤ħ à¤¬
Ġà¤ª à¤¡
Ġà¤ĩ à¤¥
à¤¤ à¤¡
Ġ 7
à¤² à¤¦
à¤µà¤° à¤ļ
Ġà¤² à¤·
à¤¡ à¤ķà¤°
à¤¨ à¤Ĺà¤°
à¤¡ à¤°
Ġà¤¬ à¤³
à¤ľ à¤ļ
Ġà¤ ¢
à¤¸ à¤Ĺ
Ġà¤Ĺ à¤Ł
à¤ļ à¤µ
à¤ł à¤µ
Ġà¤¬ à¤¸
à¤ı à¤²
Ġà¤Ĩà¤ł à¤µà¤¡
Ġà¤° à¤¹
Ġà¤¶ à¤°à¤¦
à¤£ à¤¸
Ġà¤® à¤ľ
à¤¡à¤ļ à¤£
Ġà¥ Ń
Ġà¤« à¤°
à¤¶ à¤ļ
Ġà¤ª à¤¥à¤ķ
Ġà¤¬ à¤ĺ
à¤° à¤µà¤°
à¤§ à¤°
Ġà¤ĩ à¤¤
Ġà¤ħ à¤¡
Ġà¥§ à¥¦
à¤ħ à¤ª
Ġà¤¨ à¤¸
à¤µ à¤Ł
à¤Ī à¤Ł
Ġà¤² à¤¢à¤¤
à¤µà¤° à¤¹
Ġà¤¤ à¤¤
Ġà¤ª à¤¡à¤¤
à¤± à¤¯
à¥¨ à¥¦
Ġà¥¨à¥¦ à¥§à¥
Ġà¤ħ à¤¡à¤ļà¤£
Ġà¤¯à¤¶ à¤¸
Ġà¤¸à¤² à¤®
à¤¦ à¤ķ
à¤¯ à¤¶
à¤¨ à¤®
à¤¶ à¤Ńà¤°
Ġà¤ Ĭ
à¤Ĺ à¤ª
à¤ľ à¤µà¤³
Ġà¤ł à¤°à¤µ
Ġà¤¦ à¤°à¤®
âĢį à¥ħ
Ġà¤ļ à¤µ
à¤¬ à¤ľ
Ġà¤¶ à¤¬
Ġà¤ī à¤ĺ
à¤¡ à¤¸
Ġà¤² à¤¹
à¤µ à¤Ń
à¤ª à¤®
Ġ 8
à¤¹ à¤ķ
à¤° à¤¥à¤®
à¤¸ à¤³
à¤ķ à¤ª
Ġà¥ ®
à¤ľ à¤ªà¤²
à¤ĸ à¤£
à¤¹ à¤°à¤£
à¤· à¤®à¤¤
à¤ķ à¤³
à¤¡ à¤ª
à¤¶ à¤µ
Ġà¤ĺ à¤¡
Ġà¤Ĩà¤£ à¤£
Ġà¤ıà¤ķ à¤®
à¤¥ à¤¨
à¤¨ à¤¤
Ġà¤Ĩ à¤Ń
Ġà¤Ĩ à¤«
à¤° à¤¯
à¤¨ à¤ª
Ġà¤Ĩ à¤ķà¤¡
à¤ĩ à¤¨
Ġà¤ķ à¤¨
à¤· à¤®
à¤§ à¤£
à¤®à¤² à¤¬à¤ľ
Ġà¤¸ à¤ª
à¤³ à¤µà¤£
à¤Ł à¤ª
Ġà¤ī à¤°
Ġà¤ķà¤² à¤®
Ġà¤ĩ à¤¸
Ġà¤§ à¤¨
Ġà¤ĩ à¤°
i n
à¤ħ à¤²
Ġ1 5
à¤Ł à¤®
à¤°à¤µ à¤ł
Ġà¤¨ à¤®
à¤¨ à¤¯
âĢ Į
à¤¯à¤µ à¤¹
Ġà¤Ĩà¤£ à¤²
à¤Ĩ à¤ľ
à¤µ à¤ľà¤¨
à¤ķ à¤µ
Ġà¤Ĭ à¤°
à¤² à¤¸
à¤° à¤Ĺ
Ġà¤ī à¤ļà¤²
à¤® à¤£
Ġà¥ ¯
Ġà¤Ń à¤µ
à¤Łà¤° à¤µà¤°
à¤µ à¤ľ
Ġà¤µ à¤¨
Ġà¤¬ à¤ľ
Ġà¤¸à¤® à¤°
à¤² à¤Ń
Ġà¤ħ à¤«
Ġà¤ł à¤°
Ġà¤¤ à¤£
à¤¶ à¤®à¤¨
Ġà¤ĩ à¤¶
Ġà¤¶ à¤ª
à¤¡ à¤Ĺ
à¤¸ à¤µà¤°
Ġ1 2
à¤°à¤ķ à¤¡
à¤£ à¤ªà¤£
à¤Ĺ à¤¸
à¤Ĩ à¤Ĺ
à¤¨ à¤¦
Ġà¤« à¤Łà¤ķ
à¤ª à¤¸
à¤² à¤ķà¤°
à¤ª à¤¡à¤²
à¤¹à¤® à¤¦
Ġà¤ī à¤¤à¤°
Ġ 9
à¤Ĩ à¤¯à¤ļ
à¤¨ à¤¤à¤³
à¤Ŀ à¤°
Ġà¤¤ à¤¬
à¤¶ à¤¹à¤°
à¤Ī à¤ļ
Ġà¤Ĩ à¤¦à¤°
Ġà¤Ŀ à¤³
à¤ľ à¤ĸà¤®
à¤Ł à¤¸
Ġà¤Ĩà¤µà¤¡ à¤¤
à¤¶ à¤®
à¤· à¤ªà¤¦
Ġà¤¨ à¤¦
Ġà¤ķ à¤¥
à¤¢ à¤µ
à¤¸ à¤Ĺà¤³
à¤¦ à¤ļ
Ġà¤Ĺ à¤£
Ġà¤ħ à¤Ĺà¤¦
à¤ĸ à¤¤
à¤¬ à¤°à¤ļ
à¤¶à¤¨ à¤²
à¤ł à¤µà¤²
Ġà¤¹ à¤ķ
à¤¡ à¤®
à¤¯à¤ķ à¤¤
Ġà¤¦ à¤¤
à¤¸ à¤³à¤²
à¤¯ à¤¯
à¤³ à¤¨
Ġà¤ª à¤³
à¤Ĭ à¤¤
Ġà¥§à¥ ¨
à¤¯ à¤¸à¤Ń
à¤² à¤®
Ġà¤° à¤¶
à¤Ĺà¤³ à¤µ
Ġà¤ĺ à¤¸
à¤² à¤ª
à¤ľ à¤¤
à¤ī à¤¦
à¤° à¤Ĺà¤¤
Ġà¤® à¤¸
Ġà¤īà¤ª à¤¯
à¤ħ à¤§
Ġà¤ķ à¤Ł
Ġà¥§à¥ ¯
Ġà¤¦ à¤ĸà¤²
à¤ĸ à¤¨
à¤µ à¤µ
Ġà¤¶ à¤¤à¤ķ
Ġà¤īà¤ª à¤ķ
Ġà¤īà¤ª à¤®
à¤¹à¤£ à¤£
à¤¦ à¤®
Ġà¤ĩ à¤²
à¤ı à¤ļ
Ġà¤ĺ à¤¡à¤¤
Ġà¤ķ à¤¡
à¤· à¤¨
à¤ļ à¤¬à¤°
à¤¤ à¤ªà¤£
à¤ħ à¤ľ
à¤¸ à¤¸
à¤µà¤ļ à¤·à¤ķ
à¤ł à¤µà¤£
à¤³ à¤ļ
à¥Ģ '
à¤¦ à¤£
Ġà¥§à¥ «
à¤Ĩà¤¯ à¤¨
à¤¦ à¤¹
à¤· à¤§
à¤ªà¤¦ à¤ķ
à¤§ à¤ļ
à¤Łà¤° à¤¨
à¤· à¤ª
à¤¸ à¤¬
Ġà¤ı à¤µà¤¢
Ġà¤ªà¤° à¤°
Ġà¤ī à¤¶
Ġà¤¨ à¤Ĺ
à¤Ľ à¤¤
Ġ1 1
à¤¾ )
Ġà¤ ·
Ġ1 00
à¤ľà¤ª à¤®à¤§
Ġà¤ĳ à¤ķ
à¤¤ à¤¥
à¤¯ à¤µà¤°
Ġà¤ĸ à¤³
Ġà¤ į
à¤¯ à¤¡
à¤° à¤¥
Ġà¤ĸ à¤Łà¤²
o n
Ġà¤ª à¤Łà¤ķ
à¤¥ à¤¸
à¤°à¤µ à¤£
Ġà¤¬ à¤¨à¤²
Ġà¤« à¤°à¤ķ
à¤Ĺ à¤¦à¤°
a n
Ġà¤Ĩ à¤¸
Ġà¤ķ à¤³
Ġà¤ĺ à¤Łà¤ķ
à¤ħà¤ª à¤ĺ
Ġà¤Ń à¤°à¤ª
Ġ201 9
à¤ķ à¤®à¤§
à¤ħ à¤ĸ
Ġà¤¤ à¤°à¤¤
Ġà¤µ à¤¯
Ġà¤ķ à¤¬
Ġà¤Ĩà¤¯ à¤ª
à¤ĸ à¤µ
Ġ5 0
à¤ĳ à¤¸
Ġà¤ľà¤µà¤³ à¤ª
à¤°à¤µ à¤ķ
Ġà¤ľà¤Ĺ à¤Ńà¤°
à¤¬à¤Ī à¤ļ
Ġà¤¶ à¤¸
Ġà¤Ĩà¤¯ à¤¸
Ġà¤² à¤¸
Ġà¤§ à¤¡à¤ķ
Ġà¤ħ à¤¹à¤®à¤¦
Ġà¤¹ à¤ľà¤°
à¤§ à¤³
Ġà¤¸à¤®à¤ľ à¤¤
Ġà¤ĳ à¤²
Ġà¤ĸà¤³ à¤¬à¤³
à¤¦ à¤³
Ġà¤ª à¤ķà¤¡
a t
à¤ıà¤¸ à¤Ł
Ġà¤Ľ à¤¤
Ġ1 4
Ġà¤ħ à¤°à¤µ
à¤Ĩà¤¯ à¤¸
à¤Ł à¤«
à¤¥ à¤²
à¤£ à¤ķ
à¤¬ à¤µ
Ġ2 5
à¤° à¤¬
Ġ1 9
à¥į âĢĮ
Ġà¤Ķ à¤·à¤§
à¤¸à¤³ à¤§
à¤¢ à¤ļ
à¤² à¤¹
Ġà¤· à¤Łà¤ķ
Ġà¤¶à¤ª à¤¥
à¤¾ '
à¤¤ à¤®à¤§
Ġà¤ļà¤ķ à¤®à¤ķ
Ġà¤ª à¤¡à¤£
Ġà¤ħ à¤µà¤¸
Ġà¤ıà¤ķ à¤¹
Ġà¤ı à¤«
à¤ł à¤¡
à¤¯ à¤°à¤¸
à¤Ł à¤ªà¤Ł
Ġà¤¹ à¤Ł
à¤ļ à¤ķ
à¤« à¤¤
a r
Ġà¤ĳ à¤¨à¤²
à¤® à¤®à¤§
à¤« à¤°
à¤Ł à¤¬
Ġà¤¤ à¤¶
Ġà¤ķ à¤³à¤¤
Ġà¤ľà¤µà¤³ à¤ļ
Ġà¤ªà¤¸ à¤°à¤²
Ġà¤ħà¤µ à¤ĺ
à¤ħ à¤¤
Ġà¤¬à¤¦à¤² à¤²
Ġ c
à¤¨ à¤¶
Ġà¤Ĩà¤¢ à¤³à¤²
Ġà¤ħà¤ª à¤¯à¤¶
Ġà¤ĵà¤³ à¤ĸà¤²
Ġà¤ªà¤° à¤¦
à¤° à¤¡
à¤¦ à¤µà¤²
1 9
à¤ĸ à¤µà¤²
Ġà¤® à¤Ĺ
à¤ļ à¤¤
à¤¤à¤° à¤ļ
à¤ Ĳ
à¤ª à¤µ
Ġà¤ł à¤°à¤¤
à¤ĩ à¤¤à¤°
Ġà¤ªà¤¦ à¤ķ
Ġà¤Ĩ à¤ª
à¤Łà¤² à¤®à¤§
à¤¶ à¤¨à¤ļ
Ġà¤Ĳ à¤ķ
Ġà¤ı à¤ĸ
à¤¢ à¤µà¤£
à¤ªà¤° à¤²
Ġà¤ħ à¤¯
à¤¦ à¤¯
Ġà¤ĺ à¤Ł
Ġà¤ı à¤²
à¤¨ à¤Ī
à¤µ à¤Łà¤ļ
à¤ĩ à¤²
à¤® à¤ª
à¤° à¤·
à¤ª à¤¶
à¤® à¤¯
Ġà¤Ĺ à¤¡à¤ķà¤°
Ġ1 8
Ġà¤°à¤£ à¤µ
à¤£ à¤ļ
à¤³ à¤ķ
Ġà¤®à¤¨ à¤¸
à¤¬ à¤ļ
Ġ1 3
à¤¨ à¤µà¤°
à¤¸à¤² à¤®
à¤® à¤µà¤°
Ġà¤īà¤ĺ à¤¡
à¤¬ à¤¨
Ġ s
Ġà¤Ĺ à¤¤
à¤¦ à¤Ĺ
Ġà¤§ à¤®à¤ķ
Ġà¤¶ à¤¨
Ġà¤¹ à¤³
à¤³ à¤Ĺ
Ġà¤® à¤®à¤¤
à¤¬ à¤¹
Ġà¤ħ à¤ľà¤¯
à¤Ĭ à¤²
e r
Ġà¤ªà¤¦ à¤µ
à¤ĺ à¤¨
Ġà¤¸à¤¤ à¤¤
à¤¯ à¤£
Ġà¤Ń à¤Ł
Ġà¤ħ à¤ļ
Ġà¤ħ à¤Ł
à¤°à¤® à¤£
Ġà¤ª à¤²
à¥Ī à¤Ĥ
Ġà¤¤ à¤³
à¥ħ à¤Ĥ
Ġà¥¨ à¥«
Ġà¤Ĺ à¤®
Ġ3 0
à¤ľ à¤¦
Ġà¤ħ à¤µà¤²
à¤° à¤ªà¤£
à¤£ à¤µ
Ġà¤¨ à¤Ĺà¤°
à¤¨ à¤¡
à¤¹ à¤¸
à¤ł à¥Ł
Ġà¤ı à¤ħà¤°
Ġà¥§à¥ ª
à¤· à¤¯à¤ķ
Ġà¤§ à¤°à¤£
Ġà¥ ¤
Ġ1 6
Ġ3 7
à¤¶ à¤°
Ġà¤§ à¤µà¤¨
Ġà¤Ĺ à¤¡
Ġà¤¸ à¤²à¤Ĺ
à¤² à¤µà¤ķà¤°
à¤¬ à¤°à¤²
Ġà¤« à¤³
à¤¯ à¤Łà¤¨
à¤£ à¤µà¤¤
à¤ĩ à¤¸
à¤°à¤ķ à¤°
à¤¤à¤° à¤£
Ġà¤®à¤ľ à¤¬
Ġà¤¸ à¤ľ
Ġà¤ ĭ
Ġà¤¬ à¤¨à¤µ
Ġ4 0
à¤ļ à¤¸
Ġà¤Ĩ à¤°à¤ķ
à¤µà¤¤ à¤ļ
a l
à¤¥ à¤Ĺ
Ġà¥§à¥ ©
Ġà¥« à¥¦
Ġà¤ı à¤ª
Ġà¥© à¥¦
Ġ |
à¤Ĺ à¤®
20 1
à¤ľ à¤§
à¤Ī à¤¤
à¤Ĺ à¤ľ
à¤ķ à¤§
à¤Ł à¤°à¤ļ
à¤ľà¤¨ à¤ķ
Ġà¤¸ à¤£
à¤¬ à¤°à¤®
à¤ļ à¤ª
Ġà¤¦ à¤°à¤µ
Ġ201 8
Ġ p
Ġà¥§à¥ §
i c
Ġà¤¨à¤Ĺ à¤°à¤¸
Ġ /
Ġà¤¸à¤¹ à¤¨
Ġà¤ªà¤°à¤¤ à¤²
Ġà¤° à¤®
à¤° à¤Ł
Ġà¤®à¤¨ à¤®
Ġà¥§à¥ ¬
Ġà¤ĳ à¤Ĺà¤¸
Ġà¥§à¥ ®
Ġà¤¦ à¤¬
Ġà¤ıà¤ķ à¤ļ
Ġà¤Ĩà¤¢ à¤³
à¥§à¥ ¯
Ġà¤¤ à¤®
à¤¢ à¤¦
à¤²à¤µà¤ķà¤° à¤ļ
à¤ĩ à¤®
Ġ2 1
à¤³ à¤¸
Ġà¤¤à¤ª à¤¶
à¤¸ à¤¦à¤°
Ġà¤µ à¤ľà¤¨
à¤¶ à¤®à¤§
à¤° à¤«
Ġà¤Ĳ à¤¤
Ġà¤ĵ à¤µ
Ġà¤« à¤¸
à¤ĩ à¤Ł
à¤ª à¤°à¤¤
à¤¬ à¤¡
Ġà¤® à¤¦
Ġ1 7
Ġà¤ķ à¤¡à¤ķ
à¤® à¤¶
Ġà¤ħà¤« à¤Ĺ
à¤ħ à¤¦
Ġà¤Ĺ à¤³
Ġà¤¤ à¤¥
Ġà¤ĸ à¤¡
Ġ20 0
Ġà¤ı à¤ļ
à¤Ĩà¤¯ à¤ª
à¤Ĺ à¤®à¤§
Ġà¤łà¤°à¤µ à¤²
Ġà¤§ à¤¡
à¤Ī à¤¡
Ġà¤ħà¤ª à¤µ
à¤ļ à¤ļ
à¥ĩ '
à¤¯ à¤¬
à¤Ł à¤µ
à¤£ à¤¨
à¤ĸ à¤ķ
Ġà¤¸à¤® à¤ľà¤²
Ġà¤ķ à¤µ
Ġà¤Ī à¤¶
Ġà¤¶ à¤µà¤µ
Ġà¤¦à¤° à¤°
à¤ľ à¤®à¤§
Ġà¤Ń à¤°à¤¤
à¤ľà¤ª à¤ķà¤¡
Ġà¤īà¤¤à¤° à¤²
o r
Ġ m
Ġà¤ĵ à¤²
Ġà¤ĺà¤¸ à¤°à¤£
à¤¤ à¤¬
à¤ħ à¤Ĺ
Ġà¥§ à¥¦à¥¦
Ġà¤¬à¤¨ à¤µà¤£
Ġà¤°à¤£ à¤¬
à¤ª à¤µà¤¯
à¤ª à¤¡
e s
Ġà¤ħà¤¡ à¤ķà¤²
à¤Ĩà¤¯ à¤Ł
à¤£ à¤®
à¤ĩ à¤¤à¤ķ
Ġà¤ł à¤°à¤£
à¤Ł à¥Ł
à¤¢ à¤µà¤²
Ġà¤® à¤¶
à¤¶ à¤¤à¤ķ
Ġà¤Ĩà¤ł à¤µà¤£
Ġà¤īà¤ļà¤² à¤²
Ġà¤ªà¤° à¤¸
Ġà¥¨ à¥ª
à¤ĩ à¤¥
à¤¯ à¤°à¤¤
Ġà¤ķ à¤¸à¤²
à¤·à¤£ à¤®
à¤¶à¤¨ à¤®à¤§
Ġà¤µ à¤Ĺà¤³
à¥ĩ )
à¤°à¤® à¤µ
à¤®à¤§ à¤²
Ġà¤ī à¤§
Ġà¤Ĩà¤µà¤¡ à¤²
Ġà¥§à¥ Ń
Ġà¤ľà¤¨ à¤°à¤²
Ġà¤µà¤¨ à¤¡
Ġà¤ł à¤ª
à¤² à¤®à¤¤
à¤¹à¤¨ à¤¤
Ġà¤®à¤¹ à¤¸
à¤ıà¤« à¤ļ
à¤¸ à¤ķà¤¡
Ġà¤¬ à¤±
Ġ a
à¤ª à¤°à¤£
à¤¡ à¥Ł
à¤¯ à¤Ł
à¤Ĩ à¤°à¤ª
à¤£ à¤ªà¤¦à¤ķ
Ġà¤¦ à¤®à¤¦
Ġà¤ħ à¤£
Ġà¤«à¤¸ à¤µà¤£
Ġ201 7
Ġà¤¸à¤¹ à¤ľ
Ġà¤¬à¤¦à¤² à¤¤
à¤Ĺà¤¦ à¤ªà¤¤
Ġà¤§ à¤°à¤²
à¤°à¤µ à¤²
à¤Ĩ à¤°à¤¸
Ġà¤ħà¤® à¤°
à¤ĸ à¤¡
à¤¶ à¤¹
à¤° à¤°
Ġà¤Ń à¤°à¤²
Ġà¤¤ à¤ľ
Ġà¥¨à¥¦ à¥¦
à¤Ī à¤¸
Ġà¤¤ à¤¡
Ġà¤²à¤¢ à¤£
Ġà¤Ĩà¤Ī à¤µà¤¡
Ġà¤Ŀà¤³ à¤ķà¤£
Ġà¤ıà¤¨ à¤¡
Ġà¤µ à¤¤
Ġà¤ľ à¤²
Ġà¤īà¤ª à¤¨
à¤¦à¤¹ à¤¶à¤¤à¤µ
à¤µ à¤¹
à¤ª à¤³
à¤¯ à¤¬à¤°
à¤Ĳ à¤µà¤ľ
Ġ37 0
Ġà¤¦ à¤Ĺà¤¡
à¤¤à¤° à¤¹
à¤² à¤¬
à¤¤ à¤¶
e n
à¤Ĩ à¤¶
à¤² à¤¡
Ġà¥ª à¥¦
i p
à¤³ à¤ķà¤°
Ġà¤ľ à¤¸
Ġà¤¶à¤ķ à¤£
Ġà¤¨ à¤Ĭ
à¤Ĩà¤£ à¤ĸ
à¤ļ à¤µà¤£
Ġà¤Ĩ à¤Ŀ
Ġà¤ħà¤¡ à¤¥à¤³
à¤ħ à¤ķ
à¤ķ à¤¹
à¤ı à¤µà¤¢
à¤ķ à¤µà¤°
Ġà¤ĺ à¤¡à¤µ
Ġà¤ī à¤¨
à¤® à¤°à¤£
Ġà¤Ń à¤¯
à¤°à¤£ à¤µ
Ġ b
à¤ľ à¤¬
à¤¯à¤ķ à¤µ
Ġà¤Ŀ à¤Łà¤ķ
Ġà¤Ĩà¤ľ à¤ļ
à¤ķ à¤ľ
à¤Ĩà¤¯ à¤Ĩà¤°
Ġà¤¬à¤¦à¤² à¤£
Ġà¤īà¤² à¤Ł
Ġà¤ķ à¤ļ
à¤¥ à¤°
à¤¡ à¤µà¤²
Ġà¤¹ à¤®
Ġà¤ĵ à¤¬
à¤°à¤¦ à¤¸
Ġà¤Ĩ à¤Ł
Ġ r
à¥¨à¥¦ à¥§à¥
à¤¬ à¤£
Ġà¤¬ à¤¦
à¤¯ à¤Łà¤ķ
à¤ĸ à¤³
à¤¨ à¤ķà¤¡
Ġà¤¦ à¤¶
Ġà¤²à¤¢ à¤µà¤£
l e
Ġà¤¥ à¤°
à¤² à¤µà¤°
Ġà¤ķ à¤¦
Ġ v
à¤³ à¤µà¤¤
à¤« à¤ķ
Ġà¤¨ à¤ľà¤°
à¤³ à¤®
à¤µà¤¸ à¤Ńà¤°
à¤°à¤³ à¤®à¤§
Ġà¤¸à¤° à¤ļ
Ġà¤Ī à¤¡
Ġà¤Ĩ à¤ķà¤°
Ġà¤Ĺ à¤µ
Ġà¤¬ à¤¸à¤¤
Ġ )
à¤ı à¤²à¤ļ
Ġà¤Ĩ à¤ªà¤¤
Ġà¤Ń à¤°à¤£
à¤°à¤¥ à¤®à¤ļ
à¤¹ à¤ļà¤²
Ġà¤ħ à¤¥à¤µ
Ġ t
à¤² à¤µà¤£
Ġà¤¤ à¤²
Ġà¤ľ à¤Ĺà¤¤
5 0
à¤¯ à¤Ńà¤°
Ġà¤® à¤ľà¤²
à¤² à¤µà¤²
à¤ªà¤° à¤¸
à¤ª à¤®à¤§
Ġà¥¨ à¥¨
à¤ľà¤¨ à¤¤
à¤ķ à¤ľà¤£
à¤¨ à¤ªà¤¦
à¤· à¤°
à¤¯ à¤«
à¤¦ à¤®à¤§
Ġà¤¸à¤® à¤¨
à¤¯ à¤ªà¤¦à¤ķ
s t
à¤¸ à¤¯
à¤§ à¤®
Ġà¤ľà¤¬ à¤°à¤¦à¤¸
Ġà¤¬à¤ĺ à¤¤
à¤ī à¤¨
Ġà¤¬ à¤ķ
à¤¯ à¤ªà¤¦
Ġ5 00
Ġà¤ħ à¤ªà¤°
Ġà¤ª à¤Łà¤²
à¤¸à¤± à¤¯
Ġà¥¨ à¥§
Ġà¤Ĺ à¤°à¤®
a m
à¤Ĺ à¤Ł
Ġà¤ĸ à¤¨
Ġà¤ıà¤ķ à¤¨
Ġà¤ĳ à¤ªà¤°
i on
Ġà¤¸à¤¹ à¤®à¤¤
Ġà¤ľ à¤²à¤¦
Ġ2 2
Ġ n
à¤¯à¤® à¤ļ
à¤¹ à¤¬
Ġà¤¸ à¤ĸ
à¤Ń à¤ķ
à¤ľà¤ª à¤¶
Ġà¤ī à¤ľ
à¤Ń à¤µà¤¤
à¤¶ à¤¦
à¤¹ à¤°à¤²
c t
à¤¤à¤ª à¤¤
d i
à¤¯à¤ķ à¤¡
Ġà¤ķ à¤ķ
à¥ģ à¤ĥ
Ġà¤ķ à¤³à¤²
à¤ª à¤µà¤£
Ġà¤ħ à¤µà¤ķ
à¤¤à¤ķà¤± à¤¯
à¤¶ à¤µà¤²
à¤¯à¤ķ à¤²
Ġà¤¦à¤¶ à¤²à¤ķ
Ġà¤Ń à¤ķ
Ġà¥¨ à¥©
à¤¬ à¤µà¤£
à¤Ĩ à¤Ī
Ġà¤¶ à¤¶
Ġà¤ķ à¤¦à¤®
à¤µ à¤Ĺà¤£
Ġà¤¶ à¤®
à¤¤à¤ķ à¤¯
Ġà¤Ĺ à¤®à¤µ
Ġà¤ħ à¤¡à¤µ
Ġà¤¨ à¤ľ
Ġà¤ī à¤ªà¤°
2 2
à¤¯ à¤¹
Ġ [
à¤« à¤°à¤¨
à¤ª à¤ªà¤¤
Ġà¤Ĩ à¤ļ
Ġà¤ıà¤ķ à¤Ł
à¤¸ à¤Ĺà¤¡
à¤° à¤ªà¤°
Ġà¤¬à¤¨ à¤µà¤²
Ġà¤ªà¤¡ à¤¦
à¤¯ à¤Ĺ
Ġà¤ĭ à¤·
Ġà¤Ķ à¤°
à¤ķ à¤ł
à¤Ĩ à¤¯à¤ķà¤¡
Ġà¤¸ à¤¦à¤°
à¤¡ à¤¬
Ġ2 4
à¤³ à¤ª
à¤³ à¤ĸ
à¤Ĩà¤¯ à¤ı
Ġà¤¶ à¤¤
Ġà¤ľ à¤¹
Ġà¤ıà¤« à¤Ĩà¤¯à¤Ĩà¤°
à¤°à¤® à¤ķ
Ġà¤īà¤ª à¤¨à¤Ĺà¤°
à¤¬ à¤°à¤¦
à¤¤ à¤µà¤²
Ġ20 20
Ġà¤ĺà¤¸ à¤°à¤²
à¤ī à¤°
à¤ĸ à¤µà¤£
Ġà¤¬ à¤¸à¤£
Ġà¤ļ à¤®à¤ļ
à¤¶ à¤ª
à¤Ī à¤®
à¤¤ à¤ľ
Ġà¤ļ à¤¢
à¤ĩ à¤¡
Ġà¤Ł à¤°
Ġà¤²à¤¢ à¤µ
i t
Ġà¤° à¤¤
Ġ f
Ġà¤ħ à¤¹
Ġà¤Ń à¤µà¤¨
i d
Ġà¤¹ à¤¦
à¤Ń à¤²
Ġ3 5
à¤Ł à¤ķà¤°
à¤Ĩ à¤¨
Ġà¤° à¤ļà¤¨
à¤Ĩ à¤¹
Ġà¤ħà¤µà¤ĺ à¤¡
Ġà¤¶à¤ª à¤¥à¤µ
Ġà¤® à¤°à¤£
Ġà¤ħ à¤Łà¤²
Ġà¤² à¤µ
r o
à¤Łà¤° à¤®à¤§
3 0
à¤ĸ à¤¦
à¤¦ à¤µà¤£
Ġà¤¢ à¤ķà¤²
à¤£ à¤ªà¤¤
Ġà¥¨ à¥¬
a s
à¤® à¤ľ
à¤µà¤¸ à¤¨
Ġà¤Ŀ à¤ª
à¤ĵ à¤²
à¤¬ à¤¦à¤²
Ġà¤ī à¤·
Ġà¤¬ à¤¡
à¤¡ à¤µà¤°
Ġ2 8
Ġà¤¡ à¤¬
à¤®à¤¤ à¤¦
Ġà¤ľ à¤²à¤¸
Ġà¤¦ à¤¶à¤ķ
à¤°à¤ª à¤¦
à¤¨ à¤ªà¤°
ip l
à¤ľ à¤¬à¤³
à¤ı à¤²à¤®à¤§
à¤¬ à¤µà¤²
Ġà¤Ĺ à¤ª
à¥ ¤
Ġà¥ ²
Ġà¤¹à¤² à¤µ
Ġ6 0
à¤Ĩà¤¯ à¤¡
à¤°à¤ªà¤Ł à¤¸
Ġ g
à¤¸ à¤ħ
à¤°à¤ļ à¤¨
à¤µ à¤¹à¤¨
Ġà¤ĩ à¤ľ
à¤¯ à¤¥
à¤² à¤µà¤¤
à¤ī à¤ªà¤ļ
à¤² à¤Ł
à¤¯ à¤Ń
à¤ī à¤ļ
Ġà¤ľ à¤¡
Ġ7 0
Ġà¤ħà¤ª à¤¹à¤°à¤£
à¤¬ à¤§
à¤« à¤³
Ġà¤ķ à¤¤à¤°
Ġà¤¸à¤° à¤¦
Ġ201 6
à¤¶ à¤¸
à¤Ĩ à¤²
Ġà¥¨ à¥®
Ġà¤ªà¤ķà¤¡ à¤²
à¤¦à¤² à¤ļ
Ġà¤Ĩà¤¦ à¤®
à¤ıà¤¨ à¤¯
Ġà¤ľ à¤³
00 0
à¤ľà¤Ĺ à¤Ńà¤°
à¤ł à¤£
Ġ2 6
à¤Ŀ à¤¨
à¤ıà¤® à¤¸
à¤Ĺ à¤¶
e t
à¤ħ à¤Ĺà¤¦
Ġà¤ħà¤¶ à¤ķ
à¤Ŀ à¤µ
Ġà¤ı à¤ħ
à¤ķ à¤µà¤£
à¤Ĩ à¤ĺ
Ġà¥¨ à¥Ń
Ġà¥© à¥«
à¤ī à¤ª
à¤¹ à¤ľ
Ġà¤ħà¤« à¤µ
à¤¸à¤® à¤µ
Ġà¤ħà¤ª à¤®
Ġà¤¨à¤µ à¤¨
Ġ2 3
à¤¹ à¤ļ
à¤§ à¤¶à¤¤à¤ķ
à¤³ à¤µà¤³
à¤Ĩ à¤¦
à¤Ĩ à¤ľà¤ļ
à¤ĩ à¤ķ
Ġà¥¨ à¥¯
Ġà¤Ń à¤¨
Ġà¤ľà¤¨ à¤ľ
Ġà¤¦à¤Ĺà¤¡ à¤«
à¤µ à¤¦
à¤Ī à¤ªà¤°
à¥Į à¤Ĥ
à¤°à¤ķ à¤¤
Ġà¤¸à¤° à¤¨
à¤¯ à¤ľ
Ġà¤® à¤£
à¤ľà¤ª à¤µà¤°
Ġ in
à¤¸ à¤ĸ
Ġà¤ļ à¤¹
Ġà¤¬à¤ļ à¤¤
Ġà¤° à¤ľà¤¨
à¤Ł à¤¹
Ġ w
Ġà¤Ĩà¤ľ à¤¹
à¤¤ à¤£
Ġà¤ħà¤° à¤¬
Ġ8 0
à¤ħ à¤¯
à¥§ à¥¦
Ġà¤Ķ à¤¦
Ġà¤ĩ à¤ķ
Ġ d
Ġà¤īà¤ĺ à¤¡à¤ķ
9 9
à¤µ à¤Ĺ
à¤ļ à¤¹
Ġà¤¢ à¤µà¤³
Ġà¤ķà¤® à¤²
à¤Ĭ à¤ķ
à¤² à¤°à¤ļ
à¤ĺ à¤¡à¤²
à¤¯à¤°à¤¸ à¤ļ
Ġà¤¸ à¤¤à¤°
Ġ[ ]
Ġà¤¹ à¤¸à¤¨
à¤ķ à¤°à¤¤
Ġà¤®à¤¤ à¤Ń
à¤£ à¤²
à¤ĩ à¤°
à¤¤à¤° à¤ª
Ġà¥§à¥ §à¥
Ġà¤Ĳ à¤ķà¤²
à¤² à¤ªà¤Ł
Ġà¤ĵ à¤¡
Ġà¤ķà¤ª à¤¡
à¤µ à¤ľà¤£
Ġà¥© à¥Ń
à¤ª à¤µà¤²
Ġà¤µ à¤³à¤£
à¤¶ à¤°à¤¦
Ġà¤ĺ à¤°à¤ļ
à¤¬à¤¤ à¤¹
à¤® à¤¬
Ġà¤Ĩ à¤µà¤°
à¤Ĺ à¤µà¤¤
Ġà¤ļ à¤·à¤ķ
Ġà¤¹à¤² à¤µà¤£
à¤¶ à¤¤
à¤²à¤ķ à¤®
à¤ Ķ
Ġà¤ªà¤ķà¤¡ à¤£
à¤ħ à¤«
à¤Ī à¤ĵ
à¤¾ à¥ħ
Ġà¤ĸ à¤¬à¤°à¤¦
à¤Ĩ à¤¸
à¤¨ à¤¬
Ġà¤¤ à¤¨
à¤Łà¤ķ à¤ļ
Ġà¤Ĩà¤Ī à¤ļ
à¤¾ à¥ĩ
Ġ3 2
Ġà¤¦ à¤¯
à¤ĺ à¤ķ
Ġà¤ľ à¤Ĺà¤£
Ġà¤¸à¤° à¤³
Ġà¤² à¤ĺ
Ġà¤ķ à¤³à¤µ
Ġà¤ª à¤¨
Ġà¤µ à¤ļà¤¨
Ġà¤¬à¤³ à¤ķà¤Ł
Ġ3 1
i r
Ġà¤ĩà¤¥ à¤²
Ġ2 7
à¤ķ à¤·
à¤¬ à¤®à¤§
Ġà¤ľ à¤®à¤²
à¤Ī à¤µ
Ġà¤° à¤ļà¤²
Ġà¤ļ à¤³à¤µà¤³
à¤°à¤® à¤¨
à¤¬à¤Ī à¤²
Ġà¤°à¤£ à¤ľ
2 1
à¤¦ à¤¯à¤µ
à¤¨ à¤ªà¤£
Ġà¤Ĩà¤¢ à¤³à¤¤
Ġà¤¸ à¤Ī
Ġà¤¨ à¤¡
Ġà¤Ĳ à¤¶
à¤¦à¤¨ à¤¶
Ġà¤łà¤°à¤µ à¤£
à¤¯ à¤¬à¤³
Ġà¤¸ à¤«
à¤Ń à¤¯
à¤¢ à¤¤à¤ļ
Ġà¥¬ à¥¦
Ġà¤ª à¤Ĺ
à¤µ à¤ĺ
à¤Ĺ à¤¹
Ġà¤¸à¤° à¤¸
à¤ķ à¤¯
à¤² à¤ľ
à¤¶ à¤¬
à¤· à¤µà¤°
Ġà¤Ľ à¤³
Ġà¤ĵ à¤ªà¤¨
Ġà¤° à¤ľ
Ġà¤¹à¤° à¤¯
à¤¡ à¤µà¤£
Ġà¤īà¤ª à¤ķà¤°à¤£
à¤ł à¤¯
à¤ķ à¤±
à¤Ĺ à¤®à¤¨
à¤¯à¤² à¤Ł
à¤µ à¤¤à¤²
à¤¬ à¤Ł
Ġà¤¸ à¤µà¤¯
Ġà¤Ĩà¤ł à¤µà¤¤
à¤ĵ à¤ļ
Ġà¤¹à¤Ł à¤µà¤£
Ġà¤Ŀà¤³ à¤ķ
Ġà¤ĳ à¤°
Ġ 0
i s
Ġà¤¨ à¤¶
Ġà¤Ĺ à¤¦
à¤ĳ à¤¨à¤²
Ġà¤Ĺ à¤²
à¤¢ à¤°
à¤® à¤ł
Ġà¤ħ à¤¡à¤ķ
à¤¡ à¤«
à¤ĸ à¤µà¤¤
à¤µà¤° à¤ķà¤°
Ġà¤īà¤¦ à¤¯
Ġà¤Ĩà¤łà¤µà¤¡ à¥Ł
Ġà¤Ĩ à¤³
Ġ3 00
Ġà¤¨ à¤·
Ġà¤ķ à¤ļà¤°
à¤¤ à¤Ĺà¤¤
à¤ıà¤« à¤¸
Ġà¤²à¤¢ à¤µà¤¤
Ġà¤ĳà¤« à¤°
à¤¡ à¤ĸ
à¤® à¤Ł
Ġà¥¨à¥¦à¥§à¥ ¯
Ġà¤īà¤ª à¤Ĺ
à¤ļ à¤®à¤§
à¤¨à¤Ĺ à¤°à¤ª
Ġ h
Ġà¤Ń à¤Ĺà¤µ
Ġà¤ī à¤¸
Ġà¤ĸ à¤¡à¤¸
à¤§ à¤ª
à¤Ł à¤¦
Ġà¤īà¤ļà¤² à¤£
Ġà¤ī à¤ľà¤µ
à¤¯à¤® à¤µà¤°
Ġà¤¦ à¤µ
à¤ľà¤µ à¤Ł
Ġà¤ħà¤ª à¤ķ
Ġà¤Ĩà¤£ à¤¤
Ġà¤īà¤ª à¤µ
à¤£ à¤Ĺ
à¤ľà¤ª à¤¸
à¤¹ à¤¨à¤ļ
Ġà¤ı à¤Ł
à¤Ł à¤ªà¤£
Ġ15 0
à¤¯à¤® à¤¸
Ġà¤ľ à¤¸à¤ª
à¤µà¤² à¤¤
à¤®à¤¤ à¤°à¤¤
à¤ľ à¤¹
à¤ª à¤¬
Ġà¤²à¤¢ à¤µà¤²
c o
u s
à¤¯à¤¨ à¤²à¤®à¤§
à¤¡ à¤¨à¤®à¤§
Ġà¤ķ à¤®à¤¤à¤°à¤¤
à¤°à¤¤ à¤ª
à¤ĵ à¤¨
Ġà¤ļ à¤²à¤¨
à¤ħ à¤¹à¤®à¤¦
à¤ı à¤¶à¤¨
Ġà¤Ĩà¤¯ à¤¡
à¤° à¤¹à¤£
à¥© à¥¦
à¤£ à¤¹
Ġà¤°à¤ķ à¤®
à¤ľ à¤µà¤²
Ġ7 5
à¤ ¼
Ġà¥« à¥¦à¥¦
Ġà¤¨ à¤µà¤°
Ġà¤Ĩà¤¯ à¤Ł
Ġà¤¬à¤¨ à¤¤
r a
Ġà¥ª à¥«
Ġà¤¬à¤¨ à¤£
à¤Ĺ à¤µà¤£
Ġà¤Ĩà¤ł à¤µà¤²
Ġà¥© à¥¨
Ġv s
à¤¹ à¤°à¤ļ
à¤³ à¤®à¤§
Ġà¤§ à¤®
Ġà¤Ľ à¤Ĺà¤¨
à¤¯ à¤ĺà¤Łà¤¨
u n
à¤ļ à¤µà¤²
Ġà¤ī à¤°à¤²
à¤·à¤ķ à¤ªà¤¦
à¤ķ à¤¬
à¤ľ à¤µà¤°
Ġà¤¦ à¤£
à¤Łà¤¨ à¤ļ
à¤¯ à¤Ŀ
à¤ı à¤ĸ
Ġà¤ĵ à¤®
à¤² à¤ĸ
1 6
Ġà¤¹ à¤¨
Ġà¤ķ à¤·
Ġà¤µà¤Ĺà¤³ à¤¤
à¤Ĩ à¤¯à¤²
à¤¬à¤Ī à¤®à¤§
à¤¯à¤µ à¤§
1 8
à¤® à¤Ń
à¤ª à¤µà¤°
Ġà¤ļ à¤¤
Ġà¤² à¤ĸà¤¨
à¤¦à¤° à¤²
Ġà¤ľ à¤¯à¤ª
Ġà¤īà¤ª à¤ľ
Ġà¤Ĩà¤Ī à¤¨
Ġà¤¹à¤Ł à¤µ
1 0
Ġà¤² à¤¡
Ġà¤ĳ à¤Ł
Ġà¥ ¥
à¤¯à¤² à¤²
in g
à¤ı à¤Ł
à¤ĸ à¤ļ
Ġà¥© à¥§
à¤°à¤³ à¤ļ
b i
à¤ı à¤¸à¤ļ
Ġ Ġ
Ġà¤ħ à¤·
à¤ĸ à¤°à¤ļ
Ġà¤Ł à¤¨
à¤¯à¤¨ à¤°
à¤µà¤¡ à¤²
Ġà¤ıà¤ļ à¤¡
Ġà¤ª à¤ł
Ġà¤° à¤¨
Ġà¥Ń à¥¦
Ġà¤ª à¤°à¤®
o l
u p
à¤ī à¤®
à¤¹à¤® à¤¦à¤¨
Ġà¤ıà¤ķ à¤®à¤¤
Ġà¤¬ à¤¸à¤ª
à¤ı à¤ı
Ġà¤Ĩà¤ł à¤µ
Ġà¤ĵà¤³à¤ĸ à¤¤
Ġà¤¸ à¤µà¤²à¤¤
Ġà¤¹ à¤²à¤ķ
Ġà¤Ĩà¤ľ à¤ªà¤°
Ġà¤¢ à¤Ĺ
à¤°à¤¤ à¤ļ
à¤®à¤¨ à¤¸
à¤¨ à¤ķà¤°
Ġà¤Ń à¤Ĺà¤¤
à¤ķà¤¡ à¤ļ
à¤ħà¤« à¤Ĺ
à¤¨ à¤Ń
à¤¡ à¤¯
Ġ k
Ġà¤ĵ à¤¸
à¤Ĺ à¤µà¤²
à¤ľ à¤¦à¤°
Ġà¤ķ à¤£
' '
à¤¹ à¤±
Ġà¥¨à¥¦à¥§à¥ ®
Ġà¤ī à¤ķ
à¤°à¤ķ à¤ļ
à¤µ à¤®
Ġà¤®à¤¨ à¤ª
à¤¦ à¤¶
Ġà¤¸à¤¹ à¤¸
Ġà¤ľà¤µà¤³ à¤ľà¤µà¤³
Ġà¥® à¥¦
Ġà¤Ĩ à¤ĸ
Ġà¥© à¥¬
Ġà¤ĩà¤° à¤«
à¤¯à¤¨ à¤¶
Ġà¤® à¤¯
Ġà¤ı à¤¨à¤¸
e d
Ġà¤¯ à¤ľà¤®
Ġà¤Ń à¤Ĺ
Ġà¤° à¤ĺ
à¤§à¤¨ à¤ķ
Ġà¤ķ à¤³à¤µà¤²
à¤Ĺ à¤ªà¤¤
à¤¬à¤° à¤®à¤§
Ġà¤ıà¤ķ à¤°
à¤ħ à¤°à¤ļ
Ġà¤ĵ à¤¢
à¤¯ à¤Ĺà¤¡
à¤® à¤®
Ġà¤Ĺ à¤Łà¤¨
Ġà¤ĺ à¤Łà¤¸
2 5
à¤« à¤²
à¤ļ à¤¶
à¤® à¤³
à¤ª à¤§
Ġà¥¨à¥¦à¥§à¥ Ń
Ġà¤¹ à¤°à¤ķà¤¤
à¤ĳ à¤ķ
à¤ļ à¤¯
Ġà¤Ĩ à¤Īà¤²
Ġà¤¦ à¤£à¤ķ
à¤¬à¤Ī à¤ª
à¤¨ à¤ªà¤¤
Ġà¤® à¤ļ
à¤· à¤²à¤µ
à¤Ī à¤¶
Ġ4 5
Ġà¤ª à¤µà¤¨
à¤Ĺ à¤ķ
à¤ĵ à¤µ
à¤Łà¤ķ à¤®à¤§
Ġà¥¨à¥¦à¥§à¥ ¬
Ġà¤¸à¤® à¤Ń
à¤°à¤¸ à¤¨
Ġà¤ĸ à¤²
Ġà¤² à¤¢à¤²
Ġà¤¦à¤° à¤µà¤°
Ġà¤µ à¤°à¤ļ
à¤¤ à¤¯
Ġà¤ī à¤¸à¤³à¤²
à¤Ĩà¤° à¤¡
Ġ9 0
Ġ l
Ġà¤Ĩà¤° à¤¬
Ġà¤®à¤¤ à¤®
à¤ķ à¤ªà¤£
à¤Ĩ à¤ķ
à¤ıà¤¨ à¤¡
à¤ķà¤² à¤¨
à¤Ĩ à¤ª
à¥§à¥ «
à¤°à¤µ à¤¤
âĢ ĭ
1 5
Ġà¤Ĩà¤Ŀ à¤®
à¤² à¤ªà¤£
à¤¬ à¤ķ
à¤¨à¤¯ à¤Ń
i l
Ġ3 6
Ġà¤Ĺ à¤ľ
à¤ķ à¤ķ
Ġ2 9
à¤ķà¤° à¤ª
à¤Ĩà¤¯ à¤ıà¤®
Ġà¥¨à¥¦à¥§à¥ ª
Ġà¤ľ à¤¬à¤°
à¤Ĭ à¤¯
Ġ4 8
Ġà¤Ł à¤³à¤²
à¤¨ à¤§
à¤ļ à¤µà¤¡
à¥ĭ '
à¤· à¤Ńà¤°
Ġà¤Ĩà¤ľ à¤µà¤°
à¤ł à¤®
à¤² à¤ĺà¤°
à¤· à¤±
Ġà¤¹à¤Ł à¤µà¤²
Ġà¤ĩ à¤Łà¤²
Ġà¤Ĩ à¤¸à¤ª
à¤² à¤·
à¤Ĭ à¤°
à¤£ à¤ĺ
Ġà¤ĺ à¤¡à¤£
Ġà¤Ĺà¤³ à¤«
Ġà¤ī à¤Ĺ
à¤ª à¤ª
Ġà¤¨ à¤«
à¤ł à¤¤
à¤µà¤° à¤²
Ġà¥Ń à¥«
u l
à¤£ à¤µà¤²
à¤Łà¤¨ à¤®à¤§
à¤ķ à¤µà¤²
à¤ķà¤² à¤®
Ġ201 4
à¤ĳ à¤²
Ġà¤¦ à¤¸
Ġà¤Ĳ à¤ķà¤¤
Ġà¤Ńà¤° à¤Ńà¤°
Ġà¤ªà¤¡ à¤¸
c h
à¤¨ à¤µà¤¤
à¤¯ à¤Ĺà¤°
Ġà¤īà¤¤à¤° à¤£
Ġà¤¨à¤µ à¤ľ
Ġà¥¨à¥¦ à¥¨à¥¦
Ġà¤īà¤ĺ à¤¡à¤²
Ġà¥¯ à¥¦
1 7
à¤· à¤µ
à¥§à¥ ¬
à¤¸ à¤³à¤¤
Ġà¤¸à¤° à¤ª
Ġà¤ĩ à¤µ
a d
à¤µ à¤Ī
à¤¬ à¤°à¤ª
à¤ł à¤ª
Ġà¤ĸ à¤Ł
a y
r e
Ġà¤µ à¤§
à¤¦à¤° à¤°
à¤ľ à¤¶
Ġà¤¯ à¤·
à¤°à¤¸ à¤¹
à¤¦ à¤Ń
à¤¾ /
à¤° à¤°à¤ķ
à¥§à¥ ¨
Ġà¤ħà¤® à¤²
Ġà¤¦à¤£ à¤¦à¤£
à¤¹ à¤¯
à¤£ à¤¬
Ġà¤ķ à¤¹
Ġà¤¬ à¤¸à¤®à¤§
à¤ĵ à¤®à¤§
à¤¯ à¤¸à¤¨
Ġà¤¸ à¤¯
à¤°à¤¤ à¤°à¤¤
Ġà¤ıà¤¨ à¤Ĩà¤°à¤¸
à¥¨ à¥§
Ġà¤īà¤® à¤Łà¤²
Ġ o
à¤¨ à¤ĸ
à¤ļ à¤¦
à¤¸ à¤«
o o
à¤ı à¤ħà¤°
à¤¦ à¤ª
Ġà¤ı à¤ľ
à¤Ĭ à¤Ł
à¤ıà¤¸ à¤¸
à¤¸à¤² à¤ļ
à¤ĩ à¤¤
à¤¯à¤¶ à¤¸
Ġ3 4
à¤Ĩ à¤ł
Ġà¥ª à¥®
à¤ħ à¤Łà¤ķ
à¤¨ à¤§à¤¨
Ġà¤°à¤£ à¤¦
Ġà¤¸ à¤¸
à¤¡ à¤¹
à¤¹à¤®à¤¦à¤¨ à¤Ĺà¤°
à¤« à¤¨
Ġà¤¬ à¤¸à¤ļ
à¤· à¤ļ
o s
Ġà¤« à¤°à¤¹
Ġà¤īà¤Ń à¤¯
Ġà¤Ĩ à¤ķà¤¸
à¤Ł à¤¯
à¤µà¤³ à¤£
Ġà¤ħ à¤Ŀ
à¤· à¤Ń
Ġà¤° à¤ĸ
à¤ķà¤° à¤ļ
à¤¸à¤² à¤Ĺ
Ġà¤īà¤¡ à¤µà¤²
à¤¥ à¤¤
Ġà¤µ à¤¨à¤¸
à¤¬ à¤°à¤¤
à¤ ĭ
à¥¨ à¥¦à¥¦
Ġà¤ļà¤° à¤¬
Ġà¤Ĩà¤Ĺ à¤®à¤¨
à¥ĭ )
Ġà¤¬ à¤¸à¤µ
Ġà¤ī à¤łà¤µà¤²
Ġà¤Ń à¤¡
h i
Ġà¤° à¤¡
à¤¤à¤ļ à¤°
à¤Ń à¤µà¤²
Ġ4 00
Ġà¤µ à¤³
Ġà¤¦ à¤¡
à¤ľà¤ª à¤¤
Ġà¤°à¤£ à¤¨
à¤¸ à¤°à¤£
Ġà¤ļ à¤¹à¤²
à¤¡ à¤¶
Ġà¤ĵ à¤°
à¤ı à¤ª
1 2
à¤¨ à¤ľ
à¤£ à¤®à¤§
Ġà¤Ĳ à¤µà¤ľ
à¤ıà¤¨ à¤ıà¤¸
Ġà¤ľà¤¯ à¤¶
Ġà¤ĩ à¤®à¤°
Ġà¤®à¤§ à¤²
à¤³ à¤¶
à¤¦à¤° à¤ļ
Ġà¤Ń à¤²
Ġà¤Ń à¤¡à¤ķ
à¤² à¤«
Ġà¤¨à¤µ à¤¨à¤µ
Ġ3 3
à¤ıà¤¨ à¤Ĩà¤¯
à¤· à¤¸
Ġà¤ļ à¤®à¤ķ
Ġà¤ĩ à¤«
à¥¨ à¥¨
à¤¬ à¤¡à¤¤
Ġà¤Ŀà¤³ à¤ķà¤²
Ġà¤ª à¤§
Ġà¤¬ à¤Ł
à¤« à¤ļ
Ġà¥ ¦
Ġ20 22
in d
à¤Ł à¤ħà¤ª
à¤ĸ à¤Ł
à¥§à¥ Ń
à¤Īà¤² à¤ļ
à¤¦ à¤¬
à¤¢ à¤µà¤¤
à¤¨à¤Ĺà¤° à¤®à¤§
Ġà¤¬à¤¨ à¤µà¤¤
à¤ĺ à¤¤
Ġ201 5
à¤ļ à¤²à¤¨
Ġà¤µ à¤Ĺ
à¤Ń à¤£
Âł Âł
à¤ª à¤¥
Ġà¤¦ à¤®
à¤ĺ à¤Ł
a p
à¤¶ à¤ıà¤®
i m
Ġà¤µ à¤²
Ġ e
à¤ħ à¤ľà¤¯
à¤ĵ à¤®
à¤ī à¤²à¤Ł
Ġà¤¨ à¤µà¤²
à¤Ŀ à¤µà¤£
à¤¬à¤Ī à¤Ĺ
Ġà¥© à¥ª
à¤ķ à¤¥
à¥¨ à¥«
Ġà¤ħà¤ª à¤¡
Ġà¤¢à¤ķà¤² à¤£
à¤ĺ à¤®
à¤µ à¤¬à¤³
à¤ª à¤°à¤ķà¤°
Ġà¤ı à¤°
Ġà¤¯à¤¶ à¤µ
à¤ıà¤ķ à¤¦
Ġà¥¨à¥¦à¥§à¥ «
à¤°à¤£ à¤¬
à¤· à¤°à¤¶
Ġà¤ł à¤³à¤ķ
Ġà¥© à¥©
at ion
Ġà¤ĺ à¤Łà¤²
à¤Ī à¤ª
Ġà¤ħà¤µ à¤®
à¤¸ à¤°à¤ļ
à¤°à¤³ à¤ķ
à¤¸ à¤ľ
à¤¦ à¤¦
à¤Ĩà¤° à¤¬
à¤ į
à¤¯à¤® à¤¨
an d
à¤¬à¤Ī à¤ķà¤°
o v
Ġà¤ī à¤²à¤Ĺ
Ġà¥§à¥¯ à¥¯
Ġà¤ľ à¤¯à¤¸
à¤Ĩ à¤µà¤¶
à¤µà¤° à¤¤
Ġà¤ħà¤¸ à¤¦
Ġà¤Ĩ à¤¡à¤µ
Ġà¥¬ à¥ª
Ġà¤īà¤ĺ à¤¡à¤£
2 00
à¤Ī à¤ľ
à¤Łà¤¨ à¤ªà¤Ł
Ġà¤® à¤ķ
à¤Ń à¤°à¤£
Ġà¤ĺà¤° à¤Ĺ
Ġà¤¤à¤¡ à¤ľ
Ġà¤ħà¤¨ à¤¨
à¤Ĺà¤£ à¤ķ
Ġà¤ľà¤Ĺ à¤¦
à¤ıà¤¨ à¤ľ
e l
à¤¶ à¤ķà¤¤
Ġà¤¨à¤µ à¤µ
à¤ĺ à¤µ
Ġà¤īà¤ª à¤®à¤¹
à¤¬ à¤µà¤°
à¥§à¥ ®
Ġà¤¬à¤ĺ à¤£
i v
à¤ª à¤°à¤µ
à¥Ĥ )
Ġà¤ī à¤¡à¤µ
Ġà¥© à¥¯
à¤¹ à¥Ł
Ġà¤ª à¤Łà¤¨
à¤Ĺ à¤¢
Ġà¤ĸ à¤¤
à¤ªà¤° à¤¦
Ġà¤¸ à¤¬
Ġà¤ĵ à¤ķ
Ġà¤°à¤ĸ à¤¡à¤²
à¤¸ à¤¶
à¤Ī à¤Łà¤µà¤°
Ġà¤¸à¤® à¤¤
Ġà¤ī à¤łà¤²
à¤ķà¤° à¤²
à¤ĩ à¤µ
le ct
à¤² à¤¶
à¤ı à¤¡
à¥§à¥ §
à¤¯à¤¨ à¤²
à¤¤ à¤¸à¤°
à¤ı à¤¬
à¤ľà¤µà¤³ à¤ª
à¤µà¤¨ à¤¸à¤¤
Ġà¤¦à¤¹ à¤¶à¤¤
Ġà¤ľ à¤¯à¤²à¤²
Ġ6 4
à¤¡ à¤ĺ
à¤¬à¤° à¤ªà¤°
à¥įâĢį âĢĮ
Ġà¤ĳ à¤¡
à¤µà¤¨ à¤¶
à¤°à¤£ à¤¹
à¤µà¤¡ à¤°
Ġ4 4
Ġà¤į à¤ķ
à¥« à¥¦
1 1
Ġà¤¦ à¤Ĺ
Ġà¤ļ à¤¢à¤µà¤²
Ġà¤ª à¤°à¤ķ
à¤ł à¤¸
Ġà¤Ĩà¤¯ à¤Ĩà¤¯à¤Ł
à¤¥ à¤¶
à¤ħ à¤µ
à¤ĵ à¤¸
Ġà¥ª à¥¯
à¤Ĺ à¤µà¤¡
Ġà¤ĩà¤¤à¤° à¤¹
à¤ª à¤¡à¤¤
à¤¬ à¤±
Ġ3 8
à¤° à¤Ńà¤°
Ġà¤Ĩà¤¯ à¤°
à¤µ à¤¬
Ġà¤Ĩ à¤¯à¤ķà¤°
à¤ıà¤¸ à¤ª
Ġà¤¤ à¤Łà¤ķà¤°
à¤¥ à¤ļ
Ġà¤ıà¤ķ à¤¤à¤°
Ġà¥©à¥Ń à¥¦
à¥ĩ à¥ĩ
Ġà¤Ī à¤µ
à¤¸ à¤³à¤£
a g
Ġà¤ħ à¤ķà¤¸
à¤³ à¥Ł
Ġà¤¶ à¤°à¤£
Ġà¤ªà¤¸ à¤°à¤¤
Ġà¤¬ à¤¦à¤¨
Ġà¤ī à¤ł
Ġà¤ªà¤°à¤¤ à¤£
u r
à¤¡ à¤°à¤ļ
à¤³ à¤Ĺà¤£
à¤Ł à¤°à¤¸
à¤ĵ à¤¤
à¤ľ à¤«
à¤¶ à¤Ńà¤ķ
à¤£ à¤ª
à¤¦ à¤¸
Ġà¤° à¤ļ
à¤ł à¤°
à¥§à¥ ©
Ġà¥© à¥®
Ġ4 2
Ġà¤ıà¤ķà¤¦ à¤®
Ġà¤ĭ à¤¤
Ġà¤ª à¤¨à¤µ
à¤°à¤ª à¤ķ
Ġà¤µ à¤¨à¤µ
Ġà¤¦ à¤³à¤£
à¤ªà¤° à¤¹
à¤µà¤ķ à¤±
u t
Ġà¤¬ à¤¬
Ġà¤« à¤Ł
à¥§à¥ ª
Ġà¤µà¤Ĺà¤³ à¤£
à¤¶à¤¨ à¤µà¤°
à¤²à¤¨ à¤ķà¤°
Ġà¤ĺà¤¡ à¤µà¤£
à¤£ à¤ľ
à¤¶à¤¨ à¤¸
u m
à¥Ģ à¤ĥ
à¤ĸ à¤Ń
à¤ıà¤¸ à¤Ī
Ġà¥ª à¥ª
à¤ıà¤¸ à¤ıà¤¸
Ġà¤Ĺ à¤³à¤¤
20 19
h o
i a
Ġà¤īà¤® à¤°
> >
à¤° à¤ľà¤¨
à¥Ģ /
Ġà¤ª à¤¦à¤°
à¤ħ à¤ļ
Ġà¤ĸ à¤±
Ġà¥ª à¥©
à¤° à¤ĺ
Ġà¤ªà¤° à¤«
Ġà¤ªà¤°à¤µ à¤¡à¤£
Ġà¤¹à¤³ à¤¦
à¤¯ à¤Ŀà¤°
à¤¸ à¤°à¤²
Ġà¤ı à¤¡
Ġ5 6
Ġà¤Ĩ à¤ľà¤ª
à¤ı à¤¨à¤¸
à¤°à¤¸ à¤°à¤£
à¤Ń à¤Ĺ
à¤¸à¤® à¤¸
Ġà¤ħà¤² à¤°
Ġà¤Ńà¤Ĺà¤¤ à¤¸
1 4
à¤ªà¤° à¤°
Ġ4 9
à¤¤ à¤Ń
Ġà¤īà¤¤ à¤°à¤¤
Ġ5 5
à¤¬à¤Ī à¤¤à¤²
Ġà¤Ĳ à¤ķà¤£
à¤¯ à¤¡à¤°
Ġà¤µ à¤³à¤¸
à¥§à¥ §à¥
Ġà¤Ĺ à¤¹
Ġà¤Ī à¤®
Ġà¥ª à¥¨
Ġà¤µ à¤¹
à¤¡ à¤¦
à¤°à¤£ à¤ªà¤£
201 4
Ġà¤ľà¤¨ à¤¸
Ġà¤¸à¤Ī à¤¦
à¤¸ à¤ķà¤°
Ġà¤¨à¤Ĺ à¤°à¤ª
à¤¬à¤Ī à¤¸à¤¹
à¤°à¤¸ à¤Ń
Ġà¥¬ à¥«
a c
à¤¨ à¤¤à¤°
à¤ł à¤Ń
à¤ĵ à¤¹
à¤Ĩà¤° à¤ıà¤«à¤ļ
à¤¤ à¤Ĺ
à¤µ à¤®à¤§
Ġ6 5
à¤¸ à¤°à¤¤
à¤µ à¤ªà¤Ł
Ġà¤ķ à¤¤
à¤ķà¤° à¤¨
Ġà¤ħà¤ķ à¤¬à¤°
à¤ıà¤® à¤ª
Ġà¤Ĩ à¤ĸà¤²
à¥ĥ à¤Ĥ
à¤¸à¤° à¤¨
à¤ķ à¤ħà¤ª
Ġà¤ħ à¤¯à¤¶à¤¸
à¤Ł à¤°à¤ª
Ġà¤ħà¤Ń à¤¯
à¤Ĭ à¤¦
à¤¯à¤« à¤²
à¤¬ à¤°à¤£
Ġà¥© à¥¦à¥¦
à¤ħ à¤¸à¤²
à¤¹à¤° à¤¨
à¤ıà¤® à¤ıà¤¸
Ġà¤¹ à¤°à¤µà¤²
à¤Ĺ à¤°à¤®
à¤°à¤ª à¤³
Ġà¤ı à¤¬
à¤ıà¤¸ à¤¬
Ġ5 4
Ġà¤Ĩ à¤¬
Ġà¤ķ à¤¢
Ġà¤ķà¤° à¤µ
à¤¶à¤¨ à¤¶
à¤Ĺ à¤Ń
Ġà¥« à¥«
à¤ĳ à¤«
Ġà¤ħà¤Łà¤² à¤¬
à¤ı à¤¤
Ġ j
à¤¶ à¤ķà¤°
à¤Ŀ à¤²
p s
Ġà¤¤ à¤²à¤µ
à¤Ĩ à¤«
à¤Ĺà¤¤ à¤ļ
à¤µà¤¸ à¤®
Ġà¤ı à¤µ
à¤Ĭà¤¨ à¤¹
a b
Ġà¤ı à¤ľà¤¨
Ġà¤ĩ à¤¬
Ġà¤ħà¤Łà¤ķ à¤ª
Ġ10 5
à¤§ à¤°à¤£
à¤ĸ à¤¬à¤°
à¤ı à¤¶à¤¨à¤ļ
à¤¦ à¥Ł
Ġà¤ħ à¤ªà¤²
Ġà¤² à¤²
à¤¨ à¤¸à¤°
Ġà¤ļ à¤°à¤£
à¤² à¤ĸà¤¨
Ġà¤Ŀ à¤²à¤ķ
Ġà¤Ĩà¤¶ à¤¯
à¤µ à¤ªà¤ķ
à¤· à¤¬
Ġà¤ī à¤£
à¤°à¤ĸ à¤ª
à¤£à¤§ à¤°
à¤Ŀ à¤®
e o
Ġà¤ıà¤ķ à¤ľ
Ġà¤¸à¤¹ à¤¯
à¤Ĩ à¤µ
a h
à¤® à¤«
à¤Ĭ à¤¨à¤ļ
à¤ıà¤¸ à¤Ĩà¤¯
2 4
à¤¬à¤Ī à¤¨
Ġà¤¸à¤®à¤ľ à¤£
Ġ #
Ġà¤¦à¤³à¤£ à¤µà¤³à¤£
Ġà¤ħ à¤ķà¤°
à¤²à¤ķ à¤¤
Ġà¥ª à¥¬
à¤¦ à¤¤à¤µ
Ġà¤ħ à¤¹à¤®à¤¦à¤¨à¤Ĺà¤°
Ġà¤§ à¤°à¤¤
à¤Ĭà¤¨ à¤²
Ġà¤ıà¤ħà¤° à¤Ł
à¤¿ à¥į
Ġ4 7
à¤Ķ à¤°
Ġà¤Ńà¤¡ à¤ķà¤²
Ġà¤Ĺ à¤µà¤¸
Ġà¤ªà¤Łà¤ķ à¤¥
à¤± à¤£
Ġà¤Ĩà¤¯ à¤«
Ġà¥¬ à¥©
à¤ª à¤ªà¤°
Ġà¤ĺ à¤£
Ġà¤µà¤° à¤³
à¤ĵ à¤ª
à¤ī à¤²
Ġà¤ħà¤µ à¤¶
à¤Ĺ à¤§
à¤ĩ à¤«
201 8
Ġ25 0
à¤¡ à¤¨à¤ļ
à¤³ à¤Ĺà¤²
Ġà¤ķà¤® à¤²à¤¨
Ġà¤ħà¤µ à¤§
Ġ4 3
à¤ľ à¤¡
à¤ħà¤° à¤®à¤§
Ġà¤ļà¤¢ à¤īà¤¤
Ġà¤ľ à¤®à¤¤
Ġà¤ķà¤¡ à¤ķà¤¡
e m
à¤¡ à¤ķà¤¡
Ġà¤īà¤ª à¤¸à¤Ń
à¤ħ à¤°à¤®à¤¨
Ġà¤¤ à¤¹à¤¸
à¤Ń à¤¦
Ġà¤ĵ à¤Ł
Ġà¥« à¥¨
à¤¸ à¤ªà¤Ł
à¤°à¤ªà¤Ł à¤Ĺ
Ġà¤Ķ à¤ªà¤ļ
Ġà¤ĵ à¤®à¤°
201 7
à¤® à¤ĺ
à¤Ł à¤¡
à¤ł à¤³à¤ķ
Ġà¤ĺ à¤¨
à¤ľà¤ª à¤µ
Ġ5 2
Ġà¤Ĺ à¤Ĺà¤¨
à¤Ĩà¤¯ à¤ıà¤¨
à¤µ à¤ªà¤¦
à¤Ł à¤µà¤²
Ġà¤Ĭ à¤¸
Ġà¤¢à¤ķà¤² à¤²
à¤Ń à¤µà¤¨
à¤°à¤µ à¤¸
à¤ľà¤¨ à¤ļ
Ġà¤¦à¤° à¤¡
Ġà¤į à¤¸
Â º
à¤Ĺà¤° à¤ľ
Ġ6 3
Ġà¤ıà¤® à¤ıà¤¸
Ġ12 5
à¤¸ à¤¸à¤¹
Ġà¤ıà¤ķ à¤¸
Ġà¥« à¥Ń
Ġà¤ĭà¤· à¤Ń
a a
à¤¨ à¤£
à¥¦à¥¦ à¥¦
Ġà¤łà¤°à¤µ à¤¤
Ġà¤¤ à¤°à¤£
Ġà¤² à¤ª
à¤¯à¤² à¤ļ
Ġà¤ķà¤° à¤®
Ġà¤ļ à¤²
Ġà¤² à¤¤
à¤ľà¤¯ à¤ª
Ġà¤ł à¤¸
à¤Ĩà¤¯à¤ı à¤®à¤ļ
Ġà¤ħà¤¸ à¤¹
à¤²à¤ķ à¤²
à¤ľà¤µà¤³ à¤ļ
à¤Ł à¤°à¤²
Ġà¤ľ à¤¤à¤¨
Ġà¤¥ à¤ķ
en t
Ġà¤µà¤ļà¤¨ à¤¬à¤¦
à¤ħ à¤°à¤µ
Ġà¤īà¤ª à¤ķà¤°
à¤Ĩà¤° à¤ıà¤«
c i
Ġà¤¤ à¤Ĺà¤¡
l d
Ġ4 6
Ġà¤° à¤£à¤§
à¤ĩ à¤ľ
r i
à¤¥ à¤ª
Ġà¤ıà¤¸ à¤Ĩà¤¯à¤Ł
Ġà¥§à¥¯ à¥®
à¤°à¤¤ à¤°
à¤ıà¤¸ à¤ı
o m
à¤¹à¤¨ à¤¹
à¥¨ à¥ª
à¤Ĩà¤® à¤¦
à¤µà¤§ à¤Ĺ
Ġà¤īà¤ļà¤² à¤¤
a v
Ġà¤¸ à¤ĸà¤²
Ġà¤ķà¤® à¤ķ
à¤¹ à¤ª
Ġà¤¸ à¤¡à¤ķ
Ġà¤¹ à¤¸à¤¤
à¤¶à¤¨ à¤¨
à¤ĩ à¤Łà¤µà¤°
Ġà¤ľ à¤³à¤Ĺ
Ġà¤ī à¤łà¤µ
Ġà¤ĸ à¤¡à¤ķ
Ġà¤ı à¤¶
à¤ı à¤¤à¤¨
à¤Ŀ à¤¡
à¤ĩ à¤¶
Ġ19 9
à¤¸à¤Ĺà¤¡ à¤®à¤§
Ġà¤¸ à¤¶à¤ķ
Ġà¤ª à¤¥
Ġà¤ķà¤ª à¤®à¤§
Ġ3 9
Ġà¥« à¥¬
à¤µà¤¤ à¤®
Ġà¥« à¥ª
Ġà¤ĵà¤³à¤ĸ à¤ªà¤¤
Ġà¤ıà¤ħ à¤°à¤²
Ġà¤Ĩ à¤ĸà¤£
Ġà¤¬ à¤°à¤¸
Ġà¤Ĩ à¤ªà¤Ł
à¤¶à¤µ à¤µ
à¤² à¤¬à¤°
à¤¨ à¤¸à¤¹
à¤® à¤ķà¤°
Ġà¤Ĩà¤° à¤Ł
Ġà¥ª à¥§
à¤¨ à¤¬à¤°
à¤ĺ à¤¡
Ġà¤¹à¤³ à¤¹à¤³
à¤Ĭ à¤ļ
Ġà¤ľ à¤¶
Ġà¤ıà¤¸ à¤Ł
or ld
Âº à¤¯
Ġà¤¨à¤Ĺ à¤°à¤µ
Ġà¤¦à¤¡ à¤ªà¤£
à¤Ĩ à¤¡
Ġ i
à¤ĺ à¤£
à¤² à¤¢
à¤¦ à¤µà¤¨
Ġà¤¨ à¤°à¤¸
Ġà¤¬ à¤ľà¤°
Ġà¥ª à¥Ń
à¤¯ à¤ªà¤£
à¤Ł à¤°à¤¦
Ġà¤ªà¤¦ à¤Ń
à¤ĺ à¤°à¤ļ
Ġà¤ľà¤¨ à¤¹
Ġà¤ª à¤ļà¤¨
à¤¡ à¤Ľ
à¤¤à¤¤ à¤§
Ġc up
Â »
Ġà¤¸à¤® à¤µ
Ġà¥§à¥« à¥¦
à¤µ à¤ł
à¤Ĺà¤² à¤ļ
Ġà¥¬ à¥¨
Ġà¤¸ à¤¶à¤¸
à¤¯à¤¤ à¤ķ
à¤ĵ à¤ķ
Ġà¤¸ à¤¡
à¤Ĩ à¤°à¤ļ
Ġà¤Ĩà¤° à¤¡
Ġà¤ĵ à¤¦
Ġà¤° à¤¬
à¤¬ à¤µà¤¤
Ġà¤ıà¤® à¤Ĩà¤¯à¤¡
à¤ļ à¤®
Ġà¤¨ à¤¬
à¤ħà¤° à¤¬
à¤ł à¤¬à¤³
Ġà¤ļ à¤®
Ġà¤ĵ à¤ĺ
à¤ľ à¤µà¤£
à¤¶ à¤ĸà¤¬à¤°
à¤Ī à¤°
Ġà¤ĵ à¤ª
à¤ıà¤¨ à¤Ĩà¤°à¤¸
Ġà¤Ĩ à¤ªà¤ļ
à¤Ĺ à¤ł
g b
à¤ĺ à¤ļ
à¤« à¤¸
Ġà¤ľ à¤²à¤µ
e w
à¤¨ à¤Īà¤ļ
à¤¯à¤°à¤¸ à¤®
t h
Ġà¤Ĩ à¤¸à¤¨
à¤ħ à¤µà¤ĺ
Ġà¤Ĺ à¤¸
à¤ı à¤®à¤ķ
Ġ5 9
à¤¸à¤Ĺ à¤¢
à¤ıà¤ļ à¤¡
Ġà¤ľ à¤²à¤®
Ġà¤ıà¤¸ à¤¬
à¤¸ à¤ĺ
Ġà¤¸ à¤¨à¤°
Ġà¤ħ à¤µà¤¤
à¥¨ à¥©
Ġà¤¹ à¤°à¤²
à¤°à¤¶ à¤¸
Ġà¤īà¤²à¤Ĺ à¤¡
7 0
Ġà¤ªà¤¡ à¤Ŀà¤¡
à¤§ à¤¶
à¤ł à¤ļ
Ġà¤Ŀ à¤Ł
à¤°à¤® à¤¨à¤ª
Ġ6 2
Ġà¥¨à¥¦à¥§à¥ ©
Ġà¤ĺà¤¡ à¤µà¤²
Ġà¤®à¤¦ à¤¤à¤ķ
di a
a k
à¤ĵ à¤¡
à¤ĵ à¤°à¤¡
Ġà¤° à¤¤à¤¨
Ġà¤Ī à¤¸
à¤ħ à¤¬
à¤¤ à¤Ł
à¤ļ à¤ľà¤£
Ġ4 1
à¤ıà¤¨ à¤¬
Ġ6 00
à¤¯ à¤°à¤ļ
à¤ľ à¤µà¤¡
à¤³ à¤ªà¤Ł
Ġà¤īà¤ª à¤ħà¤§
à¤ķ à¤µà¤¤
à¤® à¤¦à¤¤
Ġà¤ĳ à¤ª
à¤ī à¤¸
Ġ5 7
à¤³ à¤¹
Ġà¤Ĩ à¤Ĭà¤Ł
Ġà¤¤à¤° à¤ļ
h ar
à¤¸à¤¹ à¤ķ
Ġà¤Ľ à¤ª
à¤ĸ à¤°à¤ª
Ġà¥¬ à¥Ń
t t
v id
à¤³ à¤¯
Ġà¥« à¥§
2 3
à¤²à¤Ń à¤Ń
à¤¾ à¤¾
à¤® à¤ªà¤£
à¤Ĺ à¤µà¤°
Ġà¤¹ à¤°à¤Ń
Ġà¤ĸ à¤ļ
à¤ħ à¤µà¤ķ
Ġà¤ĸà¤³à¤¬à¤³ à¤ľà¤¨à¤ķ
à¤ķ à¤¸à¤¨
à¤ļ à¤¡
à¤Ī à¤¬
à¤Łà¤² à¤ļ
à¤ķ à¤ķà¤³
Ġà¤ľà¤²à¤¦ à¤Ĺà¤¤
Ġà¤²à¤ĸà¤¨ à¤Ĭ
à¤¦à¤² à¤¹
à¤ľà¤¯ à¤¨
Ġà¤īà¤² à¤Łà¤²
m et
a i
à¤¯ à¤²à¤¯
à¤® à¤¯à¤¤
Ġà¤ıà¤ķ à¤ľà¤£
à¤ıà¤¸ à¤ıà¤«
Ġ5 1
Ġà¤ĺ à¤¬à¤°
à¤Ī à¤®à¤§
à¤°à¤µ à¤¡
Ġà¤ħà¤ª à¤¤
Ġà¤ħà¤Łà¤ķ à¤¹
à¥¨à¥¦à¥§à¥ ª
Ġà¤ª à¤Łà¤¤
à¤ķà¤° à¤¦
Ġà¤¤ à¤³à¤£
à¤¡à¤ª à¤¸à¤°
à¤Ķ à¤·à¤§
4 0
t er
à¤· à¤²
à¤Ń à¤®
à¤Ī à¤ıà¤®
à¤ıà¤¨ à¤ª
Ġ6 7
à¤® à¤ĸ
à¤ª à¤°à¤ķ
Ġà¤ª à¤¬
à¤¬ à¤²à¤ķ
Ġà¤ĸ à¤²à¤¨
à¤« à¤µ
à¤µà¤¡ à¤ķ
Ġà¤Ĺà¤£ à¤ªà¤¤
à¤¨ à¤°à¤ļ
à¤¸ à¤¬à¤°
Ġà¤µ à¤¸à¤²
Ġà¤Ĺà¤£ à¤¨
Ġp o
à¤¨ à¤µà¤£
Ġà¤ĸ à¤ľ
à¤µà¤³ à¤²
Ġà¤¤ à¤¹à¤ķ
à¤¬ à¤ĺ
Ġà¤¬ à¤¯
à¤ħ à¤£
Ġà¥« à¥®
20 22
à¤¬ à¤¸à¤ª
à¤¤ à¤Ĳà¤µà¤ľ
Ġà¤¨ à¤¸à¤£
Ġà¤ıà¤¨ à¤ª
à¤¯à¤® à¤®à¤§
d e
à¤· à¤¹
à¤µà¤¡ à¤¤
à¤Ł à¤Ĺ
Ġà¥ª à¥¦à¥¦
es t
Ġà¤ıà¤ħ à¤°à¤µ
Ġà¤µ à¤ľ
à¤¡à¤² à¤µà¤°
h an
à¤µà¤ª à¤³
à¤ķ à¤¸à¤²
à¤§ à¤¹
Ġà¤« à¤¸à¤²
Ġà¤« à¤¡à¤ķ
à¤ľà¤¯ à¤¸
Ġà¤ķ à¤¡à¤µ
à¤Ĺà¤£ à¤¨
à¤¯ à¤¨à¤ļ
à¤µ à¤µà¤¤
à¤Łà¤ķ à¤²
à¤®à¤¦ à¤ļ
Ġà¤ĸ à¤¬à¤°
à¤¸à¤¨ à¤²
Ġ8 5
à¤²à¤ķà¤° à¤ļ
Ġà¤Ń à¤²à¤¤
à¤Ĩà¤° à¤Ł
à¤ļ à¤ªà¤¤
Ġà¤ªà¤° à¤Ńà¤£
Ġà¤īà¤¦ à¤¯à¤¨à¤°
à¤Ĩà¤ľ à¤¹
1 00
à¤¯ à¤Łà¤°
à¤¤à¤ª à¤¦
à¤°à¤®à¤§ à¤²
à¤¸ à¤«à¤°
à¥¯ à¥¯
à¥¬ à¥¦
Ġà¤¹ à¤°à¤µ
Ġà¤¬à¤¸ à¤µà¤£
t e
Ġà¤ªà¤° à¤¬
à¤°à¤¸ à¤®à¤ľ
Ġà¤Ĩà¤® à¤¨
à¤¸à¤¤ à¤¤
à¤²à¤® à¤¡à¤²
Ġà¤ķà¤¬ à¤¡
Ġà¤īà¤¤à¤° à¤µà¤²
Ġ Â
à¤® à¤®à¤¤
Ġà¤ª à¤³à¤µ
à¤°à¤® à¤¸
Ġà¤ħà¤¨ à¤¸
Ġ5 3
à¤µ à¤¨à¤ļ
Ġà¤® à¤¦à¤¨
Ġà¤Ń à¤¤
à¤ľà¤ķ à¤¤
à¤µà¤¸ à¤ķà¤°
Ġà¤īà¤ª à¤ª
à¤Łà¤² à¤°
Ġà¤ĵ à¤Ŀ
à¤²à¤¦ à¤¸
Ġà¤¹à¤°à¤Ń à¤ľà¤¨
u d
Ġà¤ķ à¤ªà¤²
à¤ĺ à¤²
à¤¶à¤¨ à¤¹
à¤¨à¤Ī à¤¤
Ġà¤ĸ à¤°à¤ļ
Ġà¤ĩ à¤¸à¤®
à¤¹à¤° à¤®à¤§
6 0
h e
Ġà¤®à¤¹ à¤®
ar t
à¤ħ à¤¹à¤µ
Ġà¤° à¤¡à¤¤
à¤ħ à¤®à¤°
à¤µà¤² à¤¨
à¥¨à¥¦ à¥§à¥¯
Ġà¥® à¥«
Ġ19 8
à¤¶ à¤¶
Ġà¤¹ à¤ª
Ġà¤ıà¤ķ à¤µ
Ġà¤ħà¤µ à¤¯à¤µ
à¤Ł à¤¸à¤°
à¤ĸ à¤®à¤§
c e
Ġà¤® à¤ķà¤°
Ġà¤ĵ à¤¢à¤²
Ġ5 8
à¤µ à¤ĸ
à¤°à¤ķ à¤Ł
à¤¤à¤° à¤¦
Ġà¤ĵà¤³à¤ĸ à¤£
à¤Ń à¤¨
Ġà¥« à¥©
Ġà¤µ à¤¸à¤¤
à¤¶ à¤µà¤¤
à¤ĸ à¤¹
à¤ıà¤® à¤Ł
à¤¯ à¤¦à¤²
à¤³ à¤ªà¤°
Ġà¤ī à¤ķà¤³
à¤ĵ à¤µà¤°
Ġà¥Ń à¥¬
Ġà¤ĳ à¤¨
Ġr e
à¤ļ à¤µà¤¤
à¤ı à¤®à¤ļ
à¤¸à¤¦ à¤¸
à¥¨ à¥®
Ġà¤Ĩ à¤Ĺà¤³
à¥¨ à¥Ń
à¤ľ à¤Ńà¤µà¤¨
à¤°à¤® à¤ļ
Ġà¥¨ à¥§à¥§à¥
co m
Ġà¤ķ à¤£à¤ķ
Ġà¤« à¤µ
Ġà¤ľà¤Ĺ à¤¨
1 3
à¤ľ à¤¯à¤ķ
à¤ł à¤µà¤¤
à¤¡à¤ķ à¤ª
Ġà¤¸à¤¹à¤ľ à¤ªà¤£
à¤µà¤¸ à¤°
Ġà¤ħà¤¡ à¤µà¤²
Ġà¤į à¤¡
/ /
à¤¯ à¤¦à¤°
Ġà¤¤ à¤¡à¤ķ
à¤ĵ à¤ıà¤¸
Ġà¤Ĩà¤¦ à¤³à¤²
Ġ13 0
à¤ķà¤¸à¤¨ à¤¶
Ġ1 20
à¤Ĩà¤Ī à¤µà¤¡
Ġà¤ķ à¤±à¤£
Ġà¤µ à¤³à¤µ
à¤°à¤¶ à¤ķ
à¤ī à¤¡
à¤Ĭà¤¨ à¤®
à¤ıà¤¨ à¤ı
à¤² à¤ĺ
à¤¨ à¤ľà¤£
Ġà¤¯ à¤µà¤¤à¤®
à¤¹ à¤¦
à¤ı à¤Ĩà¤¯
à¤§ à¤µà¤¨
Ġà¤Ĺà¤¡ à¤¬à¤¡
met oo
à¤Ł à¤Ł
e lect
à¤¬à¤° à¤¨
Ġ9 9
Ġà¤ī à¤łà¤µà¤£
Ġà¤ªà¤° à¤³
Ġà¤¡ à¤¬à¤²
à¤Ĺà¤² à¤¨
Ġà¤Ĩà¤¯ à¤ı
à¤¹à¤° à¤¯
Ġà¥« à¥¯
Ġà¤ªà¤°à¤¤ à¤¤
Ġà¤ī à¤«
à¤ľà¤ª à¤ª
à¥¨ à¥¬
Ġà¤ªà¤Ł à¤µ
à¤ª à¤Ĺ
à¤¡à¤®à¤§ à¤²
Ġà¤ħà¤¡à¤ķ à¤£
à¤° à¤¬à¤°
à¤ħ à¤Łà¤²
à¤Ĭà¤¸ à¤«
Ġà¤Ĩ à¤°à¤¤
Ġà¤¬ à¤¢à¤¤
Ġà¤Ĺ à¤¡à¤ļ
Ġà¤ĸ à¤ļà¤²
à¤ħ à¤°à¤¸
à¤ı à¤¶
à¥¨ à¥¯
Ġà¤ľà¤Ĺ à¤ľ
Ġà¤§à¤¡ à¤ķà¤²
Ġà¤¹ à¤°à¤®à¤¨à¤ª
à¤ı à¤ķà¤¤
Ġ7 00
à¤²à¤Ń à¤¤
Ġà¤į à¤ª
iv e
c b
Ġà¤ķ à¤¹à¤°
Ġà¤ļ à¤®à¤¤
Ġà¥Ń à¥ª
à¤ķ à¤®à¤²
à¤Ĩ à¤°à¤ķ
Ġà¤¸à¤ª à¤¶
Ġà¤Ĩ à¤°à¤¸
Ġà¤ķà¤° à¤¦
Ġà¤īà¤® à¤Łà¤¤
à¤¹à¤² à¤ªà¤®
Ġà¤° à¤®à¤£
Ġà¤¨à¤µ à¤±
à¤®à¤¨ à¤Ĺà¤°
Ġà¤ķà¤® à¤°
à¤¨à¤µ à¤ľ
Ġà¤ľ à¤¯à¤¦
Ġà¤ĺ à¤¸à¤°
201 5
Ġà¤ķà¤£à¤ķ à¤µà¤²
Ġà¤Ŀ à¤¡à¤¤
à¤Ī à¤«
à¤¸à¤° à¤¦
à¤Łà¤° à¤Ł
à¤ī à¤Ĺ
Ġà¤Ĳ à¤°à¤£
Ġà¤īà¤¤à¤° à¤µ
à¤ķ à¤Łà¤µà¤°
Ġà¤Ń à¤Łà¤ķ
Ġà¤² à¤ªà¤µ
à¤°à¤ľ à¤£
Ġà¤ªà¤¸ à¤°à¤µà¤£
4 7
à¤¸ à¤Ł
Ġà¤ľ à¤ªà¤£
Ġà¤§ à¤¡à¤ª
Ġà¥¬ à¥§
à¤¨ à¤«
Ġà¤µ à¤³à¤²
Ġo f
Ġà¤« à¤²à¤ķ
Ġà¤Ĩà¤µ à¤ķ
à¤Ĩà¤° à¤ıà¤¸
Ġà¤ļ à¤¡
à¤µà¤¨ à¤®
er s
Ġà¤ĭ à¤£
à¤ª à¤±
Ġh tt
à¤° à¤¬à¤³
à¤Ń à¤Ĺà¤µ
Ġà¥¬ à¥¬
à¤ª à¤¦à¤°
Ġà¤« à¤¤
Ġà¤ĩ à¤¯à¤¤
à¤¸à¤ķ à¤Ł
Ġà¤ıà¤¸ à¤ª
Ġà¥¬ à¥¯
à¤²à¤ķà¤° à¤¨
à¤¯ à¤°à¤¨
à¥ī à¤ģ
Ġà¤¹à¤² à¤µà¤²
à¤ĳ à¤Ĺà¤¸
8 0
Ġà¤Ĩ à¤°à¤ª
Ġ8 00
Ġà¤¨à¤ľ à¤°à¤ķ
Ġà¤¬ à¤°à¤ĸ
à¤µà¤¤ à¤¹
Ġà¤ħà¤Ĺ à¤°à¤µ
Ġ100 0
à¤¸à¤¨ à¤¨
à¤®à¤ķ à¤¤
Ġà¤ħà¤ĸ à¤¤
Ġà¥Ń à¥©
Ġà¥Ń à¥®
201 6
u b
à¤¸ à¤®à¤¨
à¤· à¤µà¤²
Ġà¤ĺà¤° à¤«
à¤ıà¤ķ à¤®
Ġà¥¬ à¥®
Ġà¤ªà¤² à¤Łà¤µ
à¤¦ à¤°à¤µ
Ġà¤ľ à¤¤
à¤¥ à¤¡
Ġà¤ħà¤¸ à¤®à¤°
Ġà¤°à¤¹ à¤¸
Ġ x
Ġà¤¤ à¤Ł
à¤¢ à¤°à¤ª
Ġà¥¨à¥¦à¥§à¥ ¨
Ġà¤ ĥ
à¤¯ à¤§
Ġà¤ķ à¤³à¤£
à¤¦à¤° à¤µà¤°
à¤Ĺà¤£ à¤µ
Ġà¤ıà¤® à¤Ĩà¤¯à¤ıà¤®à¤ļ
Ġà¥¯ à¥«
à¥Ģ à¥¤
Ġà¤¸ à¤¦à¤¨
à¤Ł à¤°à¤®
Ġà¤Ĺà¤µà¤¸ à¤£
i g
à¤Ĭ à¤¥
à¤¬à¤Ī à¤µà¤°
à¤ħà¤° à¤µà¤°
Ġ7 3
Ġà¤° à¤¹à¤®
à¤Ń à¤§
Ġà¤ħà¤¨ à¤ª
Ġà¥§à¥¨ à¥«
Ġà¤ĩ à¤Ł
à¤¨à¤² à¤®à¤§
à¥Ń à¥¦
à¤¹ à¤¶
Ġà¤Ń à¤°à¤§
Ġà¤ħà¤¨ à¤§
Ġà¤¨à¤µ à¤¦
à¤Ń à¤¤
à¤Łà¤ķ à¤¨
Ġà¤ħà¤µ à¤ľà¤¡
Ġ2018 19
à ®
Ġ7 4
à¤Ń à¤°à¤ª
Ġà¤Ĺ à¤¹à¤²
à¤°à¤¤ à¤®
à¤·à¤£ à¤¹
à¤ĩ à¤¥à¤²
Ġà¤¹à¤² à¤Ĺà¤°
Ġà¤ıà¤¨ à¤Ĩà¤¯à¤ı
Ġà¤ļà¤®à¤ķ à¤¦
à¤Ĺ à¤ľà¤¨
Ġà¤¹ à¤°à¤¦
Ġà¤¹ à¤¸à¤²
Ġà¤° à¤ļà¤£
à¤ĸà¤² à¤¨
à¤²à¤ķ à¤ªà¤¦
Ġà¤¤à¤ª à¤®
à¥Ń à¥«
Ġ14 4
Ġs t
c ci
Ġà¤ħà¤¨ à¤°
à¤¯à¤ļ à¤ķ
à¥Ĥ '
à¤ħ à¤µà¤¶
Ġà¤Ĩà¤¯ à¤ıà¤¸
à¥ª à¥¦
p m
à¤ķ à¤«
Ġà¤¹ à¤¡à¤ªà¤¸à¤°
à¤ĵ à¤¦
à¤¥ à¤¤à¤ľ
à¤ľà¤¨ à¤¶
Ġà¤¥ à¤ķà¤µ
à¤ıà¤® à¤®à¤§
Ġà¤ªà¤¸ à¤°à¤µ
Ġ9 5
l y
Ġ ipl
Ġà¤® à¤ľà¤ķ
Ġà¤¬à¤¸ à¤µà¤°
vid eo
ĠÂ ·
s s
Ġà¤ĵ à¤¶
Ġà¤ıà¤¨ à¤Ł
à¤µ à¤±
Ġà¤® à¤³
à¤¸à¤°à¤ķ à¤°
ic c
à¤Ŀ à¤«
Ġà¤Ĩà¤ľ à¤®
à¤Łà¤£ à¤®
Ġà¤ł à¤ªà¤ķ
Ġ20 21
Ã ·
à¤§ à¤¡à¤ķ
à¤Ł à¤ªà¤°
à¤§ à¤¡
à¤· à¤¯à¤ļ
à¤ı à¤µ
à¤¬à¤Ī à¤¹
Ġ7 8
à¤Ĩà¤ľ à¤ªà¤°
Ġà¤µà¤Ĺà¤³ à¤²
w w
Ġ on
Ġà¤® à¤¯à¤¤
Ġà¤¨ à¤°à¤µà¤£
Ġà¤µ à¤³à¤µà¤£
Ġà¤¹ à¤¯
Ġà¤ı à¤²à¤ª
à¤ħ à¤¹
Ġà¤ľ à¤¯à¤°
à¤µà¤¨ à¤ķ
Ġà¤Ĩ à¤¡
Ġà¤ª à¤ª
Ġà¤² à¤¶
à¤ĺ à¤¡à¤£
Ġà¤Ĩà¤ªà¤£ à¤ļ
à¥© à¥«
Ġà¤ħ à¤Ŀà¤°
Ġà¤ł à¤£à¤ķ
à¤² à¤°à¤¤
à¤Ł à¤µà¤¡
Ġà¤ıà¤¨ à¤ıà¤¸
à¤Ĩ à¤ļ
à¤ĩ à¤ļ
Ġà¤Ī à¤ª
à¤£ à¤µà¤°
à¤¶à¤¨ à¤°
à¤Ľ à¤ª
à¤§à¤¨ à¤¸
Ġà¤īà¤ĺ à¤¡à¤¤
Ġà¤Ĩà¤µ à¤³
Ġà¥§à¥¨ à¥¦
à¤¬à¤°à¤® à¤¤
Ġà¤ħ à¤¥à¤ķ
à¤¤à¤ķ à¤®
à¤ī à¤ªà¤®
s p
à¤ħ à¤¡à¤ļà¤£
à¤°à¤® à¤¹
Ġà¤ĵ à¤¢à¤µà¤²
Ġà¤¬à¤¸ à¤µà¤²
Ġà¥Ń à¥Ń
à¤£ à¤ķà¤°
à¤°à¤¤ à¤µ
à¤Ĩà¤¯ à¤Ĩà¤¯à¤Ł
i f
Ġà¤² à¤µà¤ļ
Ġà¤¬à¤¸ à¤¸
6 5
à¤¤ à¤µà¤¸
à¤¹ à¤ļà¤£
Ġà¤¹ à¤Łà¤ķ
Ġà¤« à¤¸à¤µ
à¤ħ à¤¡
à¤ıà¤¸ à¤ıà¤«à¤ļ
Ġ6 9
Ġà¥§à¥¦ à¥«
Ġà¤ıà¤² à¤Īà¤¡
à¤ĭ à¤·
Ġà¤¨ à¤ĸ
Ġà¤Ĩà¤° à¤ľ
Ġà¤īà¤¦ à¤ĺ
d at
à¤ĺ à¤¡à¤¤
Ġà¤ĸà¤¡ à¤¤à¤°
Ġà¤īà¤ķ à¤³à¤£
Ġ âĢĭ
à¤ª à¤°à¤®
Ġà¤ĸ à¤ªà¤µ
à¤Ī à¤µà¤°
à¤¨à¤µ à¤¨
Ġà¤¦à¤° à¤¬
à¤ĭ à¤¤
Ġà¤ķ à¤³à¤µà¤£
à¤« à¤°à¤¸
à¤ıà¤® à¤Ĩà¤°
Ġà¥® à¥¬
l o
à¤¾à¤Ĥ à¤Ĥ
à¤Ĩ à¤Īà¤ļ
99 9
Ġà¤® à¤Ĭ
Ġà¤¨ à¤²
à¤ıà¤¸ à¤Ĩà¤°
à¤¡à¤ķ à¤ªà¤®à¤§
Ġà¤ıà¤¨ à¤Ĩà¤¯
Ġà¥® à¥¯
à¤ªà¤£ à¤¨
Ġà¤ĸà¤° à¤Ĺ
à¤®à¤¹ à¤¸
à¥§à¥¯ à¥¯
Ġà¤ķà¤ļ à¤±
Ġà¤¨ à¤®à¤¸
à¤« à¤¡à¤£à¤µ
à¤ī à¤Ńà¤¯
Ġ6 8
à¤¡à¤° à¤µà¤°
am p
Ġà¥¯ à¥¯
Ġp ro
Ġm ar
Ġà¤ħà¤¨ à¤²
à¤ĵ à¤¬
Ġà¤Ĩà¤ľ à¤µà¤°à¤ļ
à¤ļ à¤µà¤°
à¤¦ à¤Ĺà¤¡
Ġà¤¸à¤¹ à¤µ
à¤¸à¤Ĺ à¤¡à¤ļ
Ġà¤°à¤¹ à¤¦
Ġà¥¯ à¥¬
à¥ĩ à¥¤
à¤Ĺ à¤°à¤ļ
Ġà¤Ĺ à¤¯
Ġà¤ī à¤§à¤³
à¤Ĩ à¤Ĭà¤Ł
à¤¸à¤¹ à¤ľ
à¤ī à¤ªà¤°
Ġà¤īà¤® à¤Łà¤µà¤²
Ġà¥® à¥©
Ġhtt ps
4 5
à¤¬à¤° à¤µà¤°
Ġà¤Ľ à¤¡
Ġà¤¸à¤Ĺà¤³ à¥Ł
à¤ıà¤® à¤Ĩà¤°à¤¡
à¤¦ à¤ķà¤¤
à¤µà¤³ à¤¤
Ġà¥Ń à¥¨
à¤µà¤Ł à¤ªà¤°
à¤¯ à¤·
à¤£ à¤µà¤£
Ġà¤¨ à¤³à¤ķ
Ġà¤ľà¤® à¤µ
h a
à¤ļ à¤ªà¤£
à¤°à¤¤ à¤¨
Ġ7 7
à¤¯ à¤īà¤¤
à¤ª à¤ĸ
à¤Ĭà¤¸ à¤®à¤§
19 9
v i
à¤° à¤ł
à¤¨ à¤°à¤²
à¤Ĺ à¤Ŀ
Ġà¤ľ à¤Ł
Ġà¤ķà¤° à¤ª
à¤¬à¤Ī à¤ķà¤¡
à¤ĩ à¤Łà¤²
Ġà¥® à¥ª
à¤¯à¤°à¤¸ à¤¨
2 6
à¤² à¤ķà¤¡
à¤£ à¤£
Ġà¤¸ à¤¬à¤²
Ġà¤¨ à¤¥
Ġà¤ıà¤® à¤¬
Ġ12 8
Ġà¤ī à¤¡à¤¤
à¤ĺ à¤³à¤²
à¤ı à¤ıà¤¨à¤Ĩà¤¯
Ġ7 2
Ġà¥¨à¥« à¥¦
à¤Ĩà¤ł à¤µà¤¡
à¤ªà¤¡ à¤ªà¤Ł
à¤¨à¤Ń à¤°à¤ª
à¤¨ à¤¸à¤¨
Ġà¤¦ à¤¯à¤¨
Ġà¤² à¤ĸ
à¤®à¤¨ à¤®
Ġà¤Ĩà¤¯ à¤ıà¤¨à¤ıà¤¸
Ġà¤īà¤¤à¤° à¤µà¤£
à¤³à¤® à¤³
à¤Ń à¤µà¤£
à¤¨à¤®à¤§ à¤²
Ġ7 6
à¤² à¤¥
Ġà¤¨ à¤¤
à¤ħ à¤Ł
Ġà¤ķà¤² à¤°
à¤¤à¤® à¤ľ
à¤Łà¤° à¤¨à¤²
Ġà¤ħ à¤¥
à¤¥ à¤°à¤¸
à¤®à¤ķ à¤°à¤£
art ic
3 5
à¤¦ à¤µà¤¤
Ġà¤¬ à¤¤
Ġà¤Ĺ à¤ł
Ġà¤ıà¤¸ à¤¡
Ġ6 6
Ġà¤¥ à¤ķà¤¬
à¤ĳ à¤ªà¤°
r c
Ġ3 50
à¤ıà¤® à¤Ī
à¤¨à¤Ĺ à¤°à¤ļ
à¥® à¥¦
à¤¨à¤¦ à¤¯
à¤Ĳ à¤¶
à¥¨à¥¦à¥§à¥ ®
Ġà¤Ĩ à¤ī
Ġà¤ķ à¤Łà¤ķ
Ġà¤ª à¤³à¤¤
à¤¶ à¤Ń
Ġà¤Ŀ à¤¹
à¤¸ à¤¤à¤°
Ġà¤° à¤¥
Ġà¥¨à¥¦à¥§à¥ §
Ġà¤ĺà¤¸ à¤°à¤¤
à¤¾ à¥¤
à¤² à¤ªà¤¤
à¤² à¤ªà¤¦
à¤· à¤¦à¤°
Ġà¤ľ à¤¦à¤¯
Ġà¤ħà¤¸ à¤®
à¤¦à¤µ à¤ļ
à¤ŀ à¤¤
Ġ18 0
Ġà¥§à¥© à¥¦
à¤°à¤Ł à¥Ł
à¤µà¤Ĺà¤£ à¤ļ
2 7
m p
à¤µ à¤Ĺà¤¨
à¤Ĺ à¤¬
à¤¡ à¤µà¤¤
Ġà¤¶ à¤µ
Ġà¤ıà¤ħ à¤°à¤ª
Ġd e
s e
à¤¾ (
Ġà¤ĩ à¤ķà¤¡
à¤µà¤¨ à¤¸
à¤ıà¤¸ à¤Ĩà¤¯à¤Ł
à¤Ĩà¤ľ à¤µà¤°
7 5
à¤² à¤°à¤®à¤§
à¤ķ à¤¢
Ġà¤ª à¤Łà¤£
Ġà¤ī à¤¬à¤¦
à¤« à¤¡à¤ķ
Ġà¤Ĩà¤µ à¤³à¤²
Ġ201 3
Ġ6 1
Ġà¤īà¤§ à¤³à¤²
à¤£ à¤¦
à¤ľ à¤¦à¤ļ
Ġà¤Ń à¤¦
Ġà¤ĵ à¤ıà¤¨à¤ľ
à¤ıà¤¨ à¤Ĩà¤¯à¤ı
à¥¨à¥¦à¥§à¥ «
ul l
Ð °
Ġ `
à¤¤ à¤µà¤°
à¤² à¤°à¤²
à¤® à¤¸à¤¨
Ġà¤ķ à¤Ŀ
à¤°à¤¤ à¤®à¤§
à¤°à¤£ à¤ļ
à¤¸à¤² à¤¤
artic le
Ġà¤¸ à¤°à¤¤
à¤¬ à¤Ĺ
à¤Ń à¤ª
Ġà¤Ĩà¤¯ à¤¨
Ġà¤¦à¤° à¤¹
à¤¾ à¤ĥ
à¤ľ à¤¯à¤²à¤²
Ġà¤ıà¤® à¤ľ
Ġà¥® à¥Ń
Ġ9 1
Ġà¤Ń à¤¸
à¤Ī à¤¦
Ġà¤Ĩà¤ľ à¤¤
à¥© à¥§
Ġà¤ļ à¤¢à¤²
Ġà¤§ à¤µà¤¨à¤ļ
Ġà¤Ĺà¤°à¤ľ à¤ļ
Ġà¥Ń à¥§
à¤ķ à¤¸à¤¹
à¤ĸ à¤¸
à¤¦à¤° à¤¨
à¤ķà¤² à¤ļ
à¤§à¤µ à¤Ł
Ġà¤ªà¤£ à¤ľ
Ġà¤ªà¤¸ à¤°à¤µà¤²
Ġà¥¯ à¥ª
elect ro
à¤ª à¤ł
à¤Ł à¤µà¤£
à¤°à¤µ à¤¶
à¤Łà¤ķ à¤±
à¤ī à¤ªà¤¸
à¤ĳ à¤¨
ct ion
à¤¨ à¤¬à¤¦
à¤Ī à¤ķà¤ļ
Ġà¤Ķ à¤ļ
ap p
Ġà¤Ĩà¤¯à¤ı à¤ıà¤¸
c or
à¤¤à¤° à¤®
Ġà¤ĳ à¤Īà¤²
à¤Ĩà¤¯ à¤¬
à¤µà¤¨ à¤¡
à¥ĩ /
à¤ħ à¤¹à¤®à¤¦à¤¨à¤Ĺà¤°
à¤°à¤® à¤°à¤£
à¤¯à¤® à¤²
Ġà¤Ĩà¤¯ à¤ıà¤¨
an t
Ġà¤ķà¤³ à¤¸
Ġà¤µ à¤¨à¤Ĺ
à¤ı à¤Łà¤°
Ġ20 00
à¤ıà¤¸ à¤¡
Ġà¤ľà¤® à¤µà¤²
Ġà¥¨à¥¦à¥¦ à¥®
Ġà¤¬ à¤Łà¤²à¤°
à¤ĵ à¤ľ
à¤ıà¤« à¤Ł
Ġ8 3
à¥¨à¥¦à¥§à¥ ¬
Ġw orld
à¤® à¤°à¤¸
à¤ľ à¤³
à¤ĸ à¤ªà¤¦
à¤¤à¤° à¤ľà¤®
à¤Īà¤² à¤µà¤°
Ġà¥¬ à¥¦à¥¦
Ġà¥Ń à¥¯
Ġà¤ļà¤µ à¤¦
Ġà¤ķà¤¢ à¤Īà¤¤
à¤ľ à¤µà¤¤
à¤¶ à¤µà¤°
Ġà¤¯ à¤¥
à¤Ī à¤¦à¤²
à¤ªà¤£ à¤ľ
à¤ķà¤¡ à¤²
à¤ĳ à¤°
Ġà¥§à¥¯ à¥¬
Ġà¥§à¥¯ à¥Ń
à¤Ĩà¤¯à¤ıà¤¨ à¤ıà¤ķ
i k
Ġà¤® à¤¥
à¤¬ à¤¸à¤®à¤§
à¤Ī à¤Ī
à¤ĺ à¤Łà¤ķ
à¤ªà¤° à¤ļ
à¤®à¤ļ à¤°
Ġà¤Ĩà¤Ī à¤¸
en d
4 8
à¤¯ à¤¯à¤¨
Ġà¤Ĺ à¤²à¤µ
Ġ19 5
c r
à¤¯ à¤ľà¤°
à¤ļ à¤Ĺ
Ġà¤¯ à¤ķ
Ġà¤ĸ à¤£
at hi
Ġà¤¤à¤Ł à¤°à¤ķ
t o
Ġà¤ªà¤°à¤¤ à¤«
Ġà¤§à¤µà¤¨ à¤¨
ic al
à¥¨à¥¦à¥§à¥ Ń
à¤¯à¤® à¤°
à¤°à¤ļ à¤²
à¤Ĺà¤² à¤ª
à¤¹à¤¨ à¤§
Ġà¤į à¤£
à¤¤ à¤¬à¤¦
à¤Ĥ '
à¤® à¤ľà¤¨
à¤Ł à¤°à¤µ
Ġà¤¯ à¤ľ
Ġà¤ļ à¤ª
à¤£à¤¤ à¤£
à¤ĩ à¤¨à¤ļ
à¤¸à¤® à¤°
à¤ķ à¤°à¤®
Ġà¤¨ à¤³
à¤· à¤ªà¤£
à¤¬ à¤¶
Ġà¤° à¤«
à¤¤à¤¨ à¤ª
in e
à¤Ł à¤¶
à¤¡ à¤ªà¤²
à¤Ŀ à¤¬
à¤ī à¤¨à¤ļ
Ġà¤į à¤¨
Ġà¥§à¥¦à¥¦ à¥¦
Ġà¤Ńà¤¯ à¤Ń
Ġà¤§à¤¡à¤ª à¤¡
c aa
à¤¸ à¤°à¤¸
à¤¬à¤Ī à¤¤à¤¹
à¤¹à¤¨ à¤¸
Ġà¤ıà¤¸ à¤¸
j p
Ġ +
à¤¯ à¤¡à¤¨
à¤ł à¤ªà¤£
Ġà¤Ŀ à¤°
Ġà¤Ĳ à¤¨
Ġà¤Ĳ à¤¨à¤µ
20 20
Ġà¤ħà¤¡ à¤µà¤£
s h
Ġ article
Ġà¤ķà¤ª à¤ļ
Ġà¤ªà¤Ł à¤µà¤£
à¤µà¤ĺ à¤µ
à¤²à¤ĸà¤¨ à¤Ĭ
e p
Ġà¤ ±
à¤ļ à¤¦à¤°à¤®
Ġà¤® à¤Ł
à¤°à¤£ à¤¤
à¤°à¤® à¤¶
à¤ľà¤ª à¤ķ
à¤ľà¤¯ à¤µà¤°
à¤ī à¤·
Ġà¤Ī à¤°
Ġ7 1
as e
Ġpo st
à¤ Ļ
à¤¨ à¤Ĭ
Ġà¤¨ à¤¯à¤¨
Ġà¤§ à¤°à¤ª
à¤ķà¤² à¤®à¤§
Ġà¤Ĩà¤¦ à¤°à¤£
à¥ª à¥«
Ġf ull
Ġmar athi
à¥ ²
à¤ķ à¤Ń
Ġà¤Ĩ à¤ªà¤¸
Ġà¤® à¤ł
à¤Ń à¤³
Ġà¤Ĺ à¤¤à¤µ
Ġà¤ĺ à¤µà¤ĺà¤µ
à¤¤à¤° à¤¨
Ġà¤Ī à¤ķ
Ġà¥¯ à¥©
Ġ2019 20
à¤¿ à¤ĥ
à¤ķ à¤¤à¤°
à¤· à¤¯à¤¨
Ġà¤Ŀ à¤Łà¤ªà¤Ł
à¤ı à¤¸à¤¨
à¤¡à¤° à¤°
Ġà¤īà¤ĺà¤¡ à¤ªà¤£
Ġà¤§à¤°à¤ª à¤ķà¤¡
à¤µ à¤¨à¤µ
à¤³ à¤Ĺà¤¤
Ġà¤¸à¤° à¤¸à¤ķà¤Ł
à¤µà¤¤ à¤µà¤°
à¤ĩ à¤°à¤«
Ġc h
Ġà¤¬ à¤¡à¤Ĺ
à¤ķà¤° à¤ıà¤¤
à¤¬à¤Ī à¤¸
Ġà¤ıà¤¸ à¤ıà¤®à¤ıà¤¸
à¤¹à¤³ à¥Ł
Ġ2017 18
h y
Ġ u
Ġà¤¤ à¤¹
à¤ĸ à¤ªà¤£
à¤ī à¤¨à¤²
Ġà¤īà¤² à¤Łà¤¸
Ġà¤Ńà¤° à¤ĺ
Ġà¤ĵà¤ª à¤¨à¤ļ
2 8
2 9
Ġà¤ľ à¤«à¤°
Ġà¤¶ à¤¬à¤°
Ġà¤Ĺ à¤µà¤³
Ġà¤ĸ à¤Łà¤ķ
à¤Ĩà¤¯ à¤ıà¤¸
Ġà¤ªà¤² à¤Ł
à¤ ½
Ġà¤¸ à¤Ł
Ġà¤¤ à¤«
Ġà¤¬ à¤Łà¤£
à¤ħ à¤°à¤²
Ġà¤ľà¤® à¤£
à¤ıà¤ķ à¤¹
Ġà¤Ĺà¤¡ à¤¦
à¤¿ Ã·
à¤ķ à¤ĺà¤°
Ġà¤¸ à¤ķà¤²
à¤Ł à¤®à¤¸
Ġà¤ī à¤°à¤¤
à¤ı à¤Ī
Ġà¤¡ à¤ļ
Ġà¤ķà¤® à¤ľ
Ġà¤Ĩà¤ªà¤£ à¤¹
à¤ľà¤² à¤¸
un e
à¤¢ à¤±
Ġà¤¹à¤¤ à¤¬à¤²
Ġà¤Ĩà¤Ī à¤¬
Ġà¤Ĩà¤łà¤µà¤¡ à¤¯
en g
à¤°à¤¤ à¤¹
à¤°à¤ªà¤Ł à¤¹
à¤ľà¤¨ à¤¹
Ġ10 4
Ġ8 7
à¤Ń à¤°à¤¤
à¤Ń à¤°à¤§
Ġà¤īà¤ª à¤¦
Ġà¤ľà¤²à¤® à¤¯
à¤Ĺ à¤¡à¤ļ
à¤ĸ à¤¬à¤°à¤¦
à¤ıà¤® à¤ıà¤²
Ġa c
à¤¤à¤° à¤²
à¤Ī à¤ķà¤¨
ir us
w orld
à¤¤ à¤°à¤ķ
à¤¦ à¤°à¤¸
Ġà¤® à¤°à¤¤
à¤§ à¤°à¤¨
à¤¢ à¥Ł
à¤¯à¤® à¤¸à¤¨
à¤Ĺà¤³ à¤¯
à¤µà¤¨ à¤Ĺ
Ġe lect
à¤ļ à¤°à¤ļ
à¤¸ à¤Ĩà¤ĺ
à¤Ĩ à¤ªà¤¤
à¤« à¤Ł
Ġà¤¸à¤°à¤ķ à¤¤
Ġà¤ľà¤¨ à¤Ĺà¤£à¤¨
à¤ıà¤¸ à¤ıà¤¨
à¤ļà¤ķ à¤®à¤ķ
i st
o di
à¤ľ à¤®à¤¹
Ġà¤¬ à¤¹à¤°
Ġà¤² à¤¹à¤°
à¤Ī à¤¨à¤ļ
Ġà¤ĳ à¤¬
Ġà¤ħà¤® à¤°à¤¨
à¤µ à¤¯à¤ķ
Ġà¤ļ à¤¢à¤µ
Ġà¤ı à¤¨à¤°
Ġà¤¸à¤¹ à¤²
à¤Ĩà¤¯ à¤®à¤§
Ġ8 1
Ġ8 4
Ġà¤Ĺà¤£ à¤µ
Ġà¤ıà¤« à¤¸
Ġà¥² à¤ª
à¤«à¤¸ à¤µà¤£
m e
o p
à¤² à¤Ĺà¤¤
à¤Ł à¤µà¤¸
à¤§ à¤µà¤¸
à¤¶ à¤Ŀ
à¤µà¤° à¤¨
à¤Ĭ à¤¸à¤ļ
Ġà¤Ī à¤¦
Ġà¥® à¥¦à¥¦
Ġa us
à¤®à¤¨ à¤ª
à¤Łà¤° à¤¹
à¤ªà¤¦ à¤µ
à¤ĺà¤° à¤Ĺ
Ġ11 0
c on
à¤¨ à¤°à¤¨
à¤ķ à¤ķà¤²
à¤ļ à¤°à¤²
à¤°à¤ķ à¤¨
à¤¢ à¤µà¤³
à¤Ĺà¤³ à¥Ł
à¤°à¤¨ à¤Ĺà¤°
Ġà¤ıà¤® à¤¸
Ġ28 8
m s
o t
à¤ľ à¤³à¤Ĺ
Ġà¤µ à¤³à¤¤
Ġà¤¤ à¤Ĺ
à¤· à¤¶
Ġà¤¬ à¤¨à¤¸
à¤« à¤°à¤ª
à¤ķà¤° à¤°
à¤¯à¤® à¤Ĺà¤¤
Ġà¤īà¤ª à¤Ń
à¤¡à¤³ à¤ķà¤°
Ġà¤ªà¤µ à¤Ī
Ġ' '
Ġà¤ĳà¤« à¤²
Ġà¤īà¤¡ à¤µà¤£
à¤ķ à¤ķà¤¡
à¤¦ à¤®à¤°
Ġà¤¹ à¤¬
à¤µà¤¸ à¤ħà¤ĸ
Ġà¥® à¥§
Ġ17 5
à¤® à¤¸à¤²à¤¤
à¤¡ à¤¸à¤¨
à¤· à¤°à¤¤
à¤¯à¤ķ à¤²à¤µà¤°
Ġà¤ķà¤® à¤³
Ġà¤¯à¤¶ à¤¹
Ġà¤ķà¤¡ à¤§
Ġà¤ĵà¤¸ à¤°à¤²
q u
Ġà¤µ à¤¨à¤®
à¤¶ à¤µà¤£
à¤®à¤¤ à¤®
à¤Ĩà¤¯ à¤µ
Ġà¥¨à¥¦ à¥§à¥¦
à¥ª à¥¯
Ġ7 9
h at
Ġà¤ª à¤¸à¤°
à¤« à¤°à¤¹
Ġà¤Ĩà¤° à¤ıà¤¸à¤ıà¤¸
Ġà¤ĵ à¤®à¤ª
Ġà¤ħà¤ľ à¤¬
Ġà¤«à¤² à¤¦
Ġà¤¦à¤°à¤® à¤¹
Ġ8 9
Ġà¤Ĩà¤ª à¤Łà¤²
r am
à¤°à¤£ à¤ľ
Ġà¤Ĩà¤¯ à¤Łà¤®
à¤¸à¤¨ à¤¹
Ġà¤Ĩà¤¢ à¤³à¤£
Ġ10 8
on av
Ġà¤ľà¤² à¤¤à¤°à¤£
s c
à¤¹ à¤¬à¤¦
Ġà¤ľ à¤ķ
Ġà¤ľ à¤¯à¤ķ
à¤µà¤¤ à¤¯
à¤¬à¤¦ à¤¬
à¤ĵ à¤³à¤ĸ
à¤®à¤² à¤·
in dia
Ġà¤· à¤¡à¤¯
on e
onav irus
d r
Ġ at
à¤¹ à¤µà¤°
à¤¡ à¤°à¤²
Ġà¤ļ à¤Łà¤£
à¤ı à¤°
Ġà¤¸à¤¨ à¤¦
Ġà¥¨à¥¦à¥¦ à¥¯
à¤¾ ]
Ġà¤¸ à¤¬à¤³
à¤¶ à¤ľ
Ġà¤¤ à¤µ
Ġà¤¦ à¤¬à¤¦à¤¬
à¤¥ à¤¸à¤¹
Ġà¤Ĺ à¤«
à¤Ĩà¤¯ à¤ıà¤²
Ġ8 6
es s
4 00
à¤¯ à¤ıà¤¸à¤Ĩà¤°
à¥ģ à¥į
Ġà¤¦ à¤¸à¤°
Ġà¤¦ à¤¡à¤ª
à¤Łà¤¨ à¤¨
Ġà¤¸à¤¹ à¤ķà¤²
à¤£à¤¯ à¤¹
Ġà¥¨à¥¦ à¥¦à¥¦
à¤¡ à¤ªà¤Ł
Ġà¤ķà¤° à¤¨
à¤¹à¤£ à¤²
à¤¸à¤° à¤®à¤§
à¤Ĳ à¤ķ
à¤° à¤¬à¤¦
à¥Ģ (
Ġà¤ķ à¤µà¤ļ
à¤Ł à¤¸à¤¹
à¤ľ à¤ĺ
Ġà¤° à¤ļà¤¤
à¤µà¤° à¤¦
à¤ħà¤° à¤¡
à¤ıà¤ķ à¤Ł
à¥ª à¥Ń
Ġà¥® à¥¨
à¤¹ à¤Ĺà¤¡
Ġà¤¨ à¤®à¤¨
à¤ľ à¤Ĺà¤£
Ġà¤ļ à¤Łà¤ķ
à¤ĩ à¤ª
Ġà¥¯ à¥®
à¤Ī à¤Łà¤ļ
à¤ªà¤² à¤ļ
Ġà¤Ĩà¤¯ à¤ĵà¤ıà¤¸
Ġà¤¥ à¤Ł
à¥ª à¥®
Ġà¤Ī à¤¦à¤ļ
Ġà¥¯ à¥Ń
Ġ y
à¤® à¤°à¤¤
à¤¬ à¤ķà¤°
Ġà¤¬ à¤³à¤ľ
à¤Ĩ à¤ľà¤ķ
à¤µà¤² à¤¸
Ġ9 6
Ġà¥§à¥¯ à¥«
Ġ16 0
à¤ıà¤¶à¤¨ à¤¨
à¤² à¤°à¤¨
à¤ª à¤¡à¤£
Ġà¤® à¤¦à¤°
à¤ħ à¤ªà¤¹
à¤Ĭà¤¨ à¤®à¤§
à¤ıà¤¸ à¤Īà¤ļ
d s
à¤® à¤¡
Ġà¤¸ à¤ľà¤Ĺ
à¤¯à¤® à¤¯
Ġà¤Ĩà¤° à¤ıà¤¸
Ġà¤µà¤° à¤µà¤°
âĢĮ à¤¿
Ġà¤Ĩà¤¯à¤ıà¤¨ à¤ıà¤ķ
à¤¯ à¤ªà¤°
à¤² à¤Ĺà¤¤à¤ļ
Ġà¤Ĺ à¤¨
Ġà¤Ĺ à¤ļ
Ġà¤² à¤Łà¤ķ
Ġà¤ĸ à¤¦
à¤Ŀ à¤µà¤²
à¤Ŀ à¤¨à¤®à¤§
à¤ĵ à¤Ĺ
à¤ľà¤¸ à¤ª
Ġà¥® à¥®
Ġc ov
c l
i i
à¤¹ à¤ķà¤°
à¤ķ à¤°à¤µ
à¤£ à¤ķà¤¡
Ġà¤¸ à¤¬à¤¸
Ġà¤ħ à¤²à¤Ĺ
à¤°à¤¸ à¤¦
Ġà¥Ń à¥¦à¥¦
3 8
à¤ª à¤ľà¤¨à¤ķ
à¤¶ à¤¬à¤°
Ġà¤¦ à¤³à¤µ
Ġà¤¬ à¤¹à¤²
Ġà¤¶ à¤«
à¤ªà¤¤ à¤Ĺ
à¤² à¤ªà¤°
à¤§ à¤³à¤²
à¤¡ à¤¸à¤¹
à¤¥ à¤¹
à¤µà¤° à¤®à¤§
Ġà¤ı à¤ıà¤¨à¤Ĩà¤¯
Ġà¤ħà¤¨ à¤Ł
à¤²à¤ķ à¤Ł
à¤ĵ à¤Ł
Ġà¤ªà¤Łà¤ķ à¤¨
d a
m ah
à¤° à¤¡à¤²
à¤¨ à¤¸à¤®
à¤Ń à¤®à¤¨
Ġà¤ħà¤² à¤µ
à¤Ĳ à¤¤
à ¦
à¤¹ à¤ļà¤¤
à¤ª à¤ķà¤°
à¤Ĩ à¤¯à¤ķà¤°
à¤Ĭ à¤¡
Ġà¤Ĩà¤¤ à¤·à¤¬
Ġà¤¥ à¤ķà¤²
Ġ19 7
à¤¨à¤Ī à¤®à¤§
Ġ and
à¤¤ à¤ĸ
à¤¹ à¤¢
Ġà¤Ĩ à¤ľà¤ķ
à¤Ł à¤ķà¤¡
Ġà¤ł à¤£
à¤Ĩà¤¯ à¤«
Ġà¤ıà¤¸ à¤¯
Ġ9 7
à¤¸à¤¦à¤° à¤ļ
Ġr a
à¤° à¤Ĺà¤²
Ġà¤Ĩ à¤µà¤¡à¤£
Ġà¤¸ à¤¬à¤ķ
Ġà¤µ à¤°à¤¦
à¤¥ à¤ªà¤£
à¤Ń à¤Ł
à¤°à¤¤ à¤ħà¤®
à¤ªà¤° à¤³
à¤·à¤£ à¤µ
à¤µà¤°à¤£ à¤®
Ġà¤ĳà¤« à¤¸
à¤¼ à¤¾
a x
Ð ¾
à¤¨ à¤Ĺà¤¡
à¤Ł à¤¸à¤¨
à¤Ĩ à¤ªà¤ļ
à¤ªà¤¨ à¤µ
à¥© à¥©
Ġà¤īà¤¡ à¤µà¤¤
Ġ10 6
at e
à¤¨ à¤Ł
Ġà¤Ĩ à¤¡à¤¨
Ġà¤ļ à¤£
Ġà¤ĺ à¤¨à¤¤
Ġà¤īà¤ķ à¤³à¤¤
2017 18
i z
Ġ di
à¤ķ à¤ªà¤Ł
à¤ķ à¤ªà¤ļ
Ġà¤ª à¤¡à¤³à¤ķà¤°
Ġà¤° à¤ľà¤¤
Ġà¤ĺ à¤¶
à¤¬à¤Ī à¤ħà¤¹à¤®à¤¦
à¤¸à¤¨ à¤Ĺà¤°
Ġà¤ħà¤ľ à¤®
Ġ20 30
à¤Ĩà¤° à¤Ĩà¤¯
à¥¬ à¥«
Ġd ay
Ġà¤¸à¤« à¤²
Ġà¤ħ à¤µà¤°
Ġà¤ķà¤° à¤®à¤£
Ġà¤¬ à¤²à¤µ
Ġà¤¬ à¤±à¤¯
Ġà¤ļ à¤¹à¤°
Ġà¤ļ à¤¢à¤¤
à¤¬à¤° à¤ł
Ġà¤Ĩà¤¯ à¤¬
à¤ĩ à¤²à¤ļ
à¤®à¤ķ à¤¥
à¤¦à¤¨ à¤¹
à¤¸à¤® à¤ľ
Ġ8 8
Ġà¤¬à¤³à¤ľ à¤¬à¤°
à¤¯ à¤°à¤®à¤§
à¤¯ à¤ľà¤®
Ġà¤ħ à¤²à¤ķ
Ġà¤Ŀ à¤ķ
Ġà¤ī à¤¸à¤³
Ġà¤ħà¤ľ à¤¹à¤°
Ġà¤ħà¤µ à¤Ĺà¤¤
Ġs e
Ġà¤Ĺà¤¡ à¥Ł
Ġb cci
3 1
o g
à¤¸ à¤¨à¤ļ
Ġà¤¸ à¤µà¤°
à¤³ à¤ķà¤¤
à¤°à¤¤ à¤¬
Ġà¤¸à¤® à¤Ŀ
Ġà¤ĵ à¤°à¤¡
Ġà¤ķà¤¸ à¤°à¤¤
or t
ag e
cor onavirus
Ġà¤² à¤¯
Ġà¤ī à¤ķà¤²
Ġà¤¨à¤Ĺà¤° à¤®à¤§
Ġà¥§à¥§ à¥¦
à¤¯à¤« à¤³
à¤® à¤Ŀ
Ġà¤ħ à¤ĺ
Ġà¤¸à¤° à¤¬à¤¤
à¤°à¤ĸ à¤°
Ġ8 2
Ġà¥¯ à¥¨
ic e
p ro
à¤¨ à¤¸à¤²
Ġà¤µ à¤¢
à¤¡ à¤°à¤¸à¤¨
Ġà¤² à¤ľ
à¤°à¤ķ à¤£
Ġà¤īà¤² à¤¥
2018 19
9 0
Ġà¤² à¤ł
à¤°à¤¸ à¤ļ
Ġà¤ĵ à¤¤
à¤¨à¤² à¤ļ
Ġà¤ªà¤¸ à¤°à¤£
an i
Ġ19 6
Ġà¤Ĩà¤ļ à¤°à¤£
à¤ķà¤¢ à¤Īà¤¤
p f
u re
à¤® à¤¹à¤°
à¤¦ à¤¯à¤°
à¤¬ à¤²à¤ļ
Ġà¤¬ à¤Ĺ
à¤µà¤° à¤¸
Ġà¤ī à¤°à¤£
à¤ħ à¤ªà¤ķ
Ġà¤ıà¤ķ à¤ª
Ġà¤ħà¤¨ à¤®
Ġà¤¡ à¤Ŀà¤¨
à¤Īà¤² à¤®à¤§
à¤µà¤¨ à¤ª
à¤µà¤°à¤£ à¤ªà¤¤
an k
Ġà¤ħà¤Ŀ à¤¹à¤°
à¤¸ à¤Łà¤¤
à¤¡ à¤°à¤¸
Ġà¤ĸ à¤¤à¤ª
à¤¬à¤§ à¤¬
Ġ up
à¤Ĺ à¤°à¤ª
à¤¹à¤¤ à¤Ĺ
Ġà¤ľà¤¨ à¤°
à¤ıà¤¸ à¤ķ
à¤ıà¤¸ à¤ıà¤®à¤Ł
Ġà¤Ķ à¤·
Ġs har
5 00
h t
u g
Ġà¤ĸ à¤Ĺ
Ġà¤ĩ à¤¯à¤°
Ġà¤ķà¤² à¤¬
à¤¬à¤² à¤ª
à¤ıà¤¸à¤ı à¤²à¤µ
e ct
à¤Ł à¤ĸ
Ġà¤ı à¤ıà¤¨
Ġà¤¨à¤µ à¤µà¤°
à¤ľà¤² à¤¦
Ġà¥¨à¥¦ à¥¨à¥§
Ġà¤ªà¤¸ à¤°à¤µà¤¤
e e
à¤ļ à¤ªà¤¦
à¤¸ à¤ªà¤£
à¤¡ à¤ªà¤£
Ġà¤ľ à¤³à¤ľ
à¤ķà¤° à¤¸
à¤·à¤¯ à¤°
à¤¤à¤¨ à¤§
19 8
Ġà¤¬à¤¡ à¤¤à¤°
Ġà¥©à¥« à¥¦
à¤¯ à¤ľà¤²
à¤² à¤¬à¤ļ
à¤µ à¤ľà¤¯
à¤ª à¤ķà¤¤
Ġà¤® à¤¤à¤ª
à¥ħ à¤ģ
à¤²à¤ķ à¤¹
à¤ĵ à¤¢
Ġ9 2
à¥§à¥¯ à¥®
Ġt h
Ġin dia
vi ew
Ġà¤ĸà¤£ à¤ĸà¤£
3 00
Ġ ip
à¤² à¤¸à¤¹
à¤ª à¤ķà¤²
Ġà¤® à¤Ĺà¤°
à¤³ à¤ªà¤£
à¤Ī à¤¹
à¤°à¤§ à¤¨
Ġà¤¸à¤¹ à¤¸à¤ļ
Ġà¤Ĩà¤¯ à¤Ĩà¤°à¤¸
à¤ıà¤® à¤¡
à¤¶à¤ª à¤¥à¤µ
Ġà¤² à¤ªà¤²
Ġà¤ĺ à¤Łà¤¤
Ġà¤ł à¤Ĺ
à¤¯à¤¤ à¤¶
à¤Ĩà¤° à¤®à¤§
à¤Ĩà¤ªà¤£ à¤¹
Ġà¤ıà¤¨ à¤Ĩà¤¯à¤ıà¤¨
à¤ıà¤« à¤¨
Ġà¤Ŀà¤³ à¤ķà¤¤
Ġà¤Ĺà¤¡ à¤Ĺà¤¡
Ġ17 0
Ġà¤ķà¤£ à¤ĸà¤°
à¤²à¤ĺ à¤°à¤®à¤§
à¤® à¤ķà¤¡
à¤Ĺ à¤Ĺ
Ġà¤ķà¤° à¤¡
à¥¯ à¥¦
Ġà¤ħà¤« à¤²
Ġc r
Ġg b
Ġà¤¸à¤« à¤¦à¤°
5 5
g et
Ġ @
à¤² à¤°à¤ķ
à¤ķ à¤Ĺ
à¤ª à¤®à¤¤
Ġà¤° à¤Īà¤¸
à¤ĸà¤² à¤ª
Ġ15 1
Ġ12 4
Ġà¥² à¤ķ
Ġg ov
Ġelect ion
Ġà¤łà¤£ à¤łà¤£
Ġà¤¦ à¤¡à¤²
à¤°à¤£ à¤®
p une
w ar
à ²
à¥ĩ (
à¤°à¤® à¤²
à¤« à¤¸à¤«
Ġà¤Ĩà¤¦ à¤³
Ġà¥¨à¥¦ à¥¨à¥¨
à¥© à¥¬
Ġà¤ıà¤® à¤¡
Ġà¥§à¥§à¥ ©
Ġà¤¸à¤« à¤°à¤ļ
Ġcov id
o c
p r
à¤ķ à¤Łà¤ļ
à¤ª à¤µà¤¤
à¤¦ à¤ķà¤°
à¤Łà¤¨ à¤°
à¤Ĺà¤¤ à¤µà¤°
à¤Ĩà¤° à¤ı
Ġ201 1
Ġà¤ıà¤« à¤Ĩà¤¯
Ġc aa
à¤¯à¤£ à¤¨
à¤²à¤¬ à¤®à¤§
m a
m i
à¥ĩ à¤¾
Ġà¤µ à¤£à¤µ
Ġà¤¯ à¤®
à¤µà¤° à¤ķ
Ġà¤Ĺ à¤ľà¤°
à¤ľà¤° à¤¨
à¤¨à¤¸ à¤¶
à¥© à¥¨
à¤¯à¤¸ à¤°à¤ķ
à¤Ķ à¤¦
Ġà¤¬à¤°à¤¸ à¤²
à¤¨ à¤Īà¤²
Ġà¤ĩ à¤¯
à¤¸à¤° à¤³
Ġà¤¸à¤¹ à¤ª
Ġà¤ĺà¤¡ à¤µà¤¤
e x
à¤£ à¤Ń
à¤® à¤ªà¤°
Ġà¤Ĺ à¤®à¤¤
à¤°à¤¤ à¤Ńà¤°
à¤Ĩ à¤ķà¤¡
à¤·à¤£ à¤Ńà¤°
à¤Łà¤° à¤ªà¤°
Ġà¤ľà¤¨ à¤ķ
Ġà¤ľà¤¨ à¤®à¤¤
à¤ıà¤® à¤ľ
Ġà¥§à¥¦ à¥ª
Ġ9 4
Ġt he
Ġà¤ľà¤³à¤ľ à¤³
i an
à¤¹ à¤Ł
Ġà¤ĩ à¤¡
Ġà¤§ à¤¬à¤§à¤¬
Ġà¤µà¤¸ à¤Ī
à¤µà¤§ à¤°
Ġ10 7
Ġ9 8
Ġ11 5
Ġ30 2
Ġà¤īà¤ł à¤µà¤¤
ac k
à¤¯ à¤ĸà¤³
à¤Ĥ à¤Ĥ
Ġà¤Ĩ à¤Ĭ
à¤Ĺ à¤°à¤£
à¤ľ à¤ķà¤¡
à¤¡ à¤¨à¤²
à¤¬ à¤¸à¤ļ
Ġà¤Ĺ à¤¡à¤Ĺ
Ġà¤ī à¤¦à¤°à¤¨
à¤°à¤ķ à¤®à¤§
Ġà¤ĩ à¤Ĺ
Ġà¤Ĩà¤® à¤¸à¤Ń
Ġà¤ķà¤® à¤¬
Ġà¤¤à¤ª à¤ķ
Ġà¤ĵ à¤¤à¤£
Ġà¤ıà¤® à¤Ĩà¤¯à¤ıà¤®
à¤Ĳ à¤¨
Ġà¤¨à¤µà¤² à¤ĸ
dat a
Ñ ģ
à¤¨ à¤µà¤¡
à¤¹ à¤ļà¤µà¤£
à¤¸ à¤į
Ġà¤¬ à¤¸à¤¨
à¤ķà¤° à¤®à¤§
Ġ11 7
Ġà¥§à¥® à¥¦
b s
à¤¦ à¤°à¤ª
Ġà¤¨ à¤Ł
Ġà¤ī à¤Ŀà¤¬
à¤Ĩ à¤¦à¤°
à¤Ĩ à¤µà¤¡à¤¤
à¤¢ à¤³
à¤Ĩà¤¯ à¤Ĩà¤¯
Ġ201 2
Ġ12 2
Ġc on
Ġà¤ıà¤¨à¤Ĩà¤¯à¤ı à¤ķà¤¡
à¤ħà¤ªà¤¹ à¤°à¤£
3 4
Ġà¤¨ à¤Łà¤²
Ġà¤° à¤®à¤²
Ġà¤ªà¤° à¤ĸà¤¡
Ġà¤¸à¤¹ à¤ľà¤¤
Ġà¤Ĩà¤¯ à¤ľ
à¤ıà¤® à¤Ĩà¤¯
à¥¬ à¥¯
Ġm odi
à¤° à¤Ĺà¤³
à¤¸ à¤ªà¤°
Ġà¤¹ à¤°à¤¸
Ġà¤ľ à¤¡à¤£
à¤Ĩ à¤Īà¤¨
Ġà¤¸à¤® à¤²
à¤ľà¤¨ à¤¸
à¤ĩ à¤®à¤°
Ġ25 6
à¤ĩà¤¤à¤° à¤¹
3 7
à¤° à¤³à¤²
Ġà¤ĺ à¤°à¤ķ
à¤¯à¤ķ à¤ļ
Ġ( @
à¤ıà¤® à¤ı
Ġà¤ĩà¤¤ à¤°à¤¤
Ġà¤ħà¤Ł à¤³
à¤Łà¥Ł à¤µà¤§
Ġà¤¬à¤¬ à¤¨à¤°
à¤¨ à¤¦à¤°à¤®
à¤® à¤°à¤¨
Ġà¤Ĩ à¤¯à¤ķ
Ġà¤Ĩ à¤ķà¤²à¤¨
à¤§ à¤¸
à¤°à¤¸ à¤®
Ġà¤ªà¤¤ à¤§
à¤ī à¤ľà¤µ
à¤¹à¤³ à¤¦
Ġà¥§à¥¨ à¥®
Ġ11 9
an g
Ġf ir
Ġà¤¦à¤¡à¤ª à¤¶
3 70
Ġ is
à¤¯ à¤®à¤§
à¤¹ à¤¸à¤ļ
à¤ļ à¤ªà¤°
Ġà¤Ĩ à¤·
Ġà¤µ à¤³à¤µà¤²
à¤µà¤° à¤³
Ġà¤Ń à¤°à¤µà¤£
Ġà¤ı à¤£
Ġà¤ı à¤ļà¤¸
à¤µà¤¸ à¤¹
Ġà¤Ĩà¤¯ à¤¶
Ġà¤®à¤¦à¤¤ à¤¹
à¤Ĩà¤° à¤Ĩà¤°
Ġ4 50
Ġp m
or e
Ġt o
Ġ z
Ġà¤ Ļ
à¤² à¤¨à¤ļ
à¤¦ à¤¶à¤¹
à¤Ł à¤¬à¤¦
à¤Ĺ à¤«
Ġà¤ļ à¤·
Ġà¤§ à¤µà¤²
Ġà¤¸à¤°à¤ķ à¤²
à¤¹à¤² à¤®à¤§
Ġà¤ıà¤® à¤Ł
à¤ĸ à¤µà¤Ł
à¤¥ à¤µà¤°
à¤Ĩ à¤ī
à¤¦à¤° à¤¹
à¤¸à¤° à¤µà¤°
à¤µà¤¤ à¤¸
à¤Łà¤² à¤²
à¤®à¤¨ à¤ļ
Ġà¤Ĩà¤¯ à¤ıà¤¸à¤Ĩà¤¯
à¤°à¤ľ à¤µà¤³
à¤Ĩà¤¯ à¤Ĩà¤°à¤¸
à¤ī à¤ľ
Ġà¤¹à¤° à¤Ńà¤°
ud get
Ġac id
f f
Ġà¤Ĩ à¤ĸà¤¤
Ġà¤® à¤¡à¤Ĺ
à¤Ĺ à¤°à¤ķ
à¤³ à¤Ń
à¤ĺ à¤µà¤¨
Ġà¤ıà¤ķ à¤ıà¤ķ
à¤ªà¤° à¤«
à¤ĵ à¤°
Ġà¤ħà¤¦ à¤ĸà¤²à¤ª
Ġà¤ľà¤¨ à¤¸à¤®
Ġ14 5
Ġn rc
ol t
ĠâĢĭ âĢĭ
3 2
Ġà¤¨ à¤Łà¤°
Ġà¤ľ à¤ªà¤²
à¤Ĩ à¤°à¤ľ
à¤Ĩ à¤°à¤¨
Ġà¤ıà¤ķ à¤ķ
à¤ľà¤¯ à¤µ
à¤ī à¤¶
à¥© à¥®
à¤ıà¤² à¤¡
Ġà¥¯ à¥§
Ġ11 4
Ġà¤ıà¤®à¤ıà¤¸ à¤ıà¤®à¤Ī
p o
à¤ķ à¤¤à¤ļ
Ġà¤® à¤³à¤®à¤³
à¤ħ à¤°à¤¨
à¤°à¤® à¤®à¤§
Ġà¤ĳ à¤ĩà¤²
à¤ī à¤ķ
à¥« à¥«
à¤µà¤°à¤£ à¤ª
Ġà¤Ī à¤¡à¤¨
Ġà¤į à¤¥à¤²
à¤°à¤¬ à¤¦à¤²
Ġà¥¨à¥¦à¥¦ à¥Ń
Ġ2016 17
Ġà¥§à¥§à¥ «
Ġà¥§à¥§à¥ ¯
ing h
k ar
à¤® à¤ľà¤²
Ġà¤¨ à¤µà¤¸
Ġà¤¤ à¤¡à¤µ
à¤ĺ à¤Ĺà¤°
Ġà¤ıà¤ķ à¤²
à¤°à¤µ à¤¯
Ġà¤¸à¤° à¤«à¤°
à¤ľà¤¨ à¤µà¤°
à¤Ĩà¤¯ à¤ıà¤«
à¤¯à¤¨ à¤¨
à¤Ĺà¤¡ à¤®à¤§
Ġ14 0
Ġc bi
p n
Ġà¤ķà¤® à¤µ
Ġà¤ĸà¤° à¤¬
Ġn ew
Ġw ww
il l
Ġà¤¦à¤® à¤Ľ
à¤¹ à¤°à¤¸
à¤ķ à¤ļà¤°
à¤ı à¤ľ
à¤ľà¤¨ à¤°à¤²
00 00
à¤ľà¤² à¤µ
Ġà¤¨à¤® à¤µà¤²
Ġà¤¨à¤Ĺà¤° à¤ªà¤°
Ġin st
os s
a ct
à¤¨ à¤°à¤ĸ
Ġà¤¨ à¤®à¤µ
Ġà¤¤ à¤³à¤²
à¤ĸ à¤¨à¤¨
à¤Ī à¤¨à¤®à¤§
à¤°à¤£ à¤¯
Ġà¤¡ à¤¹
à¤Łà¤² à¤µà¤°
à¤ľà¤¨ à¤®à¤§
Ġb y
à¥¨à¥¦à¥§à¥ §
à¤µà¤Ī à¤ķà¤°
Ġà¤Ĩà¤°à¤ıà¤¸ à¤ıà¤¸à¤ļ
à ¯
à¥ĩ à¤ĥ
à¤ļ à¤°à¤£
à¤µ à¤Łà¤°à¤µà¤°
à¤® à¤¥
à¤® à¤¦à¤¨
à¤¦ à¤µà¤°
à¤Ī à¤ªà¤²
à¤Ĩ à¤Īà¤²
à¤ħ à¤¸à¤¤
à¤ľà¤ª à¤¤à¤°
à¤Ĺà¤¤ à¤¦
à¤Łà¤° à¤«
à¤ªà¤¨ à¤¦
à¤ĩ à¤Łà¤ļ
Ġà¤ªà¤¦ à¤¯
à¤ıà¤² à¤¬
Ġ500 0
à¤² à¤¶à¤¨
Ġà¤¦ à¤¬à¤²
à¤¬ à¤ª
Ġà¤ľ à¤Ĺà¤²
à¤ħ à¤ķà¤°
Ġà¤ªà¤° à¤ª
à¤·à¤£ à¤ļ
à¤¬à¤° à¤¡
Ġà¤®à¤¨ à¤°
Ġà¤ľà¤Ĺ à¤¨à¤®
Ġ10 9
à¤ľà¤µà¤³ à¤ľà¤µà¤³
à¤²à¤® à¤¡
Ġà¤«à¤³ à¤¬
Ġà¥§à¥§à¥ ª
à¤¼ à¥ĩ
Ġà¤ıà¤¨à¤ıà¤¸ à¤ľ
6 4
6 7
à¤° à¤Ĺà¤£
à¤¨ à¤®à¤ļ
à¤Ł à¤ĩ
à¤¡ à¤§
à¤· à¤ľ
Ġà¤¬ à¤Ĺà¤¦
Ġà¤¶ à¤²
à¤Ĩ à¤Ĭ
Ġà¥ ŀ
à¤¯à¤® à¤¶
à¤ľà¤¨ à¤²
Ġà¤¸à¤¤ à¤¤à¤ļ
à¤ļà¤² à¤®à¤§
Ġà¤Ĺà¤°à¤ľ à¤¹
à¤Ńà¤µ à¤µ
Ġà¤¸à¤Ĺà¤³ à¤¯
à¤ļà¤µ à¤Ł
Ġà¥§à¥¬ à¥¦
en s
Ġà¤ıà¤¨à¤Ĩà¤¯ à¤ıà¤ļ
Ġ un
à¤¤ à¤«
à¤ķ à¤µà¤¸
Ġà¤Ĩ à¤¯à¤¤
Ġà¤Ĩ à¤¡à¤ķ
à¤ª à¤Łà¤¨
à¤¦ à¤¶à¤¹à¤°
Ġà¤¤ à¤±
Ġà¤ľ à¤¯à¤¤
Ġà¤Ŀ à¤Ĺ
à¤ľà¤¯ à¤ļ
Ġà¤īà¤ªà¤¸ à¤°à¤ª
à¤²à¤° à¤µà¤°
al i
à¥¨à¥¦à¥§à¥ ¨
a st
à¤ł à¤®à¤²
Ġà¤Ĺ à¤¡à¤²
Ġà¤ªà¤° à¤¶
Ġà¤ĵ à¤¢à¤µ
à¤ķà¤°à¤£ à¤¹
à¥© à¥Ń
Ġà¤į à¤®
Ġc o
Ġà¤īà¤§ à¤³à¤£
ul t
ation al
à¥ĭ à¥ĩ
Ġà¤ħ à¤®à¤¨
Ġà¤ļ à¤¢à¤£
Ġà¤² à¤ªà¤µà¤²
à¤Ī à¤ĺ
à¤ªà¤° à¤Ńà¤£
à¥ħ à¤¾
Ġà¤¡ à¤Ĺà¤®
Ġà¤īà¤® à¤Ł
Ġà¤ªà¤ķà¤¡ à¤¤
Ġà¤¤à¤¡ à¤«
it y
à¤ħà¤« à¤µ
à¤ļ à¤ĸ
Ġà¤Ĩ à¤µà¤°à¤£
Ġà¤Ĩ à¤ĩà¤¸
Ġà¤Ĩ à¤³à¤¸
à¤Ĺ à¤¯
Ġà¤¹ à¤°à¤£
Ġà¤ļ à¤ªà¤°
Ġà¤² à¤¬
Ġà¤ī à¤łà¤¤
Ġà¤« à¤¡
Ġà¤ĩ à¤¨à¤ķ
à¤ı à¤ıà¤¨
Ġà¤Ĩà¤¤ à¤®à¤§
à¤°à¤¹ à¤ľà¤°
à¥§ à¥¦à¥¦
à¤¤à¤®à¤§ à¤²
à¤«à¤°à¤¨ à¤Ĺà¤°
Ġà¤ľà¤¯à¤¦ à¤¤
Ġà¤¸à¤«à¤¦à¤° à¤ľ
a in
à¤¹ à¤¹
à¤ļ à¤ķà¤Ł
à¤µ à¤¤à¤°
à¤Ł à¤°à¤ķà¤¡
Ġà¤ľ à¤²à¤ª
à¤ħ à¤ªà¤°
à¤ĩ à¤ķà¤¡
à¤¨à¤µ à¤¨à¤µ
Ġà¤ıà¤¨ à¤ľ
Ġà¤ıà¤¨ à¤ıà¤ļ
Ġ200 9
Ġà¤ħà¤Łà¤² à¤ľ
Ġà¤Ĺà¤¡à¤Ĺ à¤¡à¤²
à¤¤ à¤³à¤£
à¤ķ à¤Ĩà¤Ĭà¤Ł
à¤ª à¤ķà¤¡
à¤¬ à¤®
à¤°à¤¤ à¤Ń
à¤Ĩ à¤¹à¤¸
à¤ķà¤° à¤¬à¤°
Ġà¤¸à¤° à¤¶
à¤¬à¤° à¤¹
à¤Ĩà¤¯ à¤°
à¤ī à¤§
à¤ī à¤°à¤²
à¥« à¥¬
à¤ıà¤« à¤Ĩà¤¯
Ġà¤ıà¤® à¤ıà¤®à¤Ĩà¤°à¤¡
Ġà¤Ĭ à¤¨
Ġ100 00
Ġ18 8
à¤°à¤« à¤³
Ġà¥§à¥§à¥ ¨
4 9
h one
à¤¨ à¤®à¤¸
à¤¹ à¤®à¤§
à¤¸ à¤ħà¤ª
à¤Ł à¤®à¤¨
Ġà¤ħ à¤µà¤¨
Ġà¤¨ à¤Ĺà¤£
Ġà¤² à¤Łà¤ķà¤²
à¤°à¤ķ à¤±à¤£
à¤¤à¤° à¤ľ
à¤Ŀ à¤¸
à¤ıà¤¸ à¤¯
à¤ıà¤® à¤¬
Ġ11 6
Ġà¤ıà¤² à¤Ĩà¤¯à¤¸
Ġà¥¨à¥¦à¥¦ à¥¨
à¤Ł à¤Ńà¤°
à¤¶ à¤Ł
Ġà¤ľ à¤³à¤¤
à¤ĸ à¤Łà¤²
Ġà¤Ń à¤°à¤®à¤¸
à¤Ĩ à¤ľà¤ª
à¤¢ à¤¯
à¤ı à¤®à¤§
à¤Ŀ à¤ļ
Ġà¤¥ à¤²
à¤·à¤¯ à¤¸
Ġà¤®à¤¦à¤¤ à¤¨
à¥ª à¥¬
Ġà¤ıà¤® à¤ª
Ġà¥§à¥¦ à¥¬
Ġà¤į à¤²
Ġà¤°à¤® à¤ľ
Ð¾ Ð
à¤¹ à¤®à¤¨
à¤£ à¤°
à¤® à¤¦à¤°
Ġà¤ħ à¤¹à¤®à¤¦à¤¨
Ġà¤° à¤Ŀ
Ġà¤ĸ à¤µ
à¤°à¤® à¤ª
Ġà¤§ à¤¸à¤ķ
à¤¸à¤¹ à¤Ń
à¤ī à¤ªà¤¨
à¤®à¤² à¤²
à¤Łà¤®à¤§ à¤²
à¤ıà¤² à¤¸
Ġà¥§à¥¦ à¥¯
Ġà¥¯ à¥¦à¥¦
Ġà¤ıà¤« à¤¡
Ġà¤«à¤¸ à¤µà¤²
es h
à¥¨à¥¦à¥§à¥ ©
Ġà¤īà¤ľ à¤³
Ġà¤ľà¤¡à¤£ à¤ĺà¤¡à¤£
Ġà¤¸ à¤ªà¤¨
à¤¬ à¤ĺà¤¤
à¤¥ à¤®à¤§
à¤Ĺà¤² à¤µ
Ġà¤ľà¤¨ à¤¶à¤ķ
Ġà¤Ķ à¤¤
à¤ıà¤² à¤ª
Ġà¥§à¥¦ à¥Ń
Ġ200 8
Ġo p
3 3
4 2
à¤² à¤®à¤°
à¤¨ à¤Īà¤¨
à¤£ à¤¶
Ġà¤Ĩ à¤ļà¤°
Ġà¤ķ à¤¯
Ġà¤¹ à¤¶
Ġà¤¦ à¤®à¤£
Ġà¤² à¤ªà¤µà¤£
Ġà¤Ĩà¤² à¤¬
Ġà¤« à¤ľ
à¤Ĭ à¤¬
à¤Ĭ à¤¦à¤ļ
Ġà¤ķà¤°à¤¤ à¤ļ
à¤Łà¤° à¤¬
à¤¤à¤¸ à¤¹
à¤·à¤ķ à¤¹
à¤Ĩà¤¯ à¤¶
Ġb oss
Ġt est
Ġà¤Ĺà¤µà¤¸ à¤²
s k
à¤µà¤° à¤®
Ġà¤ī à¤Ĺà¤®
à¤°à¤¤ à¤¸
à¤¯à¤® à¤¹
à¤Łà¤¨ à¤¹
à¤Łà¤¨ à¤ª
à¤Ŀ à¤¨à¤ļ
Ġà¤¡ à¤Ĺ
à¤ªà¤¯ à¤¶
Ġà¤¶à¤¹ à¤°à¤µ
Ġà¤ħà¤¬ à¤ķ
Ġ15 00
7 7
à¤² à¤¸à¤°
à¤¸ à¤¡
Ġà¤¤ à¤ĸ
à¤¬ à¤ªà¤°
Ġà¤Ĺ à¤µà¤¤
Ġà¤ĸ à¤¯
à¤°à¤ª à¤¡
à¤¹à¤¤ à¤µ
à¤µà¤³ à¤ª
Ġà¤¤à¤ª à¤¸
Ġà¤ĵ à¤¹
à¥© à¥ª
à¥© à¥¯
à¤µà¤¢ à¥Ł
Ġà¤ªà¤°à¤µ à¤¡à¤¤
al l
Ġp l
Ġà¤ªà¤°à¤® à¤¬
Ġà¤ªà¤ļà¤¨ à¤ķ
à¥ ľ
à¤ļ à¤¬
à¤£ à¤ªà¤¶
Ġà¤¹ à¤°à¤µà¤¤
à¤Ĩ à¤Ń
Ġà¤§ à¤¸
Ġà¤Ĩà¤¯ à¤²
à¤¯à¤² à¤®à¤§
à¤¡à¤£ à¤ķà¤°
Ġà¤®à¤¨ à¤Ĺà¤Ł
Ġ20 25
Ġà¤īà¤ļà¤² à¤¬
Ġs ingh
Ġà¤¹à¤³ à¤¹
o x
à¤ķ à¤ħ
à¤® à¤¬à¤°
à¤Ł à¤ľ
à¤ªà¤° à¤ľ
Ġà¤§ à¤£
Ġà¤īà¤ª à¤¹
à¤·à¤£ à¤¸
à¤¤à¤ķ à¤£
Ġ2 30
à¤¨à¤µ à¤Ł
à¤ķà¤¨ à¤Ĺà¤°
Ġà¤ĸà¤³ à¤ĸà¤³
à¤ĩà¤² à¤µà¤°
Ġs p
à¤¦à¤Ĺà¤¡ à¤«
Ġ ic
à¤² à¤¤à¤ļ
Ġà¤µ à¤·
Ġà¤¬ à¤¶
Ġà¤īà¤¦ à¤¯à¤ª
à¤ıà¤¨ à¤Ł
à¤ıà¤« à¤ĵ
Ġà¤į à¤¡à¤®
Ġà¥§à¥ª à¥ª
à¤¬à¤¦à¤² à¤¤
à¤īà¤ª à¤ķà¤°
Ġà¤ĩà¤ķ à¤¬
6 6
e y
o d
o ut
Ø §
à ´
Ġà¤® à¤Łà¤£
Ġà¤¨ à¤°à¤µ
Ġà¤ī à¤ĸ
à¤ħ à¤°à¤®
Ġà¤¸à¤® à¤ķ
à¤µà¤°à¤£ à¤µ
Ġà¤ħà¤¡ à¤¸à¤°
Ġà¤Ĩà¤ª à¤Ĩà¤ªà¤²
Ġin d
b udget
à¤ª à¤¤à¤°
à¤ľ à¤Ń
à¤Ń à¤¹
Ġà¤ī à¤¡à¤£
Ġà¤¡ à¥Ł
à¥¬ à¥ª
Ġ11 2
Ġm i
Ġr es
Ġà¤¡à¤¬ à¤ĺ
Ġw i
9 5
b cci
g e
r um
à¤ļ à¤¨à¤ļ
Ġà¤¨ à¤¹
Ġà¤§ à¤¨à¤Ĺà¤°
Ġà¤īà¤ª à¤ĸ
à¤ī à¤Ń
Ġà¤Ĺà¤£ à¤²
à¥ĩ à¥į
à¤¯ à¤µà¤¤
Ġà¤ķ à¤¥à¤¨
à¤ª à¤¸à¤®à¤§
à¤¦ à¤ľ
à¤¶ à¤ªà¤¦
Ġà¤¤ à¤¬à¤²
Ġà¤¬ à¤µ
Ġà¤ı à¤®à¤ķ
à¤ĺ à¤³
à¤¤à¤ķ Âºà¤¯
à¤¯à¤² à¤¢
Ġà¤ķà¤¸ à¤¬
à¤¨à¤Ĺ à¤°à¤²
à¥¬ à¥Ń
Ġ10 3
Ġà¤Ĭ à¤¤
Ġà¤ħà¤®à¤² à¤¬à¤ľ
f c
à¥ ¥
à¤¹ à¤µà¤¤
Ġà¤ķ à¤µà¤¡
à¥ģ à¥ģ
Ġà¤ħ à¤°à¤®
Ġà¤¬ à¤²à¤°
Ġà¤² à¤Ĺà¤¤à¤ļ
à¤µà¤² à¤²
à¤ı à¤ķà¤¡
à¤ľà¤ª à¤¥
à¤¨à¤µ à¤µ
à¤ķà¤£ à¤ķà¤µà¤²
à¤ıà¤¨ à¤ıà¤ļ
Ġ13 5
Ġà¤ĵà¤ªà¤¨ à¤®à¤§
ly te
s app
u st
à¤® à¤¸à¤¹
Ġà¤ķ à¤«
à¤¦ à¤¶à¤®
Ġà¤ª à¤Łà¤µà¤°
à¤§ à¤ľà¤¨
Ġà¤¹ à¤°à¤¤
Ġà¤¹ à¤Łà¤²
Ġà¤¹ à¤Łà¤£
Ġà¤¬ à¤²à¤ķ
à¤« à¤ĸ
à¤¤à¤ª à¤¶
à¤¬à¤Ī à¤¤à¤ļ
à¤®à¤¤ à¤ļ
à¤¯à¤¨ à¤®à¤§
Ġà¤µà¤¡ à¤Ĺ
Ġà¤Ĺà¤Ł à¤µ
Ġ13 7
à¤¯à¤Łà¤¨ à¤®
à¤ķ à¤¬à¤¡
Ġà¤¤ à¤®à¤¨
à¤ĸ à¤¡à¤ķ
Ġà¤Ń à¤°à¤µà¤¸
Ġà¤¸à¤¹ à¤Ĩà¤¯
à¤Ĩà¤¯ à¤ľ
Ġà¤ĵ à¤¢à¤£
à¥¨à¥¦ à¥¨à¥¦
Ġ9 3
Ġs h
Ġà¥¨à¥¦à¥¦ à¥«
Ġà¥² à¤¨
à¤ħà¤Łà¤² à¤¬
à¤¯ à¤±
à¤ľ à¤ĺà¤°
Ġà¤µ à¤£à¤µà¤£
Ġà¤¬ à¤ķà¤°
à¤¥ à¤°à¤²
Ġà¤ĸ à¤®
Ġà¤« à¤¨
Ġà¤ľà¤¨ à¤¨
Ġ9 00
Ġ0 5
bi g
hat sapp
à¤ª à¤Łà¤ķ
Ġà¤¹ à¤°à¤µà¤£
à¤³ à¤¬
à¤ĸ à¤ª
Ġà¤Ń à¤ľà¤¨
à¤Ī à¤ķà¤²
à¤Ŀ à¤²à¤µ
à¤Łà¤ķ à¤¸à¤°
à¤ªà¤¤ à¤ļ
à¤ī à¤ªà¤µ
à¤°à¤¹ à¤ľ
à¤¸à¤® à¤¯
à¤ıà¤ķ à¤¨
à¥ª à¥¨
à¤µà¤§ à¤ªà¤£
à¤®à¤°à¤£ à¤¶à¤ķ
Ġà¤¹à¤® à¤ĸ
ag ram
um b
Ġà¤°à¤¥ à¤¯
Ġ le
à¤² à¤¬à¤¦
à¤¸ à¤µà¤°à¤¹
à¤ª à¤µà¤¨
à¤ª à¤¥à¤ķ
Ġà¤ª à¤ļ
Ġà¤ħ à¤¹à¤²
Ġà¤µ à¤ļà¤ķ
Ġà¤ľ à¤¬à¤²à¤ª
à¤ł à¤Ĺ
à¤ĺ à¤³à¤¤
Ġà¤« à¤¤à¤µ
à¤°à¤® à¤ľ
à¤µà¤² à¤ķ
à¤Łà¤ķ à¤ķ
à¤¯à¤² à¤¨
à¤ĩ à¤²à¤®à¤§
Ġà¤ĳ à¤²à¤°
Ġà¤Ĩà¤Ĺ à¤ª
Ġà¤ªà¤°à¤¤ à¤µ
Ġà¥§à¥¦ à¥®
at ter
Ġc om
à¤¯à¤Łà¤¨ à¤¸
Ġà¥¨à¥¦à¥¦ à¥ª
à¤µà¤Ĺà¤£ à¤¨
à¤²à¤¢ à¤ķà¤²
t a
à¤¤ à¤ķà¤¡
à¤µ à¤ªà¤²
Ġà¤ª à¤³à¤µà¤²
à¤¬ à¤¸à¤²
Ġà¤ħà¤¸ à¤Ń
à¤µà¤² à¤®à¤§
à¤¦à¤¨ à¤Ĺà¤°
à¤¡à¤ķ à¤³
à¥« à¥Ń
Ġà¤Ĺà¤Ł à¤¬
Ġ11 3
Ġà¤Ĺà¤¤ à¤µà¤°
à¤®à¤¶ à¤¹
en ce
Ġà¥² à¤¡
Ġà¤ļà¤¹ à¤²à¤¨
Ġà¥§à¥§à¥ Ń
à¤¨à¤Ń à¤µà¤¨
Ġà¤ıà¤ķà¤µ à¤Łà¤²
Ġ âĢ
à¤° à¤Ĭà¤°
Ġà¤Ĩ à¤¤à¤²
Ġà¤ĸ à¤µà¤³à¤²
à¤¹à¤£ à¤ķà¤°
Ġà¤¡ à¤°
Ġà¤ħà¤ª à¤ª
Ġà¤īà¤ªà¤¸ à¤®
Ġà¤®à¤¨ à¤¦
Ġà¤¨à¤ķ à¤³à¤¤
Ġà¤Ľ à¤Ł
Ġà¤ľà¤Ĺ à¤ª
à¤°à¤Ń à¤ķ
à¤Ĺà¤¡ à¤¬à¤¡
Ġà¤¬à¤² à¤¸
Ġf in
Ġf or
Ġà¥§à¥§à¥ ¬
Ġl ive
Ġe x
à °
à¤¤ à¤ľà¤®
à¤Ĺ à¤°à¤²
Ġà¤ħ à¤¬à¤°
Ġà¤ħà¤¸ à¤Ĺà¤°
Ġà¤ĺ à¤Ī
Ġà¤ī à¤¬
Ġà¤Ĩà¤² à¤®
à¤ķà¤° à¤¹
à¤¸à¤° à¤¶
à¤¤à¤ķ à¤²
à¤ĩ à¤¨à¤®à¤§
Ġà¤®à¤¨ à¤§à¤°à¤£
à¥« à¥¨
Ġ5 50
Ġà¤¨à¤Ĺ à¤°à¤ļ
ar m
à¥ĩ' '
à¤µà¤¹à¤¨ à¤®
Ġà¤¸à¤Ī à¤¦à¤ļ
Ġà¤µà¤°à¤ļ à¤¢
p p
Ġ icc
à¥į à¤Ĥ
à¤¤ à¤¨à¤µ
à¤ķ à¤±à¤¯
Ġà¤¯ à¤¤
Ġà¤ľ à¤¯à¤µ
Ġà¤ĺ à¤Łà¤£
à¤°à¤¤ à¤ĳà¤¸
à¤Ī à¤Ŀ
à¤°à¤¸ à¤°à¤ķ
à¤ľà¤ª à¤¬à¤°
à¤°à¤¦ à¤¯à¤µ
à¤¸à¤¨ à¤°
à¤¯à¤¦ à¤³
Ġ10 2
Ġ9 99
Ġshar ed
6 8
o h
p os
à¤° à¤°à¤¥
à¤¹ à¤ĸ
à¤£ à¤¡
Ġà¤Ĩ à¤ªà¤¨
Ġà¤µ à¤°à¤¤
Ġà¤Ĺ à¤¢
Ġà¤ļ à¤Ł
Ġà¤Ŀ à¤®
à¤Ī à¤ķà¤°
Ġà¤¸à¤° à¤²
Ġà¤ħà¤ª à¤¹
à¤¨à¤² à¤µà¤°
Ġà¤¯à¤¶ à¤°
à¤¨à¤° à¤µà¤°
Ġà¤ľà¤® à¤¶
à¤ıà¤® à¤ĵ
à¤¯à¤° à¤¬
Ġà¤¬à¤³ à¤ķ
Ġs bi
Ġ500 00
Ġg am
Ġà¤²à¤ĸà¤¨à¤Ĭ à¤®à¤§
à¤ıà¤¸à¤ıà¤¨ à¤ıà¤²
à¤ķ à¤Łà¤²
Ġà¤ħ à¤³
Ġà¤ħ à¤¦à¤¨
Ġà¤¤ à¤Łà¤¸
Ġà¤Ŀ à¤¡à¤ª
Ġà¤« à¤ľà¤²
à¤¤à¤² à¤Ĺ
à¤¸à¤² à¤°
à¤®à¤¤ à¤¹
à¤µà¤¨ à¤Ĺà¤°
Ġà¤²à¤Ĺ à¤¬à¤Ĺ
à¥¬ à¥®
à¤ĳ à¤Ł
Ġm ah
Ġre ad
end ra
l i
à¤¤ à¤ľà¤£
à¤µ à¤¯à¤¨
Ġà¤ħ à¤ľà¤°
Ġà¤ī à¤ķà¤¡à¤²
à¤Ĺà¤³ à¤¤
à¤ī à¤¥
à¤²à¤¤ à¤¤
à¤Łà¤£ à¤ķà¤°
à¤°à¤¥à¤® à¤¦à¤°
Ġ12 6
201 3
Ġà¥§à¥Ń à¥«
Ġà¤īà¤²à¤Ĺ à¤¡à¤²
Ġinst agram
5 7
g r
à¤¨ à¤°à¤¸
à¤¨ à¤®à¤¨
Ġà¤ħ à¤¡à¤²
à¤¬ à¤¯
à¤Ī à¤¡à¤ļ
à¤Łà¤¨ à¤°à¤¶
à¤¦à¤¨ à¤ķ
à¤Ĩà¤° à¤ıà¤¸à¤ıà¤¸
à¤ıà¤« à¤Ĩà¤¯à¤Ĩà¤°
Ġ7 50
Ġà¤¨à¤® à¤µà¤¤
Ġ18 2
Ġs ms
Ġà¤¸à¤£ à¤¸à¤£
à¤ľà¤¬ à¤°à¤¦à¤¸
Ġà¤Ĺà¤µ à¤Ī
Ġk han
à¤ļà¤ªà¤¦ à¤¸
a ch
f or
i o
n a
à¤¨ à¤ī
Ġà¤Ĺ à¤¬
Ġà¤Ĺ à¤³à¤ļ
Ġà¤ĺ à¤¨à¤®
à¤¤à¤° à¤£à¤ļ
à¤ħ à¤ªà¤¯à¤¶
à¤Ĺà¤¡ à¤ķà¤°
à¥¨à¥¦ à¥§à¥¦
à¤ıà¤ļ à¤ĵ
Ġà¤ıà¤ļ à¤Ĩà¤¯à¤µ
Ġm ore
à¤°à¤Ĺà¤³ à¤²
à¤Ĩà¤ī à¤Ł
4 6
8 3
s bi
s amp
Ð »
à¤° à¥Ł
à¤¸ à¤®à¤¤
à¤¦ à¤¡
Ġà¤ª à¤łà¤£
Ġà¤¤ à¤¸à¤ļ
à¤· à¤µà¤£
à¤¬ à¤ľà¤°
Ġà¤° à¤¡à¤²
Ġà¤¸à¤® à¤Ĺ
à¤Ĭ à¤³
à¤¦à¤° à¤¡
à¤¶à¤¨ à¤®
Ġà¤ĵ à¤ł
à¤¯à¤¨ à¤²à¤ļ
Ġ20 3
à¤Ńà¤° à¤¹
Ġ4 000
Ġà¤ħà¤¡ à¤ĸ
Ġà¥§à¥¦ à¥¨
Ġà¥§à¥¨ à¥¨
Ġc ase
Ġà¤ıà¤² à¤ıà¤²à¤¬
Ġ16 2
Ġ17 6
Ġà¤Ĩà¤³ à¤¶
Ġnew s
à¤ķ à¤ľà¤¨
Ġà¤¸ à¤ľà¤µ
à¤Ĺ à¤¦à¤°à¤®
Ġà¤µ à¤¨à¤ª
à¤³ à¤§
Ġà¤ļ à¤ªà¤³
à¤¯à¤ķ à¤²à¤ļ
à¤« à¤®à¤§
à¤°à¤ª à¤³à¤²
à¤Ĺà¤¤ à¤µ
Ġà¤Ĳ à¤ļ
Ġà¥§à¥« à¥¦à¥¦
Ġà¤ĵà¤° à¤¡à¤¤
Ġà¤¹à¤³à¤¹ à¤³à¤²
atter y
g st
i b
Ã Ń
Ġ eng
à¤° à¤Ĺà¤°
à¤¯ à¤ªà¤¨
à¤¨ à¤¸à¤ļ
à¤ķ à¤Ĩà¤°
Ġà¤¸ à¤¶à¤°
à¤Ł à¤°à¤¤
Ġà¤° à¤¨à¤¨
à¤ĸ à¤°à¤¨
Ġà¤¶ à¤°à¤¸
à¤°à¤ķ à¤µà¤°
à¤°à¤¤ à¤°à¤¶
à¤Ĩ à¤Ŀ
à¤Ĭ à¤¸à¤¹
à¤·à¤£ à¤ķ
à¤µà¤³ à¤®à¤§
à¤ıà¤« à¤ª
à¥¨à¥¦à¥¦ à¥¯
à¤¸à¤Ĺà¤¢ à¤®à¤§
n u
Ð º
à¤¯ à¤¸à¤®
à¤¿ à¤¾
à¤¹ à¤²à¤ķ
Ġà¤Ĩ à¤ĩ
à¤ª à¤ļà¤¨
à¤Ĺ à¤ķà¤°
à¤· à¤ķà¤°
à¤¥ à¤Ĺà¤¤
Ġà¤Ń à¤°à¤ķ
Ġà¤ıà¤ķ à¤¸à¤®
Ġà¤ħà¤ª à¤¶à¤¬
Ġ3 000
à¤ıà¤ķ à¤ļ
à¤¤à¤¨ à¤Ĺà¤°
Ġ201 0
Ġà¤Ĳ à¤¸
20 30
Ġà¤¸à¤¨ à¤¸à¤¨
à¤Īà¤ķ à¤µà¤°
Ġà¥§à¥¦ à¥©
ic k
Ġv id
as h
à¤Ĺà¤Ŀ à¤¡à¤¤
3 6
c a
m an
Ñ Ģ
Ġà¤ ¿
à¤¨ à¤Ŀ
à¤ľ à¤Ńà¤°
à¤¬ à¤¬
Ġà¤ī à¤ķà¤¡
à¤°à¤ķ à¤ª
à¤¤à¤° à¤®à¤§
à¤Ĩ à¤¯à¤®
Ġà¤īà¤ª à¤īà¤ª
Ġà¤ľà¤¨ à¤®
à¤¬à¤² à¤®à¤§
à¤°à¤µà¤ł à¥Ł
Ġà¤ķà¤³à¤¤ à¤ļ
Ġà¤ıà¤² à¤ľ
Ġà¤ĸà¤¡à¤ķ à¤µ
Ġà¤ļà¤® à¤ķà¤²
à¤½ à¤½
Ġth is
v ir
à¤¹ à¤ļà¤µ
à¤ķ à¤®à¤¤
à¤¸ à¤Ī
à¤¡ à¤°à¤¨
Ġà¤° à¤¨à¤ļ
à¤ĸ à¤ªà¤¤
à¤Ĺà¤² à¤¬
à¤ļà¤² à¤ļ
à¤ıà¤¸ à¤Ĩà¤¯à¤Ĩà¤°
Ġà¥§à¥¨ à¥ª
at h
Ġ14 2
Ġà¤īà¤§ à¤®à¤ª
Ġà¤¸à¤¦à¤° à¤ļ
Ġà¥§à¥§à¥ ®
Ġà¤¡à¤Ĺà¤® à¤Ĺà¤²
a j
e et
à¤¹ à¤Ĺ
Ġà¤¸ à¤ľà¤²
Ġà¤¬ à¤Łà¤°
Ġà¤ī à¤łà¤£
à¤ħ à¤·
à¤ķà¤° à¤¶
à¤·à¤£ à¤¤à¤ľ
Ġà¤ĳ à¤¥
Ġà¤ĵ à¤¢à¤¤
Ġ20 24
à¥« à¥¦à¥¦
à¥Ń à¥©
Ġà¤¶à¤ªà¤¥ à¤ªà¤¤
Ġà¥² à¤£
Ġà¤¬à¤°à¤¸ à¤¤
d ay
Ñ Ĥ
à¤¨ à¤¯à¤¨
à¤°à¤ķ à¤¹
à¤®à¤§ à¤¡
à¤°à¤µ à¤ªà¤¦
à¤¶à¤¨ à¤¦
à¤¯à¤² à¤Łà¤ļ
Ġà¤ħà¤ľ à¤¹à¤°à¤²
Ġà¤Ĩà¤ł à¤¹
à¥Ń à¥§
Ġà¤Ī à¤¬
Ġà¤ªà¤°à¤µ à¤¡
à¤ħà¤ª à¤µ
ar d
ar s
à¤¨à¤¶ à¤°
à¤Ĳ à¤¸
Ġà¥§à¥ª à¥¦
Ġ16 6
Ġà¥¨à¥¦à¥¦ à¥¬
ro p
2016 17
à¤ł à¤³
Ġà¤Ń à¤°à¤µ
Ġà¤Ń à¤°à¤µà¤¶
à¤Ĩ à¤łà¤µà¤£
Ġà¤ł à¤ķ
à¤®à¤¨ à¤µ
à¤¸à¤¨ à¤¸
Ġà¤ĳ à¤¨à¤¸
à¤ī à¤ªà¤²à¤¬
à¤ī à¤¨à¤®
à¤¶à¤² à¤®
Ġà¤ķà¤² à¤¹
à¥Ń à¥¬
à¥® à¥®
Ġà¤ľà¤¯ à¤µà¤°
Ġà¤ħà¤¡ à¤¸
Ġ11 8
Ġn z
Ġà¤ħà¤¸à¤¹ à¤®à¤¤
ud y
olt age
Ġgam es
4 4
8 8
f o
Ġ âĢĮ
à¤² à¤Łà¤²
à¤¹ à¤°à¤ª
à¤¸ à¤ªà¤¦
à¤® à¤¸à¤®à¤°
Ġà¤¨ à¤¸à¤°
à¤ľ à¤¬à¤°
Ġà¤ķà¤° à¤¸
à¤ĸ à¤ł
à¤Ń à¤ļ
Ġà¤ļ à¤Łà¤°
à¤ı à¤²à¤¨
à¤Łà¤¨ à¤²
à¤°à¤¦ à¤¯
à¤¯à¤¤ à¤ļ
à¤ĩ à¤Ŀ
Ġà¤®à¤¨ à¤ľ
à¤¯à¤ª à¤ļ
à¤Łà¤µà¤° à¤ļ
à¤Łà¤¸ à¤ħ
Ġà¤į à¤°
di an
Ġà¤¦à¤¶à¤ķ à¤Ńà¤°
i e
u ct
y a
y st
à¤¾ à¥ħà¤Ĥ
à¤¯ à¤µà¤¤à¤®
à¤µ à¤ĸà¤°
à¤¸ à¤Łà¤²
à¤¦ à¤µà¤¡
Ġà¤¦ à¤°à¤¦
Ġà¤ľ à¤¸à¤µ
Ġà¤° à¤ľà¤ª
Ġà¤ķà¤° à¤¶
Ġà¤¬ à¤¬à¤²
Ġà¤¶ à¤°à¤®
Ġà¤Ŀ à¤Ĺà¤¡
Ġà¤ı à¤Ĩà¤¯à¤ıà¤®
à¤ĺ à¤¶
à¤Ĩ à¤¬
à¤Ĩ à¤°à¤µ
à¤¢ à¤Ĺ
à¤ķà¤¡ à¥Ł
à¤Ŀ à¤ª
à¤¦à¤° à¤®à¤§
Ġà¤Ĩà¤® à¤²
Ġà¤ĳ à¤¨à¤°
à¤¸à¤¤ à¤¤à¤ļ
Ġà¤ľà¤¨ à¤§à¤¨
Ġà¤īà¤® à¤¦
à¥ª à¥ª
à¤ķà¤® à¤²à¤¨
Ġà¤Ĺà¤£ à¤°
Ġa m
Ġà¥¨à¥¦à¥¦ à¥©
ion s
à¤Ĩà¤¯à¤ıà¤® à¤¡
à¤īà¤ªà¤¨ à¤Ĺà¤°
à¤° à¤²à¤¯
à¤£ à¤¬à¤¤
à¤¦ à¤ķà¤¡
Ġà¤ª à¤¢
à¤Ĺ à¤ķà¤¡
Ġà¤ħ à¤łà¤°
Ġà¤ľ à¤ľ
à¤ĸ à¤¶
à¤ĸ à¤¬
à¤¸à¤Ń à¤°
Ġà¤¥ à¤°à¤ķ
à¤¡à¤ķ à¤ªà¤ļ
à¥« à¥¯
à¤§à¤¤ à¤¶
Ġp r
Ġ0 1
co vid
à¤ıà¤ħà¤° à¤Ł
à¤ķà¤¸à¤¹ à¤Ń
Ġvid eo
b jp
à¤¯ à¤Łà¤²
à¤² à¤¬à¤¹
à¤ľ à¤ľ
à¤³ à¤°
Ġà¤¬ à¤§
Ġà¤Ń à¤ľ
Ġà¤ĸ à¤ª
à¤°à¤® à¤°
à¤°à¤µ à¤³
à¤µà¤£ à¤ķ
à¤¶à¤¨ à¤ª
Ġà¤Ĩà¤¤ à¤¡
à¤ĵ à¤ı
à¤Ĩà¤¯ à¤ıà¤¨à¤ıà¤¸
Ġà¤®à¤² à¤Ī
Ġà¤¥ à¤°à¤¥
Ġ4 20
à¤ıà¤® à¤Ĩà¤°à¤¸
à¥ª à¥©
à¥® à¥©
à¤ħà¤® à¤°à¤¨
Ġà¤ħà¤« à¤°
Ġ19 0
al s
à¤®à¤¶ à¤¤
Ġà¥¨à¥© à¥¦
Ġà¥¨à¥¦à¥§à¥® à¥§à¥¯
à¤ĳà¤« à¤®à¤§
à¤¤ à¤¸à¤ļ
à¤² à¤¸à¤ļ
à¤¹ à¤°à¤®
Ġà¤ª à¤£à¤¤
Ġà¤® à¤¶à¤°
Ġà¤¨ à¤°à¤ķ
Ġà¤¹ à¤³à¤µ
Ġà¤¦ à¤¹à¤¨
Ġà¤° à¤®à¤¤
Ġà¤¨à¤µ à¤ĸ
Ġà¤Ĩà¤® à¤Ł
à¤®à¤Ĺ à¤¡
à¤ħà¤¶ à¤ķ
Ġà¤ıà¤® à¤ı
à¤¡à¤° à¤°à¤¨
Ġt ra
co v
un d
à¥¨à¥¦à¥¦ à¥®
ub g
Ġà¤¡à¤Ŀà¤¨ à¤Ńà¤°
8 5
o w
à¤¾ à¥Ģ
Ġà¤ķ à¤µà¤³
Ġà¤ª à¤³à¤£
Ġà¤µ à¤¯à¤¸
à¤¡ à¤°à¤¶
à¤°à¤¤ à¤ľ
Ġà¤ķà¤°à¤£ à¤ļ
à¤Ī à¤Ĺà¤¡à¤¬à¤¡
Ġà¤¸à¤® à¤¯
à¤ıà¤² à¤Ł
Ġà¤ªà¤¥à¤ķ à¤¹
à¤®à¤®à¤§ à¤²
Ġà¤¤à¤³ à¤ªà¤¦
Ġ30 3
Ġà¥§à¥© à¥«
Ġ200 4
Ġà¤ıà¤ħ à¤°à¤¸
Ġà¥¨à¥¦à¥§à¥¬ à¥§à¥Ń
à¤¤à¤¸à¤° à¤®à¤§
à¤ıà¤®à¤ıà¤² à¤ı
à¤° à¤¯à¤¸
à¤¤ à¤³à¤²
à¤¯ à¤¬à¤ļ
à¤² à¤¸à¤¨
à¤¨ à¤¥
à¤ķ à¤¦à¤²
à¤Ĺ à¤¨à¤ļ
à¤ľ à¤°à¤ļ
à¤²à¤¯ à¤ļ
Ġà¤Ĩà¤¯ à¤ıà¤®
à¤ķà¤² à¤²
à¤ħà¤° à¤¹
à¤ī à¤ªà¤¯
Ġà¤ķà¤² à¤Ĺ
Ġà¤¶à¤¹ à¤°à¤ª
à¤¡à¤¸ à¤ĩ
Ġà¥§à¥¯ à¥¦
er m
Ġà¥§à¥§à¥ §
à¤¼ à¥į
Ġà¤ħà¤Ŀ à¤¹à¤°à¤²
umb ai
6 9
n ational
à¤¯ à¤¸à¤ļ
à¤¹ à¤¡à¤ªà¤¸à¤°
à¤¸ à¤ĳà¤«
Ġà¤¨ à¤¨
à¤ľ à¤±
Ġà¤° à¤®à¤¨
à¤°à¤® à¤¯
à¤°à¤® à¤¦
Ġà¤¸à¤¹ à¤¨à¤¶
à¤Ĺà¤£ à¤ªà¤¤
à¤£à¤¤ à¤ķ
Ġ2 20
à¤¯à¤ļ à¤¯
à¤ĵ à¤ıà¤ļ
à¤¹à¤¨ à¤²
à¤µà¤ķ à¤¯
à¤ªà¤ļ à¤¯
Ġ10 1
Ġà¤ıà¤ħà¤° à¤¬
Ġ16 4
Ġj un
p h
Ġ &
Ġ Âł
à¤¯ à¤ľà¤¨
à¤² à¤ł
à¤¿ à¥ĩ
Ġà¤Ń à¤°à¤µà¤²
à¤Ĩ à¤¢
à¤Ŀ à¤°à¤®à¤§
Ġà¤¡ à¤²
à¤¹à¤° à¤¹
à¤ľà¤¯ à¤¶
à¤²à¤¨ à¤¸
Ġà¤ĵ à¤¤à¤²
à¤łà¤ķ à¤¹
Ġà¤®à¤° à¤Ĺà¤³
à¤Ĩà¤ªà¤£ à¤ļ
à¥Ń à¥ª
à¤ıà¤² à¤Ĩà¤¯à¤¸
Ġà¥§à¥Ń à¥¦
Ġr cb
Ġà¤ĵà¤° à¤¡à¤²
ig n
Ġà¤Ĩà¤¯à¤ıà¤¸ à¤Ĩà¤¯à¤ļ
electro lyte
Ġà¤®à¤¦à¤° à¤¶
big g
m ent
o k
t s
t y
à¤° à¤µà¤°à¤ļ
à¤¤ à¤µà¤¤
à¤£ à¤¤à¤°
à¤¶ à¤ķà¤¡
Ġà¤¹ à¤«
Ġà¤¦ à¤Łà¤ķ
à¤¥ à¤ªà¤°
à¤Ń à¤¸
à¤¯à¤ķ à¤¹
à¤Ĩ à¤·
à¤°à¤® à¤ķà¤¤
à¤¦à¤° à¤ªà¤£
Ġà¤¨à¤µ à¤ķà¤²
à¤°à¤¦ à¤ķ
à¤Ĺà¤£ à¤ļ
à¤¸à¤¹ à¤¸
à¤¹à¤¨ à¤¤à¤³
à¥« à¥§
Ġà¤Ĳ à¤°
Ġà¤Ĩà¤Ī à¤ķà¤¡
à¥¯ à¥¬
à¤¯à¤¶ à¤°
Ġà¥§à¥¨ à¥¬
Ġs c
Ġp ol
as s
à¤Ĩà¤¦ à¤°à¤£
im e
à¤Ĺà¤ł à¤¬
2015 16
Ġà¤¨à¤¯à¤¨ à¤¤
Ġup dat
à¤ķà¤ľà¤¨ à¤¶à¤ķ
Ù Ħ
à¤ļ à¤ķà¤³
Ġà¤Ĩ à¤¸à¤°
Ġà¤ķ à¤Łà¤°
Ġà¤ª à¤ĸ
Ġà¤µ à¤Łà¤µ
à¤¬ à¤ļà¤¤
Ġà¤ĺ à¤°à¤µ
à¤¤à¤° à¤ªà¤¶
Ġà¤ı à¤Ĩà¤¯
à¤Ĩ à¤µà¤¡
à¤« à¤°à¤ķ
Ġà¤ªà¤° à¤Ĺà¤£
Ġà¤¸à¤° à¤¬à¤ľ
à¤°à¤ª à¤³à¤¤
à¤ı à¤°à¤µ
Ġà¤ħà¤¨ à¤«
à¤Ĺà¤£ à¤¦
à¤¯à¤¨ à¤¸
à¤ıà¤ķ à¤¤à¤°
à¤¨à¤ķ à¤ļà¤°
Ġà¥¨à¥« à¥¬
Ġm y
Ġà¤ıà¤«à¤Ĩà¤¯à¤Ĩà¤° à¤®à¤§
à¤ıà¤¨à¤ıà¤¸ à¤ľ
ÂłÂł ÂłÂł
el l
Ġch amp
Ġà¤ĸà¤¦ à¤ĸà¤¦
3 9
d t
g ov
i es
t ro
à¤¹ à¤¸à¤°
à¤§ à¤¨à¤ļ
à¤°à¤¤ à¤²
à¤ĺ à¤³à¤£
Ġà¤¡ à¤³à¤®à¤³
à¤Ĺà¤² à¤Ł
à¤®à¤¨ à¤°
à¤ıà¤® à¤µà¤°
à¤ıà¤« à¤®à¤§
à¤²à¤® à¤ľ
Ġà¥§à¥« à¥§
ar endra
Ġà¥¨à¥¦à¥¦ à¥§
ur b
2019 20
à¥į à¤¾
à¤¤ à¤«à¤°
à¤® à¤¸à¤¤
Ġà¤ķ à¤¸à¤°
Ġà¤ª à¤²à¤ķ
Ġà¤µ à¤¨à¤ķ
Ġà¤² à¤µà¤²
Ġà¤ķà¤°à¤£ à¤¨
Ġà¤ĸ à¤°à¤ª
à¤ħ à¤¸à¤ļ
à¤ªà¤° à¤®à¤§
à¤µà¤² à¤ļ
à¤Ĭ à¤£
Ġà¤ħà¤¨ à¤Ń
à¤Ŀ à¤Ĺ
Ġà¤¨à¤µ à¤Ń
à¤°à¤ªà¤Ł à¤ļ
Ġà¤¸à¤¹ à¤Ĺà¤²
Ġà¤®à¤¤ à¤¹
à¤Ľ à¤¡
à¤¤à¤® à¤°
à¤¤à¤® à¤¸
à¥« à¥®
Ġà¤ªà¤¡ à¤ĺà¤®
Ġà¤ĺà¤Łà¤ķ à¤ªà¤ķ
Ġ14 7
al a
ct c
ct v
as ian
Ġà¤łà¤³à¤ķ à¤ªà¤£
Ġop en
Ġ an
Ġà¤ķ à¤²à¤ķà¤¤
Ġà¤¸ à¤ķà¤¸
Ġà¤¸ à¤ªà¤ķ
Ġà¤ª à¤Ĺà¤¡
Ġà¤® à¤¡
à¤ľ à¤ķà¤²
à¤¡ à¤Ń
Ġà¤² à¤¦
Ġà¤Ŀ à¤Łà¤¤
Ġà¤ī à¤¥à¤ª
Ġà¤®à¤¹ à¤¬
à¤ªà¤° à¤¨
à¤ªà¤² à¤¨
à¤Īà¤² à¤¹
à¤ĩ à¤¬
à¤ªà¤¦ à¤¹
Ġà¤¬à¤¦à¤² à¤¹
à¤ªà¤Ł à¤£
à¤ħà¤² à¤®
à¤¯à¤Ŀ à¤°à¤ļ
à¤ĭ à¤·à¤Ń
im s
ac e
Ġip hone
m c
p l
u k
w e
w ho
Ġ âĢį
à¤² à¤¬à¤ľ
à¤¹ à¤¡
à¤µ à¤µà¤°
à¥Ĥ à¥Ĥ
à¤Ĺ à¤®à¤ª
Ġà¤¨ à¤Ŀ
à¤¡ à¤®à¤¨
à¤ĸ à¤±
à¤µà¤° à¤µà¤°
Ġà¤ı à¤¹à¤¸
à¤Ī à¤ıà¤¸
à¤¯à¤ķ à¤²à¤¸
à¤ĺ à¤¹
à¤Ĩ à¤µà¤°
à¤Ĩ à¤Ŀà¤®
à¤µà¤¤ à¤¨
à¤Ĺà¤¤ à¤ľ
Ġà¤Ĩà¤¤ à¤ļ
Ġà¤®à¤² à¤¬
Ġà¤¦à¤¹ à¤¶à¤µ
à¤ļà¤¨ à¤¨
à¥Ń à¥Ń
à¤¸à¤®à¤§ à¤²
Ġà¤ĩà¤¥ à¤ªà¤°
Ġà¤ªà¤² à¤Łà¤£
Ġà¤Ĩà¤µà¤° à¤¤
ir ctc
ch ar
Ġ2015 16
ab ad
Ġà¤ªà¤¥ à¤¦
4 1
p ul
r an
r bi
Ġ 00
à¤° à¤ĺà¤°
à¤² à¤°à¤¹
à¤§ à¤°à¤µà¤¡
Ġà¤ĺ à¤¨à¤¶
Ġà¤ĺ à¤¨à¤µà¤Ł
à¤ĺ à¤Łà¤¸
à¤Ĩ à¤°à¤¤
à¤Ĩ à¤µà¤³
Ġà¤ĩ à¤·
à¤¯à¤® à¤¬
Ġà¤ħà¤¶ à¤°à¤«
à¤Ĺà¤³ à¤¸
Ġà¤ħà¤® à¤ľà¤¦
Ġà¤ªà¤¦ à¤ķà¤µ
à¤ī à¤ĺà¤¡
Ġà¤ħà¤² à¤µà¤°
à¥« à¥ª
Ġà¥§à¥¦ à¥§
Ġa s
à¤Ĩà¤Ī à¤¬
Ġà¤¸à¤« à¤²à¤¤
is s
Ġà¤ĸà¤² à¤¬à¤¤
à¤¸à¤į à¤ª
f i
s o
w er
à¤¯ à¤£à¤¸
à¤ķ à¤ı
Ġà¤¸ à¤¡à¤²
Ġà¤® à¤®
à¤§ à¤µà¤°
à¤¡ à¤¸à¤°
à¤¡ à¤¸à¤®
Ġà¤¦ à¤³
Ġà¤¦ à¤«à¤¨
à¤ĸ à¤ķà¤°
à¤µà¤° à¤Ĺ
Ġà¤Ĺ à¤ľà¤¬
Ġà¤Ŀ à¤¡à¤²
Ġà¤« à¤£à¤¸
à¤ħ à¤¡à¤µ
à¤« à¤°à¤ļ
Ġà¤§ à¤¨à¤¤
à¤ı à¤ıà¤®
à¤ı à¤Łà¤°à¤®à¤§
à¤¦à¤² à¤ª
à¤°à¤¨ à¤ª
à¤®à¤ķ à¤¹
à¤¹à¤² à¤ªà¤°
à¤¬à¤² à¤¸
à¤ıà¤ķ à¤¦à¤®
à¥Ń à¥®
Ġà¤¬à¤² à¤¬
à¤²à¤ķà¤° à¤²
Ġà¤§à¤µà¤¨ à¤²
Ð ½
à¤ ´
à¤² à¤§
à¤² à¤µà¤¡
à¤ķ à¤Łà¤ķ
Ġà¤¦ à¤¸à¤±
à¤³ à¤¦
Ġà¤Ĺ à¤¹à¤¨
à¤¯à¤ķ à¤®
Ġà¤ıà¤ķ à¤¬
à¤ķà¤° à¤µà¤°
à¤ªà¤° à¤Ĺ
à¤ªà¤° à¤ĸ
à¤Ŀ à¤°à¤²
à¤¹à¤¤ à¤ķ
à¤ľà¤¨ à¤¨
à¤µà¤¨ à¤¦
à¤²à¤¨ à¤ª
à¤µà¤°à¤£ à¤¹
à¤¡à¤° à¤°à¤ļ
19 7
Ġà¤¬à¤¡ à¤¬à¤¡
Ġw ho
à¤°à¤ľà¤¨ à¤¨
Ġà¤²à¤ª à¤µà¤¤
Ġà¤ªà¤¥ à¤¦à¤°
Ġà¤¬à¤°à¤¸ à¤£
dr f
Ġà¤īà¤ĸ à¤¡à¤²
samp le
p ho
u di
» ¿
ï »¿
à¤¯ à¤ĳà¤ķ
à¤¨ à¤°à¤ªà¤¦
à¤ķ à¤®à¤¹
à¤ķ à¤¬à¤¸
à¤µ à¤Ĩà¤ĺ
Ġà¤® à¤£à¤ķ
Ġà¤® à¤¤à¤ªà¤¤
à¤Ł à¤ħ
Ġà¤ļ à¤ªà¤²
à¤°à¤£ à¤ķà¤°
Ġà¤®à¤¹ à¤°
Ġà¤§ à¤¨à¤°
à¤¦à¤° à¤¬
à¤Ĺà¤² à¤®
à¤Ľ à¤Ĺà¤¨
Ġà¤ľà¤¨ à¤¸à¤Ń
Ġà¤¯à¤¶ à¤ª
Ġà¤ľà¤® à¤µà¤£
à¤¨à¤ķ à¤ªà¤£
Ġà¤ªà¤£ à¤¨
Ġà¤Ī à¤²
à¤ķà¤ª à¤¡
Ġà¥§à¥¨ à¥©
Ġà¤Ĩà¤¢à¤³ à¤°
Ġ200 2
Ġà¤īà¤ľ à¤³à¤£
à¤ıà¤ı à¤µ
Ġà¤īà¤ķ à¤³à¤²
and hi
à¤ħà¤µà¤ĺ à¤¡
sp ect
Ġà¤ĩà¤¨à¤ķ à¤®
Ġjun ction
j ay
r on
à ª
à¤¹ à¤¨à¤µ
à¤£ à¥Ł
à¤ª à¤¸à¤®
à¤¦ à¤¨à¤µà¤¨
Ġà¤® à¤µ
Ġà¤® à¤¡à¤ķ
à¤Ł à¤Ĩà¤Ĭ
à¤µà¤° à¤ª
Ġà¤ļ à¤¯
Ġà¤ĸ à¤°à¤®à¤°
à¤« à¤¹
à¤°à¤¸ à¤¤
Ġà¤ħà¤¨ à¤¨à¤¸
Ġà¤īà¤ª à¤¨à¤¦
à¤¯à¤¤ à¤¨
Ġà¤ªà¤¹ à¤²
Ġà¤¨à¤° à¤¹à¤°
à¤²à¤¨ à¤¹
Ġà¤ķà¤² à¤°à¤ļ
à¤ķà¤°à¤£ à¤ļ
à¥¯ à¥§
Ġà¤Ī à¤¨
Ġà¤ıà¤¨ à¤¬
à¤¹à¤³ à¤¯
à¤²à¤®à¤§ à¤²
à¤°à¤³ à¤®à¤§à¤²
Ġà¤¹à¤° à¤ªà¤²
à¤ıà¤« à¤¡
Ġà¤ıà¤® à¤ıà¤ļ
Ġ7 20
à¤µà¤Ń à¤ķ
Ġà¤· à¤¡
Ġà¤ħà¤ľà¤¯ à¤ħà¤¤
ic s
Ġà¤¦à¤¶ à¤°à¤¥
Ġt e
it hi
is h
Ġà¤Ĺà¤² à¤Ĺà¤²
à¤ļà¤µà¤¡ à¤ļ
Ġà¤¸à¤¬ à¤®
à¤¡à¤ĺ à¤¶
Ġà¤¨à¤¯à¤¨ à¤°à¤®
6 2
c k
n b
Ġ â
à¤ķ à¤²à¤ķ
à¤¦ à¤ĸ
Ġà¤µ à¤£
à¤¶ à¤¸à¤ļ
Ġà¤¤ à¤³à¤µ
à¤¬ à¤±à¤¯
à¤°à¤£ à¤ª
à¤ĺ à¤²à¤ķ
à¤ªà¤° à¤ª
à¤ľà¤ª à¤¹
à¤Ĺà¤² à¤ķ
à¤¸à¤° à¤¡
à¤Ĺà¤£ à¤®à¤§
à¤ĩ à¤¯à¤¤
Ġà¤¹à¤ľ à¤°à¤¤
à¤Łà¤¤ à¤¯
à¤ıà¤® à¤Ĩà¤¯à¤ıà¤®à¤ļ
Ġà¤Ī à¤Ł
à¤Īà¤¨ à¤Ĺà¤°
Ġà¤ªà¤¡ à¤¸à¤²à¤Ĺ
Ġ12 1
Ġà¤ıà¤« à¤Ł
Ġà¤ļà¤² à¤¨à¤µ
à¤ħà¤¡ à¤ķà¤²
f l
à¤° à¤Ŀ
à¤¤ à¤®à¤ļ
à¤¤ à¤īà¤¦
à¤¨ à¤²à¤¨
à¤¨ à¤µà¤°à¤¹
à¤¹ à¤²à¤ļ
à¤ķ à¤ķà¤°
Ġà¤ħ à¤ªà¤¨
Ġà¤¨ à¤°à¤®
Ġà¤¹ à¤Łà¤ķà¤²
à¤°à¤ķ à¤±
à¤Ī à¤ķà¤¸
à¤Ĩ à¤łà¤µà¤²
à¤ħ à¤³
à¤µà¤² à¤£
à¤Ŀ à¤¡à¤¤
à¤Ŀ à¤ªà¤¦à¤ķ
Ġà¤¸à¤¹ à¤®
à¤ķà¤² à¤°
à¤¤à¤µ à¤µ
Ġà¤ªà¤¦ à¤¸
Ġà¤ªà¤¦ à¤ªà¤¥
Ġà¤¤à¤¸ à¤¤à¤¸
Ġ5 12
Ġà¤ªà¤Ł à¤µà¤²
Ġ12 3
Ġà¥§à¥« à¥¯
à¤¯à¤°à¤¸ à¤µà¤°
ar y
Ġ13 8
Ġv i
Ġ22 5
Ġ24 0
id ai
Ġà¥§à¥¯à¥¯ à¥¯
Ġà¥§à¥¯à¥¯ à¥®
à¤Ĺà¤¢ à¤®à¤§
Ġà¥§à¥¯à¥® à¥¨
Ġi os
electro de
à¯ į
b h
n rc
à¤² à¤®à¤¨
à¤¸ à¤ı
à¤¸ à¤µà¤¡
à¤ª à¤¸à¤²
Ġà¤ħ à¤¤à¤°
Ġà¤¹ à¤¸à¤£
Ġà¤ľ à¤¡à¤²
à¤¥ à¤¯
Ġà¤ĺ à¤®
Ġà¤ı à¤¯à¤°
à¤ħ à¤®à¤²
à¤ı à¤ıà¤²
à¤Ĭ à¤¬à¤¹
à¤ľà¤¨ à¤ľ
à¤ĩ à¤¡à¤ļ
à¤¸à¤¨ à¤µ
à¤¯à¤¨ à¤Ĺà¤°
à¤¶à¤² à¤µà¤°
à¤ıà¤¸ à¤ıà¤²
à¤Ĺà¤¦ à¤Ĺ
à¤¨à¤Ĺ à¤°à¤¸
à¥¬ à¥¬
Ġà¥§à¥¨ à¥§
à¤ľà¤¤ à¤ľ
Ġà¥§à¥¬ à¥¬
à¤ħà¤ķ à¤¬à¤°
Ġin ter
Ġà¤ıà¤®à¤ıà¤¸ à¤ķ
rop hy
5 2
m umbai
t p
Ð µ
Ð ¸
à¤¾ _
à¤¤ à¤§
à¤¯ à¤¬à¤°à¤ļ
à¤¹ à¤°à¤®à¤¨à¤ª
à¤ļ à¤ķà¤°
à¤ª à¤ľ
à¤Ī à¤¯
à¤ħ à¤Ŀ
à¤± à¤¹
à¤°à¤¶ à¤¦
à¤¦à¤µ à¤¹
Ġà¤īà¤® à¤Łà¤µ
à¥Ń à¥¨
à¤µà¤Ł à¤µ
Ġ12 7
Ġà¤¤à¤°à¤¤ à¤°
Ġ14 6
Ġ13 1
à¤°à¤®à¤ķ à¤ªà¤£
Ġ0 2
Ġà¥¨à¥¦à¥§à¥¯ à¥¨à¥¦
Ġà¥ªà¥« à¥¦
Ġà¥Ńà¥« à¥¦
à¤ıà¤¨à¤Ĩà¤¯ à¤µ
g oo
Ġ \
Ġà¤¸ à¤°à¤µ
à¤¦ à¤¶à¤ķ
à¥Ĥ à¥į
Ġà¤¤ à¤ªà¤¨
à¤¬ à¤²à¤¤
à¤¤à¤° à¤¸
Ġà¤ı à¤°à¤µ
à¤Ī à¤¡à¤²
à¤°à¤® à¤¤à¤µ
à¤µà¤¸ à¤ļ
à¤ı à¤¸à¤²
à¤ı à¤Īà¤ļ
à¤ī à¤¡à¤µ
Ġà¤®à¤¨ à¤¨
à¤§à¤µ à¤ª
à¤®à¤Ĺ à¤¢
Ġà¤¦à¤² à¤µ
à¤ħà¤¨ à¤¨
à¥ª à¥¦à¥¦
Ġà¤°à¤£ à¤¶
à¤ıà¤« à¤¬
Ġ37 6
Ġà¤ĭ à¤ļ
Ġt rophy
am s
Ġn ia
Ġg andhi
Ġà¤ľà¤³ à¤«à¤³
Ġà¤¢à¤µà¤³ à¤¤
Ġà¤²à¤ĺ à¤µ
à¤ļà¤µà¤¡ à¤®à¤§
à¤ķà¤ħ à¤ªà¤ļ
4 3
a ut
b l
b it
f t
o b
à¤¯ à¤¨à¤µ
à¤¹ à¤³à¤£
à¤¹ à¤°à¤ļà¤¨
à¤¸ à¤°à¤ª
Ġà¤ķ à¤µà¤Ł
Ġà¤¸ à¤«à¤°
Ġà¤µ à¤¶
Ġà¤¤ à¤¹à¤°
Ġà¤¦ à¤«
à¤¬ à¤¹à¤²
Ġà¤ĺ à¤°à¤®
à¤Ĩ à¤ķà¤°
Ġà¤§ à¤°à¤®à¤¶
Ġà¤¸à¤® à¤¸à¤®
à¤ı à¤Īà¤®à¤§
à¤¹à¤¤ à¤ļ
à¤³à¤¤ à¤ļ
à¤ļà¤¨ à¤¸
à¤Ńà¤µ à¤¹
Ġà¤¦à¤² à¤¬
à¥¬ à¥¨
à¥Ń à¥¯
à¥® à¥¯
Ġà¤°à¤£ à¤¸
à¤Īà¤Ł à¤µ
à¥Ģ' '
Ġà¤ıà¤µà¤¢ à¥Ł
Ġà¤ķà¤³ à¤ķà¤³
Ġc sk
Ġ18 9
Ġ13 6
201 1
Ġà¤ľà¤¸ à¤ľà¤¶
Ġ22 4
à¤¬à¤°à¤¦ à¤°à¤®
Ġ27 0
Ġ36 0
200 9
à¤ıà¤¸à¤ıà¤¨ à¤ıà¤²à¤ļ
à¥ ŀ
à¤¨ à¤¯à¤ķ
à¤ķ à¤³à¤µ
à¤¸ à¤ªà¤ļ
à¤£ à¤²à¤¯
à¤¦ à¤¯à¤¦
à¤¦ à¤®à¤¦
Ġà¤ħ à¤ķà¤²
à¤ľ à¤Ĺà¤¤
à¤ľ à¤¬à¤¹
à¤¡ à¤¬à¤°
à¤¡ à¤°à¤®à¤§
Ġà¤ľ à¤¸à¤²
Ġà¤° à¤¡à¤£
à¤Ń à¤Ĺà¤¤
Ġà¤Ĺ à¤¤à¤ª
Ġà¤Ń à¤°à¤ļ
à¤Ī à¤Ĺ
à¤ķà¤° à¤¶à¤¹
à¤ı à¤¬à¤²
Ġà¤īà¤ª à¤Ĩà¤¯
à¤Ŀ à¤®à¤ļ
à¤Ĺà¤³ à¤ļ
Ġà¥¨ à¥¨à¥¦
à¤ļà¤¨ à¤¹
Ġà¤ħà¤µ à¤¤à¤°à¤²
à¥ª à¥§
Ġà¤Ĩà¤Ī à¤¶
Ġà¤«à¤² à¤Łà¤£
Ġ6 50
Ġà¤ķà¤ł à¤¡
Ġ200 7
Ġ24 5
ch em
Ġà¤ļà¤®à¤ķ à¤¤
Ġà¤Ńà¤Łà¤ķ à¤³
Ġà¤§à¤¡à¤ª à¤¡à¤¤
urb ine
s a
} }
Ġ ar
Ġ ed
à¤¯ à¤ħà¤®
à¤¹ à¤Ń
à¤µ à¤ĩ
à¤µ à¤§à¤¨
à¤¸ à¤ķà¤²
à¤¦ à¤°à¤ķ
Ġà¤ª à¤¤à¤ª
à¤Ĺ à¤¸à¤¹
à¤Ī à¤¸à¤°
à¤ħ à¤¸à¤¹
Ġà¥ Ł
à¤ı à¤Ĺ
à¤¡à¤² à¤ļ
à¤Łà¤² à¤¨
à¤¯à¤² à¤®
Ġà¤ħà¤® à¤°à¤¸
à¤¹à¤¨ à¤°
à¤¹à¤¨ à¤¨
à¤¹à¤¨ à¤ª
à¤§à¤µ à¤ļ
à¤ħà¤¨ à¤§
à¤ıà¤® à¤Ĩà¤°à¤ļ
à¥¯ à¥«
à¥® à¥«
à¥® à¥Ń
20 21
Ġà¥¯ à¥¯à¥¯
Ġà¥§à¥¨ à¥¦à¥¦
Ġà¤į à¤¶
Ġà¤ķà¤³ à¤µà¤¤
Ġ16 1
Ġ16 5
Ġà¥§à¥¦à¥¦ à¥¦à¥¦
es ign
Ġà¤¢à¤ķà¤² à¤¤
Ġà¤¸à¤Ī à¤¦à¤²
Ġà¥«à¥¦à¥¦ à¥¦
à¤į à¤ķ
ce p
Ġfin al
k r
m r
n l
o te
{ {
à¤² à¤Ī
à¤² à¤Ŀ
à¤ķ à¤¨à¤ļ
Ġà¤ħ à¤Ĺà¤£
Ġà¤¨ à¤¤à¤®à¤¸
à¤¡ à¤Ńà¤°
Ġà¤ľ à¤¦
à¤ĸ à¤¡à¤¸
Ġà¤¬ à¤Ĺà¤²
Ġà¤¶ à¤¹à¤¨
Ġà¤Ĺ à¤£à¤¤
Ġà¤ī à¤Ĺà¤²
à¤°à¤ķ à¤°à¤ļ
à¤Ĩ à¤ĸ
à¤« à¤Ŀ
à¤ķà¤¡ à¤ķ
à¤Ĺà¤¤ à¤¹
à¤¶à¤¨ à¤ķ
à¤¶à¤¨ à¤ķà¤¡
à¤ľà¤¯ à¤¨à¤Ĺà¤°
Ġà¤Ĩà¤µ à¤³à¤£
Ġà¤®à¤² à¤ª
Ġà¤Ĩà¤¦ à¤°à¤ª
à¤¶à¤² à¤ļ
à¤°à¤¹ à¤¦
Ġà¤¬à¤¹ à¤°à¤²
à¤ıà¤® à¤¡à¤¬
Ġà¥« à¥«à¥¦
à¤Ĭà¤¸ à¤µà¤°
Ġà¤°à¤£ à¤ª
à¤°à¤µà¤° à¤¹
Ġà¤ħà¤¡ à¤ķà¤¤
à¤Īà¤Ł à¤¹
Ġ15 3
Ġ12 00
Ġà¤ķà¤³ à¤¸à¤ķà¤°
Ġc ol
Ġà¤ıà¤² à¤Ł
Ġs a
er n
er r
Ġà¤¤à¤³ à¤®à¤³
Ġà¥§à¥® à¥¨
à¤¶à¤®à¤§ à¤²
Ġm e
Ġà¤¹à¤® à¤ľ
à¤Ĩà¤¯à¤ı à¤¡
Ġà¤ļà¤¹ à¤²à¤ļ
us han
à¥¨à¥¦à¥¦ à¥Ń
th erm
Ġà¤ķà¤Łà¤ķ à¤Ł
Ġà¤ļà¤£ à¤ļà¤£
Ġà¤Ķà¤· à¤§à¤¨
à¤ªà¤Łà¤ķ à¤¥
c p
p ar
Ġ ]
à¤° à¤°à¤ļà¤¨
à¤ª à¤Ń
Ġà¤¸ à¤¶
à¤¬ à¤¹à¤°
Ġà¤° à¤Ĺ
Ġà¤° à¤¬à¤°
Ġà¤¬ à¤¢
Ġà¤¶ à¤®à¤¶
Ġà¤Ń à¤Łà¤¨
Ġà¤ĺ à¤¨à¤ķà¤ļà¤°
Ġà¤ī à¤ĸà¤³
Ġà¤ı à¤ļà¤ª
à¤Ĩ à¤¸à¤ª
Ġà¤ĩ à¤¨à¤¸
à¤Ĭ à¤¸à¤¨
à¤°à¤¦ à¤°à¤®
à¤Łà¤² à¤®
à¤¤à¤ķ à¤°à¤£
à¤ĵ à¤®à¤°
Ġà¤®à¤² à¤®
à¤ī à¤ªà¤ķ
à¤®à¤² à¤¤
Ġà¤ķà¤ª à¤¸
Ġà¤Ĩà¤ł à¤ľà¤£
à¤ıà¤ķ à¤µ
à¤¤à¤¤ à¤³
à¤ĳ à¤¡
Ġà¤¬à¤¸ à¤ªà¤ļ
à¥¨à¥¦ à¥¨à¥¨
à¤¨à¤ª à¤¥à¤ķ
Ġ12 9
à¤īà¤¦ à¤¯
Ġ14 3
Ġc ctv
Ġà¤¸à¤ľ à¤µà¤²
Ġa i
am a
à¤¹à¤ľ à¤¹
Ġw hatsapp
Ġ0 3
à¤¯à¤Ĺà¤¡ à¤®à¤§
Ġà¤īà¤²à¤Ĺ à¤¡à¤£
Ġà¥§à¥¯à¥® à¥ª
Ġà¤ıà¤ıà¤¨ à¤Ĩà¤¯à¤¨
1 50
5 8
Ġ im
à¤ķ à¤Ŀ
à¤ķ à¤¦à¤µ
à¤ļ à¤²à¤ķ
Ġà¤Ĩ à¤Łà¤ª
à¤ľ à¤¯à¤²
à¤¡ à¤¨à¤¨
à¤°à¤ķ à¤®
à¤Ī à¤Łà¤¨
à¤ĺ à¤¸
à¤ľà¤ª à¤¸à¤¹
âĢį à¤¿
Ġà¤Ĩà¤¯ à¤Īà¤¡
Ġà¥¨ à¥§à¥§
à¤§à¤¨ à¤¹
Ġà¤¹à¤² à¤¤
Ġà¤¹à¤² à¤µà¤¤
à¤ıà¤¸ à¤®à¤§
à¤¨à¤° à¤®à¤§
à¤Ĩà¤° à¤ıà¤²
à¤°à¤Ń à¤¦
20 25
Ġà¤¦à¤ĸà¤² à¤¹
Ġ19 47
Ġ18 5
Ġ30 7
201 2
Ġ200 5
Ġb s
Ġn ic
à¤µà¤Ĺ à¤¨à¤ļ
ol og
Ġà¤¢à¤Ĺ à¤«
Ġà¥¨à¥¦à¥§à¥Ń à¥§à¥®
âĢĭ âĢĭ
Ġà¥¨à¥¦à¥§à¥« à¥§à¥¬
Ġà¤ħà¤¡à¤ĸ à¤³à¤¤
ithi um
c bi
d fc
r al
u e
à¤° à¤Īà¤¸
à¤¸ à¤¶à¤¸
Ġà¤ħ à¤°à¤¶à¤¦
à¤³ à¤¸à¤°
à¤¬ à¤¨à¤ļ
Ġà¤Ŀ à¤²
Ġà¤Ł à¤¸
Ġà¤¡ à¤®
à¤ľà¤ª à¤¸à¤®
à¤µà¤¡ à¤ķà¤°
à¤®à¤¨ à¤µà¤®
à¤¹à¤° à¤µà¤°
à¤ĵ à¤³
à¤Ĩà¤¯ à¤Ĩà¤¯à¤ļ
à¤Ĩà¤¯ à¤ıà¤²à¤ļ
à¤ī à¤¨à¤®à¤§
à¤ļà¤² à¤®
à¤ļà¤² à¤ķà¤°
Ġ3 30
à¤ıà¤® à¤ıà¤®
Ġà¤ıà¤¸ à¤ıà¤®
à¤Ĺà¤¨ à¤®à¤¤
Ġ15 9
à¤¸à¤Ĺà¤³ à¥Ł
Ġ11 1
at ing
Ġ30 4
Ġ200 3
Ġ200 6
Ġa pp
Ġr bi
it h
Ġà¥² à¤ªà¤ļ
Ġ31 1
oo d
Ġà¤Ĩà¤ī à¤Ł
Ġupdat es
g le
l and
à¤¯ à¤ħ
à¤µ à¤Ľà¤¤
à¤¸ à¤¬à¤¦
Ġà¤ħ à¤¦à¤²
à¤¶ à¤«
à¤¬ à¤Ĺà¤¦
Ġà¤¬ à¤Łà¤²
Ġà¤ĺ à¤¨à¤¦
à¤°à¤£ à¤¤à¤¯
à¤Ĺà¤² à¤µà¤°
à¤Łà¤² à¤ķà¤¡
à¤ĩ à¤ªà¤²
Ġà¤ļà¤° à¤ĸ
à¤ļà¤² à¤ª
Ġà¤Ĩà¤ľ à¤Ĺ
à¤ħà¤¸ à¤ªà¤°
à¤¯à¤°à¤² à¤¹
Ġà¤ıà¤¸ à¤ľ
Ġà¤ıà¤® à¤ıà¤¸à¤ª
à¤¯à¤¶ à¤µ
à¤īà¤¦ à¤¯à¤¨à¤°
à¤ıà¤ļ à¤ıà¤¸
Ġ14 9
Ġ19 99
Ġà¥§à¥© à¥¯
Ġa b
Ġà¥² à¤¬
Ġà¤ħà¤ªà¤¹à¤°à¤£ à¤ķà¤°
à¤¹à¤ļ à¤µà¤²
Ġ27 7
Ġà¥§à¥¯à¥¯ à¥¬
el hi
f at
v oltage
Ñ Į
Ġ il
à¤¨ à¤Ĩà¤¯à¤¡
à¤¹ à¤±à¤¯
à¤µ à¤«
Ġà¤Ĩ à¤Łà¤²
à¤ľ à¤¦à¤¯
Ġà¤¦ à¤ª
Ġà¤Ĺ à¤ľà¤ªà¤¤
Ġà¤Ĺ à¤Ŀà¤²
Ġà¤ļ à¤Łà¤ķà¤¨
à¤¯à¤ķ à¤¶
à¤µà¤¤ à¤¶
Ġà¤Ĩà¤¯ à¤ĵà¤¸
à¤·à¤ķ à¤µà¤°
à¤Ĩà¤¯ à¤µà¤°
à¤®à¤ķ à¤¦
à¤Łà¤ļ à¤°
Ġà¤Ĺà¤° à¤³
à¥¬ à¥§
à¤ĺà¤° à¤«
Ġà¤ļà¤ķ à¤µ
Ġ6 000
in t
in ical
Ġà¥§à¥¨ à¥¯
at a
ic i
Ġà¤ĸà¤¡ à¤¬à¤¡
id ent
Ġà¤µà¤ļà¤¨ à¤¬à¤§
ir th
ac c
Ġ199 6
Ġà¤īà¤§à¤³ à¤ªà¤Ł
7 8
d on
v e
Ġ =
à¤° à¤¹à¤®
à¤¤ à¤®à¤¨
à¤¨ à¤µà¤²
à¤¹ à¤®à¤ļ
à¤® à¤¢
Ġà¤Ĩ à¤¦à¤²
Ġà¤¸ à¤³
Ġà¤¸ à¤°à¤®
Ġà¤¸ à¤ªà¤¤
à¤¦ à¤³à¤£
Ġà¤ª à¤¤à¤µ
à¤Ł à¤ľà¤µà¤³
à¤§ à¤Ĺ
à¤¬ à¤Łà¥Ł
Ġà¤¬ à¤¸à¤Ĺ
Ġà¤¬ à¤¬à¤¨
à¤ł à¤¬
à¤°à¤¤ à¤¶
à¤Ĩ à¤łà¤µ
à¤ħ à¤µà¤ľ
à¤°à¤® à¤£à¤§
à¤« à¤Ĺ
Ġà¤¸à¤® à¤ķà¤ķ
à¤¯à¤¤ à¤¦
à¤®à¤¨ à¤¦
à¤ľà¤¯ à¤°
à¤Ĩà¤¯ à¤ıà¤¸à¤ıà¤«
à¤§à¤¨ à¤Ĺ
Ġà¤īà¤® à¤Łà¤µà¤£
Ġà¤Ĩà¤Ĺ à¤°à¤ķà¤°
Ġà¤Ľ à¤¬
Ġà¤Ľ à¤³à¤µà¤£
Ġà¥« à¥©à¥¦
à¤ıà¤¨ à¤ıà¤²
Ġà¤ĩà¤¨ à¤¡
Ġà¤°à¤£ à¤Ĺ
à¤Łà¤µà¤° à¤¹
Ġà¤Ķ à¤¸
Ġà¤¢ à¤³
à¤ıà¤ļ à¤¸
an ce
Ġà¤§à¤¡ à¤§à¤¡
Ġa d
à¤¯à¤Ĺ à¤¯
Ġ24 3
à¤Ĩà¤¯à¤ı à¤ıà¤¸
Ġ32 6
up er
app y
Ġà¤ıà¤«à¤Ĩà¤¯ à¤Ĩ
Ġà¤Ŀà¤Ĺ à¤¡à¤¤
à¤ıà¤ıà¤¨ à¤Ĩà¤¯à¤¨
Ġres ult
Ġà¤Ĺà¤ľà¤¬ à¤ľà¤²
1 30
d er
e ar
Ġ or
à¥į à¥ī
à¤§ à¤ªà¤£
à¤§ à¤®à¤ķ
à¤¡ à¤Ł
à¤¡ à¤ªà¤°
à¤¡ à¤µà¤¡
Ġà¤¹ à¤°à¤ª
à¤· à¤ħà¤ĸ
à¤¬ à¤ķà¤²
Ġà¤ľ à¤ªà¤¤
Ġà¤¬ à¤§à¤²
Ġà¤¶ à¤¤à¤¶
à¤¥ à¤ĸ
à¤ł à¤¦
Ġà¤ī à¤Ĺà¤µà¤¤
à¤°à¤¤ à¤ľà¤ª
à¤¤à¤° à¤µ
à¤°à¤£ à¤¦
à¤Ĩ à¤Īà¤¸
à¤ħ à¤¥à¤µ
Ġà¤ıà¤ķ à¤Łà¥Ł
à¤ķà¤° à¤ı
à¤¯à¤® à¤¸à¤¨à¤¨
à¤ı à¤²à¤²
à¤Ĭ à¤¹
Ġà¤¨à¤µ à¤¯
à¤ķà¤² à¤¸
à¤ļà¤² à¤°
Ġà¤Ĩà¤Ĺ à¤¡
Ġà¤¬à¤° à¤¬
Ġà¤²à¤¢ à¤µà¤¯
Ġà¤¸à¤ļ à¤¦
Ġà¤¬à¤¨ à¤ķà¤°
Ġà¤¹à¤¸ à¤¨à¤ļ
à¤ıà¤² à¤Ĩà¤°
Ġà¤ĺà¤¡ à¤¤à¤ļ
in a
Ġà¤į à¤ªà¤ļ
Ġà¤ıà¤« à¤¬
Ġ200 1
Ġt ri
Ġà¤ļà¤¢ à¤µà¤¤
Ġà¥² à¤¡à¤®
Ġ23 9
us h
à¤¸à¤« à¤°à¤ļ
ri o
à¤¤à¤ĸ à¤³à¤ķà¤°
iz ation
k s
l ithium
à¤° à¤¡à¤£
à¥ĩ Ã·
à¤² à¤°à¤¶
à¤² à¤ĺà¤°à¤ļ
à¤µ à¤¥
à¤µ à¤¦à¤¤
à¤¸ à¤®à¤ķ
à¤® à¤¬à¤¹
Ġà¤ļ à¤¨
à¤°à¤¤ à¤Ĩà¤«
à¤Ī à¤¸à¤ļ
à¤Ĩ à¤ľà¤®
à¤ĵ à¤²à¤ļ
à¤Ĩà¤° à¤ıà¤¸à¤ļ
Ġà¥© à¥©à¥¦
à¤ıà¤® à¤Ĩà¤¯à¤¡
à¥® à¥¬
Ġà¤ħà¤¡ à¤Ĺà¤³
at or
al me
Ġà¤ķà¤µ à¤ł
am in
Ġ35 4
as ht
ol y
Ġà¤µà¤°à¤ļ à¤·
ig ht
à¤ħà¤¡ à¤¥à¤³
à¤¿Ã· à¤¾
ex pos
ick et
5 6
a e
s at
Ã ±
à¤¤ à¤ĺ
à¤ļ à¤ķà¤¡
à¤ª à¤Łà¤²
Ġà¤ª à¤°à¤®à¤µ
à¤Ĺ à¤ªà¤Ł
Ġà¤ħ à¤Ĺà¤¤
Ġà¤Ĩà¤¹ à¤°à¤£
Ġà¤¦ à¤Ĺà¤¦à¤Ĺ
à¤ĸ à¤¨à¤¹
à¤ł à¤°à¤²
Ġà¤Ń à¤Ĺà¤µà¤¤
Ġà¤« à¤²à¤¨
Ġà¤« à¤¡à¤µà¤£
à¤« à¤£
à¤Łà¤¨ à¤¸
Ġà¤Ĩà¤¯ à¤ıà¤«
Ġà¤Ĩà¤¯ à¤Ĩà¤¯à¤ıà¤®
à¤ĩ à¤¨à¤¸
à¤Ľ à¤µ
à¤ī à¤®à¤°
Ġà¤¥ à¤¨à¤¬à¤°
à¤¦à¤¨ à¤¨à¤Ĺà¤°
Ġà¤¤à¤¸ à¤¦
Ġà¤Ľ à¤ªà¤°
Ġà¤¬à¤° à¤³à¤²
à¤ķà¤ļ à¤ķ
in ter
à¤¨à¤¶ à¤¹
à¤ĩà¤¸ à¤ľ
Ġà¥§à¥© à¥®
Ġà¤ķà¤ļ à¤¯
st e
Ġ22 7
à¤īà¤ª à¤ķà¤°à¤£
Ġà¤ĺà¤¸à¤° à¤Ĺ
Ġof f
if i
Ġà¤ħà¤¹à¤®à¤¦à¤¨ à¤Ĺà¤°à¤ļ
abad di
chem ical
7 3
a ir
b attery
à¤¤ à¤ªà¤°
à¤¨ à¤ľà¤°
à¤ķ à¤³à¤²
à¤µ à¤ªà¤°
à¤µ à¤Ĺà¤¤
à¤® à¤¸à¤Ń
à¤Ł à¤ħà¤¨
à¤ľ à¤ªà¤£
à¤ľ à¤°à¤²
Ġà¤µ à¤Łà¤¹
Ġà¤¹ à¤°à¤¹
Ġà¤¯ à¤²
à¤¬ à¤¨à¤µ
Ġà¤° à¤¸à¤¦
Ġà¤« à¤¡à¤£
à¤« à¤¡
à¥Ī '
à¤µà¤² à¤Ĺ
à¤¹à¤° à¤Ń
à¤ĩ à¤Ĺ
Ġà¤Ĩà¤µ à¤Ł
à¤µà¤³ à¤¸à¤°
à¤¤à¤µ à¤¨
à¤ĵ à¤¶
à¤¨à¤µ à¤µà¤°
à¤¸à¤¤ à¤ļ
Ġà¤¦à¤¹ à¤¶
Ġà¥© à¥¨à¥¦
à¤¤à¤³ à¥Ł
Ġà¤Ńà¤° à¤°à¤¸
Ġà¤Ńà¤° à¤¡à¤²
Ġà¤ªà¤Ł à¤¸
à¤¶à¤®à¤¨ à¤¦à¤²
Ġà¤į à¤²à¤°
Ġ14 8
à¤¾' '
Ġs u
Ġs er
Ġà¥§à¥© à¥¬
Ġà¤µà¤ľà¤¨ à¤¦
Ġà¥¨à¥ª à¥¦
Ġb irth
Ġn cb
id e
Ġg oo
200 4
Ġà¤Ĩà¤ī à¤Łà¤²
à¤ħà¤µà¤ľ à¤¡
d p
h appy
j ee
t urbine
v ar
w a
à¤° à¤Ĺà¤¡
à¤µ à¤Łà¤®à¤§
à¤¦ à¤¯à¤¸
Ġà¤ħ à¤¢à¤³
Ġà¤¹ à¤¯à¤Ĺà¤¯
Ġà¤¬ à¤¨à¤°
à¤µà¤° à¤«
Ġà¤Ĺ à¤³à¤£
à¤°à¤ķ à¤¸
Ġà¤Ł à¤µ
Ġà¤®à¤¹ à¤²
à¤ı à¤Ĩà¤¯à¤ıà¤®
à¤Ĭ à¤ªà¤£
à¤Ĺà¤² à¤®à¤§
à¤µà¤¤ à¤ķà¤¡
à¤ĵ à¤ªà¤¨
à¤Ĩà¤¯ à¤ĵà¤¸
à¤Ľ à¤ļ
à¤³à¤µ à¤Ł
à¤ľà¤® à¤ľ
à¥® à¥ª
à¤Īà¤ķ à¤®à¤§
Ġà¤«à¤° à¤«
à¤Īà¤Ł à¤¸
Ġà¥§à¥¨ à¥Ń
Ġà¥§à¥« à¥©
Ġà¤ıà¤ħà¤° à¤«
Ġà¥§à¥ª à¥¬
Ġà¥§à¥© à¥Ń
Ġa ss
à¤²à¤¡ à¤¬
Ġf l
Ġ32 5
Ġà¤ĵà¤ªà¤¨ à¤°
Ġk oh
à¥¨à¥¦à¥¦ à¥«
à¤ıà¤¨à¤ıà¤¸ à¤ıà¤¸
Ġà¤Ńà¤¡à¤ķ à¤µà¤£
à¤ıà¤¨à¤Ĩà¤¯ à¤ıà¤¨
cb se
Ġcr pf
Ġkoh li
l ive
r y
à¤¤ à¤¨à¤ļ
à¤¨ à¤¦à¤°
à¤µ à¤·
à¤µ à¤Łà¤°
Ġà¤Ĩ à¤ľà¤°
à¤¦ à¤¤à¤ª
à¤Ĺ à¤¸à¤®
Ġà¤¨ à¤£
à¤¶ à¤ı
à¤¶ à¤¸à¤¹
Ġà¤¬ à¤Ŀ
Ġà¤¶ à¤®à¤²
Ġà¤ħà¤¸ à¤ļ
Ġà¤² à¤ķà¤¡
Ġà¤ī à¤¹
Ġà¤ī à¤¥à¤³
à¤°à¤¤ à¤¯
à¤°à¤¤ à¤ĩ
Ġà¤ı à¤¨à¤ķ
à¤°à¤µ à¤ļ
à¤ı à¤Ĩà¤¯à¤¨
à¤Ŀ à¤ķ
à¤Łà¤ķ à¤³à¤¤
à¤¨à¤ļ à¤°
Ġà¤īà¤ªà¤¸ à¤£
Ġà¤ħà¤ľ à¤®à¤²
Ġà¤¹à¤² à¤²
Ġà¤ıà¤¸ à¤ıà¤®à¤ı
Ġà¤į à¤¡à¤µ
Ġ37 5
Ġà¥§à¥© à¥¨
Ġm an
à¤¤à¤¬ à¤Ĺ
Ġà¤ľà¤¸ à¤ľà¤¸
Ġk abaddi
200 8
em b
à¤Ĺà¤ł à¤¨
Ġà¤ıà¤¨à¤Ĩà¤¯ à¤µ
ist an
cl inical
Ġà¤ĸà¤µ à¤ĸà¤µà¤£
err or
2 50
d c
o or
p e
Ġ q
Ġ us
à¤¤ à¤¨à¤°
à¤¨ à¤ľà¤¨à¤ķ
à¤ļ à¤ķà¤²
à¤µ à¤¶à¤ķ
à¤ª à¤Ľ
à¤¦ à¤ªà¤£
Ġà¤® à¤Łà¤ķ
Ġà¤ħ à¤Ĺà¤°
à¤ľ à¤²à¤Ĺ
à¤¡ à¤ªà¤¤
à¤Ń à¤µà¤ļ
Ġà¤ħà¤¸ à¤«à¤²
Ġà¤ļ à¤²à¤¤
à¤°à¤¤ à¤³
à¤¢ à¤¹
à¤ı à¤£
à¤ı à¤Ĩà¤¯à¤ļ
à¤°à¤¸ à¤²
à¤Ŀ à¤°à¤¨
âĢ ²
à¤¶à¤¨ à¤Ĺ
Ġà¤ħà¤ª à¤¸
Ġà¤ħà¤ª à¤Ĺ
Ġà¥¨ à¥§à¥¯
Ġà¤®à¤§ à¤®
à¤ªà¤¦ à¤¸
Ġ20 000
à¤ıà¤¸ à¤ľ
Ġà¤ľà¤Ĺ à¤®
à¤ıà¤® à¤¯
à¤¨à¤Ĺ à¤°à¤µ
Ġà¤ıà¤¨ à¤Ĩà¤¯à¤Ł
Ġà¤ıà¤® à¤Ĩà¤¯
à¤ıà¤² à¤ı
Ġà¥® à¥©à¥¦
à¤ıà¤ļ à¤¯
ar e
Ġà¥¨à¥« à¥¦à¥¦
Ġà¥§à¥ª à¥®
Ġ16 9
Ġà¥©à¥¦ à¥¨
Ġà¥¨à¥¬ à¥¦
un g
à¤¨à¤Ń à¤¦
Ġe v
Ġà¤ħà¤µà¤¯à¤µ à¤¦
à¤ħà¤Łà¤² à¤ľ
Ġà¤ªà¤ª à¤Ī
ax y
for m
Ġà¤®à¤¡à¤ķ à¤Īà¤ķà¤°
b ps
j nu
o de
p ort
Ġ en
à¤¾ à¥į
à¤¯ à¤¶à¤ļ
à¤ķ à¤Łà¤°
Ġà¤Ĩ à¤¡à¤Ĺ
Ġà¤® à¤¤à¤µ
à¤Ł à¤°à¤ķ
à¥Ĥ à¤ģ
à¤Ĺ à¤¸à¤°à¤ķà¤°
Ġà¤¨ à¤ļ
à¤¶ à¤Ĺ
à¤¶ à¤µà¤ª
Ġà¤¦ à¤®à¤Ł
Ġà¤ķà¤° à¤ļ
à¤ł à¤¹
Ġà¤² à¤³
Ġà¤ĸ à¤¤à¤°à¤¨
Ġà¤ı à¤¡à¤µà¤°
à¤°à¤µ à¤¨
à¤²à¤¯ à¤¹
à¤¸à¤° à¤¹
à¤¸à¤° à¤Ĺ
à¤¤à¤ª à¤Ł
à¤®à¤¨ à¤¨
à¤Ĺà¤° à¤¨
à¤¶à¤¨ à¤ªà¤Ł
à¤¹à¤° à¤Ł
à¤ľà¤¯ à¤¦
Ġà¤ĳ à¤ķà¤²
à¤Ĩà¤¯ à¤ıà¤ļ
à¤Łà¤ļ à¤ķ
à¤ªà¤ļ à¤ķ
Ġà¤ıà¤® à¤ıà¤®
à¤¬à¤ľ à¤¬
à¤°à¤¡ à¥Ł
Ġà¤ĺà¤Ł à¤µà¤£
Ġ18 4
er t
al e
al axy
Ġà¥§à¥© à¥ª
Ġm in
Ġà¤Ĺà¤µ à¤Ĺà¤µ
ra h
Ġà¥§à¥¯à¥¯ à¥©
Ġre view
jp ut
Ġra jput
spect rum
7 2
8 1
g en
l ic
± Ð»
Ġ it
Ġ qu
à¤² à¤°à¤ª
à¤® à¤Ĺà¤°
Ġà¤¸ à¤¬à¤°
Ġà¤ª à¤¬à¤ľ
à¤Ĺ à¤Łà¤¨
à¤§ à¤Ń
Ġà¤¨ à¤Īà¤®
Ġà¤µ à¤¦
à¤¡ à¤¡
à¤³ à¤¸à¤µ
à¤· à¤µà¤¤
Ġà¤ľ à¤¡à¤¤
à¤ĸ à¤ľ
à¤ł à¤Ńà¤°
Ġà¤² à¤¸à¤£
Ġà¤ĺ à¤°à¤ª
à¤°à¤£ à¤¸
Ġà¤Ł à¤ļ
à¤µà¤¸ à¤¤
à¤¹à¤£ à¤µ
Ġà¤īà¤ª à¤¶
Ġà¤īà¤ª à¤¸à¤ļ
à¤Ĺà¤² à¤²
à¤ĸà¤² à¤«
à¤ľà¤¨ à¤Ĺà¤°
Ġà¤¸à¤¹ à¤ľà¤¸
à¤®à¤¤ à¤Ń
Ġà¥¨ à¥§à¥«
Ġà¥¨ à¥§à¥Ń
à¤ī à¤¬à¤¦
à¤·à¤¯ à¤¹
Ġà¥ª à¥¨à¥¦
Ġà¥ª à¥©à¥¦
Ġà¤°à¤£ à¤ķ
à¤Īà¤ķ à¤µ
Ġ15 5
Ġà¤ħà¤« à¤ľà¤²
Ġà¤ĺà¤¸ à¤ĺà¤¶
Ġà¥§à¥« à¥«
Ġ25 00
à¤ªà¤µ à¤Ī
Ġà¤ĺà¤Ł à¤µ
Ġà¤ıà¤² à¤ıà¤¨à¤ľ
Ġ18 00
Ġ13 9
Ġ37 7
Ġ21 0
Ġà¥¨à¥ª à¥©
Ġa ir
Ġg o
Ġà¤ķà¤¢ à¤Ī
à¤ıà¤¸à¤Ĩà¤¯ à¤Ĩà¤°à¤ļ
pm c
ly w
Ġà¤ıà¤¨à¤ıà¤¸ à¤¯
to k
Ðº Ð°
2 000
5 4
d ing
Ø ±
á Ģ
à¤¤ à¤°à¤¤
à¤¤ à¤¬à¤°
à¤ķ à¤ĸ
à¤µ à¤«à¤³
Ġà¤ª à¤Ľ
Ġà¤® à¤²à¤ķ
Ġà¤µ à¤°à¤£
Ġà¤¦ à¤®à¤²
à¤¬ à¤ķà¤¡
Ġà¤¬ à¤°à¤ļ
à¤¢ à¤¸
Ġà¤§ à¤ľ
Ġà¤Ĩà¤® à¤°
à¤ľà¤¨ à¤µ
à¤¯à¤² à¤¸
à¤µà¤³ à¤Ł
à¤®à¤² à¤¦
Âł Ġ
à¤ıà¤® à¤Ĩà¤¯à¤ıà¤®
à¥¬ à¥©
à¤ķà¤ļ à¤³à¤µà¤³
à¤ıà¤« à¤ıà¤Ł
in s
à¤¸à¤Ĺà¤³ à¤¤
Ġà¥§à¥ª à¥¯
Ġà¤§à¤µà¤¨ à¤¸
Ġà¥§à¥¬ à¥ª
à¤ªà¤¡ à¤¦
Ġà¤Ŀà¤Łà¤ķ à¤²
Ġr r
Ġn arendra
Ġà¥¨à¥© à¥¯
Ġà¥¨à¥Ń à¥Ń
Ġà¥©à¥« à¥ª
à¤¸à¤ĸ à¤¸
Ġst udi
Ġà¤Ĩà¤ĩ à¤¸à¤²
à¤¯à¤ħ à¤²à¤°
Ġà¤«à¤°à¤« à¤Łà¤¤
1 000
h on
r ic
Ù Ĩ
Ġ Ð¾Ð
à¥ĩ à¤¼
à¤¨ à¤¤à¤®
à¤¨ à¤¬à¤¦à¤²
à¤Ł à¤°à¤¶
à¤Ĺ à¤¨à¤¨
à¤¡ à¤Ī
à¤³ à¤¸à¤¦
Ġà¤¬ à¤Łà¤¨
Ġà¤¬ à¤¡à¥Ł
à¤Ń à¤°à¤ļ
à¤Ń à¤Łà¤ķ
Ġà¤² à¤°
Ġà¤Ł à¥Ł
à¤¤à¤² à¤µ
Ġà¤ĩ à¤¨à¤µ
Ġà¤¸à¤® à¤ªà¤¦à¤¸
à¤µà¤³ à¤ļ
à¤Ľ à¤ªà¤µ
à¤ī à¤¬
Ġà¤ĵ à¤ĸ
à¤ħà¤¸ à¤£
à¤¤à¤¨ à¤¶
Ġà¤²à¤¢ à¥Ł
à¥® à¥¨
à¤ħà¤® à¤µà¤°
Ġà¤ĩà¤¨ à¤ª
Ġà¤«à¤³ à¤Ń
Ġp dt
Ġà¥§à¥¬ à¥§
à¤ľà¤®à¤§ à¤²
Ġà¤¸à¤°à¤³ à¤¸à¤°à¤³
Ġ0 7
Ġà¤īà¤¸ à¤³à¤¤
ra j
ed mi
Ġà¥§à¥¯à¥¯ à¥¨
Ġà¤«à¤¡à¤ķ à¤µà¤²
Ġà¥¨à¥§à¥§à¥ ¯
Ġà¤°à¤®à¤£ à¤¦
ik tok
war ds
à¤īà¤ķ à¤³à¤¤
à¤¨à¤ī à¤ĺ
vir at
yst em
Ġil i
asht ra
Ġbirth day
n e
à¤¯ à¤ªà¤°à¤²
à¤ķ à¤Łà¤¤
à¤ļ à¤°à¤¨
à¤µ à¤¦à¤°
à¤Ł à¤¸à¤ļ
à¤Ł à¤¤à¤ļ
à¤Ĺ à¤®à¤¤
à¤Ĺ à¤ĩà¤¨
à¤¡ à¤¨à¤¹
à¤ĸ à¤°à¤£
à¤Ń à¤°à¤¦
Ġà¤ī à¤Ĺà¤µà¤£
Ġà¤« à¤¯
à¤ªà¤° à¤ĵà¤µ
à¤µà¤² à¤ķà¤°
âĢį à¥ĥ
à¤·à¤ķ à¤«à¤²
à¤ĵ à¤¥
à¤²à¤¨ à¤¨
à¤¬à¤² à¤µà¤°
à¤¨à¤¨ à¤Ĺà¤°
à¤ľà¤Ĺ à¤ľ
à¤ıà¤¨ à¤ıà¤¨
à¤µà¤¢ à¤¯
Ġà¤¸à¤µ à¤¯à¤ļ
à¤°à¤Ĺ à¤Ł
à¤®à¤£ à¤¨
Ġà¤Ĺà¤£ à¤ªà¤¤à¤°
à¤¦à¤® à¤°à¤²
Ġ25 000
Ġ13 2
Ġs on
Ġà¤ªà¤² à¤Łà¤²
Ġà¥§à¥® à¥«
Ġà¥§à¥® à¥¯
Ġà¥§à¥® à¥®
Ġ17 4
Ġà¥§à¥Ń à¥ª
Ġà¥¨à¥¨ à¥ª
Ġà¤¹à¤¸à¤¨ à¤¨
Ġà¥©à¥Ń à¥¬
Ġà¤Ĩà¤µà¤° à¤²
Ġà¥¦ à¥§
ww w
Ġà¥§à¥¯à¥Ń à¥§
Ġat t
Ġà¥§à¥§à¥© à¥¦
Ñģ ÑĤ
nb sp
ushan t
c ar
Ġà¤ ¾
à¤¾ âĢį
à¤¹ à¤¸à¤¨
à¤¹ à¤°à¤ķà¤¤
à¤ļ à¤Ń
à¤¸ Âºà¤¯
à¤® à¤¡à¤Ĺ
à¤¦ à¤¸à¤¹
Ġà¤® à¤¨à¤µ
à¤Ł à¤®à¤ļ
à¤Ł à¤°à¤¸à¤¹
à¤§ à¤¬
Ġà¤¨ à¤¡à¤²
à¤ľ à¤ķà¤°
à¤ľ à¤ªà¤°
Ġà¤µ à¤±
à¤¶ à¤ªà¤£
à¤¡ à¤¤à¤°
Ġà¤¹ à¤ķà¤¨
Ġà¤° à¤¯à¤¤
Ġà¤¬ à¤«à¤°
à¤¥ à¤¬
à¤°à¤¤ à¤¦à¤ķ
Ġà¤ı à¤²à¤¸
à¤ħ à¤¤à¤°
Ġà¤ĩ à¤¡à¤¨
à¤²à¤¯ à¤®à¤§
Ġà¤µà¤° à¤µà¤°à¤ļ
à¤Ĺà¤° à¤¬
à¤£à¤¤ à¤¹
à¤¹à¤° à¤«
à¤ĩ à¤¨à¤°
Ġà¤īà¤¦ à¤Ĺ
Ġà¤®à¤¤ à¤®à¤¤
Ġà¤ĵ à¤ķà¤²
Ġà¤ķà¤² à¤¶
à¤ħà¤¸ à¤¦
à¤§à¤µ à¤ľ
à¤µà¤ļ à¤ľà¤£
Ġà¤ľà¤Ĺ à¤µ
à¤¨à¤¸ à¤¸
Ġà¤ĳà¤« à¤®à¤§
à¤ħà¤® à¤®à¤§
Ġà¤Ī à¤ļ
Ġà¤Ī à¤¦à¤²
Ġà¥¬ à¥©à¥¦
à¤ķà¤® à¤³
à¤°à¤¥à¤® à¤¶
à¤Ĩà¤ľ à¤µà¤°à¤ļ
à¤¤à¤¥ à¤°
Ġà¤§à¤¡à¤ķ à¤£
ar ashtra
Ġ13 4
Ġà¤ħà¤ľà¤¯ à¤ļ
Ġà¥§à¥¬ à¥«
Ġà¥§à¥¬ à¥¯
Ġm ov
à¤ĸà¤¡ à¤¯
Ġn da
Ġà¥¨à¥Ń à¥¦
Ġ2014 15
à¥¨à¥¦à¥¦ à¥¦
Ġà¤ļà¤®à¤ķ à¤£
Ġà¥ªà¥¯ à¥¯
ak istan
Ġst udy
Ġà¤ĸà¤¦ à¤ĸ
à¤¬à¤²à¤ļ à¤ķ
Ġcol lect
rah ul
5 9
6 3
7 4
b r
l ing
à¤¯ à¤¤à¤°
à¤® à¤²à¤¨
Ġà¤Ĩ à¤ľà¤¨
à¤¦ à¤Ī
à¤Ł Ã±
à¤ľ à¤ĸ
à¤ľ à¤µà¤¸
Ġà¤¦ à¤²à¤ļ
Ġà¤¶ à¤°à¤®à¤¨
Ġà¤ī à¤°à¤ķà¤²
Ġà¤ī à¤Ĺà¤µà¤²
Ġà¤ı à¤¡à¤²
à¤¯à¤ķ à¤²à¤²
à¤¢ à¤¨
à¤ħ à¤²à¤ķ
à¤« à¤Łà¤ķ
Ġà¤ĩ à¤ª
à¤ı à¤¨à¤ļ
à¤Ŀ à¤°à¤ļ
à¤Ĺà¤° à¤¹
Ġà¤Ĩà¤¯ à¤Ĩà¤°
à¤Īà¤² à¤¸
à¤¸à¤² à¤¨
à¤ĩ à¤ķà¤ļ
Ġà¤ħà¤ª à¤ļà¤¨
Ġà¤ĵ à¤¸à¤°
à¤§à¤¨ à¤¤
à¤ħà¤¨ à¤ª
à¤µà¤°à¤£ à¤¸
Ġ4 99
à¤ķà¤® à¤ªà¤£
âĢĮ à¥ħ
Ġà¤µà¤¨ à¤ĸ
à¤¶à¤®à¤¨ à¤ļ
Ġ19 2
à¤¯à¤°à¤¸ à¤²
Ġà¤¸à¤ľ à¤µà¤£
Ġà¤ĵà¤² à¤¸à¤°
Ġt r
Ġà¤Ńà¤µà¤¨ à¤®à¤§
Ġg alaxy
Ġà¥¨à¥® à¥®
Ġ0 4
Ġk kr
Ġà¤īà¤ķ à¤³à¤µ
Ġà¥§à¥¯à¥¯ à¥¦
ab ha
Ġhtt p
Ġà¤µà¤°à¤¦ à¤¹à¤¸
Ġà¤ĩà¤Ĺ à¤¤à¤ª
tro l
char ge
à¤¤à¤īà¤¦ à¤¦
Ġà¤¦à¤¹à¤¶ à¤¦à¤µ
Ġstudi es
t ra
t os
u i
u ction
w ind
Ġ $
Ġà¤ £
à¤° s
à¤¤ à¤¨à¤¹
à¤¿ âĢį
à¤¨ à¤³
à¤ķ à¤¨à¤°
à¤ļ à¤¸à¤¹
à¤¸ à¤ªà¤¨
à¤£ à¤ķà¤Ł
à¥ģ )
à¤§ à¤®à¤§
à¤§ à¤µà¤²
à¤ľ à¤®à¤¨
Ġà¤ľ à¤¹à¤°
Ġà¤ľ à¤²à¤ķ
Ġà¤Ŀ à¤°à¤¦
Ġà¤ī à¤ĸà¤¡
à¤°à¤¤ à¤ķ
à¤°à¤¤ à¤¦
à¤¤à¤° à¤ĸ
Ġà¤ĸ à¤µà¤¯
à¤Ĩ à¤³
à¤Ĩ à¤ªà¤¸
à¤ħ à¤µà¤¨
Ġà¤Ł à¤³
à¤« à¤°à¤²
à¤¤à¤² à¤ĸ
à¤µà¤¸ à¤Ī
Ġà¤§ à¤¨à¤ķ
à¤ı à¤ıà¤ļ
à¤°à¤¸ à¤Ĺ
à¤Ĭ à¤¥à¤ļ
à¤Ŀ à¤µà¤¤
à¤Īà¤² à¤¨
Ġà¤ħà¤ª à¤¯à¤¶à¤ļ
à¤¬à¤¦ à¤¦
Ġà¤īà¤¦ à¤¯à¤Ń
Ġà¥¨ à¥§à¥¨
à¤µà¤¨ à¤ªà¤Ł
à¤ī à¤ķà¤¡à¤²
à¤®à¤² à¤¬
à¤ıà¤¸ à¤ıà¤®
Ġà¤¦à¤² à¤¦à¤²
Ġà¥¨à¥¦ à¥©
à¥® à¥§
à¤°à¤¯ à¤·
Ġ15 4
à¤Ĩà¤ľ à¤ĺà¤¡
à¤ıà¤ļ à¤Ĩà¤¯à¤µ
Ġà¤į à¤ªà¤µà¤°
at ive
Ġ30 6
201 0
Ġp ra
Ġp ubg
à¤³à¤¸ à¤ķà¤°
Ġ17 8
Ġm p
Ġà¥§à¥Ń à¥¬
Ġb i
Ġà¥¨à¥§ à¥¦
Ġ300 00
Ġk ap
ad m
à¤Ĩà¤ł à¤µà¤¤
à¥¨à¥¦à¥¦ à¥ª
Ġà¥¦ à¥«
Ġà¤«à¤¡à¤ķ à¤µ
elect ron
ist er
à¤®à¤°à¤¨ à¤ľ
m m
Ġ al
Ġ ani
à¤¾ âĢĮ
à¤¤ à¤Ĺà¤£
à¤¯ à¤¸à¤¹
à¤ļ à¤Ł
à¤¸ à¤ł
Ġà¤Ĩ à¤¡à¤®
à¤¦ à¤°à¤¤
à¤Ł à¤°à¤¸à¤¨
à¤Ĺ à¤µà¤³à¤£
Ġà¤ħ à¤¹à¤®
Ġà¤¨ à¤ķà¤²
Ġà¤¤ à¤¸à¤²
Ġà¤¤ à¤¨à¤ª
à¤¡ à¤ľ
Ġà¤¹ à¤°à¤ľ
à¤ĸ à¤¸à¤®
à¤¯à¤ķ à¤¥
à¤Ĩ à¤µà¤¡à¤²
à¤°à¤µ à¤¡à¤µà¤²
Ġà¤ĩ à¤¤à¤®
à¤Łà¤¨ à¤ªà¤°
à¤Ĺà¤² à¤¤
à¤µà¤¤ à¤¤
à¤ľà¤¨ à¤®
à¤¬à¤Ī à¤¦
à¤¬à¤Ī à¤¬
à¤Łà¤° à¤µà¤°à¤¹
à¤¤à¤ķ à¤ļ
à¤ĩ à¤ķà¤²
à¤ĩ à¤¸à¤ļ
Ġà¤ªà¤¦ à¤ļ
à¤ī à¤°à¤£
à¤¹à¤¨ à¤¦
Ġà¤¦à¤° à¤Ń
à¤ĺà¤Łà¤¨ à¤®
à¤ıà¤¸ à¤Īà¤¨
à¤¸à¤® à¤Ł
Ġà¤ªà¤µ à¤¨à¤ļ
Ġà¥¨à¥¦ à¥¨
à¤ķà¤£ à¤Ĺ
à¤¨à¤ķ à¤ļ
Ġà¤īà¤ļ à¤ķà¤Ł
à¤ıà¤® à¤ıà¤®à¤Ĩà¤°à¤¡
à¤¥à¤ķ à¤µ
20 24
à¤Īà¤¨ à¤µà¤°
à¤ķà¤Ł à¤¦
Ġà¤¬à¤ĺ à¤¤à¤ļ
Ġà¤Ĭ à¤¸à¤¤
Ġà¤§à¤¨ à¤¶
Ġ15 7
Ġà¥§à¥« à¥ª
Ġà¤ķà¤³ à¤µà¤³
à¤ķà¤®à¤§ à¤²
Ġc or
er y
Ġà¥§à¥ª à¥«
Ġà¥§à¥¬ à¥¨
as on
as es
as ia
Ġw we
à¤ªà¤°à¤µ à¤¡à¤£
Ġà¤ªà¤ļà¤¨ à¤¶à¤ķ
sh ip
à¤¯à¤ªà¤° à¤Ł
iz e
Ġà¤¤à¤¡à¤« à¤¡
ĠâĢ ¢
therm al
Ġgoo gle
) )
a w
b le
n et
r h
u it
v ice
Ġ *
Ġ Ð
Ġ >>
à¥Ģ à¤¼
à¤¤ à¤ħà¤¸
à¤ķ à¤³à¤¤
à¤µ à¤®à¤¤
à¤¸ à¤µà¤°à¤ļ
à¤£ à¤¥à¤³
à¤® à¤ľà¤¬
Ġà¤ª à¤¤à¤¸
à¤Ĺ à¤ľà¤¨à¤ķ
à¤ľ à¤Ĺà¤¦
Ġà¤µ à¤łà¤µà¤²
à¤¬ à¤°à¤ķ
Ġà¤¬ à¤Ľà¤¡
Ġà¤² à¤ĸà¤²
à¤Ī à¤¦à¤ļ
à¤Ī à¤Ĩà¤°à¤Ł
Ġà¤« à¤°à¤¶
Ġà¤ĩ à¤ħà¤°
à¤ı à¤ıà¤¸
à¤µà¤£ à¤¹
à¤Ĺà¤¤ à¤¤
Ġà¤Ĩà¤¯ à¤µ
à¤ĩ à¤¤à¤ªà¤¤
à¤®à¤¤ à¤µ
à¤§à¤µ à¤¨à¤ļ
à¤¸à¤® à¤¸à¤ļ
Ġà¤īà¤Ń à¤¯à¤¤
à¤ħà¤Ń à¤¯
Ġà¤ľà¤¯ à¤ĺ
Ġà¤ªà¤¡ à¤µà¤³
à¤ıà¤² à¤Īà¤¡
Ġà¥Ń à¥©à¥¦
à¤¨à¤¯ à¤¹
Ġà¤ħà¤¹à¤®à¤¦ à¤ļ
ar a
Ġà¥§à¥ª à¥¨
Ġp ap
Ġp ho
Ġà¤«à¤¸ à¤µà¤¤
Ġ17 9
à¤Īà¤¸ à¤ľ
Ġr am
le t
Ġ23 5
co l
co un
Ġà¥©à¥¬ à¥¦
Ġà¤ªà¤µà¤¨ à¤ķ
il er
à¥¨à¥¦à¥¦ à¥¬
Ġ33 7
Ġà¥©à¥¦à¥¦ à¥¦
Ġà¤ħà¤¹à¤®à¤¦à¤¨à¤Ĺà¤° à¤®à¤§
Ġà¤ĺà¤¨ à¤«
Ġà¥§à¥¯à¥® à¥¦
om ens
Ġ199 8
Ġpo pul
com e
à¤°à¤ł à¤®à¤§
Ġà¤ĸà¤Łà¤ķ à¤¤
Ġà¤Ĺà¤« à¤²à¤¤
à¤ĸà¤¡à¤ķ à¤µ
Ġsh ah
Ġà¤ıà¤Ĩà¤¯à¤ıà¤® à¤Ĩà¤¯à¤ıà¤®à¤ļ
à¤ķà¤ı à¤ĩà¤¨
à¤Łà¤Ĩà¤Ĭ à¤Łà¤®à¤§
ĠÐ¾Ð ±Ð»
) (
1 25
r d
t est
v p
Î ±
ð Ł
à¤ ©
à¤¾ à¥Ī
à¤ļ à¤°à¤µ
à¤ļ à¤®à¤ļ
à¤ļ à¤°à¤®à¤§
à¤µ à¤Ĺà¤¡
Ġà¤ķ à¤¦à¤°
Ġà¤ķ à¤¨à¤ķ
Ġà¤ķ à¤µà¤¯
à¤¦ à¤ĸà¤²
à¤¦ à¤¨à¤ļ
Ġà¤® à¤²à¤¯
à¤¬ à¤°à¤µ
Ġà¤ľ à¤²à¤¯
Ġà¤ķà¤° à¤µà¤¤
Ġà¤¶ à¤Łà¤²
à¤¥ à¤Ĺà¤¨
Ġà¤ĸ à¤¸à¤ĸà¤¸
Ġà¤ı à¤Ĩà¤¯à¤ıà¤¡
à¤Ī à¤¦à¤°à¤®
Ġà¤ĩ à¤ĳà¤¨
à¤°à¤ª à¤Łà¤¨
à¤ı à¤Ĩà¤°
à¤ı à¤ħà¤°à¤¸
à¤µà¤¡ à¤Ĺ
Ġà¤¤à¤° à¤¬
à¤°à¤ªà¤Ł à¤ķà¤°
à¤¬à¤° à¤Ĺ
à¤ĩ à¤¨à¤²
Ġà¥¨ à¥§à¥®
à¤®à¤ķ à¤ļ
Ġà¤ħà¤ľ à¤¯à¤ķ
Ġ20 2
à¤¯à¤ª à¤µà¤°
Ġà¤¶à¤¹ à¤ľ
Ġ6 30
Ġ7 000
à¤¨à¤Ĺà¤° à¤ľà¤®
in dian
Ġà¤į à¤Ł
Ġà¤į à¤ªà¤²
Ġà¤ĺà¤Ł à¤µà¤²
Ġà¤ıà¤² à¤ĵà¤¸
Ġà¥§à¥© à¥§
ro up
Ġà¥² à¤ªà¤µà¤°
Ġ0 6
à¤ĩà¤¶ à¤°à¤¤
electro chemical
Ġà¤ļà¤ª à¤ĸà¤²
ust ral
Ġchamp ions
Ġpopul ation
c at
t i
x x
à¤° à¤¹à¤°
Ġà¤® à¤Ŀ
Ġà¤ħ à¤¥à¤°
à¤§ à¤¯
Ġà¤µ à¤Ł
Ġà¤µ à¤Ŀ
Ġà¤¦ à¤®à¤¨
à¤· à¤®à¤¸
à¤¬ à¤²à¤¨
Ġà¤° à¤¨à¤µ
Ġà¤ķà¤° à¤°à¤ļà¤¨
à¤Ń à¤°à¤µà¤¶
Ġà¤Ĺ à¤Ĺà¤°
Ġà¤ħà¤¸ à¤®à¤¤
Ġà¤ı à¤¡à¤®
Ġà¤Ł à¤ķà¤²
à¤¤à¤² à¤ľ
Ġà¤§ à¤Ĺ
Ġà¤¡ à¤ķ
à¤¦à¤° à¤¦
à¤¶à¤¨ à¤¬
Ġà¤Ĩà¤¯ à¤ıà¤²
à¤¹à¤° à¤¨à¤Ĺà¤°
à¤¸à¤¨ à¤¦
à¤·à¤ķ à¤¦
Ġà¤ªà¤¤ à¤®
à¤µà¤¨ à¤ªà¤¦
à¤Ľ à¤¨
Ġà¤ĵ à¤¨
Ġà¤ĳà¤« à¤°à¤ļ
Ġà¤¹à¤¤ à¤¬à¤²à¤¤
à¤ľà¤® à¤µ
à¤¨à¤Ĺ à¤¢
Ġà¤Ĩà¤Ī à¤µà¤°
à¤ķà¤ļ à¤±
Ġà¤Ī à¤ıà¤®à¤Ĩà¤¯
à¤¡à¤° à¤Ĺ
Ġà¤¬à¤¸ à¤µà¤¤
à¤ıà¤² à¤ľ
à¤ıà¤ļ à¤ª
Ġà¥§à¥« à¥¬
an a
Ġà¤¶à¤ªà¤¥ à¤Ĺ
Ġ18 3
Ġs ize
Ġà¤¤à¤³ à¤®à¤ľà¤²
Ġà¥¨à¥« à¥Ń
Ġà¤§à¤°à¤£ à¤ķ
al y
Ġ21 7
à¤°à¤« à¤Łà¤ķ
Ġ0 8
Ġà¤²à¤ĸà¤¨ à¤Ĭà¤ļ
bi l
hi v
Ġà¥§à¥¯à¥¯ à¥Ń
Ġ199 3
Ġ198 9
if a
Ġu idai
à¤¦à¤³à¤£ à¤µà¤³à¤£
Ġà¤ıà¤«à¤Ĩà¤¯à¤Ĩ à¤°à¤¹
expos ure
Ġatt ack
d uct
n d
n s
r uct
Ù ħ
Ġ à®
Ġ Ø§
à¤¾ à¤¼
à¤¯ à¤¬à¤²
à¤¯ à¤ľà¤¨à¤ķ
à¤¯ à¤ıà¤¸à¤ª
à¤² à¤²à¤¯
à¤ļ à¤¤à¤ļ
à¤¸ à¤¸à¤®
Ġà¤Ĩ à¤¸à¤®
Ġà¤ª à¤³à¤µà¤£
à¤Ĺ à¤Ĺà¤¨
Ġà¤¨ à¤Ń
à¤ľ à¤¸à¤¹
Ġà¤¦ à¤¡à¤µ
à¤ł à¤µà¤°
Ġà¤ļ à¤ļ
Ġà¤ĸ à¤±à¤¯
à¤Ī à¤Łà¤®à¤§
à¤ĺ à¤¡à¤µà¤£
à¤°à¤µ à¤ļà¤¨
à¤¹à¤£ à¤¨
à¤¬à¤Ī à¤µ
à¤¶à¤¨ à¤µ
Ġ2 19
à¤·à¤ķ à¤µ
à¤µà¤¨ à¤°
à¤ī à¤¸à¤®à¤§
Ġà¤ľà¤¨ à¤Ĩ
Ġà¤īà¤® à¤Łà¤£
à¤²à¤ļ à¤°
à¤¶à¤ķ à¤¨
à¤ľà¤Ĺ à¤¨
à¤ıà¤® à¤ıà¤ļ
à¤ļà¤° à¤¬
à¤°à¤³ à¤ª
Ġà¤®à¤ľ à¤¦
Ġà¥§à¥¦ à¥©à¥¦
Ġà¤Ĩà¤« à¤¤
Ġ25 7
Ġà¤®à¤¦ à¤¤à¤ļ
Ġà¥§à¥Ń à¥§
Ġà¤ľà¤² à¤¶à¤ķ
à¤¶à¤ª à¤¥
Ġ28 0
Ġ26 9
Ġ31 0
Ġà¤ħà¤¡à¤ķ à¤µ
ad e
Ġà¥¦ à¥¨
um ar
à¤ıà¤®à¤ıà¤¸ à¤ıà¤®à¤Ī
à¤¸à¤Ł à¤¶
Ġse ason
Ġshar ma
a f
b a
b o
j o
l act
à¥ Ĩ
à¤¤ à¤¡à¤ķ
à¤¯ à¤¬à¤¸
à¤¹ à¤°à¤¦
à¤¸ à¤®à¤ļ
à¤£ à¤®à¤¹
à¤® à¤ĺà¤°
Ġà¤¸ à¤Ĺ
Ġà¤¸ à¤°à¤£
à¤¦ à¤¨à¤µ
Ġà¤ħ à¤ĸà¤²
à¤³ à¤µà¤¡
Ġà¤ħà¤¸ à¤¶
à¤¤à¤° à¤ªà¤¤
Ġà¤ı à¤Ĺ
à¤Ī à¤¤à¤³
à¥ĥ à¥į
Ġà¤ĩ à¤ļà¤²à¤ķà¤°
à¤¯à¤® à¤®
à¤°à¤¸ à¤®à¤§
à¤Ŀ à¤¹
à¤Ĺà¤² à¤ĸ
Ġà¤¸à¤°à¤ķ à¤°
à¤²à¤ķ à¤µà¤°
à¤ĩ à¤Łà¤®à¤§
à¤Ĩà¤¯ à¤ıà¤¸à¤ıà¤«à¤ļ
à¤ī à¤¡à¤¤
Ġà¤¥ à¤ª
Ġà¤¥ à¤¯à¤¥
à¤¦à¤µ à¤ª
à¤¡à¤ķ à¤¨
à¤ªà¤ķ à¤¨
Ġà¤ľà¤® à¤µà¤¤
Ġà¤¦à¤² à¤ª
à¤·à¤¦ à¤ļ
Ġ4 30
Ġà¤Ĩà¤Ī à¤¸à¤¹
Ġà¤ıà¤¸ à¤ıà¤¸
à¤ıà¤« à¤ĵà¤ļ
Ġà¤Ķ à¤Ł
à¤¡à¤° à¤°à¤²
in di
Ġà¤ĩà¤¶ à¤°à¤¤
Ġà¥§à¥« à¥Ń
Ġà¤ķà¤³ à¤ª
Ġà¤ķà¤³ à¤®à¤¨
Ġà¤ıà¤« à¤ıà¤®
Ġà¤ħà¤ľà¤¯ à¤¨
Ġp h
Ġà¤§à¤¡ à¤§
Ġà¥¨à¥ª à¥«
Ġv ol
Ġà¥¨à¥¨ à¥¬
di t
à¤µà¤Ĺà¤£ à¤¸
à¤µà¤Ĺ à¤¨à¤¨
Ġà¤¨à¤µà¤° à¤¦
Ġà¥¨à¥¦à¥¨à¥¦ à¥¨à¥§
Ġà¤ħà¤Ŀ à¤¹à¤°à¤ļ
Ġà¥§à¥¯à¥¯ à¥«
Ġà¥§à¥¯à¥¯ à¥ª
à¤µà¤¨à¤ļ à¤°
Ġà¤Ńà¤°à¤ķ à¤Łà¤²
Ġà¤¥à¤¯à¤¥ à¤¯
7 1
s l
w hatsapp
y n
Ã ©
Ñ ı
à¤¦ à¤¸à¤°
à¤ľ à¤¦à¤¨
Ġà¤µ à¤²à¤¯
à¤¶ à¤ªà¤°
Ġà¤¹ à¤°à¤®
Ġà¤¹ à¤¸à¤®
Ġà¤¦ à¤µà¤¡
à¤¥ à¤Łà¤¬
à¤¤à¤° à¤ªà¤£
Ġà¤ĸ à¤Łà¤ķà¤²
à¤ĺ à¤¡à¤µ
à¤« à¤£à¤¸
à¥Ī )
Ġà¤īà¤ª à¤¸à¤²
à¤Ŀ à¤£
à¤ľà¤ª à¤®
Ġà¤Ĩà¤° à¤ıà¤¸à¤ı
Ġà¤¸à¤¹ à¤¦
à¤²à¤ķ à¤ļ
à¤ĵ à¤«
à¤ĵ à¤²à¤¨
Ġà¤ķà¤® à¤µà¤£
Ġà¤ķà¤® à¤µà¤¤
Ġà¥¨ à¥§à¥¬
Ġà¤ħà¤Łà¤ķ à¤³
Ġ20 23
à¥« à¥©
à¤ľà¤² à¤ª
Ġà¤ħà¤ķ à¤®à¤²
Ġà¤²à¤¢ à¤¯
Ġà¤Ĳ à¤µà¤¢
Ġà¤Ī à¤¥
Ġà¤ıà¤® à¤ıà¤²à¤¡
à¤ĩà¤¨ à¤µà¤°
in c
Ġ15 000
Ġà¥¯ à¥©à¥¦
Ġà¥§à¥¯ à¥§
Ġà¥§à¥« à¥¨
Ġà¤į à¤Łà¤°
Ġ50 50
Ġ19 1
Ġà¤°à¤® à¤£à¤¸
Ġà¤«à¤¸ à¤Ĺà¤¤
Ġn drf
it e
Ġà¤¬à¤¡ à¤ľ
Ġà¥¨à¥® à¥¨
Ġ0 25
200 5
iv o
Ġ198 8
Ġà¥¨à¥§à¥§à¥ ¬
Ġà¥¨à¥§à¥§à¥ Ń
à¤Ĩà¤°à¤ıà¤¸ à¤ıà¤¸à¤ļ
Ġà¤ıà¤«à¤Ĩà¤¯ à¤Ĩà¤°à¤ļ
olog y
à¤¶à¤ı à¤®à¤¹
Ġà¤ĸà¤¦à¤ĸ à¤¦à¤¤
c c
d elhi
s an
à ¸
à¥ Ĭ
à¤¯ à¤°à¤®
à¤² à¤®à¤ļ
à¤¨ à¤ĺ
à¤Ĥ )
Ġà¤ķ à¤¬à¤°
à¤¦ à¤µà¤¸
Ġà¤® à¤Ĺà¤ļ
à¤§ à¤Ĺà¤¯
à¤ľ à¤®à¤¤
à¤ľ à¤¶à¤¹
Ġà¤µ à¤ļà¤ª
à¤¶ à¤²à¤¨
à¤¡ à¤¶à¤¤à¤ķ
Ġà¤¹ à¤¡à¤ª
Ġà¤ľ à¤ł
Ġà¤ľ à¤³à¤²
Ġà¤° à¤Ł
Ġà¤ķà¤° à¤ķà¤°
Ġà¤¬ à¤«
Ġà¤¶ à¤Łà¤°
à¤¥ à¤¸à¤ļ
à¤ł à¤ªà¤°
Ġà¤Ŀ à¤µ
Ġà¤ī à¤ķà¤°
à¤°à¤ķ à¤ĸ
à¤¤à¤° à¤¬
à¤Ī à¤¥
à¤Ī à¤Łà¤²
à¤ľà¤ª à¤§
Ġà¤¸à¤°à¤ķ à¤£
Ġà¤¨à¤µ à¤®
à¤¶à¤¨ à¤§
à¤ĩ à¤Łà¤¨
à¤ķà¤² à¤¬
à¤§à¤¨ à¤¸à¤Ń
à¤¸à¤¦ à¤ªà¤Ł
Ġ20 4
à¤¸à¤® à¤Ń
Ġà¥© à¥§à¥¨
à¥¯ à¥®
à¤ķà¤Ł à¤ª
à¤ıà¤« à¤ıà¤«
Ġà¤ľà¤¯ à¤Ńà¤Ĺà¤µ
Ġ7 30
Ġà¤¢ à¤¸
à¤·à¤® à¤ªà¤£
Ġ15 6
Ġà¤Ńà¤µ à¤¨à¤ļ
à¤¸à¤¬ à¤ķ
Ġà¥§à¥® à¥¬
Ġà¤µà¤ľà¤¨ à¤Ĺà¤Ł
Ġ17 1
or s
Ġà¥§à¥Ń à¥®
à¤ıà¤µà¤¢ à¥Ł
Ġ26 4
ir c
Ġ0 9
à¤¯à¤®à¤¸ à¤¨à¤ļ
à¥¨à¥¦à¥¦ à¥¨
Ġà¤Ńà¤¡à¤ķ à¤µ
à¤ıà¤¸à¤ıà¤¸ à¤ıà¤«
Ġà¤«à¤¡à¤ķ à¤µà¤£
Ġ85 5
à¤§à¤µà¤¨ à¤¨
Ġ196 1
ÃŃ à¤¥à¤ķ
Ġtra iler
Ġmov ie
1 20
7 9
8 4
8 6
e f
m at
m er
n ia
p ri
x ip
Ñ ĭ
à µ
à¥ Ħ
à¥į à¥į
à¥ĩ à¥ĩà¤Ĥ
à¤¤ à¤Ŀ
à¤² à¤¬à¤¸
à¤¹ à¤°à¤µà¤²
Ġà¤ª à¤¡à¤µ
Ġà¤® à¤ĸ
à¤Ł à¤ªà¤¹
à¤§ à¤¨à¤µ
Ġà¤µ à¤¨à¤°
Ġà¤¤ à¤ľà¤µ
Ġà¤¹ à¤£à¤®
Ġà¤¦ à¤ļà¤ķà¤²
Ġà¤° à¤¨à¤µà¤°
à¤ĸ à¤°à¤²
Ġà¤ļ à¤µà¤¤
Ġà¤² à¤¯à¤²
à¤Ĩ à¤µà¤ķ
à¤Ĭ à¤²à¤®à¤§
Ġà¤ħà¤¨ à¤µ
à¤°à¤ļ à¤ķ
à¤·à¤£ à¤¦
Ġà¤¸à¤¹ à¤ľà¤°
à¤Ĺà¤³ à¤«
à¤¤à¤ķ à¤¥
Ġà¤ħà¤° à¤¹
à¤²à¤ķ à¤µ
à¤ķà¤² à¤ł
à¤ĵ à¤ĵ
à¤ĵ à¤Ĩà¤°
à¤Ĩà¤¯ à¤ıà¤¸à¤Ĩà¤¯
à¤ī à¤Ŀà¤¬
Ġà¤ĵ à¤°à¤¸
à¤¹à¤¨ à¤ªà¤°
Ġà¤ħà¤ľ à¤Ĺà¤°
Ġà¤ħà¤¦ à¤¯
Ġà¤ĺà¤° à¤¬à¤¸à¤²
à¤°à¤¹ à¤¸
à¤ıà¤¸ à¤Ĩà¤¯à¤¸
à¤®à¤Ĺ à¤ļ
à¤¡à¤ķ à¤Ł
à¤ıà¤® à¤µ
à¤¯à¤¸ à¤ªà¤°
à¤Ĭà¤¸ à¤ķà¤°
Ġà¤ıà¤¸ à¤ıà¤¸à¤ª
à¤°à¤³ à¤¸
Ġà¤¬à¤² à¤¦
Ġà¤ĵà¤³à¤ĸ à¤¹
à¤ıà¤² à¤ıà¤«
Ġ8 30
al d
ic on
Ġà¤¸à¤¹à¤¨ à¤¶à¤ķ
Ġà¥§à¥¬ à¥©
Ġà¥§à¥¬ à¥®
Ġ21 5
en a
st udy
Ġ35 00
Ġg st
Ġ26 0
à¤īà¤ª à¤Ĺ
Ġà¥¨à¥¯ à¥ª
Ġw ith
à¤¨à¤ķà¤° à¤¨
Ġl ok
Ġ400 00
à¤į à¤²
à¤į à¤®
ov e
Ġ49 7
à¤ĳà¤« à¤¸
Ġà¤®à¤ķà¤° à¤¸
à¥¨à¥¦à¥§à¥® à¥§à¥¯
à¥² à¤ķ
hy a
Ġoff ice
9 4
c y
n ew
t m
w ali
Ï ģ
à ³
à¤¾ à¤¿
à¤¹ à¤°à¤ķ
à¤ķ à¤¬à¤³
à¤ļ à¤¢
à¤µ à¤Ńà¤°
à¤µ à¤ĺà¤°
à¤£ à¤ĸ
Ġà¤ķ à¤ľ
Ġà¤ķ à¤Ń
à¤ª à¤ªà¤£
Ġà¤¸ à¤¤à¤²à¤ľ
Ġà¤ª à¤ļà¤£
Ġà¤® à¤Łà¤¨
à¤Ĺ à¤ĸ
à¤Ĺ à¤®à¤ļ
Ġà¤ħ à¤ľà¤¨
Ġà¤ħ à¤¡à¤¤
à¤¡ à¤ķà¤¸
à¤¡ à¤ħà¤ª
Ġà¤¹ à¥Ł
à¤³ à¤ĺ
Ġà¤ľ à¤ĸ
Ġà¤¬ à¤¡à¤µ
à¤¥ à¤¦
à¤¥ à¤Ł
à¤ł à¤°à¤µ
Ġà¤Ń à¤Ĺà¤¨
Ġà¤ļ à¤¢à¤µà¤£
Ġà¤ī à¤°à¤ķ
Ġà¤Ĩà¤² à¤¯
Ġà¤ı à¤¨à¤µ
à¤Ī à¤ķà¤¡
à¤Ī à¤¸à¤ª
à¤°à¤£ à¤¨
à¤ħ à¤°à¤ķ
à¤ħ à¤¥à¤ķ
à¤ľà¤ª à¤µà¤°à¤¹
à¤Łà¤ķ à¤®
à¤ľà¤¨ à¤°
Ġà¤ĳ à¤Īà¤²à¤ļ
à¤°à¤ĸ à¤¡à¤²
à¤ıà¤¸ à¤ķà¤¡
à¤¤à¤¹ à¤¸
à¤¹à¤² à¤µ
à¤µà¤ķ à¤ļ
à¤ļà¤° à¤µà¤°
Ġà¤¸à¤®à¤ľ à¤µ
Ġà¤ıà¤¨ à¤Ī
Ġà¤Ńà¤° à¤¡
à¤²à¤° à¤ªà¤°
à¤¡à¤¨ à¤µà¤°
Ġà¤ıà¤® à¤ıà¤®à¤Ł
Ġà¤ħà¤¡ à¤µà¤¤
Ġà¤ĺà¤¡ à¥Ł
Ġà¤ªà¤Łà¤ķ à¤µà¤²
Ġà¤ıà¤« à¤ª
à¤¯à¤°à¤¸ à¤ª
Ġà¤Ĩà¤ª à¤®à¤§
Ġà¥¨à¥« à¥®
Ġp a
Ġ21 1
Ġ21 19
Ġb h
Ġb l
Ġ24 4
Ġ2020 21
Ġ28 6
Ġ29 4
à¥¨à¥¦à¥¦ à¥©
Ġà¤¦à¤® à¤¡
ut e
Ġà¤Ĺà¤Ĺà¤¨ à¤¯
Ġ199 5
Ġà¤ĸà¤Łà¤ķ à¤£
à¤Ĩà¤¯à¤ıà¤¸ à¤ıà¤²
Ġà¤²à¤Łà¤ķ à¤µ
Ġà¤¥à¤°à¤¥ à¤°à¤¤
amin o
à¤¹à¤°à¤Ń à¤ľà¤¨
var ia
7 6
b e
i al
j i
l a
r s
w it
z on
Ñ ĥ
Ġ Ø
Ġ ion
à¤¤ à¤®à¤¹
à¤² à¤°à¤®
à¤¨ à¤µà¤¸
à¤¨ à¤®à¤²
à¤ķ à¤¥à¤¨
à¤ķ à¤Ĩà¤īà¤Ł
à¤µ à¤¤à¤ª
à¤¸ à¤µà¤²à¤¤
à¤¸ à¤Īà¤¦
à¤® à¤Ńà¤ķ
Ġà¤Ĩ à¤°à¤®
Ġà¤Ĩ ÃŃà¤¥à¤ķ
à¤ª à¤³à¤Ĺ
à¤¦ à¤®à¤§à¤²
Ġà¤® à¤°à¤ķ
à¤Ł à¤¦à¤°à¤®
à¤ľ à¤Ł
Ġà¤µ à¤°à¤¸à¤Ĺ
Ġà¤¤ à¤¦
à¤¡ à¤¸à¤ļ
à¤· à¤²à¤Ĺ
à¤¬ à¤°à¤¶
Ġà¤¶ à¤µà¤ļ
à¤µà¤° à¤µ
à¤Ń à¤¶
Ġà¤Ĺ à¤¢à¤µ
Ġà¤² à¤Ĺà¤¦
Ġà¤ī à¤ªà¤²
Ġà¤ī à¤¬à¤°
à¤°à¤ķ à¤¶à¤ķ
à¤°à¤¤ à¤¤
Ġà¤ı à¤¡à¤µ
à¤Ī à¤«à¤¸
à¤ĺ à¤ľ
à¤Ĩ à¤°à¤²
Ġà¤« à¤£
Ġà¤« à¤¸à¤¤
Ġà¤« à¤ĸà¤°
Ġà¤Ł à¤µà¤Łà¤µ
à¤µà¤¸ à¤Īà¤¤
Ġà¤¸à¤° à¤¹à¤¦
à¥ħ à¥ħ
Ġà¤§ à¤¨à¤²
à¤ı à¤Ĩà¤¯à¤¸
Ġà¤¡ à¤ķà¤µà¤°
à¤Ĺà¤² à¤ķà¤¡
à¤ľà¤¨ à¤¬à¤¦
à¤ľà¤¨ à¤§à¤¨
à¤Łà¤° à¤¡
Ġà¤¸à¤¹ à¤°
à¤¶à¤¨ à¤¸à¤¹
Ġà¤ħà¤Ń à¤¦
à¤µà¤³ à¤ķà¤°
à¤ĵ à¤ķà¤¡
Ġà¤®à¤² à¤¨
à¤µà¤¨ à¤¹
à¤ī à¤¸à¤«
Ġà¤ĺà¤° à¤Ł
à¤Ĩà¤° à¤Ŀ
Ġà¤¸à¤² à¤µ
à¤¯à¤ª à¤§
Ġà¤īà¤ļ à¤ķ
à¤Ĺà¤µ à¤Ł
Ġà¤Ĺà¤° à¤¬
à¥¯ à¥Ń
Ġà¤Ńà¤° à¤Ĺà¤ļ
à¤Īà¤ķ à¤¹
Ġ8 50
in x
Ġ11 30
Ġ19 3
Ġs ystem
er e
Ġ16 7
Ġ16 8
Ġà¤Ĺà¤¡ à¤¹
Ġ17 3
Ġà¤Ńà¤°à¤¤ à¤¨
à¤ıà¤µà¤¢ à¤ļ
Ġb attery
Ġà¤īà¤²à¤Ł à¤¤à¤ª
am it
Ġà¥©à¥« à¥¦à¥¦
Ġd esign
Ġ32 9
Ġ27 5
Ġà¤ħà¤¡à¤ķ à¤µà¤£
Ġ34 0
Ġà¤¦à¤¡ à¤ªà¤²
à¤ħà¤µ à¤¯à¤µ
ĠÂ °
Ð° ÑģÑĤ
Ġà¤ľà¤²à¤¤à¤°à¤£ à¤ªà¤Ł
ii i
arm ers
ams ung
Ġkap oor
Ġvol te
Ð°ÑģÑĤ ÑĮ
9 6
c m
k er
o ff
p ubg
s ushant
Ù Ĭ
à¤° à¤°à¤¤
à¤° à¤¡à¤¤
à¤¯ à¤¸à¤²
à¤² à¤¢à¤¤
à¤¹ à¤µà¤²
à¤¸ à¤®à¤²
à¤¸ à¤ķà¤°à¤²
à¤¸ à¥²
à¤® à¤¯à¤ķ
à¤® à¤²à¤ķ
Ġà¤Ĩ à¤¥
Ġà¤Ĩ à¤Ĺà¤°
Ġà¤ķ à¤Łà¤ª
à¤ª à¤Ĺà¤¡
à¤¦ à¤ľà¤¨à¤ķ
à¤Ĺ à¤°à¤¤
à¤Ĺ à¤®à¤°
Ġà¤ħ à¤ļà¤²
Ġà¤µ à¤²à¤¸
à¤¡ à¤¬à¤³
à¤¬ à¤°à¤¸
à¤¬ à¤¬à¤¤
à¤¬ à¤®à¤¨
à¤¬ à¤ķà¤®
à¤ĸ à¤°à¤¹
Ġà¤ļ à¤²à¤¬
Ġà¤ī à¤¡à¤²
à¤Ĩ à¤¯à¤¦
à¤ħ à¤µà¤§
à¤« à¤¸à¤µ
Ġà¤¸à¤® à¤¶
Ġà¤Ĩà¤° à¤Ĩà¤°à¤Ĩà¤°
à¤·à¤£ à¤¤
à¤Łà¤² à¤µ
à¤¯à¤¤ à¤¤
à¤¶à¤¨ à¤¦à¤°à¤®
à¤Ĺà¤£ à¤ĺ
à¤¹à¤° à¤¬
à¤¯à¤² à¤Łà¤¨
à¤ĩ à¤¡à¤²
à¤ľà¤¯ à¤°à¤¥
Ġà¤¨à¤° à¤Ĺ
à¤ĵ à¤ĸ
à¤Ĩà¤¯ à¤¤à¤°
à¤¸à¤¤ à¤¶
Ġà¤ĵ à¤¶à¤¨
à¤ķà¤¤ à¤®
à¤¶à¤² à¤¤
Ġà¤¬à¤¦à¤² à¤µ
à¤ıà¤¸ à¤ĵ
Ġà¤¶à¤¹à¤° à¤¯
Ġà¥¨à¥¦ à¥§
Ġà¤ľà¤¬ à¤¡
à¤ľà¤Ĺ à¤ª
Ġà¤§à¤ķ à¤§à¤ķ
Ġà¤Ķ à¤ķ
à¤¬à¤¸ à¤¸
à¤®à¤£ à¤ļ
Ġ12 30
Ġà¤ªà¤³ à¤ª
Ġà¥§à¥¯ à¥ª
an ode
Ġà¤ħà¤¹à¤®à¤¦ à¤ª
at ch
Ġ19 50
Ġ13 3
Ġà¥§à¥ª à¥Ń
Ġa f
à¤¤à¤¶ à¤¬
Ġb jp
ro ss
à¤ıà¤²à¤®à¤§ à¤²
Ġà¥¨à¥Ń à¥«
Ġà¥¨à¥¯ à¥¦
Ġd o
Ġ32 4
Ġ31 8
Ġà¤Ĺà¤² à¤¥
Ġh e
Ġk umar
Ġà¤ĵà¤¸ à¤°à¤¤
à¥§à¥« à¥¦
re e
à¥§à¥¨ à¥¦
Ġà¤ħà¤Ŀ à¤°à¤²
Ġà¤ĵà¤° à¤¡à¤£
Ġà¤¸à¤¬ à¤¬
ci al
Ġà¥§à¥¯à¥® à¥©
Ġà¥§à¥¯à¥® à¥¯
th e
à¤®à¤¨à¤Ĺà¤° à¤®à¤§
à¥§à¥¯à¥¯ à¥¦
Ġpro test
Ġà¤ħà¤¥ à¤£
à¤¥à¤°à¤¸ à¤®à¤§
Ġà¥§à¥¯à¥¬ à¥¨
Ġà¥§à¥¯à¥¬ à¥«
à¤²à¤ĸà¤¨à¤Ĭ à¤®à¤§
Ġà¤ħà¤²à¤Ĺ à¤¦
Ġ197 1
pn b
rum p
irc uit
8 00
p re
v al
w c
w ay
à¥ ĺ
à¤° à¤łà¤²
à¥Ģ à¤¾
à¤² à¤¸à¤£
à¤¹ à¤³à¤¤
à¤¸ à¤µà¤²
Ġà¤Ĩ à¤³à¤µà¤²
Ġà¤ķ à¤ªà¤¨
à¤¦ à¤¸à¤±
à¤Ł à¤¸à¤®
à¤Ĺ à¤¢à¤ļ
à¤ľ à¤²à¤ļ
à¤ľ à¤¸à¤®
à¤¶ à¤°à¤®
Ġà¤¤ à¤¸à¤¤à¤¶
Ġà¤ķà¤° à¤®à¤¬
Ġà¤Ŀ à¤«à¤°
Ġà¤ĸ à¤µà¤²
Ġà¤« à¤¡à¤¶
à¤ħ à¤¥
Ġà¤ªà¤° à¤Ĺ
Ġà¤¸à¤® à¤ª
à¤ı à¤ıà¤«
à¤°à¤¸ à¤ª
à¤¬à¤° à¤ĳà¤ķ
Ġà¤ĺà¤Łà¤¨ à¤¸
Ġà¤¸à¤¹ à¤ħà¤Ń
Ġà¤¸à¤¹ à¤ħà¤§
à¤¯à¤² à¤°
à¤ĩ à¤®à¤ļ
à¤°à¤ľ à¤²
Ġà¤ĸà¤° à¤Ĺà¤ª
Ġà¤Ĩà¤Ĺ à¤®
à¥¯ à¥©
à¤ıà¤¨ à¤ıà¤®
à¤¥à¤ķ à¤¬
Ġà¤ĩà¤® à¤°à¤¤
Ġà¤ıà¤® à¤Ĩà¤¯à¤ı
Ġà¤ĩà¤¥ à¤µà¤°
à¤³à¤µà¤£ à¤ķà¤°
à¤®à¤£ à¤°
Ġà¥§à¥¯ à¥¨
à¤ĸà¤¨ à¤Ń
Ġ19 4
Ġà¤ıà¤« à¤ıà¤Ł
Ġc m
à¤¨à¤Ī à¤ķà¤¡
Ġà¤Ĺà¤® à¤µà¤²
Ġà¥©à¥¦ à¥ª
Ġà¥§à¥¬ à¥¦à¥¦
Ġà¥§à¥® à¥ª
Ġa uction
Ġà¤ľà¤² à¤ľ
Ġr ss
le d
Ġt rump
Ġ22 2
à¤¯à¤Ĺ à¤¡à¤ļ
Ġà¥¨à¥¬ à¥ª
à¤¬à¤¦à¤² à¤²
à¤īà¤ª à¤®à¤¹
Ġà¥¨à¥¯ à¥®
Ġin dian
ir e
Ġà¥«à¥¦à¥¦ à¥¦à¥¦
bi om
ch an
à¤ıà¤¨à¤Ĩà¤¯ à¤ıà¤ļ
ho de
Ġ199 0
ak e
Ġà¤ħà¤Ŀà¤° à¤¬
Ġà¤²à¤ĸ à¤ªà¤¤
ug h
Ġà¤¤à¤¡à¤« à¤¦
à¤ħà¤°à¤® à¤¨à¤ªà¤¦
à¤¸à¤ı à¤ĩà¤¤
Ġai ims
Ġà¤ıà¤¸à¤ıà¤® à¤ıà¤¸à¤ļ
Ġtri als
Ġà¤ıà¤¸à¤ıà¤®à¤ı à¤¸à¤¦
Ġpap er
ĠÐ¾Ð±Ð» Ð°ÑģÑĤÑĮ
ustral ia
biom ass
5 1
p ra
à §
à¤¯ à¤°à¤ķ
à¤² à¤ħà¤ª
à¤¨ à¤ħà¤°
à¤ķ à¤ªà¤°
à¤µ à¤ľà¤µ
à¤¸ à¤ĸà¤²
Ġà¤¸ à¤µà¤¡
à¤¦ à¤Ĺà¤¤
Ġà¤ª à¤®
à¤Ł à¤Ĩà¤Ĭà¤Ł
à¤¶ à¤°à¤£
Ġà¤ķà¤° à¤ķ
à¤ĸ à¤Ĺ
à¤¥ à¤ľ
Ġà¤Ń à¤°à¤¦
Ġà¤ı à¤¸à¤ķ
à¤Ī à¤Ńà¤ķ
à¤Ī à¤«à¤²
à¤Ĩ à¤¡à¤µ
à¤Ĩ à¤³à¤¸
à¤ħ à¤®à¤ļ
à¤ħ à¤ľà¤®
à¤°à¤® à¤Ĺà¤¡
Ġà¤¸à¤° à¤³à¤¸
à¤¯à¤® à¤Ń
à¤ı à¤®à¤¨
Ġà¤īà¤ª à¤ħà¤Ń
Ġà¤¤à¤° à¤²
à¤Ĺà¤² à¤¸
Ġà¤¨à¤µ à¤īà¤¦
Ġà¤¸à¤¹ à¤Ĩà¤°
à¤²à¤ķ à¤°à¤£
à¤ĩ à¤²à¤¸
à¤®à¤ļ à¤°à¤£
à¤¬à¤¦ à¤¨
Ġà¥¨ à¥§à¥©
à¤¨à¤µ à¤Ń
à¤¹à¤¨ à¤¤à¤¹
Ġà¤ĺà¤° à¤¹
Ġà¤¸à¤¤ à¤¨
Ġà¤Ĩà¤ľ à¤ĺà¤¡
Ġ20 8
à¤ıà¤¸ à¤¡à¤¬
à¤¬à¤² à¤²
à¤¤à¤³ à¤¯
Ġà¤ħà¤µ à¤¤à¤°à¤£
à¤²à¤µ à¤¯
à¤ıà¤® à¤Ĩà¤°à¤¨
Ġà¤īà¤² à¤¥à¤µ
à¤³à¤µà¤² à¤ķà¤°
Ġà¤ĩà¤¨ à¤¬
à¤°à¤³ à¤¨
Ġ15 8
à¤Łà¤® à¤®à¤§
à¤·à¤ªà¤¦ à¤¹
à¤ıà¤ļ à¤ĵà¤ļ
Ġ14 00
Ġc ap
Ġà¥§à¥ª à¥¦à¥¦
Ġp at
ic t
Ġà¤Ĩà¤łà¤µà¤£ à¤¹
Ġa k
à¤¤à¤¶ à¤¤
Ġb ox
Ġà¥¨à¥¨ à¥¨
Ġf at
à¤Īà¤ĵ à¤ªà¤¦
Ġ32 3
Ġà¤Ŀà¤³à¤ķ à¤µà¤²
Ġà¤ħà¤¡à¤ķ à¤µà¤²
Ġà¤Ńà¤¡ à¤ķà¤¤
Ġà¤ıà¤®à¤ıà¤¸ à¤ıà¤®
om i
Ġà¤¹à¤¸à¤¤ à¤®
Ġ199 1
lo w
ik a
ank a
à¤¡à¤°à¤¸ à¤¨à¤¨
à¤Ĩà¤¯à¤ıà¤« à¤ıà¤¸
à¤¨à¤ī à¤ĺà¤¡à¤£
Ġà¤¥à¤°à¤¥ à¤°
ĠØ§ ÙĦ
à¤¥à¤Łà¤¬ à¤®à¤§
9 1
9 3
d ro
g a
m ic
m it
p ub
r and
Ġà¤ İ
à¤² à¤¤à¤°
à¤² à¤°à¤¸à¤¨
à¤¨ à¤¯à¤ļ
à¤¨ à¤¸à¤¤
à¤µ à¤ļà¤¨
à¤¸ à¤µà¤ķ
à¤® à¤¸à¤°
à¤® à¤Łà¤£
à¤ľ à¤¦à¤²
à¤¶ à¤ķà¤²
à¤¡ à¤ľà¤µà¤³
à¤³ à¤«
à¤· à¤¯à¤²
à¤¬ à¤®à¤§à¤²
à¤°à¤ķ à¤¸à¤¹
Ġà¤ĸ à¤¬à¤±
Ġà¤ı à¤ıà¤«à¤¸
à¤¯à¤ķ à¤ķ
Ġà¤« à¤Ŀà¤²
Ġà¤ĩ à¤¸à¤°
Ġà¤ĩ à¤¡à¤²
Ġà¤§ à¤¨à¤ª
à¤°à¤¸ à¤ķà¤°
Ġà¤¡ à¤¸
à¤·à¤£ à¤¬
Ġà¤¨à¤µ à¤ĺà¤°
à¤¬à¤Ī à¤®
à¤Ĺà¤° à¤Ĺ
à¤¶à¤¨ à¤ľà¤µà¤³
à¤¤à¤ķ à¤¹
à¤ķà¤² à¤£
à¤¨à¤µ à¤¦
à¤¨à¤µ à¤±
à¤²à¤¨ à¤Ĺ
Ġà¤¥ à¤ķà¤µà¤²
Ġà¤ĵ à¤®à¤ķ
Ġà¤ħà¤ľ à¤¹à¤°à¤ļ
à¤§à¤¨ à¤Ĺà¤°
Ġà¥¨à¥¦ à¥¨à¥«
Ġà¤ħà¤µ à¤ľ
à¤ıà¤¨ à¤ıà¤«
Ġà¤Ī à¤ľ
Ġà¤¸à¤¨ à¤¥
Ġà¤¬à¤ĺ à¤µà¤¤
à¤¦à¤ķ à¤ªà¤¦
Ġà¤Ĭ à¤¹
à¤°à¤¯ à¤¶à¤ķ
à¤·à¤® à¤¯
Ġà¤Ŀà¤³ à¤ķà¤µà¤£
ar n
Ġà¤¨à¤Ĺà¤° à¤°à¤ļà¤¨
Ġà¤§à¤°à¤£ à¤Ĺ
Ġ40 3
Ġà¥§à¥§ à¥¦à¥¦
Ġ21 3
Ġ21 8
Ġ17 7
Ġà¤ıà¤ļ à¤ıà¤¸
Ġà¥§à¥Ń à¥¨
Ġa g
en z
Ġt v
Ġà¥¨à¥¨ à¥«
à¤¯à¤Ĺ à¤°à¤ļ
Ġà¥² à¤¥à¤²
Ġk xip
Ġ29 5
oo k
Ġà¤Ńà¤¡à¤ķ à¤£
ia omi
à¤°à¤ĺ à¤³à¤£
Ġ49 8
ac it
ab le
Ġà¥¨à¥§à¥§à¥ «
Ġ195 5
out come
ĠâĢ º
gr ess
Ġmy gov
Ġchamp ion
cat hode
3 50
b c
l ine
s uper
u c
Ù Ī
Ġ irctc
à¤° à¤ı
à¤ķ à¤ıà¤¤
à¤ļ à¤³à¤µà¤³
à¤¸ à¤µà¤£
à¤¸ à¤¦à¤¨
à¤® à¤¬à¤¨
à¤ª à¤ħà¤ª
à¤¦ à¤¬à¤°
Ġà¤® à¤¥à¤³
Ġà¤µ à¤Łà¤²
à¤¶ à¤®à¤ķ
à¤ĸ à¤°à¤¤à¤°
à¤¥ à¤ķà¤¡
Ġà¤ļ à¤²à¤ļ
Ġà¤ļ à¤ķà¤ļà¤ķ
à¤ħ à¤¦à¤¨
à¤ķà¤° à¤¦à¤°
Ġà¤ĩ à¤¨à¤²
à¤ķà¤¡ à¤§
à¤·à¤£ à¤ª
à¤·à¤£ à¤ķà¤°
à¤Łà¤ķ à¤Ł
à¤®à¤¨ à¤²
Ġà¤Ĩà¤¯ à¤Ĩà¤¯
à¤ĩ à¤¨à¤ķ
à¤·à¤ķ à¤ļ
à¤ĵ à¤Ŀ
à¤ĵ à¤ıà¤¨à¤ľ
Ġà¤ªà¤¦ à¤¹
à¤Ĩà¤¯ à¤ĵà¤ı
à¤Ľ à¤®à¤§
à¤¯à¤¨ à¤¹
Ġà¥© à¥§à¥¬
Ġà¤ħà¤µ à¤¹
Ġà¤ĩà¤¨ à¤«
Ġà¥¬ à¥«à¥¦
à¤¸à¤Ĺ à¤¢à¤ļ
Ġ50 6
Ġà¤ħà¤µà¤ĺ à¤¡à¤²
Ġs abha
à¤¯à¤£ à¤ª
à¤Ĺà¤ľ à¤Ĺà¤¤
à¤°à¤Ł à¤¯
Ġà¥§à¥¬ à¥Ń
Ġa wards
am e
Ġn e
Ġà¥¨à¥© à¥ª
Ġà¤¡à¤¬ à¤ķ
Ġà¤ıà¤ħ à¤°à¤ķ
Ġà¥¨à¥Ń à¥¨
Ġà¥©à¥« à¥¬
ing s
Ġà¤ªà¤°à¤® à¤ľ
Ġà¤Ĺà¤ľ à¤Ń
re ak
à¥¨à¥¦à¥¦ à¥§
Ġ38 4
Ġà¤Ĩà¤¸à¤¨ à¤¸
Ġà¤ķà¤¡à¤µ à¤Ł
Ġà¤Ńà¤Łà¤ķ à¤¤
Ġà¤ıà¤ıà¤¨ à¤Ĩà¤¯à¤²
à¥§à¥¯à¥® à¥ª
oc k
Ġà¤Ĩà¤Ĭ à¤Łà¤²
Ġà¤ıà¤®à¤ı à¤ıà¤ļ
à¤µà¤« à¤²à¤ķ
ste am
Ġmin ister
5 3
6 00
9 7
b ol
h dfc
m y
n g
à ±
Ġ å
Ġ es
ł à¤¿
à¤° à¤¬à¤²
à¤¹ à¤²à¤¤
à¤ķ à¤¬à¤¦
à¤ļ à¤°à¤®
à¤¸ à¤ľà¤¨
à¤® à¤³à¤¤
Ġà¤Ĩ à¤Ļ
à¤ª à¤¸à¤¹
Ġà¤¸ à¤¨à¤¸
à¤¦ à¤°à¤ķà¤°
Ġà¤ª à¤ļà¤µ
à¤¾à¤Ĥ '
à¤Ł à¤§
à¤§ à¤Ł
à¤§ à¤ªà¤¤
Ġà¤¨ à¤Ĺà¤¦
Ġà¤µ à¤¹à¤¨
à¤¶ à¤ªà¤¤
Ġà¤¦ à¤¶à¤®
Ġà¤¶ à¤°à¤ľ
à¤µà¤° à¤¯
Ġà¤Ń à¤Łà¤ļ
Ġà¤² à¤ªà¤¤
Ġà¤² à¤ĸà¤µ
à¤°à¤¤ à¤¡à¤²
à¤¤à¤° à¤µà¤°
à¤Ī à¤ı
à¤ĺ à¤Ń
à¤ħ à¤¹à¤®à¤¦à¤¨
Ġà¤§ à¤Ĺà¤§
Ġà¤¨à¤µ à¤µà¤§
à¤µà¤¤ à¤®à¤§
à¤¶à¤¨ à¤¤à¤°
Ġà¤Ĩà¤¯ à¤ĵà¤¨
à¤¤à¤ķ à¤¤
Ġà¤ħà¤° à¤°
à¤ĩ à¤¯
à¤ĩ à¤Łà¤¸
à¤ĩ à¤ķà¤®à¤§
Ġà¤ªà¤¦ à¤®
à¤ī à¤£
Ġà¤¥ à¤¡
Ġà¤ĵ à¤ıà¤¸
à¤ªà¤¦ à¤ļ
Ġà¤ľà¤¨ à¤ķà¤ª
Ġà¤¨à¤ķ à¤µ
Ġà¤īà¤® à¤Ĺà¤²
Ġà¤Ľ à¤³à¤¤
Ġ3 99
à¤¹à¤² à¤²
Ġà¥¨à¥¦ à¥¨à¥ª
à¤ķà¤£ à¤ļ
à¤¤à¤¨ à¤ķ
à¤¤à¤¨ à¤¦
Ġà¤ĳà¤« à¤ļ
Ġà¥ª à¥¦à¥¦à¥¦
Ġà¤Ĩà¤Ī à¤¹
à¥¯ à¥¨
à¥¯ à¥ª
à¤ıà¤¨ à¤ıà¤¸à¤¸
Ġà¤ľà¤° à¤¬
Ġà¤ıà¤¨ à¤Ĩà¤¯à¤¸
Ġ9 11
Ġà¤¦à¤ĸà¤² à¤ª
à¤ıà¤ļ à¤ıà¤«
Ġ11 00
at er
Ġà¤ıà¤« à¤ıà¤®à¤¸
à¤¯à¤°à¤¸ à¤¶
Ġà¤¹à¤Ł à¤µà¤¤
Ġc ho
à¤¦à¤¯ à¤¸à¤®
Ġà¤ıà¤² à¤«
Ġà¥§à¥ª à¥©
Ġà¤¸à¤ľ à¤Ĺà¤¤
Ġp une
Ġà¥§à¥® à¥©
Ġà¤®à¤¦ à¤°à¤¸
or k
or y
à¤ĩà¤¥ à¤ªà¤°
Ġà¥§à¥Ń à¥Ń
Ġà¤Ŀà¤Łà¤ķ à¤¤
à¤¡à¤µà¤² à¤¦
Ġà¥¨à¥¨ à¥®
am et
di s
à¤«à¤³ à¤¬
à¤īà¤ª à¤ľ
Ġw e
Ġà¥©à¥Ń à¥«
Ġà¤Ńà¤Ĺà¤µ à¤¦
Ġà¥©à¥¨ à¥«
Ġà¥©à¥¨ à¥©
Ġ29 0
re alme
Ġà¥¦ à¥¦
Ġà¥©à¥ª à¥¦
200 1
Ġà¥¨à¥§à¥§à¥ ©
Ġ73 7
lo b
199 3
Ġelect ro
Ġà¤Ńà¤°à¤ķ à¤Łà¤¤
pho to
à¤Ńà¤Ĺà¤¤ à¤¸
Ġà¤®à¤²à¤® à¤ªà¤Ł
6 1
r at
u j
u v
y c
Ġ à¦
à¤° à¤Ī
à¤¤ à¤ĸà¤¡
à¤¯ à¤Ĩ
à¤¯ à¤¡à¤¸
à¤ķ à¤¨à¤Ĺ
à¤ķ à¤²à¤ķà¤¤
à¤ļ à¤®à¤¤
à¤µ à¤®à¤¸
à¤® à¤°à¤ļ
à¤ª à¤³à¤µ
Ġà¤¸ à¤¬à¤µ
à¤¦ à¤¬à¤¦
à¤Ĺ à¤¤à¤°
à¤§ à¤¤à¤¹
Ġà¤¤ à¤¡à¤¤
à¤· à¤ĸà¤¬à¤°
à¤¬ à¤°à¤µà¤£
Ġà¤ľ à¤¸à¤°
Ġà¤ķà¤° à¤µà¤£
à¤¥ à¤®à¤¨
Ġà¤Ĺ à¤®à¤ķ
Ġà¤Ń à¤Ĺà¤¦
Ġà¤ı à¤®à¤µ
à¤Ī à¤¬à¤¦
à¤Ī à¤®à¤²
à¤Ī à¤ıà¤²
à¤¯à¤ķ à¤°à¤£
à¤ĺ à¤¦
à¤ĺ à¤¬
à¤ĺ à¤²à¤¨
à¤ªà¤£ à¤¹
à¤¤à¤² à¤¯
Ġà¤ĩ à¤Ŀ
à¤Ĭ à¤ľ
Ġà¤ħà¤¨ à¤ķ
Ġà¤ħà¤¨ à¤ĺ
à¤°à¤§ à¤°
âĢ İ
à¤¶à¤¨ à¤²à¤ļ
à¤Īà¤² à¤²
à¤¤à¤¸ à¤°à¤ļ
à¤ľà¤° à¤®à¤§
Ġà¤ħà¤® à¤³à¤¨
à¤ªà¤¤ à¤¹
à¤ī à¤¨à¤¨
Ġà¤¶à¤° à¤¥
à¤ıà¤¸ à¤ıà¤¨à¤ı
à¤Ńà¤µ à¤¶
Ġà¤¶à¤¹à¤° à¤Ńà¤°
Ġà¤¦à¤² à¤ľ
à¤µà¤ķ à¤¹
Ġà¤Ĩà¤ł à¤ļ
à¤ªà¤Ł à¤¹
Ġ5 30
à¤Ĺà¤¡ à¤®
Ġà¥« à¥§à¥¨
à¤®à¤¦ à¤¹à¤¨
à¤ĳ à¤ª
Ġà¤ľà¤¯ à¤ªà¤°
Ġà¤ľà¤¯ à¤ľà¤¯à¤ķ
à¤ķà¤³ à¤ķà¤°
Ġ15 2
Ġà¤ħà¤« à¤Ŀà¤²
Ġà¤¶à¤¤à¤ķ à¤µ
à¤¦à¤® à¤¯
Ġ25 5
19 47
Ġ13 00
Ġs o
er ation
Ġà¥¨à¥« à¥«
Ġp ar
Ġp ri
à¥§à¥¯ à¥¯à¥¯
Ġm al
Ġm et
Ġà¤ľà¤² à¤ªà¤°
Ġ22 8
it s
99 0
Ġà¥©à¥Ń à¥Ń
Ġ31 7
Ġ27 9
Ġà¥©à¥¨ à¥¯
à¤Ĩà¤¯à¤ıà¤® à¤ı
Ġà¤°à¤ĸ à¤¡à¤¤
Ġà¤ļà¤¹à¤² à¤²
Ġà¤Ńà¤¡à¤ķ à¤µà¤²
à¤Łà¤ħà¤ª à¤®à¤§
à¤į à¤¸
Ġà¤īà¤²à¤Ĺ à¤¡à¤¤
Ġà¥§à¥¯à¥¯ à¥§
Ġ38 0
à¤ıà¤¸à¤ıà¤¸ à¤ıà¤Ĩà¤¯
à¤°à¤ĺ à¤³à¤²
Ġ199 4
Ġà¤®à¤¦à¤¨ à¤²
Ġà¥¨à¥§à¥§à¥ ®
199 0
Ð° Ð
ox id
tp cr
à¤ıà¤Ĩà¤¯à¤ıà¤® à¤Ĩà¤¯à¤ıà¤®
emb ly
hon i
Ġchampion ship
s à¤ļ
w ama
à¥Ģ à¥ĩ
à¤¤ à¤Ĩà¤²
à¤¯ à¤ªà¤²
à¤² à¤µà¤°à¤ļ
à¤¿ à¥ĥ
à¤¨ à¤®à¤°
à¤¨ à¤ħà¤®
à¤¨ à¤ĸà¤¡
à¤ķ à¤®à¤°
à¤ķ à¤ĩà¤¨
à¤ļ à¤°à¤ķ
à¤µ à¤ļà¤²
à¤¸ à¤°à¤®
à¤¦ à¤«
à¤¦ à¤±
à¤¦ à¤°à¤µà¤£
à¥Ĥ /
Ġà¤ħ à¤¹à¤°
à¤§ à¤ĸ
à¤§ à¤¸à¤¤
Ġà¤Ĩà¤¹ à¤¤
Ġà¤µ à¤ĸ
à¤· à¤°à¤¹
Ġà¤° à¤¨à¤°
Ġà¤¬ à¤ĸ
à¤ł à¤¶
Ġà¤Ĺ à¤Ŀ
Ġà¤² à¤Ĺà¤¤
Ġà¤² à¤µà¤ķ
Ġà¤Ŀ à¤¡
Ġà¤ī à¤Łà¤£
à¤Ī à¤¨à¤¹
à¤¯à¤ķ à¤ªà¤£
à¤¯à¤ķ à¤²à¤¨
à¤ħ à¤°à¤ª
Ġà¤Ł à¤ªà¤°
à¤ķà¤° à¤Ńà¤°à¤¤
à¤ªà¤° à¤¡
à¤ªà¤° à¤µà¤°
Ġà¤¸à¤° à¤¡
à¤ı à¤¶à¤¨à¤²
à¤Ĺà¤² à¤Ĺ
Ġà¤¨à¤µ à¤ļ
à¤¸à¤° à¤¬à¤ľ
à¤°à¤ªà¤Ł à¤¦
à¤¡à¤² à¤Ĺ
à¤Łà¤² à¤¦
à¤ľà¤¨ à¤ª
à¤¬à¤° à¤°
à¤¬à¤° à¤łà¥Ł
à¤¦à¤² à¤Ĺ
à¤Īà¤² à¤ħà¤¸
§à¥ ¨
à¤ªà¤¨ à¤²
à¤ĩ à¤ķà¤¨
à¤¸à¤¨ à¤ª
Ġà¤ªà¤¤ à¤¨
Ġà¤¥ à¤ķà¤µà¤£
Ġà¤ħà¤Łà¤ķ à¤¸à¤¤
Ġà¤¶à¤° à¤¯
à¤¡à¤ķ à¤°à¤µ
Ġà¤ħà¤² à¤¬
Ġà¤¬à¤¹ à¤°à¤¤
Ġà¥© à¥§à¥§
Ġà¤¸à¤ķ à¤ª
à¤łà¤² à¤µ
à¤ıà¤¨ à¤Ĩà¤°
Ġà¤ıà¤¨ à¤ıà¤¸à¤¸
Ġà¥¬ à¥¦à¥¦à¥¦
Ġà¤¢ à¤³à¤²
Ġà¥¯ à¥«à¥¦
Ġà¤· à¤£
Ġà¤į à¤µ
Ġ19 48
ar i
Ġà¤Ĩà¤ª à¤¬
Ġà¤ıà¤² à¤¬
Ġs l
Ġs rh
à¤°à¤®à¤£ à¤ķà¤°
Ġà¥¨à¥« à¥¨
Ġà¥§à¥© à¥©
Ġ17 2
Ġà¤Ńà¤°à¤¤ à¤ª
Ġà¥§à¥Ń à¥¯
à¤°à¤£à¤µ à¤¦
Ġb an
Ġà¤ķà¤ļ à¤±à¤¯
Ġr cep
Ġà¤¬à¤ķ à¤±
Ġà¥² à¤¸
Ġà¤īà¤¸ à¤³à¤£
Ġà¤ĵà¤¸ à¤°à¤£
à¤Ĩà¤¯à¤ıà¤® à¤ıà¤¸
à¥§à¥¨ à¥«
oo t
ur t
à¥§à¥© à¥¦
à¤°à¤ĺ à¤³à¤¤
Ġ54 3
Ġpo wer
he el
à¤ıà¤Ĩà¤¯ à¤¬
199 8
à¤¥à¤°à¤¸ à¤ļ
Ġse ction
à¤¡à¤°à¤¸ à¤¨à¤ļ
Ġà¤Ŀà¤Ĺ à¤®à¤Ĺ
Ġle d
Ġà¤ķà¤°à¤¸ à¤µà¤²à¤¤
Ġà¤¦à¤« à¤¨à¤Ń
}} }
{{ {
Ġà¤²à¤ĸà¤² à¤ĸ
p i
p le
r r
r t
t r
t ar
à¤¯ à¤ĺà¤°
à¤² à¤¡à¤ļ
à¤² à¤¬à¤¨
à¤¨ à¤¸à¤®à¤µ
à¤¹ à¤¬à¤°
à¤ķ à¤¦à¤°à¤®
à¤ķ à¤ľà¤µà¤³
à¤ķ à¤¬à¤§
à¤ļ à¤ķà¤¤
à¤µ à¤ķà¤²
à¤¸ à¤Łà¤¨
à¤® à¤®à¤¨
à¤® à¤µà¤°à¤¹
Ġà¤Ĩ à¤¸à¤²
Ġà¤ķ à¤£à¤¸
Ġà¤¸ à¤¡à¤ª
Ġà¤ª à¤¥à¤¨
à¤Ł à¤®à¤°
à¤Ĺ à¤§à¤°
à¤§ à¤¦
à¤ľ à¤¬à¤²à¤ª
à¤¡ à¤ħà¤³
Ġà¤¯ à¤µà¤¤
à¤¬ à¤¡à¤Ĺ
Ġà¤ľ à¤²à¤ļà¤°
Ġà¤° à¤¤à¤²
Ġà¤° à¤ĸà¤¡
Ġà¤¬ à¤¡à¤¨
Ġà¤Ń à¤°à¤ķà¤Ł
Ġà¤ļ à¤µà¤³
Ġà¤ļ à¤¹à¤°à¤¨
Ġà¤ī à¤Ł
Ġà¤ī à¤Ŀ
Ġà¤ķà¤°à¤£ à¤µ
Ġà¤ı à¤Ĩà¤¯à¤¬
à¤« à¤¦
Ġà¤ĩ à¤¦
à¤ªà¤° à¤¶
à¤ªà¤° à¤ĸà¤³
à¤¯à¤® à¤¤
à¤ı à¤®à¤²
à¤Łà¤¨ à¤ķà¤¡
à¤Ŀ à¤µà¤°
à¥Ģà¤Ĥ à¤Ĥ
Ġà¤¸à¤¹ à¤ħà¤¸
à¤ĩ à¤¡à¤®à¤§
à¤°à¤ľ à¤¤
à¤Ĩà¤¯ à¤ĵ
à¤Ľ à¤°
à¤Ľ à¤³
à¤ľà¤ķ à¤°à¤£
Ġà¤ķà¤² à¤µà¤°
à¤¤à¤® à¤ª
à¤ķà¤°à¤£ à¤¨
à¤¡à¤ķ à¤ªà¤¸
Ġ3 20
à¤µà¤ķ à¤±à¤¯
à¤¬à¤³ à¤ªà¤Ł
à¤¯à¤° à¤µà¤°
à¤µà¤ª à¤°à¤µ
Ġà¤Ĩà¤Ī à¤¸à¤²
Ġà¤ıà¤¨ à¤Ĩà¤°à¤Ĩà¤¯
Ġ6 25
Ġà¤ıà¤® à¤Ĩà¤°à¤Ĩà¤¯
Ġà¤ªà¤¡ à¤¤à¤ļ
Ġà¤«à¤° à¤«à¤Ł
Ġà¤ļà¤µ à¤¥
Ġ8 000
Ġ8 65
Ġ12 000
à¤²à¤® à¤ª
Ġà¥§à¥¯ à¥ªà¥Ń
an n
Ġà¤ĳà¤² à¤Ĩà¤Ĭà¤Ł
Ġc l
Ġ18 6
Ġà¥§à¥© à¥¦à¥¦
Ġà¥«à¥¦ à¥¯
Ġà¥©à¥¦ à¥©
Ġp ay
Ġà¤°à¤® à¤Ŀ
Ġ21 18
à¤ħà¤¦ à¤¬
Ġà¥¨à¥ª à¥ª
Ġà¥¨à¥ª à¥¬
Ġà¥§à¥Ń à¥©
Ġa ct
Ġb ank
Ġr edmi
Ġt error
Ġ28 2
à¤¹à¤ļ à¤µà¤¤
Ġà¥¨à¥¯ à¥¯
Ġd honi
Ġ31 5
Ġà¥©à¥¨ à¥¨
Ġà¥©à¥¨ à¥ª
18 0
ay er
Ġo di
oo ds
Ġà¤ħà¤Ŀ à¤°à¤ļ
Ġà¤ħà¤Ŀ à¤²à¤¨
Ġà¥¦ à¥©
à¤į à¤ª
Ġà¥ªà¥¯ à¥Ń
Ġà¤ļà¤°à¤£ à¤¸
à¤ıà¤¸à¤Ĩà¤¯ à¤Ĩà¤°à¤¨
em i
Ġà¥§à¥¯à¥® à¥«
Ġi i
à¥¯à¥¯ à¥¯
à¥¨à¥¦à¥§à¥¯ à¥¨à¥¦
Ġ198 4
à¥§à¥¯à¥¯ à¥§
Ġ2013 14
198 4
à¤¦à¤¶à¤¹à¤° à¤®à¤§
Ġsp e
à¤ªà¤ļà¤¨ à¤ķ
pho tos
fl at
fat ty
Ġor g
Ġass embly
8 2
8 9
c ap
c ross
m o
m ag
n on
p oly
v ent
â ĸ
à¥Ģ à¥¥
à¤² à¤¹à¤°
à¤² à¤¡à¤ª
à¤² à¤ĸà¤¤
à¤¸ à¤°à¤µ
à¤£ à¤°à¤¤
Ġà¤ķ à¤Ĺ
Ġà¤® à¤¸à¤²à¤¤
à¤Ł à¤¬à¤°
Ġà¤ħ à¤ĺà¤Ł
Ġà¤¨ à¤ľà¤®
à¤ľ à¤®à¤²
Ġà¤¹ à¤®à¤°
à¤¬ à¤µà¤°à¤¹
Ġà¤ħà¤¸ à¤°
Ġà¤ĺ à¤¡à¤¨
Ġà¤ı à¤Ĩà¤¯à¤¸
à¤ĺ à¤°à¤ķ
à¤Ĩ à¤¯à¤ķ
à¤Ĩ à¤ªà¤Ł
à¤ķà¤° à¤¦à¤¨
Ġà¤¸à¤° à¤ľ
à¤ı à¤Łà¤®à¤§
à¤ı à¤Īà¤¤
à¤¹à¤¤ à¤ķà¤®à¤§
à¥¦ à¥¯
à¤ľà¤¨ à¤Ĺà¤£à¤¨
à¤®à¤¨ à¤¬
à¤Ĺà¤° à¤®à¤§
Ġà¤Ĩà¤¯ à¤ıà¤¸à¤ıà¤¸à¤ıà¤«
à¤¹à¤° à¤Ĺ
Ġà¤ħà¤° à¤¬à¤ļ
à¤ĩ à¤¡à¤°
à¤¸à¤¨ à¤ķà¤°
à¤°à¤ľ à¤ļ
à¤¤à¤µ à¤¹
à¤¸à¤¹ à¤®à¤¤
Ġà¤ķà¤® à¤µà¤²
à¤Ľ à¤²
à¤ī à¤ł
Ġà¤¥ à¤µ
à¤¹à¤¨ à¤®à¤§
à¤§à¤¨ à¤ªà¤°
à¤ķà¤¸ à¤¬
à¤¨à¤² à¤²
à¤ļà¤¨ à¤®à¤§
Ġà¥© à¥§à¥¯
Ġà¥¨à¥¦ à¥ª
Ġà¤Ĩà¤Ī à¤ª
Ġà¤Ī à¤¦à¤¨
Ġà¤¹à¤¸ à¤µà¤£
à¤ıà¤« à¤²
Ġà¤ıà¤® à¤Ĩà¤¯à¤Ł
Ġ8 10
Ġà¤ıà¤µà¤¢ à¤¯
Ġà¤į à¤Ĺ
an c
19 99
Ġ18 000
Ġà¤ıà¤ħà¤° à¤¬à¤¸
Ġ37 1
Ġà¥§à¥® à¥§
Ġ21 17
Ġà¤ľà¤² à¤¸à¤®
Ġà¤¨à¤Ĭ à¤ļ
Ġb o
Ġv acc
Ġà¤īà¤ľ à¤³à¤²
Ġ28 3
Ġà¥¨à¥® à¥ª
10 8
ch ang
re am
Ġ34 7
iv ers
ur n
à¥§à¥§à¥ ¨
Ġ199 2
à¤ıà¤¸à¤ıà¤« à¤¨
de ep
100 00
Ġà¤ĸà¤°à¤ļ à¤Łà¤²
Ġ198 3
Ġ198 7
Ġà¥¨à¥§à¥§à¥ ª
if e
Ġà¤ıà¤¨à¤Ĩà¤¯ à¤ıà¤²
ant i
cr icket
ep l
hy dro
Ñģ ÐºÐ°
Ġà¤īà¤®à¤Ł à¤µà¤¤
Ġà¤¤à¤¡à¤« à¤¡à¤¤
Ġà¤ļà¤Ł à¤Ī
fo und
Ġcollect ion
Ġpa war
wit ter
9 00
c s
f lyw
k a
p ur
s gst
t on
t im
à¤° à¤Ĩà¤¢
à¤ļ à¤°à¤¸
à¤¸ à¤ķà¤¸
à¤¸ à¤ĳà¤°
à¤£ à¤¯à¤ļ
Ġà¤Ĩ à¤ĩà¤¶
Ġà¤ķ à¤±
à¤ª à¤¬à¤¦
à¤¦ à¤¯à¤ķ
à¤¦ à¤Ĺà¤²
à¤¦ à¤¬à¤°à¤®
Ġà¤ª à¤łà¤¡
Ġà¤ª à¤ļà¤¤
Ġà¤® à¤¤à¤²
à¤Ĺ à¤Ī
à¤Ĺ à¤°à¤¸
Ġà¤ħ à¤°à¤£
Ġà¤ħ à¤¢
Ġà¤µ à¤¨à¤ļ
Ġà¤¤ à¤°à¤¸
à¤¡ à¤°à¤ª
Ġà¤¹ à¤®à¤¸
à¤³ à¤ķà¤¡
à¤³ à¤ķà¤¨à¤Ĺà¤°
Ġà¤ľ à¤¨à¤µ
à¤ĸ à¤¡à¥Ł
Ġà¤¬ à¤¸à¤°
Ġà¤ļ à¤ķà¤²
Ġà¤ļ à¤ķà¤¤
Ġà¤² à¤«à¤¡
Ġà¤ĺ à¤³
à¤°à¤ķ à¤¦
à¤¤à¤° à¤¸à¤°à¤ķ
Ġà¤ı à¤ıà¤®à¤ª
à¤Ĩ à¤®à¤§
Ġà¤« à¤°à¤¸
à¤ħ à¤¨à¤²
Ġà¤Ł à¤°à¤¬
à¤Ĭ à¤¦à¤²
Ġà¤īà¤ª à¤µà¤°
à¤²à¤¯ à¤¤
à¤²à¤¯ à¤¨
à¤Ĺà¤² à¤¦
à¤ªà¤¨ à¤Ĺà¤°
à¤ĩ à¤«à¤²
à¤ķà¤² à¤Ĺ
à¤£à¤¯ à¤ª
à¤¸à¤¹ à¤²
à¤¸à¤¹ à¤¨
Ġà¤īà¤¦ à¤¯à¤¸
à¤ĵ à¤¯
à¤¯à¤¦ à¤ķ
à¤Ĩà¤¯ à¤¸à¤®
à¤¯à¤¨ à¤²à¤²
Ġà¤®à¤¨ à¤¶
Ġà¤¹à¤µ à¤¯
Ġà¤ľà¤¨ à¤ķà¤²
Ġà¤¹à¤² à¤£
Ġà¤ķà¤ª à¤¡à¥Ł
à¤Ĩà¤° à¤ĵ
à¤¬à¤² à¤Ł
Ġà¥© à¥§à¥©
Ġà¥¨à¥¦ à¥¨à¥©
à¤ıà¤® à¤Ĩà¤¯à¤¸
à¤ļà¤° à¤°
Ġà¥ª à¥¨à¥«
Ġà¤Ĩà¤Ī à¤µ
à¤ıà¤¨ à¤Ĩà¤¯à¤Ł
Ġà¤Ī à¤¤
Ġà¤ıà¤¸ à¤ı
à¤Łà¤£ à¤®à¤®à¤§
à¤ķà¤¦ à¤®
Ġà¤¬à¤² à¤¶
à¤ıà¤² à¤ĵà¤¸
à¤¹à¤°à¤£ à¤ļ
Ġà¤§à¤¨ à¤¬
Ġ15 20
à¤Łà¤® à¤¯
à¤°à¤µà¤ł à¤¯
Ġà¤¨à¤Ĺ à¤°à¤ķà¤°
à¤°à¤µà¤£ à¤ķà¤°
Ġ14 1
Ġà¤ħà¤µà¤ĺ à¤¡à¤ļ
Ġc ent
Ġ18 1
à¤¯à¤£ à¤Ĺ
Ġà¥§à¥ª à¥§
Ġp an
Ġm ax
Ġà¤īà¤§ à¤®
Ġb e
Ġr ate
Ġt ime
Ġà¤ľà¤Ĺà¤¤ à¤¸
di wali
Ġà¥¨à¥© à¥Ń
Ġà¤ħà¤µà¤ĺà¤¡ à¤ªà¤£
Ġà¥² à¤®
Ġà¥¨à¥® à¥¦
Ġà¥¨à¥¯ à¥«
Ġw c
Ġd c
ol d
Ġo tp
à¤²à¤« à¤°à¤ķ
Ġ33 8
im im
Ġà¥©à¥© à¥«
à¤°à¤ĺ à¤³
14 0
2014 15
à¤ıà¤®à¤ıà¤¸ à¤Ĩà¤°à¤¡
Ġà¥§à¥¯à¥® à¥¬
Ġà¤ĸà¤¡à¤ķ à¤ª
Ġà¤ıà¤¨à¤ıà¤¸ à¤¡
à¤Ĩà¤łà¤µà¤¡ à¥Ł
Ġ195 1
à¤¸à¤į à¤ªà¤ļ
à¤ķà¤ħ à¤ªà¤¨
Ġmah arashtra
Ġà¤ıà¤Ĩà¤¯à¤ıà¤® à¤Ĩà¤¯à¤ıà¤®
iss ion
par amet
Ġà¥¨à¥§à¥§ à¥¦
à¤ķà¤°à¤ı à¤¹à¤¸
Ġpho to
ruct ure
flyw heel
9 2
9 8
g i
h z
r is
r ss
Û Į
Ġ 000
à¤° à¤īà¤¦
à¥ĩ âĢĮ
à¤¯ à¤¸à¤°
à¤¨ à¤¡à¤®à¤§
à¤¹ à¤«
à¤¹ à¤Ĺà¤²
à¤ķ à¤¸à¤¤
à¤£ à¤¬à¤§
à¤® à¤Ĭ
à¤® à¤Łà¤¨
à¤® à¤¶à¤°
à¤ª à¤ķà¤¡à¤²
Ġà¤® à¤Ĺà¤¦
à¤Ł à¤µà¤¤
à¤Ł à¤¸à¤¨à¤¨
à¤§ à¤°à¤¤
Ġà¤¨ à¤®à¤¤
Ġà¤¤ à¤Łà¤¬
à¤¡ à¤°à¤¹
à¤¡ à¤¬à¤²
Ġà¤¹ à¤°à¤ķ
Ġà¤¦ à¤¨
Ġà¤¦ à¤°à¤ķà¤ª
à¤³ à¤µà¤°
Ġà¤ľ à¤°à¤¤
Ġà¤ľ à¤«
Ġà¤ķà¤° à¤Ĩà¤ķ
Ġà¤¬ à¤®
à¤¥ à¤¨à¤¹
Ġà¤Ŀ à¤Łà¤£
à¤°à¤¤ à¤ªà¤£
à¤¤à¤° à¤¶
Ġà¤Ĩà¤² à¤Ł
Ġà¤ķà¤°à¤£ à¤¸
Ġà¤ĸ à¤ļà¤¤
à¤Ī à¤Łà¤°
à¤°à¤£ à¤ķ
à¤ĺ à¤¸à¤¹à¤ķ
à¤ªà¤£ à¤µ
à¤« à¤ľ
à¤µà¤¸ à¤¨à¤®
à¤ķà¤¡ à¤¯
Ġà¤§ à¤°à¤¸
Ġà¤īà¤ª à¤Ĺà¤Ł
Ġà¤īà¤ª à¤īà¤ļ
Ġà¤¤à¤° à¤²à¤¤
Ġà¤Ĩà¤° à¤¶
à¤Łà¤² à¤¬
à¤¬à¤Ī à¤ķ
Ġà¤Ĩà¤¯ à¤¯
à¤ªà¤¨ à¤¶
Ġà¤ħà¤ª à¤ļ
Ġà¤ħà¤ª à¤ķà¤®
Ġà¤ªà¤¦ à¤ķà¤¤
Ġà¥¨ à¥§à¥ª
Ġà¤ĵ à¤®à¤¨
à¤§à¤¨ à¤ª
à¤§à¤¨ à¤®à¤§
à¤¶à¤² à¤²
Ġà¤ľà¤¨ à¤Ń
Ġà¤Ĩà¤ľ à¤ħà¤ĸ
Ġ20 6
Ġ20 50
à¤²à¤¤ à¤Ń
Ġà¤Ĩà¤µà¤¶ à¤ķ
à¤µà¤ļ à¤£
Ġà¤¬à¤° à¤Ĺà¤¡
Ġà¤ľà¤Ĺ à¤ļ
à¤ªà¤ķ à¤ªà¤£
Ġà¥© à¥§à¥¦
Ġà¥© à¥§à¥«
à¤ľà¤² à¤¤à¤°à¤£
à¤¤à¤¤ à¤ľ
Ġà¥¨à¥¦ à¥«
Ġà¥¨à¥¦ à¥®
Ġ4 25
à¤µà¤¯ à¤¸
Ġà¤¸à¤®à¤ľ à¤µà¤£
Ġà¤µà¤¡ à¤¨à¤Ĺà¤°
à¤ĳ à¤«à¤ļ
Ġà¤µà¤¸ à¤Īà¤¤
à¤¤à¤¡ à¤ľ
à¤¡à¤ķà¤° à¤¨
à¤°à¤Ĺ à¤¢
Ġ9 999
à¤¸à¤Ĺà¤³ à¤¯
Ġà¥§à¥¯ à¥«à¥¦
Ġà¥§à¥« à¥®
Ġ50 9
Ġà¤§à¤¡à¤ķ à¤¨
à¤¦à¤³ à¤Ĺ
at est
à¤°à¤¬ à¤¨
Ġc p
Ġc eo
Ġc ircuit
Ġà¤Ĳà¤ķ à¤µà¤²
Ġ18 57
Ġà¤¤à¤³ à¤¹
Ġà¥¨à¥« à¥ª
Ġà¤«à¤³ à¤ª
à¤¯à¤Łà¤¨ à¤µ
Ġà¥©à¥¦ à¥¬
Ġà¥©à¥¦ à¥Ń
Ġ21 2
à¤³à¤¸ à¤ªà¤£
à¤°à¤« à¤¡
Ġà¤§à¤¡ à¤ķà¤¤
Ġà¤Ńà¤¯ à¤ªà¤Ł
Ġb ill
Ġr et
Ġr tpcr
Ġv oltage
am i
Ġ26 3
Ġà¤ıà¤ħ à¤°à¤ļ
Ġà¥¨à¥¯ à¥¨
Ġin f
Ġh dfc
co h
Ġà¥©à¥¨ à¥¬
il y
Ġà¥¦ à¥§à¥¦
Ġà¥©à¥© à¥¬
200 7
ab ase
ud d
Ġà¥¨à¥§à¥§à¥ ¨
à¤¸à¤®à¤¨ à¤ļ
Ġx i
lo k
à¥§à¥¯à¥¯ à¥¨
à¥§à¥¯à¥¯ à¥©
à¥¨à¥¦à¥§à¥Ń à¥§à¥®
con found
Ġ197 2
pr ess
Ġà¤Ĩà¤Ĭ à¤Łà¤¸
Ġà¤Ĩà¤Ĭ à¤Łà¤«
à¤µà¤¸à¤¹ à¤®à¤¤
po wer
Ġà¤«à¤¡ à¤ķà¤²
Ġinter national
Ġme dia
Ġser ies
Ġfl oods
à¤Ĺà¤Ĺà¤¨ à¤¯
ker ala
Ġà¤§à¤Ĺà¤§ à¤Ĺà¤¤
_ _
b er
d esign
g p
n arendra
p er
p akistan
s is
y anka
Ã ¢
Ġ id
à¤° à¤¡à¤µ
à¤¤ à¤¦à¤°
à¤¯ à¤°à¤¶
à¤² à¤ħà¤¸
à¤² à¤Łà¤¤
à¤¨ à¤¯à¤¶
à¤¹ à¤ķà¤¡
à¤¹ à¤ķà¤¤
à¤µ à¤§à¤¤
à¤µ à¤ľà¤µà¤³
à¤¸ à¤ķà¤°à¤ļ
à¤® à¤¤à¤ª
à¤® à¤ľà¤¸
Ġà¤Ĩ à¤°à¤µ
Ġà¤¸ à¤§à¤¨
à¤¦ à¤¦à¤°à¤®
à¤¦ à¤¡à¤ªà¤£
à¤§ à¤¤à¤ļ
Ġà¤¨ à¤Łà¤µà¤°
à¤ľ à¤¸à¤ļ
Ġà¤µ à¤µ
Ġà¤¤ à¤¡à¤¸
Ġà¤¦ à¤ļà¤ķ
Ġà¤¯ à¤¹
à¤ĸ à¤¯
à¤ĸ à¤Ńà¤°
Ġà¤ī à¤¸à¤¨
à¤°à¤¤ à¤ľà¤°
Ġà¤ı à¤¯
à¤Ī à¤®à¤ļ
à¤Ī à¤¨à¤¨
à¤Ī à¤¨à¤¸
Ġà¤« à¤¹
à¤ķà¤° à¤ªà¤£
à¤ªà¤² à¤µ
Ġà¤§ à¤¨à¤¸
Ġà¤¸à¤® à¤¦
à¤ı à¤¹
Ġà¤¤à¤° à¤³à¤²
à¤·à¤£ à¤ªà¤¦
à¤¡à¤² à¤¦
à¤Ĺà¤¤ à¤Ĺ
à¤¬à¤° à¤ħà¤ĸ
à¤¬à¤Ī à¤¶
à¤Łà¤° à¤µà¤°à¤ļ
à¤Ĺà¤£ à¤¸
Ġ2 99
Ġà¤īà¤¦ à¤Ńà¤µà¤²
à¤¡à¤£ à¤¹
Ġà¤Ĩà¤¦ à¤³à¤¤
à¤ħà¤¸ à¤µà¤°
Ġ20 5
Ġ20 7
à¤¹à¤² à¤ª
Ġà¤ħà¤ªà¤ĺ à¤¤
Ġà¤Ĩà¤ł à¤ª
à¤¬à¤² à¤°
Ġà¥© à¥§à¥®
à¤Ĩà¤¤ à¤®à¤§
à¤ıà¤® à¤Ĩà¤¯à¤ļ
à¤ıà¤¨ à¤Ī
Ġà¤µà¤¡ à¤¨
Ġà¤ıà¤® à¤Ĩà¤°
à¤®à¤¸ à¤¡à¤ķ
Ġà¥® à¥«à¥¦
à¤Łà¤¸ à¤ħà¤ª
à¤²à¤ª à¤µ
à¤¯à¤°à¤¸ à¤µ
19 0
à¤Ĳ à¤µà¤¢
Ġà¤¤à¤³ à¤ªà¤¤
Ġ40 6
Ġà¥©à¥¦ à¥¯
ic es
ic mr
Ġ21 16
Ġà¤ıà¤ļ à¤ıà¤¸à¤¬
Ġà¤¨à¤Ĭ à¤ľà¤£
Ġr an
Ġr ah
à¤³à¤® à¤³à¤£
Ġt iktok
Ġn et
Ġn ot
Ġà¥¨à¥© à¥¨
Ġà¥¨à¥© à¥«
Ġà¤ļà¤®à¤ļ à¤®
ro m
Ġ26 8
Ġà¥©à¥« à¥©
Ġ27 2
21 3
is ro
Ġ45 00
Ġl atest
il m
Ġà¥¨à¥¦à¥§à¥ª à¥§à¥«
ÂłÂł Âł
Ġà¥©à¥© à¥¨
200 2
200 3
à¤¯à¤¨à¤² à¤ªà¤°
Ġj nu
Ġà¥§à¥¯à¥® à¥Ń
à¤¤à¤Ł à¤°à¤ķ
à¤Īà¤« à¤®à¤§
Ġà¥¯à¥¯ à¥¦
à¥¨à¥¦à¥§à¥« à¥§à¥¬
Ġcon trol
à¤«à¤°à¤¨à¤Ĺà¤° à¤®à¤§
Ġeng land
ars cov
Ġsc am
Ġpol l
à¤ĩà¤Ĺ à¤¤à¤ª
coun ter
ðŁ ĳ
lact ic
à¤ĩà¤¨à¤ķ à¤®
epl us
ÑģÐºÐ° Ñı
5 000
8 7
c ase
d l
k as
m ill
n av
u idai
Ġ à²
à¤¾ à¤¾à¤Ĥ
à¤° à¤Ĩà¤¹
à¤¤ à¤µà¤°à¤£
à¤¯ à¤ĸ
à¤² à¤¦à¤°à¤®
à¤² à¤®à¤¸
à¤² à¤ľà¤µà¤³
à¤¨ à¤¨à¤ļ
à¤¨ à¤¤à¤ļ
à¤¨ à¤¨à¤²
à¤ķ à¤¬à¤°
à¤ķ à¤¶à¤¨
à¤ļ à¤¨à¤²
à¤ļ à¤¤à¤®
à¤ļ à¤ªà¤Ł
à¤µ à¤ħà¤Ł
à¤¸ à¤Ĩ
à¤¸ à¤ľà¤µà¤³
Ġà¤Ĩ à¤¸à¤¤
Ġà¤¸ à¤¬à¤¨
Ġà¤¸ à¤ľà¤¦
à¤¦ à¤īà¤¨à¤¨
à¤Ł à¤³
à¤Ł à¤µà¤ķ
Ġà¤ħ à¤µà¤ļ
à¤§ à¤°à¤µ
à¤§ à¤°à¤®à¤¶
à¤ľ à¤°à¤¸à¤¹
Ġà¤µ à¤¡à¤ķ
Ġà¤µ à¤łà¤µ
Ġà¤¤ à¤ķà¤²
Ġà¤¤ à¤¨à¤µ
à¤¡ à¤°à¤µ
à¤¡ à¤¯à¤¨
Ġà¤¦ à¤µà¤¡à¤²
à¤¬ à¤ĺà¤£
Ġà¤¬ à¤¡à¤¬
Ġà¤¶ à¤¡
à¤¥ à¤¨à¤Ĺà¤°
Ġà¤² à¤µà¤°
à¤¯à¤ķ à¤¸
à¤Ĩ à¤ļà¤°
Ġà¤« à¤¸à¤£
à¤¢ à¤ª
à¤ħ à¤Ŀà¤°
Ġà¤ĩ à¤¯à¤¨
à¤¯à¤® à¤ķ
Ġà¤¸à¤® à¤°à¤¸
Ġà¤¸à¤® à¤°à¤¸à¤¤
à¤°à¤¸ à¤°
à¤°à¤¸ à¤ľ
à¤Ŀ à¤®à¤§
à¤¦à¤° à¤¬à¤¨
à¤µà¤¤ à¤ªà¤£
à¤®à¤¨ à¤Ĺ
à¤¬à¤Ī à¤Ĩà¤Ĺ
à¤Łà¤° à¤°
Ġà¤¸à¤¹ à¤ľà¤ļ
à¤ķà¤² à¤¹
à¤¯à¤¦ à¤¨
Ġà¤ªà¤¦ à¤¨
à¤ªà¤¤ à¤®à¤§
Ġà¤¥ à¤ķà¤¤
à¤¹à¤¨ à¤ķà¤°
à¤§à¤¨ à¤¨
à¤·à¤¯ à¤ªà¤¤
à¤¨à¤² à¤¹
à¤µà¤ķ à¤ª
à¥Ł à¤ķ
Ġà¥¨à¥¦ à¥¦à¥¦à¥¦
à¤łà¤² à¤°
à¤ıà¤¨ à¤ıà¤²à¤ļ
Ġà¤Ī à¤ıà¤¸à¤Ĩà¤¯à¤¸
à¤ĳ à¤ķà¤²
20 23
à¤ķà¤Ł à¤®
à¤ķà¤Ł à¤Ĺ
à¤ıà¤« à¤µà¤°
Ġà¤¸à¤¨ à¤®
Ġà¥Ń à¥¨à¥¦
Ġà¤¨à¤® à¤µà¤£
Ġà¤Ĩà¤¦à¤° à¤ļ
Ġà¥§à¥¯ à¥¬à¥¦
Ġà¥§à¥¯ à¥Ńà¥«
Ġà¤¨à¤Ĺ à¤®
Ġ19 65
Ġ18 7
Ġs it
Ġp ad
Ġà¤ıà¤ļ à¤¯
Ġm s
es ident
à¤ĩà¤¤à¤ķ à¤ļ
à¤¡à¤µà¤² à¤¶
Ġr ho
Ġà¥¨à¥¨ à¥Ń
Ġ22 3
Ġn eet
Ġà¥¨à¥© à¥¬
à¤¸à¤Ĺà¤¡ à¤®à¤§à¤²
Ġ24 9
Ġà¥¨à¥¬ à¥®
Ġà¥¨à¥® à¥Ń
Ġ23 7
Ġà¤¸à¤Ī à¤¦à¤¨
Ġh ock
18 2
ch ina
à¤Ĩà¤ł à¤ªà¤°
os e
à¤ıà¤¨à¤ıà¤¸ à¤¯
Ġà¥¦ à¥¬
Ġà¤¨à¤µà¤² à¤ķ
Ġj io
Ġà¤ķà¤ªà¤² à¤ļ
ub e
199 1
ant s
à¤¸à¤°à¤¸ à¤ķà¤Ł
Ġra j
Ġ196 2
à¤ľà¤²à¤¦ à¤Ĺà¤¤
Ġcr icket
ast e
out h
pul wama
Ġas ia
Ġte ch
à¤ĵà¤³ à¤ĸà¤²
ear ch
enz y
reak ing
à¤¦à¤īà¤¨à¤¨ à¤¬
Ġhock ey
b se
c ars
d o
h ol
h av
n cb
s ol
v el
v ers
à¤° à¤īà¤°
à¤¯ à¤ıà¤¸
à¤¨ à¤¹à¤°
à¤¨ à¤Ľà¤ª
à¤¹ à¤°à¤µ
à¤¹ à¤®à¤¤
à¤¹ à¤°à¤¸à¤¹
à¤ļ à¤Ĺà¤£
à¤ļ à¤°à¤¹
à¤µ à¤ªà¤£
à¤® à¤³à¤®à¤³
Ġà¤Ĩ à¤¡à¤µà¤²
Ġà¤ķ à¤µà¤£
à¥ģ '
Ġà¤¸ à¤³à¤¸
Ġà¤ª à¤¥à¤¸
Ġà¤ª à¤ļà¤µà¤£
Ġà¤® à¤¸à¤²
à¥Ĥ à¥Ģ
à¤Ĺ à¤ªà¤°
à¤Ĺ à¤¬à¤°
à¤§ à¤ķà¤°
à¤§ à¤Łà¤ªà¤£
Ġà¤¨ à¤ª
à¤¶ à¤°à¤ļ
Ġà¤¹ à¤¸à¤°
Ġà¤¹ à¤Łà¤¤
à¤³ à¤®à¤§à¤²
à¤· à¤Łà¤ķ
à¤· à¤¸à¤¹
à¤¬ à¤¸à¤¹
à¤ĸ à¤ķà¤¦
Ġà¤¶ à¤®à¤£
à¤Ń à¤²à¤¤
Ġà¤ħà¤¸ à¤¹à¤ķ
Ġà¤² à¤®
Ġà¤ĺ à¤°à¤¤
Ġà¤ī à¤ľà¤¨
Ġà¤ķà¤°à¤£ à¤®à¤§
Ġà¤ı à¤¤
Ġà¤ı à¤¡à¤¨
à¤Ī à¤Ĩà¤°
Ġà¤Ł à¤³à¤¤
à¤« à¤¤à¤ļ
Ġà¤¸à¤° à¤ªà¤Łà¤£
Ġà¤§ à¤®à¤¨
à¤Łà¤ķ à¤µ
à¤ľà¤¨ à¤¸à¤¹
à¤®à¤¨ à¤¶
à¤¬à¤° à¤Ł
Ġà¤Ĩà¤¯ à¤¡à¤²
à¤¹à¤° à¤¡
à¤¯à¤² à¤Łà¤²
à¤·à¤ķ à¤¶
à¤°à¤¨ à¤ľ
à¤²à¤¨ à¤ķ
à¤ī à¤Ł
Ġà¤ĵ à¤¸à¤µ
à¤®à¤² à¤ļ
à¤¦à¤¨ à¤¸
Ġà¤ĸà¤° à¤¡à¤ªà¤Ł
Ġà¤²à¤ķ à¤µ
à¤²à¤Ĺ à¤¡
à¤°à¤ĸ à¤¡
à¤ıà¤¸ à¤µ
à¤¨à¤° à¤ħ
Ġà¥© à¥§à¥Ń
Ġà¥¨à¥¦ à¥©à¥¦
à¤§à¤ķ à¤¹
à¤µà¤ª à¤¥à¤ķ
à¤¯à¤¸ à¤µ
Ġà¤īà¤² à¤Łà¥Ł
Ġà¤Ī à¤«
Ġà¤ıà¤¨ à¤«
Ġà¤µà¤¸ à¤Īà¤µ
à¤ıà¤« à¤ı
Ġà¤ªà¤¡ à¤ĺ
Ġ8 45
à¤ħà¤² à¤µà¤°
à¤²à¤Ń à¤ªà¤£
Ġà¤¦à¤ĸà¤² à¤ļ
à¤ľà¤ªà¤®à¤§ à¤²
Ġ25 9
er ia
Ġà¤ħà¤Ł à¤¹
Ġà¤¤à¤³ à¤®à¤³à¤¤
Ġà¤¸à¤£ à¤īà¤¤
Ġ21 14
Ġà¤ĸà¤¡ à¤ĸà¤¡
or age
Ġm o
Ġà¥¨à¥ª à¥®
Ġa p
Ġà¥ªà¥¦ à¥©
ip hone
Ġà¤ķà¤ļ à¤°à¤¤
à¤¯à¤« à¤²à¤ļ
Ġà¥¨à¥© à¥©
Ġ24 1
Ġ35 6
Ġà¥¨à¥¬ à¥©
as ed
Ġg en
Ġà¥¨à¥® à¥«
Ġin s
Ġà¤µà¤ļà¤¨ à¤¨
Ġà¥©à¥¬ à¥«
Ġà¥©à¥¬ à¥ª
15 00
Ġ48 0
os cars
el d
ut ion
à¥§à¥§à¥ «
à¤ĩà¤« à¤®à¤§
Ġi f
Ġ198 6
Ġà¥¨à¥§à¥§à¥ §
à¤ľà¤®à¤¹ à¤²
Ġà¤²à¤Łà¤ķ à¤µà¤£
à¦ ¾
Ġco urt
Ġic ici
Ġres earch
bl es
ote c
don ald
mag net
h tt
n f
n da
p ay
s ing
v olt
à ¶
á ŀ
à¤¾ à¥¥
à¤¨ à¤ªà¤Ł
à¤¨ à¤°à¤µà¤£
à¤¹ à¤¸à¤¤
à¤ķ à¤¦à¤°
à¤ķ à¤®à¤ķ
à¤ķ à¤µà¤°à¤¹
à¤¸ à¤µà¤¯
à¤® à¤Ńà¤°
Ġà¤Ĩ à¤±
Ġà¤ķ à¤¥à¤ķ
à¤ª à¤¨à¤ļ
Ġà¤¸ à¤°à¤µà¤£à¤ķà¤°
à¤¦ à¤¯à¤¨
Ġà¤® à¤®à¤¨
Ġà¤ħ à¤°à¤ª
à¤§ à¤°à¤®à¤¯
à¤ľ à¤¯à¤®
à¤¡ à¤Ĺà¤°
à¤¡ à¤¸à¤¤
à¤· à¤Ĺ
Ġà¤° à¤¡à¤µ
Ġà¤¬ à¤¦à¤ķ
Ġà¤¶ à¤Łà¤¡
à¤ł à¤¨
Ġà¤ļ à¤¤à¤°
Ġà¤ļ à¤°à¤¸
à¤°à¤ķ à¤ªà¤£
Ġà¤ĸ à¤Łà¤ªà¤Ł
Ġà¤ı à¤ıà¤¸
à¤Ī à¤¨à¤²
à¤¯à¤ķ à¤ª
à¤Ĩ à¤°à¤ķà¤¡
à¥ī à¤¼
Ġà¤ıà¤ķ à¤²à¤µ
Ġà¤Ł à¤³à¤£
Ġà¤ªà¤° à¤ľ
Ġà¤¤à¤° à¤¡
Ġà¤Ĩà¤° à¤ıà¤«
à¤Ĺà¤² à¤°
à¤·à¤£ à¤¨
Ġà¤µà¤° à¤¹
Ġà¤Ĩà¤¯ à¤ıà¤®à¤¡
à¤¯à¤² à¤¡
à¤ĩ à¤¦
à¤ĩ à¤Ĺà¤°
à¤ĩ à¤ľà¤°
à¤ĩ à¤¸à¤®à¤§
à¤ľà¤¯ à¤¹
à¤ľà¤¯ à¤Ń
à¤¤à¤¸ à¤®
à¤¤à¤¸ à¤°à¤²
à¤·à¤ķ à¤¤à¤¤
à¤ĵ à¤Ĩà¤¯à¤¸
à¤ī à¤ļà¤²
Ġà¤ĵ à¤°à¤¬
à¤¯à¤¨ à¤ª
à¤¯à¤¨ à¤ªà¤¨à¤µ
Ġ20 9
Ġà¤ľà¤® à¤ĸ
à¤·à¤¦ à¤¹
à¤ķà¤£ à¤®
Ġ4 16
à¤Ĺà¤¡ à¤¦
Ġà¥ª à¥§à¥¦
Ġà¥ª à¥§à¥Ń
Ġà¤īà¤Ń à¤°à¤¤
Ġà¤ħà¤Ĺ à¤¸
à¤ĳ à¤«à¤°
à¤ıà¤« à¤ıà¤¸
Ġ10 30
à¤¡à¤° à¤¬à¤¨
Ġà¥§à¥¯ à¥©
à¤ıà¤ļ à¤ļ
on g
an th
Ġà¤ķà¤³ à¤®à¤ķà¤°
at i
at es
Ġ25 1
Ġ19 42
Ġà¤ıà¤« à¤Ĩà¤°à¤ª
à¤Ĳ à¤¨à¤µ
Ġà¤Ĳà¤ķ à¤¤à¤ļ
Ġà¤ıà¤² à¤ıà¤¸
Ġà¥¨à¥« à¥©
Ġ16 00
al man
Ġà¤¦à¤¬ à¤ķ
à¥§à¥¯ à¥®à¥¦
Ġm ain
Ġà¤īà¤§ à¤³à¤¤
Ġa ustralia
à¤¯à¤Łà¤ķ à¤¹
Ġà¥¨à¥¨ à¥§
Ġ35 8
ro h
Ġà¥² à¤¡à¤µ
Ġà¥¨à¥¯ à¥©
Ġw omens
is is
à¤¼ à¤¾à¤Ĥ
ra di
10 2
10 5
Ġl a
il d
Ġ29 2
à¤į à¤¨
Ġj a
ab h
à¤§à¤°à¤£ à¤ķ
à¤®à¤ķà¤° à¤¸
Ġà¤ªà¤ļà¤¨ à¤¸
Ġ67 5
Ġ198 2
dat abase
Ġà¤Ĺà¤ł à¤¬
Ġà¤Ĩà¤ī à¤Łà¤ª
à¥¨à¥¦à¥§à¥¬ à¥§à¥Ń
Ġà¥§à¥¯à¥Ń à¥¨
Ġ195 6
bs er
Ġis is
à¤ĵà¤ıà¤ļ à¤ıà¤ļ
yn am
à¤ķà¤¥à¤¨ à¤ķà¤°
mic ro
c es
e v
g roup
m ar
m ed
n m
n it
n cp
n ology
p an
p or
r es
r est
z e
Ø ³
Ġ Ï
Ġ ur
Ġ ali
à¤° à¤¯à¤¨
à¥Ģ `
à¤¤ à¤³à¤¤
à¤¤ à¤¬à¤²
à¤¤ à¤Ĺà¤Ł
à¤¯ à¤ªà¤¤
à¤¯ à¤¶à¤ķ
à¤¨ à¤µà¤°à¤ļ
à¤ļ à¤Ī
à¤¸ à¤Łà¤°
à¤¸ à¤¡à¤ķ
à¤¸ à¤ľà¤¨à¤¤
à¤£ à¤ªà¤Ł
à¤ª à¤¸à¤ļ
à¤ª à¤Łà¤¤
à¤ª à¤Łà¤ķà¤¨
Ġà¤¸ à¤ªà¤ļ
à¤¦ à¤¶à¤¨
Ġà¤® à¤ĺ
Ġà¤® à¤ķà¤µ
à¤Ĺ à¤µà¤³
à¤Ĺ à¤Łà¤ļ
Ġà¤¨ à¤°à¤®à¤²
à¤ľ à¤¬à¤¦
à¤ľ à¤²à¤¨
Ġà¤µ à¤°à¤ª
Ġà¤¤ à¤²à¤¸
Ġà¤ľ à¤łà¤°
Ġà¤ľ à¤«à¤°à¤ļ
Ġà¤ķà¤° à¤®à¤ļ
Ġà¤¬ à¤ķà¤µ
Ġà¤¶ à¤°à¤¤
à¤µà¤° à¤¬à¤¦
Ġà¤Ĺ à¤°à¤µ
Ġà¤Ŀ à¤¬
à¤°à¤¤ à¤«
à¤¤à¤° à¤¦à¤ķ
Ġà¤ĸ à¤ļà¤£
Ġà¤ı à¤ıà¤®à¤¯
à¤Ī à¤¨à¤°
à¤Ĩ à¤¸à¤¨
à¤Ĩ à¥Ł
Ġà¤« à¤Ĺ
Ġà¤ªà¤° à¤Ĺà¤¨
à¤ªà¤² à¤ķ
Ġà¤§ à¤°à¤®à¤ª
à¤µà¤² à¤¦
à¤ı à¤¦
à¤ı à¤Ĩà¤°à¤¸
à¤Łà¤¨ à¤¶
à¤ľà¤ª à¤Ł
à¤µà¤£ à¤µ
à¤µà¤£ à¤Ĺ
Ġà¤Ĩà¤° à¤ıà¤²à¤¡
à¤Ĺà¤² à¤®à¤¯
Ġà¤¨à¤µ à¤¤
à¤Łà¤ķ à¤®à¤§à¤²
âĢ łà¤¿
à¤ľà¤¨ à¤¯
à¤®à¤¨ à¤ľ
Ġà¤Ĩà¤¯ à¤°à¤¨
à¤¤à¤ķ à¤¨à¤Ĺà¤°
à¤ĩ à¤²à¤¨
à¤ĩ à¤¸à¤µà¤°
à¤¸à¤¨ à¤¤
à¤°à¤ľ à¤ķ
à¤µà¤¨ à¤¯
à¤²à¤¨ à¤²
à¤²à¤¨ à¤ľ
à¤ī à¤²à¤«
Ġà¤¥ à¤¡à¤Ĺ
à¤§à¤¨ à¤²
Ġà¤ħà¤¦ à¤ľ
Ġà¤ķà¤ª à¤Ł
Ġà¤īà¤® à¤°à¤Ĺ
à¤¤à¤® à¤ªà¤£
à¤¨à¤° à¤¬
à¤¶à¤ķ à¤ªà¤£
à¤ıà¤ķ à¤ª
Ġà¥¨à¥¦ à¥¬
à¤Ĩà¤¤ à¤¡
à¤ķà¤£ à¤®à¤§
à¤ľà¤Ĺ à¤¨à¤®
Ġ4 17
Ġà¥ª à¥¨à¥¨
Ġà¤Ĩà¤Ī à¤¦
Ġà¤Ī à¤¯
à¤ĳ à¤¨à¤°
Ġà¤«à¤² à¤¶
20 50
à¤ıà¤« à¤ıà¤ķ
Ġ6 60
Ġà¥¬ à¥¬à¥¦
Ġà¤ĵà¤³à¤ĸ à¤¤à¤¹
Ġà¤ıà¤® à¤ıà¤®à¤ıà¤¸
à¥¨à¥¦ à¥¨à¥§
Ġà¤Ĩà¤ķà¤¡ à¥Ł
in es
à¤²à¤¸ à¤µà¤°
à¤²à¤ķà¤° à¤¸à¤¹
Ġà¥§à¥¨ à¥©à¥¦
à¤ıà¤ļ à¤ıà¤ıà¤²
à¤¦à¤¹ à¤¶à¤¤
Ġ11 000
à¤°à¤¥ à¤®à¤¤
on a
Ġà¤ıà¤« à¤ıà¤¸
ar an
Ġc ar
Ġc har
à¤¨à¤Ī à¤¸
Ġà¤īà¤ĺà¤¡ à¤Ŀ
Ġs uper
Ġ30 8
Ġ16 3
à¤¤à¤°à¤£ à¤¨
Ġà¥©à¥¦ à¥«
Ġp re
Ġp ak
Ġà¥§à¥Ń à¥¦à¥¦
Ġà¤¸à¤¹à¤ľ à¤Ĺà¤¤
Ġn s
Ġn pr
à¤ĩà¤¡ à¤µà¤°
Ġ28 4
Ġ28 7
Ġg sat
Ġ23 1
à¥§à¥¦ à¥«
Ġd d
Ġh y
Ġh er
bi har
à¤¯à¤Ĺà¤¡ à¤°à¤¤
à¤¯à¤¸à¤¨ à¤®
Ġà¥¦ à¥Ń
200 6
Ġà¥©à¥¯ à¥¯
à¥§à¥§à¥ ª
em ent
Ġà¥§à¥¯à¥® à¥§
Ġà¤Ĩà¤¸à¤¨ à¤µ
Ġ198 0
ww e
à¥§à¥¯à¥¯ à¥Ń
à¥§à¥¯à¥¯ à¥®
Ġà¤Ĩà¤ī à¤Łà¤ķà¤®
Ġde ath
to col
Ġac c
Ġà¥§à¥¯à¥« à¥«
Ġip s
Ġgov ern
Ġelection s
Ġinst it
à¤Ĩà¤Ĭ à¤Łà¤ļ
à¤ªà¤ķà¤¡ à¤£
od hya
Ġà¤ħà¤¡à¤ĸ à¤³à¤²
Ġtra in
Ġà¤Ĩà¤¯à¤ıà¤« à¤ıà¤¸
Ġgo a
Ġbi as
àµ į
Ġvacc ine
' s
a ic
f ifa
g s
j ect
m ir
n h
n drf
s on
s em
s ent
s ms
t ag
t iktok
¸ ı
Ø ¯
ï ¸ı
Ġ ia
Ġà¤ ³
à¤¾ à¥ĭ
à¤¤ à¤¤à¤°
à¤¯ à¤µà¤°à¤¹
à¤¯ à¤°à¤ķà¤¡
à¤¯ à¤£à¤ļ
à¤² à¤Ĺà¤£à¤¨
à¤¿ à¥Ģ
à¤¨ à¤ľà¤µà¤³
à¤¹ à¤¦à¤°
à¤¸ à¤µà¤¤
à¤¸ à¤¦à¤¤
à¤® à¤¸à¤¨à¤²
à¥ĭ à¥¤
Ġà¤Ĩ à¤ªà¤¦
Ġà¤Ĩ à¤¸à¤µ
Ġà¤Ĩ à¤Łà¤µ
Ġà¤ķ à¤¹à¤°à¤ļ
à¤ª à¤¸à¤£
à¤ª à¤¬à¤ľ
Ġà¤¸ à¤Łà¤ķà¤²
Ġà¤¸ à¤¢à¤³
à¤¦ à¤§
à¤¦ à¤Īà¤ļ
Ġà¤® à¤ķà¤¬
à¤Ł à¤®à¤²
à¤Ĺ à¤¤à¤²
à¤ľ à¤°à¤¸
à¤ľ à¤§à¤°
à¤ľ à¤ĺà¤Łà¤ķ
à¤¡ à¤¦à¤°à¤®
à¤¡ à¤¨à¤¸
à¤¡ à¤µà¤°à¤ļ
Ġà¤¹ à¤®à¤¶
à¤¬ à¤ªà¤²
à¤¬ à¤ļà¤²
Ġà¤ľ à¤«à¤°à¤¨
à¤ĸ à¤³à¤²
à¤Ń à¤ľ
Ġà¤Ĺ à¤¦à¤°
à¤®à¤§ à¤®
Ġà¤ı à¤¸à¤µ
Ġà¤ı à¤ıà¤¸à¤Ĩà¤¯
à¤Ī à¤¸à¤¹
à¤Ī à¤ªà¤ļ
à¤Ĩ à¤ªà¤¨
à¤°à¤® à¤¤
à¤µà¤² à¤ª
à¤ı à¤ıà¤«à¤¸
à¤Ĭ à¤ļà¤°
à¤Ĭ à¤¦à¤®
Ġà¤¡ à¤«
Ġà¤ħà¤¸à¤² à¤®
à¤·à¤£ à¤Ĺ
à¤·à¤£ à¤Ń
à¤¸à¤° à¤«à¤°
à¤Łà¤ķ à¤³
à¤¶à¤¨ à¤Ĺà¤°
Ġà¤Ĩà¤¯ à¤ĵ
Ġà¤Ĩà¤¯ à¤¶à¤°
à¤¹à¤° à¤¨à¤¡
Ġà¤ħà¤® à¤°à¤ľ
à¤°à¤¨ à¤µà¤°
à¤µà¤¨ à¤®à¤°à¤£
à¤ħà¤° à¤®à¤§à¤²
à¤ī à¤¸à¤ļ
à¤®à¤² à¤Ī
à¤ķà¤¸ à¤ķ
Ġà¤ķà¤² à¤°à¤®à¤§
à¤°à¤¹ à¤µ
à¤ķà¤°à¤£ à¤ķ
à¤¹à¤² à¤µà¤°
à¤µà¤ķ à¤ªà¤¦
Ġà¤°à¤¸ à¤Ĺ
Ġà¤ħà¤² à¤®
Ġà¤Ĩà¤ł à¤¶
à¤¶à¤¯ à¤ªà¤£
Ġà¤¸à¤ķ à¤³
à¤³à¤µ à¤¦
Ġà¤¸à¤®à¤ľ à¤¦
Ġà¤Ī à¤¯à¤°
à¤Ĺà¤¨ à¤Ĺà¤°
à¤ķà¤³ à¤¸
in k
à¤®à¤£ à¤ķ
Ġà¤µà¤¨ à¤ħà¤§
à¤²à¤ķà¤° à¤¹
Ġà¤īà¤¤à¤° à¤µà¤¤
Ġà¤Ĩà¤¦à¤° à¤Ń
Ġà¥§à¥¯ à¥Ńà¥¦
Ġ50 8
Ġà¤ıà¤² à¤¡
à¤¨à¤Ī à¤µà¤°
Ġà¤¤à¤³ à¤ĺà¤°
Ġà¥§à¥® à¥¦à¥¦
Ġ21 6
Ġà¤µà¤ľà¤¨ à¤¹
à¤Ĺà¤®à¤§ à¤²
à¤ĸà¤ķ à¤¹
Ġà¥¨à¥ª à¥Ń
Ġb udget
Ġr o
Ġr ank
Ġv er
Ġv ivo
Ġ22 1
Ġà¥¨à¥© à¥®
à¤µà¤Ĺà¤£ à¤¹
Ġf rom
id ence
Ġ35 2
Ġ35 3
Ġ28 9
Ġà¥¨à¥¯ à¥Ń
Ġd r
à¤Ķ à¤ªà¤ļ
à¤ıà¤¶à¤¨ à¤ķà¤¡
Ġà¥ªà¥« à¥«
Ġà¥ªà¥« à¥¦à¥¦
16 1
Ġà¤Ĩà¤ĸ à¤¡à¤¤
Ġ36 5
Ġà¤Ĺà¤ľ à¤¬à¤ľ
Ġà¤īà¤Ĺ à¤®à¤¸
Ġ34 3
Ġ33 4
à¥¨à¥« à¥¦
Ġà¥©à¥© à¥¯
ation s
Ġà¥ªà¥¯ à¥«
Ġà¥ªà¥¯ à¥®
Ġà¥©à¥® à¥¦
>> >
Ġ49 1
ah ub
Ġi ii
Ġpo int
Ġà¤ķà¤¡à¤µ à¤Łà¤ªà¤£
Ġre alme
elect ion
Ġà¥Ńà¥© à¥Ń
Ġà¥§à¥¯à¥Ń à¥¯
cr pf
Ġse c
à¤ħà¤ªà¤¹à¤°à¤£ à¤ķà¤°
Ġà¤«à¤¡ à¤¤à¤°
vir al
yst al
Ġà¤Ĩà¤¯à¤ıà¤® à¤ıà¤«
Ġà¤Ĩà¤¯à¤ıà¤® à¤ıà¤«à¤¨
ÂłÂłÂłÂł ÂłÂłÂłÂł
197 1
à¤Łà¤ħ à¤ªà¤ļ
Ġà¤¢à¤³ à¤¢à¤³
oly mp
Ġà¤²à¤ķà¤¡ à¤Ĺ
Ġev m
lyw ood
à¤ŁÃ± à¤µ
Ġà¤ıà¤¡à¤² à¤ľ
Ġà¤ħà¤¹à¤® à¤¦à¤²
Ġà¤ªà¤µà¤¨à¤ļ à¤ķ
bil ity
varia bles
à¤¸à¥² à¤ª
rand om
coh ort
ðŁĳ ĩ
b hat
c is
g h
g o
g as
m w
n ic
o har
p a
r as
s et
s co
s hiv
v er
Ġ all
à¥į à¤¾à¤¾
à¤° à¤°à¤µ
à¤° à¤ªà¤²
à¤° à¤Ĩà¤²
à¤¯ à¤°à¤ļà¤¨
à¤² à¤°à¤¸
à¤² à¤®à¤²
à¤² à¤Łà¤£
à¤¨ à¤°à¤¹
à¤ķ à¤®à¤¨
à¤ķ à¥ľ
à¤ļ à¤ħà¤ĸ
à¤µ à¤ħà¤¨
à¤¸ à¤¦à¤°à¤®
à¤£ à¤¸à¤¹
Ġà¤Ĩ à¤¡à¤¤
Ġà¤Ĩ à¤ıà¤¶
Ġà¤ª à¤¡à¤ķ
Ġà¤® à¤°à¤ľ
à¤Ł à¤¸à¤ª
à¥Ĥ à¤ĥ
à¤Ĺ à¤¬à¤¦
à¤Ĺ à¤¸à¤¤
à¤§ à¥Ł
Ġà¤µ à¤¡à¤²
Ġà¤µ à¤³à¤µà¤¤
Ġà¤¦ à¤¶à¤¤à¤µ
Ġà¤¦ à¤®à¤¬
Ġà¤¯ à¤¦
à¤¬ à¤Łà¤°
à¤¬ à¤¸à¤¨
à¤¬ à¤¨à¤Ĺà¤°
à¤¬ à¤°à¤µà¤¤
à¤ĸ à¤°à¤¤
Ġà¤¬ à¤Ĺà¤³
Ġà¤Ń à¤°à¤µà¤¤
Ġà¤ħà¤¸ à¤¨
Ġà¤² à¤Ī
Ġà¤ī à¤¸à¤¨à¤µ
à¤°à¤¤ à¤Ĩà¤¸
à¤Ī à¤ľà¤°
à¤Ĩ à¤Łà¤ª
à¤ħ à¤ªà¤¤
à¤« à¤ªà¤Ł
à¤« à¤ħà¤²
Ġà¤§ à¤¨à¤µ
à¤ı à¤ķà¤²
à¤Ĭ à¤Łà¤µà¤°
à¤°à¤² à¤ļ
à¤¡à¤² à¤µ
à¤®à¤¨ à¤Ĺà¤°à¤ļ
à¤¦à¤² à¤µ
à¤ĩ à¤¨à¤¹
à¤ĩ à¤ķà¤µà¤°
Ġà¤ĳ à¤²à¤®
à¤µà¤³ à¤µ
Ġà¤ªà¤¹ à¤²à¤Ĺ
à¤¸à¤¤ à¤¯
à¤ī à¤°à¤°
à¤Ĭà¤¨ à¤¸
à¤ľà¤ķ à¤¨
Ġà¤²à¤ķ à¤®à¤²
à¤ļà¤² à¤¤
à¤²à¤Ĺ à¤®
à¤²à¤¤ à¤¹
à¤²à¤¤ à¤ľ
Ġà¤Ľ à¤¦
à¤µà¤°à¤£ à¤¦
Ġà¥¨à¥¦ à¥Ń
à¤²à¤µ à¤¶
Ġà¤ĳà¤« à¤°à¤®à¤§
à¤ıà¤® à¤ıà¤¸à¤ª
Ġà¤Ĳ à¤ªà¤¤
Ġà¥ª à¥§à¥«
à¤¨à¤Ĺ à¤°à¤®
Ġà¤īà¤² à¤Łà¤ļ
Ġà¤ıà¤¸ à¤Ĩà¤°à¤ª
Ġà¤ıà¤¸ à¤ıà¤¨à¤¡
Ġà¤¬à¤² à¤µà¤¤
à¤ķà¤Ł à¤µ
Ġà¥¬ à¥¨à¥«
Ġà¤ĵà¤³à¤ĸ à¤ļ
Ġ10 15
Ġà¤¢ à¤®
à¤ļà¤µ à¤¦
à¤ıà¤² à¤«
à¤µà¤Ł à¤¹
Ġà¤Ĭ à¤¬
à¤¹à¤ķ à¤¹
à¤¶à¤µ à¤¹à¤¨
à¤²à¤® à¤®à¤§
à¤¦à¤£ à¤ķà¤°
Ġà¤į à¤¬
at ic
Ġc bse
Ġà¤ķà¤¡à¤ķ à¤ªà¤£
Ġa ug
en e
Ġb a
Ġà¥¨à¥¨ à¥¨à¥¦
Ġn ote
Ġ24 2
Ġ24 6
à¤Ĩà¤¯à¤ı à¤¸à¤ļ
it a
Ġà¥¨à¥¬ à¥¯
Ġà¥² à¤Ĺ
Ġà¥¨à¥Ń à¥¯
Ġw ifi
à¤Ķ à¤·
Ġ31 6
Ġà¥©à¥¨ à¥Ń
Ġà¥©à¥¨ à¥®
Ġà¥©à¥¬ à¥©
ch o
Ġ34 8
12 8
à¤ıà¤¨à¤ıà¤¸ à¤Ī
à¤ħà¤ľà¤¯ à¤¨
Ġà¥©à¥ª à¥«
Ġà¥©à¥© à¥®
Ġà¥©à¥® à¥«
Ġj ee
Ġ46 1
av e
de v
Ġà¤¹à¤°à¤Ńà¤ľà¤¨ à¤¨
Ġx s
à® °
à® ķ
ss ai
if ic
Ġà¤Ĺà¤ł à¤¨
Ġà¥§à¥¯à¥Ń à¥Ń
28 8
op en
Ġà¤Ĩà¤°à¤ıà¤¸à¤ıà¤¸ à¤µà¤°
Ġà¤ıà¤ıà¤¨à¤Ĩà¤¯ à¤¶
Ġà¤īà¤ķà¤² à¤£
Ġup sc
à¤Ĩà¤°à¤Ĩà¤° à¤Ĩà¤°
Ġà¤¤à¤± à¤¹
Ġà¤¡à¤Ĺà¤® à¤Ĺà¤¤
à¤¸à¤ħà¤ª à¤µà¤°
à¤ıà¤¨à¤ıà¤ļ à¤Ĩà¤°à¤¸
2013 14
ach chan
à¤¨à¤¯à¤¨ à¤¤
cep t
Ġresult s
Ġà¤Ĩà¤¯à¤ıà¤« à¤ıà¤¸à¤¸
wind mill
Ġà¤Ĩà¤°à¤ıà¤¸à¤ı à¤¸à¤²
Ġà¤ıà¤¨à¤Ī à¤ıà¤«à¤Ł
à¤ħà¤¹à¤®à¤¦à¤¨ à¤Ĺà¤°à¤ļ
oxid ation
tim es
Ġà¤®à¤¤à¤² à¤¬
Ġà¤¸à¤³à¤¸ à¤³à¤¤
Ġinstit ute
Ġà¤¹à¤®à¤¶ à¤ķà¤²
3 000
b ook
c ent
d b
d f
f a
g lob
h u
h ad
j a
m odi
n eet
p ut
v it
ï ģ
Ġ iv
à¤° à¤ľà¤ª
à¤° à¤¨à¤ļ
à¤° à¤¨à¤µ
à¤° à¤ħà¤ĸ
à¤° à¤łà¤ļ
à¤¤ à¤±
à¤¯ à¤ªà¤ķ
à¤² à¤¹à¤ķ
à¤¨ à¤°à¤µ
à¤¨ à¤«à¤°
à¤¹ à¤Ŀ
à¤ļ à¤®à¤¨
à¤ļ à¤Łà¤£
à¤µ à¤ķà¤¡
à¤¸ à¤¶à¤ķ
à¤£ à¤¬à¤°
à¤£ à¤ªà¤¦
à¤® à¤°à¤ķ
Ġà¤Ĩ à¤¢à¤²
à¤ª à¤µà¤°à¤¹
Ġà¤¸ à¤¥
Ġà¤¸ à¤µà¤¤
à¤¦ à¤³à¤µ
à¤Ĺ à¤¨à¤°
Ġà¤ħ à¤¦à¤°
à¤§ à¤µà¤£
Ġà¤¨ à¤ĸà¤°
à¤¡ à¤®à¤ļ
à¤¡ à¤Īà¤¤
à¤¬ à¤¢à¤¤
Ġà¤ľ à¤¬à¤¦
Ġà¤¬ à¤°à¤ķà¤¤
à¤µà¤° à¤ľ
Ġà¤Ĺ à¤Ĺà¤¨à¤ļ
à¤°à¤ķ à¤°à¤¨
Ġà¤ĸ à¤²à¤ª
Ġà¤ı à¤¥
Ġà¤ı à¤°à¤²
à¤ħ à¤µà¤®
Ġà¤Ł à¤®
Ġà¤Ł à¤ķà¤°
à¤°à¤µ à¤¹
à¤°à¤µ à¤Ł
à¤ı à¤ķà¤¸
à¤ı à¤¨à¤ķ
à¤ı à¤Ĩà¤¯à¤Ł
à¤ı à¤ħà¤°à¤²
à¤Ĭ à¤®
à¤Łà¤¨ à¤®
à¤Łà¤¨ à¤°à¤ļ
à¤·à¤£ à¤¶
Ġà¤¨à¤µ à¤¶
Ġà¤Ĩà¤® à¤°à¤£
à¤¤à¤ª à¤ķ
à¥¦ à¥ª
à¤°à¤ķà¤°à¤£ à¤¹
à¤¡à¤² à¤¨
à¤Łà¤² à¤¸
à¤Łà¤² à¤°à¤ļ
Ġ( )
à¤Ĺà¤° à¤Ń
Ġà¤¸à¤¹ à¤ļ
Ġà¤Ĩà¤¯ à¤ıà¤¸à¤ļ
à¤¹à¤° à¤ªà¤°
à¤¯à¤² à¤¢à¥Ł
à¤ĩ à¤¨à¤¨
à¤ī à¤ªà¤¹
à¤ī à¤Ŀà¤°
à¤ī à¤²à¤®
Ġà¤¥ à¤¬à¤ķà¤²
Ġà¤ĵ à¤¨à¤°
Ġà¤ĵ à¤ıà¤ļ
Ġà¤ĵ à¤°à¤ĸà¤¡
à¤¯à¤¨ à¤²à¤¸
à¤¦à¤¨ à¤¨
Ġà¤ħà¤¦ à¤®
Ġà¤ħà¤¦ à¤Ń
Ġà¤ľà¤¨ à¤Ķà¤·à¤§
Ġà¤ķà¤¸ à¤¦
à¤¥à¤³ à¤¸
Ġà¤īà¤® à¤Ĺà¤¤
à¤ıà¤¸ à¤ıà¤¸à¤¸
à¤¤à¤® à¤³
à¤ļà¤¨ à¤ª
Ġà¤¯à¤¶ à¤¦
Ġà¤¬à¤° à¤³à¤¤
à¤Ĩà¤° à¤ıà¤¸à¤¨
Ġà¤ħà¤² à¤ª
à¤ķà¤£ à¤ķà¤°
Ġ5 21
à¤¤à¤¨ à¤®
à¤ľà¤Ĺ à¤¡
Ġà¥ª à¥§à¥©
Ġà¤¸à¤®à¤ľ à¤¤à¤ļ
Ġà¤¬à¤ļ à¤¤à¤¹
Ġà¤Ī à¤ıà¤®à¤Ĩà¤¯à¤ļ
Ġà¤ıà¤¨ à¤ıà¤¸à¤ıà¤¸
à¤ıà¤« à¤Ĩà¤¯à¤ļ
à¤ıà¤« à¤ĵà¤¨
Ġà¤ıà¤® à¤ıà¤®à¤Ĩà¤°
à¤¡à¤° à¤Ł
à¤ıà¤² à¤®
à¤ľà¤µà¤³ à¤¹
âĢįà¥ħ à¤ģ
à¤Ĩà¤ľ à¤¤
Ġà¤¨à¤Ĺ à¤°à¤²
Ġ50 2
Ġà¤¹à¤ľà¤° à¤ľà¤¬
Ġà¤īà¤ĺà¤¡ à¥Ł
Ġs he
er ator
Ġà¥¨à¥« à¥§
Ġà¥«à¥¦ à¥«
Ġp akistan
à¥§à¥¯ à¥Ńà¥§
Ġ21 4
Ġ17 00
Ġà¤ıà¤ļ à¤Ł
à¤¶à¤¤à¤ķ à¤µ
Ġà¥¨à¥ª à¥¨
Ġr at
Ġn ational
Ġà¤¸à¤¦à¤° à¤²
Ġà¤°à¤¤ à¤¨à¤²
as a
à¤¬à¤¦à¤² à¤£
Ġg u
Ġà¥¨à¥® à¥©
Ġà¥¨à¥® à¥¯
Ġà¥¨à¥® à¥¬
Ġ26 5
Ġà¥©à¥« à¥¯
Ġ23 6
à¥§à¥¦ à¥¨
Ġà¥©à¥Ń à¥ª
Ġà¤µà¤³à¤£ à¤¹
ra ph
Ġà¤ªà¤°à¤® à¤¹
15 3
Ġ29 7
à¤Ĩà¤¯à¤ıà¤® à¤ıà¤«
ay s
à¥§à¥¨ à¥¨
Ġà¤īà¤Ńà¤¯ à¤ªà¤ķ
à¤ıà¤¨à¤ıà¤¸ à¤¡
Ġà¥©à¥ª à¥¨
Ġà¥©à¥¯ à¥¨
Ġà¥ªà¥ª à¥«
ho w
ho me
Ġ54 0
Ġ54 2
ab et
Ġà¤ıà¤®à¤ıà¤¸ à¤Ĩà¤°à¤¡
Ġ46 5
Ġi as
ai ims
Ġà¤®à¤¦à¤¨ à¤®
à¤ıà¤Ĩà¤¯ à¤ıà¤«à¤ıà¤«
Ġ99 0
Ġà¤Ĩà¤¯à¤ıà¤¸ à¤Ĩà¤¯à¤²
lo ck
199 2
sh ort
ep id
con gress
qu e
Ġy o
bs nl
Ġà¤Ŀà¤Ĺ à¤¡à¤£
Ġpl an
Ø§ ÙĨ
Ġà¤Ńà¤ľà¤¨ à¤ª
samp ling
cov ery
int on
à¤ķà¤°à¤ı à¤¤à¤¯
Ġà¤§à¤¨à¤ķ à¤µà¤¡
Ġdo ugh
paramet ers
Ġrah ul
aste ur
sing le
roh it
ahub ali
7 00
b ox
c ast
c ases
g dp
h d
i os
m on
m ission
n c
r pm
s amsung
w an
w omens
x iaomi
Ä ģ
Ì ģ
Ø ©
ç ľ
Ġ Î
Ġ Ñ
Ġ olymp
à¤¾ `
à¤° à¤ħ
à¤¤ à¤ı
à¤¨ à¤ħ
à¤¨ à¤ĩ
à¤¨ à¤Ĺà¤µ
à¤¨ à¤Ĩà¤§
à¤¨ à¤°à¤¸à¤¹
à¤¨ à¤Ĭà¤ļ
à¤¹ à¤¸à¤£
à¤ļ à¤«
à¤ļ à¤ıà¤ª
à¤£ à¤¯à¤ķ
à¤£ à¤¦à¤°
à¤® à¤¤à¤°
à¤® à¤°à¤ľ
à¤® à¤¬à¤¦
à¤® à¤°à¤¹
à¤® à¤¸à¤®à¤Ń
Ġà¤Ĩ à¤°à¤µà¤²
Ġà¤ķ à¤²à¤ķ
Ġà¤ķ à¤¡à¤ª
à¤ª à¤¹à¤²
Ġà¤¸ à¤¡à¤£
Ġà¤ª à¤¯
Ġà¤® à¤³à¤£
Ġà¤® à¤¢à¤µ
à¤Ĺ à¤Ńà¤°
Ġà¤ħ à¤µà¤¡
à¤ľ à¤°à¤¤
à¤ľ à¤¤à¤°
Ġà¤µ à¤łà¤£
Ġà¤¹ à¤¸à¤µ
Ġà¤¦ à¤²à¤ķ
Ġà¤¯ à¤¸
Ġà¤¯ à¤¡
à¤¬ à¤Łà¤£
Ġà¤ľ à¤¥
Ġà¤ľ à¤µà¤¸
Ġà¤ľ à¤°à¤¦
Ġà¤ľ à¤¯à¤ļ
Ġà¤ľ à¤³à¤£
à¤¥ à¤ķà¤²
à¤¥ à¤ļà¤ķ
à¤µà¤° à¤°
à¤Ń à¤¡à¤ķ
Ġà¤Ŀ à¤Ĺà¤®
Ġà¤ĸ à¤ªà¤²
Ġà¤ı à¤ıà¤®
à¤Ĩ à¤¤à¤²
à¤Ĩ à¤³à¤¶
Ġà¤ıà¤ķ à¤Ľà¤¤
à¤« à¤µà¤°
à¤ı à¤¶à¤¨à¤®à¤§
à¤ı à¤ıà¤²à¤ļ
à¤Ĭ à¤¸à¤®
à¤Ĭ à¤ķà¤ļ
Ġà¤īà¤ª à¤°à¤¤
à¤Łà¤¨ à¤¸à¤¹
à¤µà¤¡ à¤¸à¤®
Ġà¤¤à¤° à¤¨
à¤°à¤ªà¤Ł à¤ķ
à¤Łà¤ķ à¤¸
à¥¦ à¥«
Ġà¤µà¤° à¤¦à¤°
à¤¡à¤² à¤°
à¤²à¤ķ à¤°à¤¤
à¤ªà¤¨ à¤°
Ġà¤Ĩà¤¤ à¤¤
à¤ĩ à¤¬à¤°
à¤ĩ à¤®à¤²
à¤ĩ à¤®à¤µà¤°
à¤²à¤¨ à¤¶
Ġà¤¥ à¤®
à¤Ĭà¤¨ à¤¨
à¤§à¤¨ à¤®
Ġà¤ľà¤¨ à¤²
Ġà¤ĺà¤° à¤ĺà¤°
à¤ļà¤² à¤¨à¤µ
Ġà¤Ĩà¤Ĺ à¤°à¤µ
à¤¤à¤® à¤¯
à¤ļà¤¨ à¤ķ
à¤¸à¤® à¤Ŀ
Ġà¤¸à¤² à¤Ĺà¤°
à¤¶à¤ķ à¤¹
à¤Ĺà¤µ à¤Ĺ
Ġà¤ĳà¤« à¤°à¤¹
Ġ4 19
à¤ıà¤® à¤ĵà¤¨
à¤Ĺà¤¡ à¥Ł
à¥© à¥¦à¥¦
Ġà¥« à¥§à¥¬
à¤®à¤¦ à¤¤à¤ķ
à¥¬ à¥¦à¥¦
Ġà¤ıà¤¸ à¤ıà¤¸à¤¬
Ġà¤ıà¤¨ à¤ıà¤¸à¤ı
Ġà¤ıà¤¨ à¤Ĩà¤°à¤ľ
à¤µà¤°à¤ļ à¤°à¤£
Ġà¤¶à¤°à¤¦ à¤ļ
à¤ħà¤ª à¤®
Ġà¤¨à¤¸ à¤¬
à¤µà¤Ł à¤³
Ġà¤¶à¤¬ à¤¨à¤®
in form
à¤®à¤£ à¤Ĺ
à¤²à¤ķà¤° à¤¸
à¤īà¤¦ à¤¯à¤ª
Ġà¥§à¥¯ à¥ªà¥¯
à¤ıà¤ļ à¤Ł
Ġà¤ªà¤Łà¤ķ à¤µ
at s
at ed
Ġ25 4
Ġ19 20
Ġà¤ļà¤ķà¤®à¤ķ à¤¹
Ġ13 999
Ġs ur
Ġs arscov
à¤Ĭà¤² à¤ĸ
er al
Ġà¤¤à¤³ à¤ªà¤²
Ġà¤«à¤³ à¤¦
al and
Ġà¥«à¥¦ à¥¬
à¤°à¤Ł à¤ķà¤°
Ġm ill
à¤Łà¥Ł à¤ª
Ġà¤ľà¤² à¤¶
am ps
Ġ22 9
Ġn b
di l
à¤Ĩà¤¯à¤ı à¤Ł
Ġ35 5
Ġà¥¨à¥¬ à¥«
Ġà¥² à¤Ł
Ġg roup
Ġ26 7
à¤īà¤ª à¤¸à¤Ń
Ġà¥¨à¥¯ à¥§
Ġw ed
à¥§à¥¦ à¥¬
Ġd elhi
à¤¯à¤²à¤Ł à¤¸à¤¹
is m
co s
à¤¼ à¥Ģ
Ġà¤ªà¤°à¤® à¤ª
Ġà¥©à¥¬ à¥®
Ġà¤ªà¤µà¤¨ à¤Ĭà¤°
Ġà¥¨à¥¦à¥§à¥¬ à¥¨à¥¦à¥§à¥Ń
Ġl oc
il way
Ġ36 3
à¤ĩà¤¤ à¤°à¤¤
Ġà¤°à¤ĸ à¤¡à¤£
Ġ33 5
Ġà¤¨à¤µà¤² à¤ļ
à¤į à¤¡à¤²
à¤į à¤²à¤°
Ġà¥ªà¥¯ à¥¦
à¥§à¥§à¥ ®
Ġà¥ªà¥¬ à¥«
Ġ39 0
Ġà¤¹à¤°à¤Ńà¤ľà¤¨ à¤¸
Ġ198 1
ig h
Ġà¤®à¤³ à¤Ń
Ġ2021 22
Ġon line
199 6
à¤¥à¤°à¤¸ à¤²
Ġà¥§à¥¯à¥Ń à¥¬
Ġ195 7
à¤ıà¤®à¤ıà¤² à¤ıà¤¨
con trol
à¤ľà¤Ĺà¤£ à¤¤
Ġà¤²à¤Łà¤ķ à¤µà¤²
ax in
à¤¸à¤¨à¤Ĺà¤° à¤®à¤§
Ġ196 7
Ġà¤ķà¤£à¤ĸà¤° à¤ªà¤£
Ġà¤ªà¤°à¤ĸà¤¡ à¤ªà¤£
Ġfir st
Ġis ro
Ġz ee
à¤²à¤¸à¤° à¤ªà¤£
Ġà¤¹à¤°à¤¤ à¤±
Ġex chang
à¤ıà¤«à¤Ĩà¤¯à¤Ĩà¤° à¤®à¤§
ama zon
Ġbs f
Ġsu v
aly sis
dit ion
Ġà¤ıà¤®à¤Ĩà¤¯à¤ı à¤®à¤¨
Ġcap acit
bol lywood
Ġà¤¤à¤¡à¤¤ à¤¡à¤²
à¤ıà¤¸à¤ıà¤¨à¤ı à¤²à¤¨
Ġà¤¬à¤¡à¤¬ à¤¡à¤¤
sem icon
a imim
b y
c sk
f r
g c
m t
p g
p ol
r edmi
t or
w at
Ð ±
Ø ¨
Ø ª
Ġ >
Ġ æ
Ġ à°
Ġ ï»¿
à¥ Ľ
à¤¾ à¥ĩà¤Ĥ
à¤° à¤°à¤¨
à¤° à¤¡à¤ķà¤°
à¥ĩ à¥¥
à¤¤ à¤§à¤°
à¤² à¤¦à¤°
à¤¿ âĢĮ
à¤¨ à¤µà¤¸à¤¨
à¤ķ à¤µà¤ļ
à¤ķ à¤¨à¤¹
à¤ķ à¤°à¤®à¤£
à¤® à¤¶à¤¹à¤°
Ġà¤Ĩ à¤¡à¤µà¤£
à¤ª à¤±à¤¯
à¥ģ à¤ģ
Ġà¤¸ à¤¦à¤²à¤Ĺ
à¤Ł à¤Ŀ
à¤Ł à¤¯à¤µà¤§
à¤Ĺ à¤°à¤µ
à¤Ĺ à¤¨à¤²
à¤Ĺ à¤¡à¤¤
à¤Ĺ à¤°à¤ķà¤¡
Ġà¤ħ à¤¯à¤ª
Ġà¤¤ à¤¬à¤°
à¤¡ à¤¦à¤³
Ġà¤¦ à¤¡à¤µà¤²
Ġà¤¯ à¤ļ
à¤· à¤°à¤§
à¤· à¤±à¤¯
Ġà¤ķà¤° à¤µà¤²
Ġà¤ķà¤° à¤®à¤¤
à¤ĸ à¤µà¤°
Ġà¤¶ à¤¯à¤¨
à¤Ń à¤°à¤ķà¤°
Ġà¤ĺ à¤°à¤¦
Ġà¤ī à¤¸à¤Ĺ
à¤°à¤¤ à¤¡à¤£
à¤°à¤¤ à¤ĩà¤¸
Ġà¤ĸ à¤¶
Ġà¤ĸ à¤ªà¤¤
Ġà¤ĸ à¤µà¤ļ
Ġà¤ı à¤°à¤°
Ġà¤ı à¤ľà¤¬
Ġà¤ı à¤Ĩà¤¯à¤ıà¤«
à¤Ī à¤¸à¤¨
à¤Ī à¤ıà¤«
à¤ĺ à¤®à¤ļ
à¤ĺ à¤¡à¤µà¤²
à¤Ĩ à¤Ł
à¤Ĩ à¤¯à¤¤
à¤Ĩ à¤²à¤®
à¤¿à¤Ĥ à¤Ĥ
à¤ħ à¤±
Ġà¤ıà¤ķ à¤°à¤ķà¤®
Ġà¤Ł à¤ļà¤¸
à¤« à¤¸à¤¹
Ġà¤ĩ à¤ķà¤¡à¤ļ
Ġà¤ªà¤° à¤¸à¤²
à¤ķà¤¡ à¤¤
à¤°à¤¸ à¤ķ
à¤Ĭ à¤¤à¤¹
à¤Łà¤¨ à¤µà¤°
à¤Łà¤¨ à¤Ń
à¤Ŀ à¤²à¤¡
à¤¦à¤° à¤ľ
à¤Ĺà¤² à¤¸à¤°
à¤°à¤ªà¤Ł à¤µ
à¤¯à¤¤ à¤®
Ġà¤ħà¤¶ à¤«
à¤¶à¤¨ à¤ªà¤°
Ġà¤Ĩà¤¯ à¤ıà¤ı
à¤ĩ à¤²à¤¹
à¤ĩ à¤ļà¤²à¤ķà¤°
à¤Ĩà¤¯ à¤Łà¤®
à¤¦à¤¨ à¤²
à¤ŀ à¤¹
à¤ıà¤¸ à¤Ĩà¤¯à¤ļ
Ġà¤ľà¤Ĺ à¤¬
Ġà¤ªà¤µ à¤Īà¤¤
Ġà¥© à¥§à¥ª
à¤ıà¤ķ à¤ľà¤£
Ġ5 10
à¤¤à¤³ à¤®à¤ľà¤²
à¤ľà¤¸ à¤ľà¤¸
à¤ľà¤¸ à¤ľà¤¶
à¤²à¤µ à¤§
à¥© à¥Ńà¥¦
Ġà¤īà¤² à¤Łà¤¤
à¤ıà¤¨ à¤Ĩà¤¯à¤¸
à¥¦à¥¦ à¥¦à¥¦
Ġà¤Ī à¤¦à¤¸
Ġà¤ıà¤¨ à¤ıà¤«
Ġà¤ıà¤¨ à¤ĵà¤¸
à¤ĳ à¤«à¤²
Ġ6 99
à¤¡à¤ķà¤° à¤²
Ġà¥Ń à¥§à¥«
à¤°à¤¥à¤® à¤µà¤°
Ġà¥® à¥¦à¥¦à¥¦
Ġà¤ķà¤¡ à¤¬
Ġà¤ªà¤Łà¤ķ à¤µà¤£
Ġà¤ĺà¤Łà¤ķ à¤¹
Ġà¤§à¤¡à¤ķ à¤ļ
Ġ19 60
Ġà¤ıà¤« à¤Ĩà¤¯à¤ª
Ġc ha
à¤Ĳ à¤ķà¤¤
Ġà¤Ĩà¤ª à¤ĺ
Ġs amp
Ġà¤¹à¤³ à¤¦à¤£à¤ķà¤°
Ġ30 9
à¤Ĺà¤ľ à¤³
Ġp os
Ġà¥§à¥® à¥Ń
Ġ21 12
Ġà¤Ńà¤°à¤¤ à¤ķ
Ġà¤ħà¤£ à¤µà¤¸
Ġb r
Ġb adm
Ġr s
Ġt ax
Ġà¤īà¤ľ à¤³à¤¤
22 4
à¤³à¤ª à¤Ī
it ed
Ġf ilm
as hi
Ġà¥¨à¥Ń à¥§
Ġà¤¬à¤ļà¤¤ à¤Ĺà¤Ł
Ġd ain
Ġà¥§à¥§à¥ §à¥
à¤ħà¤« à¤ľà¤²
Ġ27 6
à¤Ńà¤¯ à¤ªà¤£
us e
us ion
à¤¡à¤¨à¤®à¤§ à¤²
Ġà¥©à¥¨ à¥§
bi o
ol ence
Ġl ife
ay ani
Ġo ut
os h
Ġà¤°à¤¡ à¤¤à¤ļ
Ġà¥¦ à¥ª
Ġà¥¦ à¥®
ind ep
Ġe mi
à¤ħà¤ľà¤¯ à¤ļ
Ġà¥©à¥ª à¥§
Ġà¥©à¥© à¥©
Ġà¥©à¥¯ à¥¦
à¥§à¥§ à¥¦
ag ing
ag ue
Ġà¥ªà¥ª à¥Ń
ho m
à¤Ŀà¤² à¤¡à¤ļ
Âº à¤¹
Ġ57 5
har at
à® ¾
à® ¿
lo t
Ġde c
à¤ħà¤¹à¤®à¤¦à¤¨à¤Ĺà¤° à¤®à¤§
Ġà¥§à¥¯à¥¬ à¥ª
Ġ195 9
à¤°à¤¨à¤Ĺà¤° à¤®à¤§
à¤ĵà¤³à¤ĸ à¤ªà¤¤
Ġà¥§à¥¯à¥« à¥¬
mah arashtra
à¤¹à¤Ł à¤²à¤¯
Ġà¤¨à¤Ł à¤¸à¤®
à¤ļà¤ĸ à¤³à¤Ĺ
à¤īà¤§ à¤®à¤ª
à¤®à¤¦à¤° à¤¶
Ġpl ate
ach in
ash es
à¤½à¤½ à¤½
aj it
gov in
Ġà¤¬à¤Łà¤² à¤°à¤¨
inter national
Ġà¤Ĩà¤¯à¤Ĩà¤° à¤ıà¤¨à¤ıà¤¸à¤ıà¤¸
Ġpra bhat
Ġcor onavirus
à¤ħà¤µà¤¯à¤µ à¤¦
Ġà¤¹à¤®à¤¸ à¤«à¤°
Ġà¤ľà¤°à¤¤ à¤°à¤ļ
Ġtech nology
asteur ization
Ġbadm inton
Ġdain ik
f ale
f armers
k e
n o
o ci
p et
r k
s un
s hi
s ab
t v
u ra
v is
w ork
Â Ń
à¥į )
à¥į à¤¼
à¤° à¤ħà¤°
à¤° à¤īà¤Ń
à¥Ģ âĢį
à¤¤ à¤¸à¤²
à¤¤ à¤®à¤¨à¤Ĺà¤°
à¤¯ à¤Ŀà¤¨
à¤² à¤Łà¤¨
à¤² à¤Ńà¤°
à¤² à¤ĺà¤µ
à¤ķ à¤ªà¤¨
à¤ļ à¤¹à¤²
à¤µ à¤¬à¤¦à¤²
à¤® à¤ªà¤¤
à¥ĭ /
Ġà¤Ĩ à¤¡à¤¸
à¤¦ à¤³à¤¤
Ġà¤ª à¤ļà¤µà¤¤
à¤Ł à¤±
à¤Ĺ à¤¡à¤²
Ġà¤ħ à¤Łà¤°
Ġà¤ħ à¤¡à¤£
à¤§ à¤°à¤®à¤§
Ġà¤µ à¤°à¤ķà¤°à¤£
Ġà¤µ à¤³à¤µà¤³
à¤¶ à¤ĸ
à¤¶ à¤¸à¤²
à¤¡ à¤°à¤®
à¤¡ à¤µà¤³
à¤¡ à¤¨à¤ķ
Ġà¤¹ à¤¡à¤ªà¤²
à¤³ à¤®à¤®à¤§
à¤¬ à¤¡à¤²
à¤¬ à¤®à¤®à¤§
Ġà¤¬ à¤Łà¤¬
à¤µà¤° à¤ķà¤¡
Ġà¤ļ à¤¬
Ġà¤ļ à¤Łà¤ªà¤Ł
Ġà¤ī à¤µ
Ġà¤ī à¤¦à¤°
à¤°à¤ķ à¤ķ
Ġà¤ĸ à¤µà¤³
Ġà¤ĸ à¤®à¤ķ
Ġà¤ĸ à¤°à¤¤à¤°
Ġà¤ı à¤Ĩà¤°
à¤Ī à¤®à¤µà¤°
à¤Ĩ à¤Ĺà¤°
à¤Ĩ à¤ĩ
à¤°à¤® à¤¤à¤¦
Ġà¤ıà¤ķ à¤°à¤ļ
Ġà¤ł à¤¸à¤ķ
à¤µà¤¸ à¤¨à¤¸
Ġà¤®à¤¹ à¤¨
à¤ªà¤° à¤¬
Ġà¤ªà¤° à¤ļ
à¤ķà¤¡ à¤µ
Ġà¤§ à¤°à¤®
à¤¯à¤® à¤ª
Ġà¤¸à¤® à¤®
à¤ı à¤¨à¤®à¤§
à¤Ĭ à¤ª
Ġà¤īà¤ª à¤µà¤¨à¤¸
à¤Ŀ à¤®à¤µà¤°
à¤ľà¤ª à¤ľ
à¤¤à¤ª à¤§
à¤Łà¤² à¤°à¤¨
à¤¬à¤Ī à¤ł
à¤Ĺà¤° à¤°
Ġà¤¸à¤¹ à¤ªà¤°
à¤Ĺà¤£ à¤ķà¤°
§à¥ §à¥¨
à¤ķà¤² à¤¦
à¤ľà¤¯ à¤ªà¤¥
Ġà¤ħà¤ª à¤¶à¤ķ
Ġà¤ħà¤® à¤°à¤ķ
Ġà¤¨à¤° à¤³
à¤¯à¤¦ à¤¯
à¤ªà¤¤ à¤§
à¤°à¤¨ à¤²
à¤µà¤¨ à¤Ńà¤°
à¤ħà¤° à¤ªà¤°
à¤ī à¤ľà¤¨
à¤ªà¤¯ à¤°
Ġà¤ĸà¤° à¤¡
Ġà¤¹à¤² à¤ļ
à¤¦à¤¤ à¤¹
à¤ıà¤¸ à¤Ĩà¤¯à¤ª
à¤ļà¤¨ à¤¦
Ġà¤ħà¤² à¤¹
Ġà¤ħà¤² à¤¸
à¤µà¤°à¤£ à¤ļ
Ġ5 16
à¤°à¤Ń à¤¨
à¤ľà¤® à¤¸
Ġà¥ª à¥§à¥®
à¤¯à¤¸ à¤ª
Ġà¤Ī à¤Ĺà¤µ
Ġà¤ıà¤¸ à¤Ĩà¤¯à¤ª
à¤Īà¤¨ à¤®
Ġ6 19
Ġà¥¬ à¥§à¥¯
Ġà¥¬ à¥¯à¥¯
Ġà¥Ń à¥§à¥¦
à¤ķà¤³ à¤ļ
à¤ĩà¤¨ à¤¦
in st
à¤Łà¤® à¤µà¤°
à¤ķà¤µ à¤ł
Ġ12 80
Ġ9 30
Ġà¥§à¥¯ à¥ªà¥®
Ġà¤«à¤°à¤ķ à¤¹
Ġà¤ķà¤³ à¤ĺà¤®
Ġ19 75
Ġ19 49
ar c
Ġà¤ķà¤³à¤¤ à¤¯
Ġc han
19 65
à¤Ĳ à¤ķà¤²
à¤Ĳ à¤ķà¤£
Ġà¤ħà¤ľà¤¯ à¤¸
Ġ30 5
Ġ37 2
Ġ37 9
al th
Ġà¥©à¥¦ à¥§
à¤ļà¤ª à¤¡à¤¤
Ġp i
Ġp st
Ġp art
Ġ21 15
à¤Īà¤¡ à¤¬
à¤¯à¤¬ à¤°à¤¸
Ġà¥¨à¥ª à¥¯
Ġa ma
à¤²à¤¬ à¤µà¤°
Ġà¥ªà¥¦ à¥¬
Ġà¤Ĩà¤Ŀ à¤®à¤Ĺà¤¡
Ġr is
Ġt w
st orage
Ġf i
Ġf armers
ro id
Ġà¥¨à¥¬ à¥Ń
Ġà¤¬à¤¡ à¤¦
Ġà¥¨à¥Ń à¥©
Ġà¥©à¥« à¥¨
Ġà¥¨à¥¯ à¥¬
Ġin di
Ġ32 8
Ġ27 00
Ġh dr
ra b
Ġà¥ªà¥« à¥¬
10 4
Ġ36 9
Ġ29 3
Ġ29 6
Ġ29 8
re covery
os car
12 6
Ġe k
à¤ħà¤ľà¤¯ à¤ħà¤¤
Ġà¥©à¥ª à¥®
à¤į à¤Ł
à¤į à¤¡
ur i
Ġà¥ªà¥© à¥«
Ġà¥ªà¥© à¥¯
Ġà¥ªà¥¨ à¥©
Ġà¤ķà¤¢ à¤Īà¤®à¤§
Ġà¤Ĺà¤µà¤¸ à¤¤
à¤ĩà¤« à¤¸
Ġà¥«à¥Ń à¥¬
Ġ199 7
Ġà¥«à¥ª à¥©
he ating
Ġ700 00
à¤¸à¤®à¤¨ à¤¨
à® ¤
if s
à¥§à¥¯à¥¯ à¥ª
à¥§à¥¯à¥¯ à¥¬
Ġà¤Ĩà¤ī à¤Łà¤°
Ġà¤Ĩà¤ī à¤Łà¤¸
Ġà¥§à¥¯à¥Ń à¥®
Ġu ae
à¤¿Ã· à¤¾à¤Ĥ
eng land
op er
Ġ197 8
pro tocol
ast han
Ġà¤ĸà¤µ à¤ĸà¤µ
Ġpl ay
Ġle ague
Ġvi ew
olog ical
ve er
Ġen counter
Ġ310 3
Ġcho pra
Ġacc ident
Ġà¤Ŀà¤Ĺà¤® à¤Ĺà¤¤
semicon duct
* )
1 15
f in
f ssai
g y
h p
i it
j d
s ub
u le
v ol
Ã ³
Ã Ĺ
Î ¹
Î ¿
à ·
à¤° à¤¯à¤²
à¤° à¤³à¤µ
à¥Ģ âĢĮ
à¤¤ à¤µà¤¡
à¤¤ à¤¯à¤¶
à¤² à¤ħ
à¤² à¤µà¤¸
à¤¨ à¤Łà¤ķ
à¤¨ à¤¡à¤ļ
à¤ķ à¤®à¤ļ
à¤ļ à¤ł
à¤ļ à¤¸à¤¦à¤¸
à¤µ à¤Łà¤²
à¤µ à¤ªà¤¨
à¤¸ à¤°à¤¸à¤¹
à¤£ à¤¨à¤¨
à¤® à¤ªà¤Ł
Ġà¤Ĩ à¥Ł
Ġà¤¸ à¤²à¤¤
Ġà¤¸ à¤Ĭà¤¦
à¤¦ à¤¤à¤ķ
à¤¦ à¤ķà¤Ł
à¤Ł à¤Ń
à¤Ł à¤¦à¤°
à¤Ł à¤ªà¤¦
à¤Ł à¤Ńà¤Ł
à¤Ĺ à¤²à¤¯
à¤Ĺ à¤°à¤¦
à¤Ĺ à¤Łà¤µ
Ġà¤ħ à¤ĸà¤°
Ġà¤ħ à¤¹à¤¸
à¤§ à¤ªà¤ķ
à¤ľ à¤²à¤ķ
à¤ľ à¤ľà¤µà¤³
à¤¶ à¤ªà¤Ł
Ġà¤¤ à¤Łà¤µà¤°
à¤¡ à¤ĳà¤¸
Ġà¤¹ à¤ķà¤²
Ġà¤¹ à¤¨à¤¨
à¤³ à¤Ī
Ġà¤° à¤¯
Ġà¤° à¤¡à¤ķ
Ġà¤ķà¤° à¤¹
à¤ĸ à¤¸à¤¹
Ġà¤¬ à¤ª
Ġà¤¬ à¤łà¤ķ
Ġà¤¬ à¤¶à¤°
à¤¥ à¤¨à¤ļ
à¤Ń à¤°à¤²
Ġà¤Ĺ à¤¨à¤ļ
Ġà¤ļ à¤ķà¤¨
Ġà¤² à¤ªà¤£
Ġà¤ĺ à¤°à¤£
Ġà¤Ŀ à¤ķà¤°à¤¬à¤°
à¤°à¤¤ à¤ħà¤«à¤Ĺ
Ġà¤ı à¤Ĩà¤¯à¤¡
à¤Ī à¤¸à¤®à¤§
à¤°à¤£ à¤§
à¤¯à¤ķ à¤¦
à¤¯à¤ķ à¤µà¤¡
à¤ĺ à¤ª
à¤Ĩ à¤°à¤¶
Ġà¤« à¤°à¤¦
à¥ĥ à¥ĥ
à¤¢ à¤ķ
à¤¢ à¤°à¤ªà¤Ł
à¤ħ à¤µà¤¤
à¤ħ à¤°à¤¶
à¤ħ à¤¨à¤µ
à¤ªà¤£ à¤ļ
Ġà¤®à¤¹ à¤®à¤¦
à¥ħ /
à¤Ĭ à¤¤à¤¨
à¤Łà¤¨ à¤®à¤§à¤²
à¤Ŀ à¤¬à¤°
à¤Ŀ à¤Łà¤ªà¤Ł
à¤Ŀ à¤¨à¤¶
Ġà¤¡ à¤°à¤ķ
Ġà¤¡ à¤«à¤²
à¤¦à¤° à¤Ń
à¤°à¤ļ à¤²à¤¨
à¤¬à¤¤ à¤ª
à¤Ĺà¤² à¤¹
à¤ĸà¤² à¤¹
Ġà¤¨à¤µ à¤ª
Ġà¤¨à¤µ à¤Łà¤ķ
Ġà¤Ĩà¤® à¤¸
à¤®à¤¨ à¤¤
à¤Łà¤° à¤Ĺ
Ġà¤Ĩà¤¯ à¤Ĩà¤°à¤¬
Ġà¤Ĩà¤¯ à¤ĵà¤ıà¤ļ
à¤Īà¤² à¤®
à¤Īà¤² à¤§
à¤ªà¤¨ à¤¹
à¤®à¤ļ à¤ķ
à¤ĵ à¤²à¤²
à¤ĵ à¤ľà¤ļ
à¤Ĩà¤¯ à¤¯
à¤ħà¤° à¤°
Ġà¤ĵ à¤¬à¤°
Ġà¤ĵ à¤ķà¤£
à¤®à¤ķ à¤ªà¤£
à¤¹à¤¨ à¤®
à¤ķà¤¶ à¤ķ
à¤ľà¤ķ à¤µ
à¤¹à¤® à¤¶à¤ķà¤²
à¤ķà¤¸ à¤®
Ġà¤¹à¤² à¤Ĺ
Ġà¤ķà¤ª à¤®à¤§à¤²
Ġà¤Ĩà¤ľ à¤¸
à¤°à¤¹ à¤²
Ġ3 19
à¤¡à¤³ à¤ļ
à¤ªà¤ķ à¤¹
à¤ªà¤ķ à¤ļ
Ġà¤¦à¤² à¤¹
à¤¶à¤¯ à¤¹
à¤ķà¤£ à¤µ
Ġ5 99
à¤¨à¤ķ à¤³à¤¤
Ġà¤²à¤¢ à¤¤à¤ļ
à¤ľà¤¸ à¤µ
à¤ıà¤® à¤Ĩà¤¯à¤Ł
Ġà¤Ĳ à¤Ł
à¤§à¤ķ à¤ļ
à¤µà¤ª à¤¶
à¤²à¤£ à¤ķà¤°
Ġà¤Ĩà¤Ī à¤¬à¤°
Ġà¤īà¤² à¤ĺà¤¡
à¤¸à¤°à¤ķ à¤¡
Ġà¤Ī à¤¦à¤Ĺ
Ġà¤ıà¤¸ à¤ĵà¤ľ
Ġà¤°à¤£ à¤°
Ġà¤ıà¤¨ à¤ıà¤¸à¤Ī
à¤¬à¤¸ à¤ªà¤ļ
Ġ10 12
Ġà¤ĩà¤¥ à¤µà¤°à¤ļ
à¤ıà¤² à¤Ī
Ġà¥Ń à¥§à¥ª
à¤ħà¤ª à¤ļà¤¨
Ġà¤īà¤ĺ à¤¡à¤ļ
Ġ8 999
à¤°à¤Ĺ à¤¡à¤ļ
Ġà¥¯ à¥¨à¥«
Ġà¥¯ à¥ªà¥¦
à¤Ĩà¤Ĺ à¤°à¤¤à¤³
Ġà¤ªà¤³ à¤¸
à¤²à¤® à¤¡à¤¤
à¤°à¤Ĺà¤¤ à¤¶
Ġà¥§à¥¯ à¥¦à¥¦
Ġà¤ıà¤µà¤¢ à¤ļ
Ġà¤į à¤²à¤¨
on as
Ġà¤¶à¤ªà¤¥ à¤¹
Ġà¤¹à¤³ à¤°
er ay
Ġà¤¨à¤Ĺà¤° à¤¨
à¤¤à¤°à¤£ à¤¹
Ġ40 45
Ġp pf
Ġm m
Ġà¥ªà¥¦ à¥¯
à¤ıà¤µà¤¢ à¤¯
Ġb ased
Ġv ir
Ġà¥¨à¥¨ à¥©
Ġ22 6
Ġà¥² à¤²
Ġà¥¨à¥Ń à¥®
Ġ23 3
à¥§à¥¦ à¥®
Ġ27 3
Ġh o
Ġh igh
Ġ75 00
ra fale
Ġà¥ªà¥« à¥ª
Ġà¥©à¥¬ à¥¬
Ġl ove
Ġl ayer
il icon
ul ation
à¤¯à¤Ĺà¤° à¤¨
17 5
Ġo x
Ġ34 2
à¤¨à¤§à¤¨ à¤¹
Ġ33 6
Ġà¥¦ à¥¨à¥«
ap a
ap e
à¤į à¤ªà¤²
and ard
Ġà¥¬à¥ª à¥¦
Ġà¥©à¥¯ à¥¬
Ġ44 5
Ġà¥©à¥® à¥¯
à¤ķà¤ħà¤ª à¤¸
à¤ķà¤ħà¤ª à¤®à¤§
ent s
Ġà¤ĵà¤ĺ à¤³
à¥¨à¥¦à¥§à¥ª à¥§à¥«
Ġà¥ªà¥¦à¥¦ à¥¦à¥¦
Ġà¤«à¤¡à¤ķ à¤µà¤¤
Ġ800 00
à® ®
lo g
199 5
Ġà¤Ĩà¤¯à¤ıà¤¨ à¤ıà¤²à¤¡
Ġ195 4
ep fo
Ġà¥§à¥¯à¥« à¥ª
Ġà¥§à¥¯à¥« à¥§
Ġdi s
og en
Ġà¤īà¤ķà¤² à¤²
à¤¡à¤°à¤¸ à¤¨à¤²
198 5
à¥§à¥¯à¥® à¥¬
ack eray
po k
à¤ıà¤«à¤Ĩà¤¯ à¤ıà¤ļ
Ġpl ant
Ġic mr
Ġà¤¬à¤²à¤ķ à¤µà¤¡
à¤¦à¤µà¤¡ à¤ļ
Ġpr esident
Ġpol ice
Ġupdat e
uk one
Ġvi olence
Ġbs nl
Ġapp le
Ġà¤¬à¤Łà¤² à¤°à¤ļ
à³ į
vent ion
micro bi
cho ol
Ġrat io
epid emi
çľ Į
Ġnb fc
Ġà¤¬à¤Łà¤¬ à¤Ł
< <
a z
c it
c il
d ra
e h
f ri
f ace
h r
k h
n p
r cb
s i
s it
s har
t ri
t ure
w al
Î ½
à ½
Ī Ĵ
à¥ ķ
à¥ ļ
à¤° à¤Ĩà¤®à¤¦
à¥Ģ âĢĭ
à¤¤ à¤®à¤¤
à¤² à¤¸à¤®
à¤² à¤ľà¤®
à¤¨ à¤°à¤®
à¤¨ à¤Ĺà¤³
à¤¨ à¤ķà¤²
à¤¨ à¤Ĳà¤µà¤ľ
à¤Ĥ à¤¾
à¤¹ à¤¯à¤²
à¤¹ à¤ķà¤ļ
à¤ķ à¤µà¤°à¤ļ
à¤µ à¤®à¤§à¤²
à¤¸ à¤®à¤Ĺ
à¤® à¤µà¤¤
Ġà¤ķ à¤¨à¤µ
à¤ª à¤®à¤§à¤²
Ġà¤¸ à¤¤à¤ª
Ġà¤¸ à¤£à¤¸
Ġà¤ª à¤ļà¤²
Ġà¤® à¤¨à¤ļ
Ġà¤® à¤¯à¤ª
à¤Ł à¤¤à¤®
à¤Ł à¤¶à¤¹
à¤§ à¤°à¤®
Ġà¤¨ à¤¨à¤µà¤°
Ġà¤µ à¤¤à¤¨
à¤¶ à¤°à¤¤
à¤¶ à¤¸à¤®à¤§
à¤¡ à¤¨à¤°
Ġà¤¦ à¤¦
Ġà¤ľ à¤®à¤¨
Ġà¤ķà¤° à¤Ŀ
Ġà¤¶ à¤®à¤¸
à¤ł à¤µà¤¡
Ġà¤² à¤¡à¤ķ
Ġà¤ī à¤Ĺà¤µ
Ġà¤ī à¤¬à¤Ĺ
à¤°à¤ķ à¤µ
à¤°à¤ķ à¤¸à¤ªà¤£
à¤°à¤¤ à¤µà¤°
Ġà¤ĸ à¤¤à¤°
Ġà¤ı à¤ıà¤«à¤ª
à¤Ī à¤¡à¤¨
à¤Ī à¤®à¤ª
à¤Ĩ à¤¦à¤²
à¤Ĩ à¤ķà¤¸
à¤Ĩ à¤¡à¤¨
à¤ħ à¤¡à¤ķ
à¤ħ à¤¬à¤ķ
à¤°à¤® à¤Ĺ
Ġà¤ıà¤ķ à¤µà¤°
Ġà¤ĩ à¤¨à¤°
Ġà¤ĩ à¤¯à¤°à¤ļ
Ġà¤ªà¤° à¤Ń
à¤ķà¤¡ à¤®
à¤ķà¤¡ à¤°à¤¹
Ġà¤¸à¤® à¤°à¤µ
à¤µà¤² à¤¯
à¤ı à¤Ĩà¤¯à¤ıà¤¡
à¤°à¤¸ à¤£
à¤Ĭ à¤¸à¤²
Ġà¤ħà¤¨ à¤µà¤§
Ġà¤īà¤ª à¤ľà¤¤
à¤Ŀ à¤¯
Ġà¤¡ à¤¬à¤¡
à¤ľà¤ª à¤¯
à¤µà¤¡ à¤¹
à¤¹à¤¤ à¤ķà¤ļ
à¤¸à¤° à¤¬
à¤µà¤¤ à¤µ
à¤µà¤¤ à¤µà¤°à¤ļ
à¤¡à¤² à¤¸
à¤Ĺà¤¤ à¤ķ
à¤¯à¤¤ à¤¯
à¤Ĺà¤° à¤µà¤°
à¤¶à¤¨ à¤ħ
Ġà¤Ĩà¤¯ à¤ļ
à¤¯à¤² à¤°à¤ļ
à¤ĩ à¤Łà¤°
à¤ĩ à¤²à¤²
à¤ĩ à¤®à¤ª
à¤ķà¤² à¤¶
à¤°à¤ľ à¤¹
Ġà¤ªà¤¦ à¤¤
à¤ªà¤¤ à¤¨
à¤ī à¤¸à¤¨
à¤ªà¤¦ à¤ªà¤¥
à¤§à¤¨ à¤¦à¤°
Ġà¤ľà¤¨ à¤ªà¤¥
à¤·à¤¯ à¤¸à¤¹
Ġà¤ĺà¤° à¤Ń
Ġà¤Ĩà¤ľ à¤ķà¤²
à¤ıà¤¸ à¤ıà¤¸à¤ª
Ġà¤Ĩà¤Ĺ à¤°à¤¤à¤³
Ġà¤Ĩà¤§ à¤°
Ġà¤Ľ à¤ł
à¤ħà¤¨ à¤¶
Ġà¤¶à¤¹ à¤°à¤ļ
Ġ5 25
à¤łà¤² à¤¹
Ġà¤²à¤Ĺ à¤¡
Ġ4 15
à¤ľà¤® à¤¶
Ġà¤Ĳ à¤ķà¤µ
Ġà¥« à¥¨à¥¦
Ġà¥« à¥§à¥Ń
à¤¸à¤µ à¤¹
à¤¸à¤µ à¤Ĺà¤¤
à¤µà¤¢ à¤ļ
Ġà¤Ī à¤¤à¤°
à¤ĳ à¤¬
Ġà¤īà¤¡ à¤¦
à¤°à¤³ à¤ķà¤°
Ġà¤§à¤° à¤¬
à¤ķà¤¦ à¤¹
Ġà¤¹à¤¸ à¤µà¤¤
Ġà¤ļà¤ķ à¤®
Ġà¤Ķ à¤°à¤ļ
Ġà¤ıà¤® à¤ıà¤®à¤Ĩà¤°à¤¸
Ġ7 40
Ġà¤Ĭ à¤Ń
âĢįà¥ħ à¤Ĥ
Ġà¥¯ à¥§à¥«
Ġ12 999
Ġà¤Ŀà¤³ à¤ķà¤µ
à¤Łà¤¸ à¤¨à¤ļ
à¤ľà¤¤ à¤Ĺ
à¤īà¤¦ à¤Ĺ
Ġà¥§à¥¯ à¥¨à¥§
à¤¦à¤® à¤°à¤¤
à¤ıà¤ļ à¤¬
à¤ıà¤ļ à¤Ĩà¤°
Ġà¤į à¤¡à¤²
Ġ25 30
ar end
Ġc a
19 75
Ġà¤Ĩà¤ª à¤ķà¤¡
Ġs cor
Ġs amsung
er o
Ġà¥¨à¥« à¥¦à¥¦à¥¦
à¤¹à¤¸ à¤µà¤¡
Ġ37 4
Ġà¤§à¤µà¤¨ à¤¸à¤¹
Ġà¥©à¥¦ à¥®
Ġà¤Ĺà¤³ à¥Ł
Ġm t
Ġa st
à¤Ĩà¤°à¤¸ à¤¹
à¤²à¤¬ à¤¸à¤ļ
Ġb hat
Ġb reaking
à¤¯à¤« à¤²à¤®à¤§
Ġn o
Ġà¤ħà¤µà¤ķ à¤³
Ġà¤ıà¤ķà¤Ł à¤¯
it ive
Ġ35 1
Ġà¥¨à¥¬ à¥§
Ġ60 1
à¤¯à¤Ń à¤Ł
à¤«à¤³ à¤Ń
Ġà¥¨à¥® à¥§
à¥§à¥¦ à¥Ń
Ġà¥©à¥Ń à¥©
Ġà¤°à¤¨ à¤Ĩà¤Ĭà¤Ł
Ġl o
Ġl im
ay at
re l
Ġà¥ªà¥® à¥¦
12 00
Ġ2022 23
à¤ªà¤¥ à¤¦
à¤į à¤¥à¤²
Ġà¥©à¥¯ à¥©
Ġà¥©à¥¯ à¥Ń
Ġ38 7
Ġà¥ªà¥ª à¥¦
14 4
Ġà¤Ĺà¤¹ à¤ľà¤¬
Ġj i
Ġ47 0
à¤īà¤² à¤¹à¤ķ
Ġà¤Ĺà¤Ĺà¤¨ à¤¬
Ġà¤ķà¤°à¤® à¤°à¤ķà¤°
Ġà¥§à¥¯à¥® à¥®
Ġ39 5
Ġà¥«à¥ª à¥¦
Ġà¥«à¥ª à¥¨
Ġà¥ªà¥Ń à¥¦
Ġ600 00
ai f
Ġ67 2
Ġ198 5
13 3
Ġx r
Ġà¤¨à¤² à¤µà¤¡
Ġpro c
199 7
sh es
con cept
ot p
ram odi
Ġra in
ort s
pro ton
ug s
à¥§à¥¯à¥® à¥¯
war e
bs f
Ġcon dition
à¯ ģ
Ġà¥ŀ à¤ķ
gr as
Ġà¤Ĩà¤ĩ à¤¨à¤¸
à¤ħà¤Ŀ à¤²à¤¨
fat f
Ġq r
Ġcollect or
san jay
Ġlok mat
à¤ıà¤ļà¤ıà¤« à¤ıà¤²
Ġà¤«à¤°à¤¸ à¤¬
confound ing
bser v
à¤īà¤°à¤° à¤¹à¤®
Ġwed ding
arend ramodi
) '
7 50
7 67
c al
c ab
d ict
e aland
f il
g m
j an
n at
n pr
p at
s alman
u z
v in
v ey
v ivo
Ã ¨
Ï Ĥ
Ġ à¥į
Ġ à¥ĩ
Ġ ant
Ġ end
à¤° à¤°à¤²
à¤° à¤¡à¤®
à¤¤ à¤¶à¤°
à¤¤ à¤Ĩà¤ł
à¤¯ à¤¥à¤²
à¤² à¤¸à¤®à¤§
à¤² à¤¡à¤¨
à¤¿ /
à¤¨ à¤°à¤¤
à¤¹ à¤°à¤¶
à¤ķ à¤«à¤°
à¤ķ à¤°à¤ķà¤ª
à¤ļ à¤¤à¤°
à¤ļ à¤°à¤¦
à¤ļ à¤®à¤¹
à¤µ à¤¯à¤ļ
à¤µ à¤¤à¤°à¤£
à¤¸ à¤¬à¤³
à¤¸ à¤ıà¤ª
à¤® à¤¬à¤²
à¤® à¤¤à¤ªà¤¤
à¥ĭ à¥ĩà¤Ĥ
Ġà¤Ĩ à¤Łà¤¤
Ġà¤Ĩ à¤¡à¤ª
à¤ª à¤®à¤¨
à¤ª à¤³à¤¨
à¤¦ à¤¯à¤¤
à¤¦ à¤®à¤ļ
à¤¦ à¤ªà¤¦
à¤¦ à¤ľà¤µà¤³
à¤Ł à¤¯à¤ª
à¤Ĺ à¤¨à¤µ
à¤Ĺ à¤¨à¤¸
Ġà¤Ĩà¤¹ à¤¨
à¤ľ à¤¤à¤ļ
à¤ľ à¤Ĩà¤§
Ġà¤µ à¤łà¤²
à¤¶ à¤¯à¤ķà¤²
Ġà¤¤ à¤Ŀ
à¤¡ à¤°à¤¸à¤¹
Ġà¤¹ à¤µà¤²à¤¦
Ġà¤¦ à¤Ł
Ġà¤¦ à¤µà¤¡à¤¤
à¤³ à¤Ŀ
à¤· à¤°à¤ķ
à¤¬ à¤ĸ
à¤¬ à¤Ĩ
Ġà¤ľ à¤¯à¤¨à¤Ĺà¤°
Ġà¤° à¤£à¤¤
Ġà¤° à¤Ĺà¤¡
Ġà¤¬ à¤°à¤£
Ġà¤¶ à¤¤à¤ª
à¤¥ à¤³à¤¤
à¤ł à¤®à¤§
Ġà¤ļ à¤®à¤¨
Ġà¤ĺ à¤¬
Ġà¤ĺ à¤¨à¤¸
Ġà¤Ĩà¤² à¤®à¤Ĺ
Ġà¤ķà¤°à¤£ à¤¯
Ġà¤ı à¤ı
Ġà¤ı à¤²à¤¨
à¤Ī à¤§
à¤Ī à¤ľà¤ļ
à¤Ī à¤¡à¤¸
à¤ĺ à¤¡à¥Ł
à¤Ĩ à¤¶à¤¯
à¤Ĩ à¤¡à¤Ĺ
à¤Ĩ à¤¢à¤³
à¤ħ à¤µà¤¸
à¤ħ à¤¸à¤¨
à¤ħ à¤łà¤°
Ġà¤Ł à¤¶à¤¨
à¤« à¤®
à¤¤à¤² à¤¤
à¤¤à¤² à¤ļ
à¤¤à¤² à¤¹à¤°
Ġà¤§ à¤µ
à¤Ĭ à¤¸à¤¤
à¤Ŀ à¤¦
à¤Ŀ à¤Ł
à¤Ŀ à¤²à¤ļ
à¤ľà¤ª à¤µà¤°à¤ļ
à¥¦ à¥§
Ġà¤µà¤° à¤¨
à¤µà¤¤ à¤ķà¤°
à¤ľà¤¨ à¤®à¤¤
à¤¬à¤Ī à¤ħà¤Ń
Ġ( (
Ġ( +
à¤Ĺà¤£ à¤°
à¤¹à¤° à¤°
à¤¤à¤ķ à¤µ
Ġà¤ħà¤° à¤¨
à¤ĩ à¤ķà¤¸
à¤ĩ à¤¨à¤®
à¤¸à¤¨ à¤Ĺà¤°à¤ļ
à¤µà¤³ à¥Ł
à¤°à¤ľ à¤ķà¤°
à¤¸à¤¹ à¤¨à¤¶
Ġà¤īà¤¦ à¤Ńà¤µà¤¤
Ġà¤®à¤¤ à¤ķà¤°
à¤ĵ à¤ıà¤®
à¤µà¤¨ à¤ľ
à¤ī à¤¤à¤°
Ġà¤ĵ à¤¢à¤µà¤£
à¤®à¤² à¤ª
à¤ľà¤ķ à¤ª
Ġà¤ħà¤Łà¤ķ à¤¦
à¤°à¤ĸ à¤¨
à¤ħà¤¸ à¤ª
à¤°à¤¹ à¤ª
à¤łà¤ķ à¤ļ
Ġà¤Ľ à¤ķ
à¤ļà¤¨ à¤®
à¤¡à¤ķ à¤·
à¤¨à¤° à¤¯
Ġà¤Ĩà¤ł à¤ªà¤°
à¤µà¤°à¤£ à¤¨
à¤µà¤°à¤£ à¤¶
Ġà¥¨à¥¦ à¥¯
à¤¸à¤ķ à¤¨
à¤¸à¤ķ à¤£
à¤¸à¤ķ à¤Łà¤²
Ġ5 20
à¤¨à¤ķ à¤¦
à¤³à¤µ à¤¦à¤ķà¤°
à¤ıà¤® à¤¦
à¤¬à¤³ à¤®
à¤Ĺà¤¡ à¤¹
à¤°à¤¦à¤° à¤¹
Ġà¥« à¥§à¥ª
Ġà¤Ĩà¤Ī à¤Ł
Ġà¤ªà¤°à¤¤ à¤¹
Ġà¤ªà¤°à¤¤ à¤µà¤²
Ġà¤ıà¤ķà¤¦ à¤®à¤ļ
Ġà¤ıà¤¸ à¤ıà¤«à¤Ĩà¤¯
à¤Łà¤£ à¤®à¤ļ
Ġà¤ħà¤Ĺ à¤®
Ġà¤µà¤¸ à¤®à¤¤
Ġà¤ıà¤® à¤«
Ġ7 10
Ġ7 65
à¤¨à¤Ĺà¤° à¤ªà¤°
à¤ıà¤² à¤ıà¤¸
Ġà¥Ń à¥¦à¥¦à¥¦
à¤µà¤Ł à¤ªà¤£
Ġà¤§à¤¨ à¤ķà¤°
Ġà¤µà¤¨ à¤°à¤ķ
Ġ12 24
Ġà¤«à¤Łà¤ķ à¤³
Ġ9 50
à¤¶à¤® à¤¶
Ġ100 000
Ġ19 45
Ġà¤ıà¤« à¤ıà¤¸à¤ıà¤¸à¤ıà¤Ĩà¤¯
Ġc ard
Ġà¤ªà¤¦à¤ķ à¤¹
Ġà¤Ńà¤Ł à¤ķà¤°
à¤ľà¤¦ à¤®à¤§
Ġà¤¨à¤Ĺà¤° à¤¹à¤µ
Ġà¤¸à¤²à¤Ĺ à¤ªà¤£
à¤¤à¤°à¤£ à¤ķà¤¡
Ġà¥«à¥¦ à¥ª
Ġà¥«à¥¦ à¥§
ic ici
Ġà¥§à¥¬ à¥¨à¥§
Ġà¤¦à¤¬ à¤¡
à¥§à¥¯ à¥ªà¥Ń
à¤¬à¤¡ à¥Ł
Ġà¥ªà¥¦ à¥«
Ġà¥ªà¥¦ à¥§
ip s
Ġà¤Ĩà¤Ŀ à¤®à¤Ĺà¤¢
à¤®à¤°à¤£ à¤ªà¤¤
Ġb ig
Ġà¤Ŀà¤Łà¤ķ à¤¨
à¤Ĩà¤¯à¤Ĩà¤° à¤ıà¤«
Ġr t
Ġt witter
Ġà¥¨à¥¨ à¥¦à¥¦
à¤Ĩà¤Ī à¤ª
it i
Ġà¥¨à¥¬ à¥¨
Ġà¥¨à¥¬ à¥¬
Ġg re
à¤¸à¤ħ à¤ªà¤ļ
Ġ26 1
Ġà¥¨à¥Ń à¥ª
Ġà¥¨à¥Ń à¥¬
Ġà¥©à¥« à¥®
Ġà¤ļà¤¹ à¤°à¤ļ
Ġd ub
Ġà¥©à¥Ń à¥®
à¤¬à¤Ł à¤ªà¤£
is a
Ġh al
Ġh or
à¤ªà¤¬ à¤ļà¤¤
un t
Ġà¤²à¤ĸà¤¨ à¤Ĭà¤²
10 3
Ġà¤¹à¤²à¤ķ à¤²
Ġà¥©à¥¬ à¥¦à¥¦
Ġà¥¨à¥¦à¥§à¥Ń à¥¨à¥¦à¥§à¥®
ul es
ay odhya
à¥§à¥¨ à¥®
Ġ34 9
12 4
iv al
iv es
Ġà¥©à¥¯ à¥ª
Ġ64 9
Ġ49 0
Ġà¥ªà¥¬ à¥§
Ġ43 1
Ġ63 6
à¤ıà¤¸à¤ıà¤« à¤ķà¤¡
Ġà¥«à¥® à¥¯
Ġx xx
à® ²
Ġà¤ªà¤ª à¤Īà¤ļ
if t
Ġ69 2
vi kas
Ġde v
à¤ķà¤¢ à¤Īà¤®à¤§
Ð° Ð½
Ġà¥¯à¥ª à¥«
sh ah
Ġac coun
Ġand roid
og a
198 2
198 8
à¥§à¥¯à¥® à¥Ń
war d
à² ¾
Ġz ealand
à¤°à¤ľà¤µà¤³ à¤ļ
à¤īà¤ķ à¤³à¤£
à¤°à¤£à¤¯ à¤°à¤®
Ð¾Ð ²
à¤²à¤¢à¤ķà¤² à¤ªà¤£
ash mir
Ġà¤¦à¤³ à¤Ńà¤¦
à¤ıà¤ıà¤® à¤¯
à¤Īà¤¨à¤Ĺà¤° à¤®à¤§
aut om
Ġad v
Ġson g
à¤Ĺà¤®à¤° à¤µà¤°
à¤¸à¤µà¤ķ à¤·
Ġelectro de
Ġà¤Ńà¤°à¤ķà¤Ł à¤µà¤£
hol i
radi ation
Ġrank ing
Ġver dict
times group
control s
hom ogen
Ġpart y
Ġama zon
+ )
0 1
0 6
5 50
a ug
b ab
b harat
c w
f er
f ir
j u
k l
k et
l ove
m in
m al
m il
n an
n ect
n ath
r p
r ed
s ur
t ical
u um
Ã ¡
Ð ²
Ð ³
Ð ´
à «
Ġ ent
Ġ error
à¥ Ŀ
à¤° à¤°à¤ļ
à¤° à¤ıà¤ķ
à¤° à¤Ĺà¤¨
à¤° à¤Ĳà¤µà¤ľ
à¥ĩ âĢį
à¤¤ à¤Ĺà¤°
à¤¤ à¤ıà¤ķ
à¤¤ à¤°à¤¤à¤°
à¤¯ à¤¡à¤²
à¤¯ à¤°à¤¹
à¤² à¤¢à¤£
à¤² à¤°à¤¸à¤®
à¤¨ à¤·
à¤¨ à¤°à¤ª
à¤¨ à¤Łà¤°
à¤¹ à¤¸à¤³
à¤ķ à¤°à¤ķ
à¤ķ à¤µà¤¡
à¤ķ à¤ľà¤ļ
à¤ļ à¤±
à¤¸ à¤¬à¤²
à¤¸ à¤ıà¤ķ
à¤¸ à¤Łà¤£
à¤£ à¤¹à¤¤
à¤£ à¤ĸà¤¤
à¤® à¤¡à¤²
à¤® à¤¹à¤®
à¤® à¤¸à¤¨à¤¨
Ġà¤Ĩ à¤Ĺà¤²
Ġà¤Ĩ à¤µà¤¤
Ġà¤Ĩ à¤ķà¤²
Ġà¤Ĩ à¤¸à¤ķ
Ġà¤ķ à¤¡à¤²
à¤ª à¤Ĺà¤¢
à¤ª à¤Ľà¤¡
Ġà¤® à¤¤à¤¸
à¤Ĺ à¤¸à¤¨
à¤Ĺ à¤¹à¤®
à¤Ĺ à¤łà¥Ł
Ġà¤ħ à¤ļà¤²à¤ª
Ġà¤¨ à¤³à¤ľ
à¤ľ à¤µà¤°à¤ļ
à¤ľ à¤¦à¤ķ
Ġà¤µ à¤¯à¤ķ
Ġà¤µ à¤Ĺà¤°
à¤¶ à¤§
à¤¶ à¤®à¤ļ
à¤¶ à¤µà¤ļ
à¤¶ à¤ħà¤ª
à¤¶ à¤Ĺà¤®à¤¨
à¤¡ à¤ħ
à¤¡ à¤£à¤¤
à¤¡ à¤ķà¤²
Ġà¤¹ à¤¡
Ġà¤¹ à¤®à¤¦
Ġà¤¹ à¤°à¤®à¤¨
Ġà¤¦ à¤°à¤¸
Ġà¤¦ à¤¦à¤²
Ġà¤¦ à¤°à¤¨
Ġà¤¯ à¤®à¤ķ
Ġà¤° à¤ĸà¤µ
Ġà¤ķà¤° à¤ľ
Ġà¤ķà¤° à¤µà¤¸
Ġà¤ķà¤° à¤¨à¤ľ
à¤ĸ à¤ªà¤Ł
Ġà¤¬ à¤¸à¤®
Ġà¤¶ à¤®à¤¨
Ġà¤¶ à¤Łà¤²à¤°
à¤ł à¤°à¤µà¤²
à¤µà¤° à¤¬
Ġà¤Ĺ à¤ľà¤¨
Ġà¤Ń à¤µà¤°
Ġà¤ļ à¤ªà¤Ł
Ġà¤² à¤¸à¤ļ
Ġà¤² à¤µà¤¯
Ġà¤ĺ à¤£à¤¸
à¤°à¤ķ à¤¶
Ġà¤ĸ à¤£à¤£
à¤Ī à¤®à¤¤
à¤ĺ à¤¨à¤ķà¤ļà¤°
Ġà¤« à¤ĸ
Ġà¤« à¤¡à¤«
à¤ħ à¤ľà¤¨
à¤ħ à¤ķà¤²
à¤°à¤® à¤Ŀ
Ġà¤ıà¤ķ à¤¶
à¤« à¤²à¤ķ
à¤ķà¤° à¤ľ
Ġà¤ĩ à¤°à¤¶
à¤¹à¤£ à¤¶
à¤¹à¤£ à¤µà¤¤
Ġà¤¸à¤° à¤Ĺ
à¤¯à¤® à¤¯à¤°
à¤¯à¤® à¤Ĩà¤¯à¤¨
à¤ı à¤Łà¤ļ
à¤ı à¤ħà¤°à¤ª
à¤°à¤¸ à¤µ
Ġà¤īà¤ª à¤¤
Ġà¤īà¤ª à¤¨à¤Ĺà¤°à¤ļ
à¤Łà¤¨ à¤¬à¤°
à¤ľà¤ª à¤¬à¤¦
à¤¹à¤¤ à¤ªà¤£
Ġà¤¶à¤ķ à¤¶
à¤Ĺà¤¤ à¤¯
Ġà¤ħà¤¶ à¤°
à¤¬à¤Ī à¤ªà¤°
Ġà¤¸à¤¹ à¤°à¤¸
à¤¶à¤¨ à¤ĸ
à¤¶à¤¨ à¤¬à¤¦
Ġà¤Ĩà¤¯ à¤ıà¤®à¤ı
à¤¹à¤° à¤Ńà¤°
à¤ĩ à¤¡à¤¨
à¤ķà¤² à¤ª
à¤ķà¤² à¤µà¤°
à¤®à¤ļ à¤²
à¤ľà¤¯ à¤ªà¤°
à¤°à¤ľ à¤µ
à¤°à¤ľ à¤¬
Ġà¤īà¤¦ à¤¯à¤¨
à¤¨à¤µ à¤ļ
à¤°à¤¨ à¤°
à¤°à¤¨ à¤¨
à¤µà¤¨ à¤ĸ
Ġà¤¥ à¤¤
Ġà¤ĵ à¤¤à¤ª
Ġà¤ĵ à¤µà¤³
à¤®à¤² à¤¸
à¤Ĭà¤¨ à¤ª
Ġà¤ľà¤£ à¤¹
à¤¦à¤¨ à¤Ŀ
à¤§à¤¨ à¤ķà¤°
Ġà¤ĺà¤° à¤¬
Ġà¤ķà¤² à¤¸
Ġà¤ķà¤¸ à¤£
à¤¡à¤ļ à¤¡
à¤µà¤ļ à¤³à¤²
à¤Ĩà¤° à¤Ĩà¤¯à¤ļ
à¤Ĩà¤° à¤«à¤ļ
Ġà¤ľà¤Ĺ à¤µà¤£
à¤Ĩà¤£ à¤²
Ġà¤¦à¤² à¤Ń
à¤ħà¤¨ à¤¸
à¤¤à¤¨ à¤µà¤°
Ġà¤¸à¤ķ à¤Ł
à¤¨à¤¸ à¤ª
à¤ľà¤Ĺ à¤¢
Ġà¤ĳà¤« à¤¶
Ġ201 213
à¤ıà¤® à¤®
à¤ľà¤® à¤£
Ġà¤Ĳ à¤ľ
à¤°à¤¦à¤° à¤¬
à¤¯à¤° à¤¡
à¤§à¤ķ à¤¬
Ġà¥ª à¥§à¥¬
Ġà¥ª à¥§à¥ª
à¤ĺà¤° à¤¬à¤¸à¤²
Ġà¤Ī à¤Ĺ
Ġà¤Ī à¤ªà¤°
Ġà¤Ī à¤¤à¤ķ
à¤Łà¤£ à¤®à¤§
Ġà¤µà¤¸ à¤Īà¤ļ
Ġà¤¹à¤¸ à¤µà¤²
à¤ıà¤« à¤ıà¤¸à¤ıà¤¸à¤ıà¤Ĩà¤¯
Ġà¥¬ à¥¨à¥¨
Ġà¤ıà¤® à¤ĵ
Ġà¤ĩà¤¤à¤ķ à¤ļ
Ġà¤ľà¤¯ à¤Ĺà¤¡
Ġ10 80
à¤¡à¤ķà¤° à¤ļ
à¤¨à¤Ĺà¤° à¤¹
à¤¡à¤° à¤¬
Ġà¤¬à¤¸ à¤ĸ
Ġà¤¬à¤¸ à¤¥
Ġà¤¬à¤¸ à¤¸à¤¹
à¤ıà¤² à¤µà¤°
à¤ıà¤² à¤ıà¤²
à¤ıà¤² à¤ıà¤«à¤ļ
Ġà¥Ń à¥§à¥¯
Ġà¥Ń à¥¯à¥¯
à¤ħà¤ª à¤¡
Ġà¥¨à¥¦à¥§à¥ §à¥§à¥¨
Ġ8 35
Ġà¥® à¥§à¥©
Ġà¤ĺà¤¡ à¤²à¤¯
Ġà¤§à¤¨ à¤¦
in te
âĢĮ âĢĮ
Ġ9 000
Ġà¤¶à¤¤à¤ķ à¤ª
Ġà¤¶à¤¤à¤ķ à¤®à¤¹
Ġ11 999
à¤¯à¤¡ à¤°à¤²
Ġ50 4
Ġ14 000
à¤¯à¤°à¤¸ à¤¹
Ġc c
Ġc he
Ġc op
Ġc ases
à¤ªà¤µ à¤Īà¤¤
Ġs um
Ġà¥¨à¥« à¥¯
Ġ16 999
Ġà¤Ĺà¤¡ à¤¬à¤¡à¤²
ic a
à¤ĩà¤Ł à¤µ
Ġ17 21
Ġà¤ıà¤ļ à¤ıà¤ıà¤²
Ġà¤ıà¤ļ à¤ıà¤ıà¤²à¤ļ
Ġm ed
à¤ĸà¤¡ à¤¤à¤°
à¤²à¤¬ à¤§
à¤²à¤¬ à¤ķà¤¡
à¤³à¤ķà¤° à¤¨
Ġb mw
Ġb achchan
Ġà¤Īà¤¡ à¤¬
st ri
à¤¯à¤ķà¤² à¤ªà¤Ł
Ġà¥¨à¥© à¥§
à¤µà¤Ĺà¤£ à¤¸à¤¹
Ġ35 7
Ġ35 000
ro w
Ġ23 2
Ġà¤ħà¤°à¤¬ à¤®à¤§
Ġà¤¹à¤¸à¤¨ à¤²
Ġ27 4
Ġ27 8
is i
18 57
bi le
à¤ıà¤ı à¤µà¤°
Ġk aran
Ġà¥©à¥¬ à¥§
Ġà¤ĵà¤¢ à¤µà¤¤
à¤®à¤³ à¤ªà¤£
Ġ45 4
Ġ45 7
Ġ2014 2015
ad av
Ġ34 5
à¤Ĩà¤ł à¤ļ
Ġà¤°à¤ĸ à¤°à¤ĸ
à¤ĭ à¤£
à¤ıà¤¨à¤ıà¤¸ à¤ı
im ble
and er
à¥ĩà¥ĩ à¥ĩ
Ġ55 5
ac uum
Ġj ul
ps c
ent al
Ġà¥«à¥ª à¥®
Ġà¤ªà¤¦à¤Ń à¤°à¤¤
Ġà¤¹à¤°à¤Ń à¤±
Ġpo k
Ġà¤ĸà¤¬à¤° à¤¬
he a
à¤Ńà¤Ĺà¤µ à¤¦
à® ©
à¥§à¥¯à¥¯ à¥«
199 4
à¤ľà¤³ à¤ªà¤£
Ġà¥§à¥¯à¥¬ à¥§
Ġà¤± à¤¹
Ġà¤Īà¤¦ à¤īà¤²à¤«
Ġà¥§à¥¯à¥« à¥¨
38 5
Ġ197 3
Ġra ilway
198 9
ack aging
ff ect
Ġà¥§à¥§à¥« à¥¦
0000 0000
Ġfor m
ok ia
Ġà¤ıà¤Ĩà¤¯ à¤Ĩà¤¯à¤¬
Ġà¤ıà¤®à¤ıà¤ļ à¤Ł
à¤¤à¤īà¤¦ à¤¦à¤µ
à¤¨à¤µà¤² à¤ĸ
ight s
Ġà¤ıà¤¸à¤ıà¤®à¤ı à¤¸à¤¹
emb er
raj asthan
Ġbi har
ba ahubali
Ġà¤Ĩà¤°à¤ıà¤¸à¤ı à¤¸à¤¨
pub lic
Ġag ain
Ġà¤²à¤µà¤ķ à¤°à¤¤
poly mer
Ġcent re
à¤§à¤°à¤µ à¤¡à¥Ł
Ġpad ukone
htt p
Ġsec ur
epidemi ological
imble don
) /
] ]
b all
c le
c ra
c ell
d es
d esh
h al
j am
j io
l ac
m u
n el
n ag
n cr
p asteurization
r à¤¯
s r
s and
w as
Ã ¶
Î »
Ġ à¥Ģ
Ġ ir
Ġ Ùħ
Ŀ ¤
Ġà¤ Ĥ
à¥į '
à¤° à¤¯à¤¦
à¤° à¤Ľ
à¤° à¤¬à¤¸
à¤¤ à¤Ĩà¤¹
à¤¯ à¤°à¤µ
à¤¯ à¤§à¤¨
à¤¯ à¤Ĺà¤Ł
à¤¯ à¤¸à¤®à¤°
à¤² à¤¬à¤²
à¤¨ à¤°à¤¦
à¤¨ à¤°à¤¶
à¤¨ à¤ĳà¤¸
à¤¹ à¤ªà¤¦
à¤¹ à¤ķà¤¸
à¤¹ à¤ħà¤ĸ
à¤ķ à¤Łà¤£
à¤ķ à¤ĳà¤«
à¤ļ à¤°à¤¤
à¤µ à¤Ĺà¤³
à¤µ à¤¹à¤°
à¤¸ à¤·
à¤£ à¤ķà¤¨
à¤£ à¤®à¤¯
à¤® à¤¡à¤³
à¤® à¤¸à¤°à¤ķ
Ġà¤Ĩ à¤¯à¤®
Ġà¤¸ à¤µà¤²
Ġà¤¸ à¤Īà¤¨
à¤¦ à¤®à¤¨
à¤¦ à¤®à¤£
Ġà¤ª à¤Ĺà¤²
Ġà¤® à¤¸à¤°
Ġà¤® à¤³à¤®à¤³à¤£
à¤Ł à¤¸à¤ķ
à¤Ł à¤Ĺà¤¨
à¤Ł à¤µà¤Ł
à¤Ł à¤¸à¤µà¤°
à¥Ĥ à¤¼
à¤Ĺ à¤®à¤²
à¤§ à¤ªà¤Ł
à¤ľ à¤°à¤µ
à¤ľ à¤īà¤¦
à¤¶ à¤£
à¤¶ à¤ľà¤¨à¤ķ
Ġà¤¤ à¤¬à¤¸
à¤¡ à¤ĩà¤¨
Ġà¤ľ à¤³à¤ķ
Ġà¤° à¤¨à¤ķ
à¤ĸ à¤¨à¤¸
Ġà¤¬ à¤°à¤ķ
Ġà¤¶ à¤®à¤¤
à¤Ń à¤µà¤¸
Ġà¤Ĺ à¤¤à¤ķ
Ġà¤Ń à¤¯à¤®
Ġà¤Ń à¤µà¤¤
Ġà¤² à¤Ł
Ġà¤² à¤µà¤£
Ġà¤Ŀ à¤ľ
Ġà¤ī à¤°à¤ķà¤£
à¤°à¤ķ à¤¤à¤°
Ġà¤ı à¤µà¤²
à¤Ī à¤Īà¤ļ
à¤¯à¤ķ à¤¨
à¤¯à¤ķ à¤²à¤¹
à¤ĺ à¤°à¤®
à¤ħ à¤®à¤¨
à¤ħ à¤°à¤ķà¤¡
à¤« à¤µà¤²
Ġà¤ĩ à¤¤à¤ªà¤¤
à¤ķà¤¡ à¤®à¤§
à¤ªà¤² à¤Ł
à¤¯à¤® à¤µ
à¤¯à¤® à¤¸à¤¨à¤²
à¤ı à¤Łà¤²
à¤ı à¤¯à¤°
à¤ı à¤ĩà¤¨
à¤Ŀ à¤°à¤¹
Ġà¤Ĩà¤° à¤ĵ
Ġà¤Ĩà¤° à¤ıà¤¨à¤ı
à¤ĸà¤² à¤®à¤¯
à¤°à¤ªà¤Ł à¤¤
à¤Łà¤ķ à¤µà¤°
à¥¦ à¥¨
à¤¡à¤² à¤®à¤§
à¤°à¤¶ à¤¨
à¤Ĺà¤¤ à¤ªà¤°
à¤¯à¤¤ à¤µ
à¤ľà¤¨ à¤¦
à¤¨à¤ļ à¤ķ
à¤¬à¤Ī à¤ľà¤µà¤³
Ġà¤Ĩà¤¯ à¤ıà¤¸à¤ı
Ġà¤Ĩà¤¯ à¤Ĩà¤¯à¤Ĩà¤¯à¤Ł
à¤Īà¤² à¤¦
à¤ĩ à¤·
à¤ĩ à¤¸à¤°
à¤ĩ à¤®à¤¨
à¤ľà¤¯ à¤¦à¤¤
à¤¸à¤¨ à¤®
Ġà¤ĳ à¤ĩà¤²à¤ļ
Ġà¤Ĩà¤µ à¤³à¤¤
à¤¸à¤¹ à¤ķà¤²
à¤Ĩà¤¯ à¤Ĩà¤¯à¤ıà¤®
à¤Ĩà¤¯ à¤ĵà¤ıà¤¸
à¤ī à¤ķà¤¡
Ġà¤ĵ à¤°à¤²
Ġà¤ĵ à¤£à¤®
à¤Ĭà¤¨ à¤¦à¤°à¤®
à¤¦à¤µ à¤ķà¤¡
à¤¯à¤¨ à¤µà¤°
à¤¯à¤¨ à¤®à¤¸
Ġà¤®à¤¨ à¤®à¤°
Ġà¤Ĩà¤¦ à¤®à¤ª
à¤¹à¤® à¤¸
à¤ŀ à¤ļ
à¤¦à¤°à¤® à¤¹
à¤²à¤Ĺ à¤¦
Ġà¤Ĩà¤ľ à¤¦
à¤°à¤ĸ à¤ļ
à¤§à¤µ à¤¹
à¤°à¤¹ à¤°à¤£
à¤²à¤ļ à¤®
à¤ıà¤¸ à¤Ĩà¤°à¤Ł
Ġà¤Ľ à¤³à¤£
à¤Ĩà¤° à¤ıà¤®
à¤µà¤ķ à¤ªà¤®à¤§
Ġà¤ħà¤² à¤®à¤Ł
à¤ħà¤¨ à¤ĺ
à¤¬à¤² à¤µ
à¤ªà¤Ł à¤ª
à¤ľà¤² à¤ľ
à¤¤à¤³ à¤µ
à¤¨à¤ķ à¤ª
Ġà¤ħà¤ķ à¤®à¤²à¤¨
Ġ4 18
à¤ıà¤® à¤ıà¤®à¤Ĩà¤°à¤¸
Ġà¥« à¥§à¥«
Ġà¥ª à¥§à¥¯
à¥§ à¥¦à¥¦à¥¦
à¤¯à¤¸ à¤µà¤°
à¥¯ à¥¦à¥¦
Ġà¤īà¤² à¤Łà¤£
Ġà¤Ĩà¤µà¤¡ à¤¤à¤¹
Ġà¤ħà¤ĸ à¤¨
à¤Ĭà¤¸ à¤ª
Ġà¤ıà¤¸ à¤ĵà¤ª
Ġà¤¬à¤² à¤ľ
à¤ıà¤« à¤Ĩà¤¯à¤ª
Ġ6 15
Ġà¤Ķ à¤µ
Ġà¥¬ à¥§à¥©
à¤¨à¤Ĺà¤° à¤®à¤§à¤²
Ġà¤¬à¤¸ à¤ªà¤¨
Ġà¤Ĭ à¤¦
Ġà¤Ĭ à¤ł
Ġ8 70
Ġà¥® à¥¨à¥¦
Ġà¥® à¥§à¥¯
Ġà¥® à¥¨à¥©
Ġà¥® à¥Ńà¥¦
Ġà¥® à¥ªà¥¦
à¤ķà¤³ à¤µà¤£
Ġà¤§à¤¨ à¤ĸà¤¡
à¤Łà¤® à¤³à¤¤
Ġà¤µà¤¨ à¤ªà¤°
Ġà¤µà¤¨ à¤ľà¤®
à¤ľà¤¤ à¤®à¤§
à¤µà¤ļà¤·à¤ķ à¤®à¤§
Ġà¥§à¥« à¥¦à¥¦à¥¦
à¤¸à¤¬ à¤¬
Ġà¤į à¤ªà¤®à¤§
à¤°à¤¥ à¤²
on es
an e
Ġ25 2
Ġ25 8
Ġà¤ķà¤³à¤¤ à¤¹
Ġc ab
à¤°à¤¡ à¤®à¤²
19 62
à¤Ĳ à¤ļ
Ġà¤Ĳà¤ķ à¤µà¤¤
à¤¨à¤Ī à¤¤à¤²
à¤¬à¤¨ à¤µà¤£
Ġs ol
Ġs up
Ġs ep
Ġ40 50
Ġp f
ic h
à¥§à¥¯ à¥Ńà¥«
Ġ21 13
Ġà¤ıà¤ļ à¤¬
or d
Ġm bps
Ġà¥ªà¥¦ à¥ª
Ġà¥ªà¥¦ à¥®
Ġà¤¨à¤Ĭ à¤µ
Ġà¤Ĩà¤Ŀ à¤®à¤ļ
Ġv ar
Ġt em
Ġà¥¨à¥¨ à¥¯
st ructure
Ġn u
di ty
22 2
Ġ24 7
Ġ24 00
Ġf am
Ġf act
Ġ35 9
Ġ28 1
Ġà¥² à¤¥
Ġ70 1
Ġ23 4
Ġw ind
Ġ32 1
Ġà¤µà¤ļà¤¨ à¤ª
Ġ31 2
Ġ31 3
Ġ0 11
Ġh ind
à¤¼ à¤¿
à¤¼ à¥Ĥ
à¤¯à¤Ŀ à¤°à¤¨
Ġà¥©à¥¬ à¥¯
Ġl ac
Ġo ct
Ġ34 6
Ġà¥ªà¥® à¥¨
os hi
12 3
Ġà¥¦ à¥¯
à¥§à¥Ń à¥«
à¤¶à¤ıà¤® à¤¹à¤®
Ġà¥©à¥ª à¥¯
Ġà¥©à¥© à¥Ń
Ġà¥©à¥¯ à¥§
ur der
à¤Łà¤°à¤¸ à¤¨à¤¨
à¥§à¥© à¥«
Ġà¤¦à¤³à¤£ à¤µà¤³
Ġà¥ªà¥© à¥¨
Ġà¥ªà¥© à¥®
Ġ49 4
Ġ55 00
à¥§à¥§à¥ ©
à¥§à¥§à¥ ¯
à¤Ĺà¤Ń à¤¦
Ġà¥«à¥« à¥¦à¥¦
Ġj onas
24 3
Ġ47 5
Ġ63 3
Ġ39 4
Ġà¥ªà¥Ń à¥§
Ġre g
Ġà¤¡à¤¬à¤² à¤¡
Ġà¤Ĩà¤¯à¤ı à¤ıà¤¨à¤ıà¤¸
Ġà¥¬à¥¬ à¥§
Ġà¥¬à¥¯ à¥«
Ġx l
à® ª
Ġà¤Ĩà¤¯à¤ıà¤¸ à¤ıà¤ļ
Ġà¤¨à¤°à¤µà¤£ à¤ķà¤°
Ġà¥®à¥¬ à¥«
lo ad
Ġ68 6
Ġ77 4
Ġde al
Ġde vice
Ð° ÑĢ
electro magnet
Ġà¥§à¥¯à¥¬ à¥Ń
ik e
Ġ195 2
à¥² à¤®
eng al
qu are
Ġy adav
Ġà¥Ńà¥¦à¥¦ à¥¦à¥¦
Ġ196 8
Ġà¤ħà¤Ŀà¤¹à¤° à¤µà¤°
Ġup i
Ġth ackeray
Ġcr ystal
Ġà¤Ĩà¤¦à¤³ à¤Ĩà¤ªà¤Ł
Ġ2011 12
à¤ıà¤ıà¤¨ à¤Ĩà¤¯à¤ļ
Ġop po
Ġic u
Ġfin ance
Ġex am
à¤ªà¤ļà¤¨ à¤¶à¤ķ
gov ern
uk h
ran ji
Ġvi jay
Ġar rest
Ġim x
Ġab vp
Ġtri al
ifi er
Ġrr r
tra i
Ġpra desh
Ġpho tos
jo e
sl v
à§ į
pub med
à± į
Ġpri ze
deep ika
enzy me
ynam ic
vit amin
Ġà¤ľà¤¬à¤¦ à¤¸
Ġexchang e
Ġscor e
Ġlim ited
Ġdub ey
electromagnet ic
b p
b on
b ul
b ack
d y
d ens
e le
g an
j it
l es
m as
m un
n y
n er
n us
n ps
n ot
p art
p lot
r ish
s up
s ara
s achin
t ran
t ui
v s
w d
y al
Ð ·
Ð ¹
Ø ·
à º
á ĥ
â ĪĴ
Ġ Â»
Ġ à´
Ġ Ðº
Ħ ĸ
Ġà¤ ½
à¤¾ âĢĭ
à¥Ģ ]
à¥Ģ à¥Ģ
à¤¤ à¤ľà¤¨
à¤¤ à¤Ĩà¤§
à¤¯ à¤°à¤®à¤¨
à¤² à¤µà¤ļ
à¤² à¤µà¤°à¤¹
à¤¿ )
à¤¨ à¤ħà¤ĸ
à¤¹ à¤µà¤£
à¤¹ à¤ķà¤²à¤¹
à¤ķ à¤®à¤¤à¤°à¤¤
à¤ķ à¤ĵà¤µ
à¤ļ à¤¨à¤µ
à¤ļ à¤®à¤§à¤²
à¤ļ à¤®à¤ķà¤¦
à¤µ à¤Īà¤¶
à¤¸ à¤ĩ
à¤¸ à¤ķà¤¤
à¤£ à¤®à¤ļ
à¤£ à¤ħà¤®
à¤£ à¤¨à¤Ĺà¤°
à¤® à¤Ī
à¤® à¤¯à¤ļ
à¤® à¤ľà¤ķ
à¤® à¤Łà¥Ł
à¥ĭ âĢĮ
Ġà¤Ĩ à¤ªà¤ķ
Ġà¤ķ à¤£à¤µ
à¤ª à¤Łà¤°
à¥ģ à¤¾
à¤¦ à¤®à¤²
à¤¦ à¤¹à¤¨
Ġà¤ª à¤µà¤³
Ġà¤ª à¤¢à¤£
Ġà¤ª à¤¬à¤®à¤§
Ġà¤® à¤³à¤²
à¤Ĺ à¤ªà¤£
à¤§ à¤¸à¤°
Ġà¤¨ à¤®à¤ķ
Ġà¤¨ à¤¹à¤¯
à¤ľ à¤²à¤¯
à¤ľ à¤¤à¤¦
Ġà¤µ à¤ļ
Ġà¤µ à¤ª
Ġà¤µ à¤°à¤µ
à¤¶ à¤°à¤¨
Ġà¤¤ à¤³à¤¤
à¤¡ à¤Ŀ
à¤¡ à¤¨à¤µ
à¤¡ à¤¤à¤ļ
Ġà¤¹ à¤Ĺ
Ġà¤ľ à¤¨à¤ļ
Ġà¤ľ à¤¯à¤ķà¤°
Ġà¤° à¤Īà¤¸à¤ļ
Ġà¤¬ à¤Ĺà¤°
Ġà¤¬ à¤¦à¤®
à¤µà¤° à¤®à¤ļ
à¤Ń à¤¯à¤¤
à¤Ń à¤Ĺà¤³
à¤Ń à¤°à¤¤à¤ª
Ġà¤Ĺ à¤µà¤°
Ġà¤Ĺ à¤¡à¤ķ
Ġà¤Ń à¤Łà¤ķà¤²
Ġà¤ħà¤¸ à¤µà¤²
Ġà¤ļ à¤ķà¤°
Ġà¤² à¤ļà¤ķ
Ġà¤ĺ à¤±
Ġà¤ĺ à¤°à¤ªà¤Ł
Ġà¤Ŀ à¤£
Ġà¤Ŀ à¤Łà¤²
Ġà¤ī à¤¯
Ġà¤ī à¤Īà¤ķ
Ġà¤ķà¤°à¤£ à¤²
à¤Ī à¤ĸ
à¤Ī à¤¬à¤°
à¤Ī à¤ıà¤ļ
à¤¯à¤ķ à¤²à¤µ
à¤Ĩ à¤¥
à¤Ĩ à¤Ĺà¤³
à¤Ĩ à¤µà¤°à¤£
Ġà¤« à¤¡à¤¤
à¤¢ à¤Ĺà¤«
à¤ħ à¤°à¤¦
à¤ħ à¤²à¤ļ
à¤ħ à¤²à¤µ
Ġà¤Ł à¤£à¤ķ
à¤« à¤¯
à¤« à¤¡à¤¤
à¤°à¤µ à¤ª
à¤ķà¤° à¤¡
Ġà¤ĩ à¤®à¤²
à¤¹à¤£ à¤µà¤²
Ġà¤¸à¤° à¤¯
Ġà¤¸à¤° à¤µà¤°
à¤ªà¤² à¤²
Ġà¤§ à¤ª
à¤ı à¤¯
à¤ı à¤¨à¤µ
à¤ı à¤Īà¤¨
à¤Ĭ à¤µ
Ġà¤ħà¤¨ à¤µà¤°
Ġà¤īà¤ª à¤ķà¤²à¤®
à¤Łà¤¨ à¤µ
à¤Ŀ à¤¤
à¤Ŀ à¤²à¤ķ
à¤Ŀ à¤¨à¤ª
Ġà¤ķà¤°à¤¤ à¤¹
Ġà¤¡ à¤°à¤ª
à¤ľà¤ª à¤®à¤¨à¤¸
à¤µà¤¡ à¤ª
à¤¦à¤° à¤Ĺà¤¡
à¤°à¤ļ à¤¢
Ġà¤Ĩà¤° à¤ı
Ġà¤Ĩà¤° à¤ıà¤¸à¤ª
à¤·à¤£ à¤¯
à¤Łà¤ķ à¤ķà¤¡
à¥¦ à¥Ń
à¤°à¤ķà¤°à¤£ à¤ļ
à¤µà¤¤ à¤¬à¤¦
à¤°à¤¶ à¤°
Ġ( #
à¤¶à¤¨ à¤µà¤°à¤ļ
à¤Īà¤² à¤¶
Ġà¤Ĩà¤¤ à¤ªà¤°
à¤ĩ à¤«à¤ļ
à¤¸à¤¨ à¤¶
à¤ľà¤° à¤µà¤°
à¤°à¤ľ à¤®
à¤·à¤ķ à¤¤
à¤¸à¤¹ à¤¯
Ġà¤¨à¤° à¤¬à¤³
à¤ĵ à¤ł
à¤ĵ à¤¨à¤¨
à¤Ľ à¤Ł
à¤ī à¤¯
à¤ī à¤ªà¤¦
à¤®à¤² à¤ĺ
Ġà¤ħà¤ľ à¤¬à¤ļ
Ġà¤ľà¤¨ à¤ª
Ġà¤ľà¤¨ à¤Ĩà¤°
Ġà¤ľà¤¨ à¤¶à¤¤
Ġà¤ľà¤¨ à¤¸à¤¹à¤Ń
Ġà¤ĺà¤° à¤ĸà¤°
à¤Ńà¤° à¤°à¤¸
Ġà¤īà¤® à¤ľà¤¤
Ġà¤¦à¤¹ à¤²
à¤°à¤¹ à¤¹
Ġà¤Ĩà¤Ĺ à¤¹
à¤¸à¤® à¤¸à¤²
Ġà¤ľà¤Ĺ à¤¦à¤²à¤ª
à¤¹à¤² à¤¡
à¤¡à¤³ à¤¨
à¤ªà¤ķ à¤Ł
à¤Ĩà¤£ à¤£
à¤µà¤ķ à¤·
à¤¯à¤ª à¤µ
Ġ5 15
à¤¤à¤¨ à¤¸
à¤¨à¤ķ à¤¤à¤°
à¤ľà¤¸ à¤®à¤§
Ġà¤Ĳ à¤·
Ġà¥« à¥§à¥¦
à¤ıà¤¨ à¤ıà¤¬
Ġà¤ıà¤¸ à¤Īà¤¬
Ġà¤ıà¤¸ à¤ıà¤ļà¤ĵ
Ġà¤ıà¤¨ à¤Ĩà¤°
à¤ĳ à¤¨à¤ļ
à¤ķà¤Ł à¤°à¤®à¤£
Ġà¤ıà¤® à¤Ĩà¤°à¤ı
à¤®à¤¸ à¤¦à¤¨
Ġà¤ħà¤¬ à¤¬
à¤ıà¤² à¤¦à¤°à¤®
Ġà¥Ń à¥¨à¥¬
Ġà¤«à¤° à¤Ŀ
à¤¨à¤® à¤¶
Ġ8 99
Ġ8 29
à¤¸à¤³ à¤¯
Ġà¥® à¥©à¥«
à¤ĸà¤£ à¤£
Ġà¤§à¤¨ à¤ľ
in et
Ġà¥¯ à¥§à¥¯
Ġà¤ªà¤³ à¤¶
Ġ11 45
Ġà¤į à¤Łà¤²
on eplus
à¤¦à¤³ à¤¹
Ġà¤ıà¤« à¤ıà¤¸à¤ıà¤¸
ar at
ar ed
Ġc v
Ġc y
Ġc hi
19 68
à¤Ĳ à¤°
à¤¨à¤Ī à¤¹
à¤¬à¤¨ à¤¡
er jee
à¤¯à¤£ à¤®
à¤°à¤®à¤£ à¤¦
à¥§à¥¯ à¥¬à¥¯
Ġ21 10
or a
à¤Łà¥Ł à¤Ĺ
à¤Łà¥Ł à¤®à¤¯
à¤ªà¤³ à¤ª
à¤¯à¤¬à¤° à¤¯
ip t
Ġà¤Ńà¤¯ à¤Ĺ
Ġb and
à¤Ĩà¤¯à¤Ĩà¤° à¤ıà¤¸
Ġà¤¨à¤ľà¤° à¤¬
am r
it ative
id en
as er
as ad
Ġà¥² à¤¶
Ġà¥¨à¥® à¥¦à¥¦
Ġ26 2
Ġ26 00
Ġà¥©à¥« à¥§
à¤§à¤¶à¤¤à¤ķ à¤¹
Ġw est
21 0
Ġà¤Ĩà¤łà¤µà¤¤ à¤¯
Ġh d
us s
16 0
up sc
Ġà¤Ńà¤Ĺà¤¤ à¤ļ
Ġl te
Ġ36 8
à¤ªà¤ª à¤Ī
Ġà¥Ńà¥« à¥¦à¥¦
17 0
17 6
re me
à¥§à¥¨ à¥¬
à¤ħà¤Łà¤ķ à¤ª
Ġ33 2
à¥¨à¥¨ à¥ª
im pri
Ġe qu
à¤īà¤²à¤Ł à¤ªà¤ķ
Ġà¥©à¥ª à¥¬
à¥§à¥® à¥¦
iv ity
Ġ64 0
Ġ44 2
Ġà¥ªà¥¯ à¥§
Ġ38 1
Ġ38 5
Ġà¥©à¥® à¥ª
Ġà¥©à¥® à¥¬
um e
à¤ıà¤¸à¤Ī à¤ķà¤¡
Ġ56 161
14 5
Ġ54 8
Ġà¥«à¥« à¥¯
Ġ47 7
Ġ43 4
em a
Ġà¤ĺà¤¨ à¤ĺ
Ġ52 6
Ġà¥«à¥Ń à¥«
à¤Ĩà¤°à¤ıà¤« à¤ķà¤¡
Ġ46 3
ri st
Ġ39 6
th er
Ġà¥¨à¥¦à¥§à¥© à¥§à¥ª
ak rab
à¤ıà¤¸à¤ıà¤« à¤®à¤§
est ival
Ġà¥®à¥« à¥«
Ġà¥Ńà¥ª à¥§
à® Ł
Ġst ructure
Ġà¤Ĩà¤¯à¤ıà¤¸ à¤Ĩà¤¯à¤ķà¤¡
Ġà¤ıà¤¨à¤ıà¤¸ à¤ĵ
Ġà¥Ńà¥Ń à¥Ń
Ġà¥§à¥¯à¥¬ à¥¯
à¥² à¤ª
hy dr
con t
Ġà¤¤à¤Ĺ à¤®à¤Ĺ
Ġà¤¹à¤¬ à¤ķà¤²
qu ant
Ġà¤²à¤Łà¤ķ à¤¤
Ġ197 7
iz ed
ort y
198 7
à¥§à¥¯à¥® à¥®
à¤Ĩà¤°à¤ı à¤¸à¤²
ian ce
Ġcon sent
Ġis i
à¥©à¥® à¥¬
Ġà¤«à¤¡ à¤ķà¤¤
Ġsp orts
out ube
à¤īà¤Ń à¤¯à¤¤
à¤ķà¤®à¤¤ à¤¨
ow n
Ġà¤Ĩà¤¯à¤ıà¤® à¤ıà¤«à¤ļ
Ġà¤ıà¤Ĩà¤¯ à¤¯
Ġan alysis
iss f
Ġâ Ħĸ
à¯į )
goo gle
Ġà¤¦à¤« à¤¨à¤µ
der abad
Ġser vice
electron ic
lact ose
inc idence
Ġfat s
à¤°à¤ı à¤¶à¤°
Ġelectro lyte
Ġpri yanka
Ġspe cial
cap acit
Ġbo ard
Ġnet work
inform ed
microbi al
akrab orty
1 17
2 30
b mc
c ctv
c ann
e c
f w
g ing
g ame
h ap
k i
k an
k ap
k kr
m es
m bps
n ik
o f
r jd
s u
u an
v acuum
w ami
w imbledon
Ä ±
Ï Ħ
Ù ¾
Ù ĩ
ã ĥ
Ĥ ¹
à¥į à¥ĭ
à¤° à¤¯à¤°
à¥ĩ `
à¥Ģ +
à¤¤ à¤Ĺà¤¡
à¤¯ à¤ĵà¤µ
à¤² à¤µà¤¨
à¤² à¤ıà¤ķ
à¤² à¤ĺà¤¨
à¤² à¤Łà¤ķà¤°
à¤¿ à¤¼
à¤¨ à¤°à¤ķ
à¤¨ à¤Ĩà¤£
à¤¨ à¤§à¤°
à¤¨ à¤Ĩà¤²
à¤¹ à¤°à¤ķà¤¡
à¤¹ à¤Łà¤ķà¤°
à¤ķ à¤ªà¤²
à¤ķ à¤ªà¤¦
à¤ļ à¤¬à¤¦
à¤ļ à¤Ĩà¤§
à¤µ à¤®à¤ļ
à¤µ à¤®à¤¯
à¤¸ à¤¦à¤²
à¤¸ à¤ľà¤£
à¤® à¤£à¤¸
Ġà¤Ĩ à¤µà¤¸
à¤ª à¤¸à¤°
à¤ª à¤¸à¤¨
à¤ª à¤°à¤®à¤µ
Ġà¤¸ à¤¬à¤ľ
à¤¦ à¤¯à¤ª
Ġà¤ª à¤°à¤ķà¤°
Ġà¤® à¤«
à¤Ł à¤¸à¤®à¤§
à¤Ł à¤ħà¤Ł
Ġà¤ħ à¤¬à¤¦
Ġà¤ħ à¤³à¤¶
à¤§ à¤¸à¤¦
à¤§ à¤¸à¤ľ
à¤§ à¤¬à¤§à¤¬
Ġà¤¨ à¤¤à¤¦
à¤ľ à¤¸à¤²
Ġà¤¤ à¤³à¤µà¤²à¤ķà¤°
à¤¡ à¤ľà¤¸
Ġà¤¹ à¤£
Ġà¤¹ à¤¡à¤ķ
Ġà¤¹ à¤Ńà¤ª
Ġà¤¦ à¤±
Ġà¤¯ à¤®à¤¸à¤¦à¤¨
à¤¬ à¤¸à¤£
à¤¬ à¤°à¤µà¤²
à¤¬ à¤¹à¤°à¤¯
Ġà¤ľ à¤ľà¤ļ
Ġà¤° à¤ľà¤ķ
Ġà¤¬ à¤°à¤µ
Ġà¤¬ à¤¦à¤°
Ġà¤¬ à¤ľà¤µ
Ġà¤¬ Âºà¤¯
Ġà¤¶ à¤¯
Ġà¤¶ à¤µà¤ª
à¤¥ à¤°à¤¨
à¤¥ à¤¤à¤¤
à¤¥ à¤ķà¤ļ
à¤ł sà¤ļ
à¤Ń à¤®à¤ļ
à¤Ń à¤®à¤°
à¤Ń à¤¹à¤¸
à¤Ń à¤¯à¤Ń
Ġà¤Ń à¤ªà¤ķ
Ġà¤Ń à¤°à¤Ńà¤ķ
Ġà¤ļ à¤ĺà¤³à¤²
Ġà¤ĺ à¤¤à¤²
Ġà¤ī à¤®à¤²
à¤°à¤ķ à¤¬
Ġà¤ĸ à¤°à¤µ
Ġà¤ĸ à¤£à¤²
Ġà¤ı à¤Ĩà¤°à¤µ
à¤Ī à¤¤à¤°
à¤Ī à¤ªà¤Ł
à¤°à¤£ à¤²
à¤°à¤£ à¤µà¤ļ
à¤ĺ à¤¨à¤¦
à¤ĺ à¤¸à¤°à¤£
à¤ĺ à¤¸à¤°à¤²
à¤Ĩ à¤°à¤®
à¤Ĩ à¤¦à¤¤
à¤ħ à¤µà¤²
à¤ħ à¤¡à¤²
Ġà¤ıà¤ķ à¤²à¤ķ
Ġà¤ıà¤ķ à¤µà¤Ł
à¤ªà¤£ à¤¤
à¤« à¤¤à¤¹
à¤°à¤µ à¤ķà¤°
à¤µà¤¸ à¤Ń
à¤ķà¤° à¤¬
à¤ķà¤° à¤¸à¤¹
à¤ķà¤° à¤¨à¤ľ
Ġà¤ĩ à¤¨à¤¹
Ġà¤¸à¤° à¤³à¤®
Ġà¤§ à¤¨à¤µà¤Ł
à¤ı à¤Łà¤°à¤ļ
à¤Ĭ à¤²à¤¹
Ġà¤īà¤ª à¤Łà¤²
à¤Łà¤¨ à¤°à¤¨
à¤Ŀ à¤°à¤¦
à¤Ŀ à¤¨à¤¹
Ġà¤¡ à¤Ĺà¤²
Ġà¤¡ à¤¬à¤°
Ġà¤¡ à¤¬à¤¸
à¤ľà¤ª à¤¦
à¤µà¤¡ à¤°à¤ļ
à¤¦à¤° à¤«
à¤¬à¤¤ à¤¦
à¤¹à¤¤ à¤¬à¤²
Ġà¤Ĩà¤° à¤ıà¤²
Ġà¤Ĩà¤° à¤ıà¤®à¤ıà¤²
à¤¸à¤° à¤¯
à¤Łà¤ķ à¤¤
à¤Łà¤ķ à¤¹
à¤µà¤¤ à¤µà¤°à¤¹
à¤¡à¤² à¤Ĺà¤¢
à¤Łà¤² à¤¹
à¤Łà¤² à¤°à¤¶
à¤Łà¤² à¤®à¤¨
à¤ľà¤¨ à¤ķà¤ļ
âĢį à¥Ģ
à¤Łà¤° à¤ĸ
à¤Łà¤° à¤¨à¤°
à¤¶à¤¨ à¤ªà¤¤
à¤Ĺà¤£ à¤¤
Ġà¤Ĩà¤¯ à¤Ĩà¤°à¤¡
Ġà¤Ĩà¤¯ à¤ıà¤¨à¤¸
à¤¤à¤ķ à¤¸
à¤¤à¤ķ à¤ª
à¤µà¤¡à¤£ à¤ķ
à¤¯à¤² à¤ķà¤¡
à¤²à¤ķ à¤¨
à¤ªà¤¨ à¤¸
à¤ĩ à¤µà¤°
Ġ2 999
à¤¸à¤¨ à¤¦à¤°à¤¬
Ġà¤ĳ à¤¥à¤°
à¤¯à¤ļ à¤°
à¤¯à¤ļ à¤³
Ġà¤ħà¤® à¤°à¤¦
à¤·à¤ķ à¤Ĺ
à¤¯à¤¦ à¤µ
à¤Ĩà¤¯ à¤¬à¤°
à¤µà¤¨ à¤²
à¤³à¤¤ à¤¹
à¤²à¤¨ à¤Ĺà¤°
à¤ī à¤¬à¤°
à¤ī à¤§à¤³
Ġà¤ĵ à¤¯
Ġà¤ĵ à¤ĸà¤²
Ġà¤ĵ à¤Ĩà¤¯à¤¸
à¤®à¤ķ à¤¥à¤¨
à¤Ĭà¤¨ à¤¶
à¤¯à¤¨ à¤®
à¤ľà¤ķ à¤¹
Ġà¤®à¤¨ à¤Ĺ
Ġà¤®à¤¨ à¤Ń
Ġà¤ħà¤ľ à¤¯à¤²
à¤ķà¤¤ à¤¹
à¤§à¤¨ à¤¶
à¤¦à¤¤ à¤ł
à¤¨à¤² à¤ª
à¤²à¤Ĺ à¤Ł
à¤ħà¤¸ à¤®
à¥¨ à¥©à¥¦
Ġà¤Łà¤ķ à¤Łà¤ķ
à¤°à¤¹ à¤ļ
Ġà¤Ľ à¤³à¤²
à¤ķà¤°à¤£ à¤ª
à¤Ĩà¤° à¤ĵà¤ª
Ġà¤ľà¤Ĺ à¤ªà¤¤
à¤¹à¤² à¤Ĺà¤°
à¤¡à¤³ à¤¹
Ġà¤ħà¤² à¤¶
à¤ħà¤¨ à¤®
Ġà¤¸à¤Ĺà¤³ à¤ļ
Ġà¤¦à¤¹à¤¶à¤¤à¤µ à¤¦
Ġà¤Ĩà¤ł à¤¦à¤¹
Ġà¤Ĩà¤ł à¤µà¤¤à¤ļ
à¤¶à¤ķ à¤ļ
à¤¶à¤ķ à¤ħà¤Ń
Ġà¤¶à¤¹ à¤¬
à¤¤à¤³ à¤¸à¤°
à¤°à¤Ń à¤ļ
à¤¤à¤¨ à¤¨
Ġà¤ħà¤µ à¤ĸà¤³
à¤ľà¤Ĺ à¤¬
à¤ıà¤® à¤ĵà¤ļ
à¤ıà¤® à¤Ĩà¤°à¤µ
à¤Ĺà¤¡ à¤®à¤ļ
Ġà¤Ĳ à¤ª
à¤¤à¤ķà¤° à¤¯
Ġà¥« à¥¨à¥«
Ġà¤¸à¤®à¤ľ à¤¹
à¤¨à¤Ĺ à¤¨
Ġà¤Ĺà¤° à¤¡
Ġà¤ıà¤¸ à¤ıà¤¨
à¤Łà¤£ à¤®à¤²
à¤²à¤° à¤ªà¤£
à¤īà¤¤ à¤°à¤¤
à¤Īà¤¨ à¤¦
Ġà¤¹à¤° à¤Ĺ
à¤ıà¤« à¤Ĩà¤°à¤¡
Ġà¤ªà¤Ł à¤µà¤¤
Ġà¤¸à¤µ à¤¦
Ġà¥¬ à¥§à¥¦
Ġà¥¬ à¥§à¥«
à¤Īà¤ķ à¤ª
Ġà¤ıà¤® à¤Ĩà¤¯à¤ľ
Ġ7 21
à¤¡à¤ķà¤° à¤¨à¤Ĺà¤°
Ġà¤¢ à¤³à¤£
Ġà¥Ń à¥§à¥¬
Ġà¥§à¥¦ à¥§à¥«
à¤µà¤Ł à¤°à¤ļ
à¥¨à¥¦ à¥©à¥¦
à¤¯à¤¶ à¤ª
Ġà¥® à¥¨à¥«
Ġà¥® à¥Ńà¥«
à¤¨à¤ª à¤ļà¤¨
in fo
Ġ15 21
âĢĮ à¥Ģ
Ġà¤µà¤¨ à¤ķà¤°
à¤¡à¤Ĺ à¤¢
Ġ9 60
Ġ9 45
à¤¨à¤¤à¤³ à¤¹
Ġà¤Ĩà¤¦à¤° à¤¹
à¤¡à¤® à¤®à¤§
à¤²à¤ª à¤°à¤µ
Ġà¤ķà¤Ł à¤ĳà¤«
Ġà¥§à¥¯ à¥©à¥«
à¤µà¤ļà¤·à¤ķ à¤ļ
Ġà¤į à¤ªà¤²à¤ļ
Ġà¤ķà¤³ à¤µà¤³à¤²
Ġ19 30
Ġ19 70
Ġà¤¶à¤ªà¤¥ à¤¬à¤¦
à¤ļà¤ķ à¤ªà¤£
19 55
à¤¨à¤µà¤° à¤¦
Ġs et
Ġs ilicon
Ġà¥«à¥¦ à¥Ń
Ġà¥«à¥¦ à¥«à¥¦
Ġà¥§à¥¬ à¥¦à¥¦à¥¦
Ġm a
Ġm on
Ġm us
Ġm ot
Ġm eet
Ġm umbai
Ġm iss
à¤ªà¤¡ à¥Ł
à¤ªà¤¡ à¤Ŀà¤¡
es i
Ġà¥¨à¥ª à¥§
à¤ĩà¤¥ à¤µà¤°
Ġà¤ľà¤¨à¤°à¤² à¤ļ
Ġa bs
à¤¶à¤¹ à¤°à¤µ
en n
en ing
à¤Ĩà¤¯à¤Ĩà¤° à¤ıà¤¨à¤ıà¤¸à¤ıà¤¸
Ġt im
Ġà¥¨à¥§ à¥¦à¥¦
am b
Ġn ad
Ġn ov
ct or
à¤«à¤°à¤¨ à¤Ĺà¤°à¤ļ
à¤¸à¤Ĺà¤¡ à¤¸à¤¹
Ġ24 8
it al
it ical
id s
Ġg ra
Ġg os
Ġ26 6
Ġà¥©à¥« à¥«
Ġà¥©à¥« à¥Ń
Ġd ut
à¤ļà¤¹ à¤²à¤¨
Ġà¤µà¤ļà¤¨ à¤¹
à¤¨à¤ªà¤£ à¤ļ
Ġ0 10
Ġà¤Ĺà¤² à¤¬à¤²
co pe
co ding
Ġ75 9
ra z
Ġà¥ªà¥« à¥¨
Ġà¥ªà¥« à¥¯
16 2
up i
à¤ıà¤ı à¤Ĩà¤¯
Ġk i
à¤¦à¤¶ à¤²à¤ķ
Ġ36 00
à¤¸à¤³à¤¤ à¤ļ
Ġ400 000
à¤Łà¤ħà¤ª à¤¸
Ġà¥©à¥© à¥ª
Ġà¥©à¥¯ à¥®
à¤Īà¤Łà¤µà¤° à¤¹
Ġ44 0
Ġ44 1
Ġ44 8
Ġà¤¶à¤°à¤£ à¤¦
Ġà¥©à¥® à¥§
Ġ42 30
ut h
à¥§à¥ª à¥¦
Ġà¥ªà¥ª à¥¨
Ġà¥ªà¥ª à¥©
Ġà¥ªà¥ª à¥§
>> >>
Ġà¥ªà¥© à¥ª
Ġà¥ªà¥© à¥©
à¤°à¤ĺ à¤°à¤®à¤§
Ġ49 5
à¥§à¥§à¥ Ń
Ġà¥ªà¥¨ à¥¯
Ġà¤¸à¤Īà¤¦ à¤µà¤°
Ġà¥©à¥¦à¥¦ à¥¦à¥¦
à¤Ĺà¤°à¤® à¤Ĭ
Ġà¥ªà¥¬ à¥Ń
Ġà¥ªà¥¬ à¥®
Ġà¥«à¥Ń à¥¨
Ġà¥«à¥Ń à¥©
Ġà¥«à¥Ń à¥Ń
à¤Ĩà¤°à¤ıà¤« à¤²
Ġ46 0
Ġà¤ªà¤¥ à¤ķà¤°
Ġi x
ak osh
Ġ57 8
de vice
Ġà¤«à¤¡à¤ķ à¤£
à¥¯à¥¯ à¥¦
Ġà¥«à¥© à¥®
13 5
à¤ıà¤¨à¤ı à¤¸à¤²
Ġà¤§à¤¡à¤ª à¤¡à¤£
Ġà¥¬à¥¬ à¥¬
ub er
Ġà¤Ĩà¤¯à¤ıà¤¸ à¤Ĩà¤¯à¤¨
ss c
Ġon eplus
Ġpro v
Ġà¤Ĩà¤ī à¤Łà¤«
Ġà¥®à¥Ń à¥¯
Ġà¥¯à¥ª à¥§
cor d
end ence
2020 21
Ġch akraborty
Ġà¤¤à¤¹ à¤²à¤ķ
eng ers
Ġat m
Ġà¥¯à¥Ń à¥¬
Ġy ear
Ġà¤ħà¤ľà¤¹à¤° à¤µà¤°
Ġbcci à¤ļ
ect rum
Ġà¤ıà¤ıà¤¨ à¤Ĩà¤¯à¤ļ
198 3
à¥§à¥¯à¥® à¥©
Ġà¤ıà¤«à¤Ĩà¤¯ à¤ıà¤ļ
à¤¸à¤į à¤ªà¤µà¤°
act eria
Ġun ivers
à¥¨à¥¦à¥§à¥¨ à¥§à¥©
ain fo
Ġà¤¡à¤Ĺ à¤®à¤Ĺ
Ġà¤¹à¤³à¤¹ à¤³à¤¤
Ġsp ectrum
à´ ¾
Ġex press
na il
ib le
ath er
Ġte am
Ġà¤¹à¤ľà¤°à¤¤ à¤Ĺ
bh ayani
Ġà¤ıà¤¯à¤° à¤Ł
Ġinter view
ob el
Ġà¤¬à¤Łà¤² à¤°à¤²
à¤īà¤°à¤£ à¤®à¤§
vp at
Î± s
san ju
mat ic
pri yanka
new s
pre val
à¤ħà¤¥ à¤£
Ġà¤İ à¤ķ
tar get
cap ture
anc ed
Ġà¤¨à¤Łà¤µà¤° à¤²
Ġà¤ıà¤¯ à¤°à¤ª
Ġà¤ļà¤¤à¤° à¤¥
Ġgovern ment
Ġia f
viral bhayani
abet ainfo
Ġsur vey
oci ation
Ġindi es
vol ume
Ġproc ess
0 9
1 12
a as
c er
c ert
d g
d ynamic
f ree
f low
g er
g ram
g uj
k es
l c
l ad
m d
m ens
n i
n al
o ur
p ak
r da
s ar
s ars
s election
s quare
t w
t ing
u a
w ad
Î µ
Ò Ľ
Ù ģ
Ġ á
Ġ ÑĢ
Ġ àª
à¥į /
à¤° à¤ħà¤®
à¤¯ à¤¯à¤ķ
à¤² à¤¡à¤®à¤§
à¤² à¤Ĳà¤µà¤ľ
à¤² à¤¸à¤¨à¤¨
à¤ķ à¤ħà¤¦
à¤ķ à¤Ĳà¤µà¤ľ
à¤ķ à¤®à¤¤à¤ļ
à¤ķ à¤Ĩà¤Ĭà¤Łà¤ļ
à¤ļ à¤¯à¤¨
à¤ļ à¤¤à¤¤
à¤µ à¤Łà¤µà¤°
à¤µ à¤±à¤¯
à¤µ à¤¦à¤ļ
à¤¸ à¤¸à¤°
à¤¸ à¤ªà¤ķ
à¤¸ à¤¸à¤®à¤µ
à¤£ à¤ķà¤®à¤³
à¤£ à¤®à¤¤à¤µ
à¤® à¤µà¤°à¤ļ
à¤® à¤ľà¤µà¤³
Ġà¤Ĩ à¤¸à¤Ĺ
Ġà¤ķ à¤Łà¤²
à¤ª à¤¤à¤µ
à¤ª à¤µà¤°à¤ļ
Ġà¤¸ à¤¤à¤µ
Ġà¤ª à¤ļà¤µà¤²
Ġà¤® à¤ķà¤¸
à¤Ł à¤ªà¤¤
à¤Ł à¤¤à¤¹
à¤Ł à¤ĺà¤°
à¤Ĺ à¤±
à¤Ĺ à¤¡à¤£
à¤Ĺ à¤¬à¤²
à¤Ĺ à¤ľà¤µà¤³
Ġà¤ħ à¤°à¤¸
à¤ľ à¤¤à¤¨
à¤ľ à¤ľà¤®
Ġà¤µ à¤¡à¤£
Ġà¤µ à¤¸à¤µ
Ġà¤¤ à¤³à¤ķ
à¤¡ à¤¸à¤®à¤§
à¤¡ à¤°à¤ªà¤¦
Ġà¤¹ à¤°à¤¨
Ġà¤¹ à¤¬à¤ķ
à¤³ à¤¡
à¤³ à¤¸à¤¹
à¤· à¤·
à¤¬ à¤«
Ġà¤ľ à¤ľà¤®
Ġà¤ľ à¤³à¤®
Ġà¤° à¤¸à¤²
à¤ĸ à¤ªà¤°
à¤ĸ à¤°à¤ķà¤°
Ġà¤¬ à¤°à¤¨
à¤¥ à¤Īà¤¸
à¤µà¤° à¤ķà¤°à¤£
à¤Ń à¤µà¤°
Ġà¤Ĺ à¤¶
Ġà¤Ĺ à¤Ĺà¤£
Ġà¤Ń à¤·
Ġà¤Ń à¤¡à¤Ĺ
à¤°à¤ķ à¤Łà¤ªà¤£
à¤¤à¤° à¤§à¤°
à¤®à¤§ à¤°
Ġà¤ı à¤²à¤°
à¤Ī à¤Ĺà¤°
à¤Ī à¤¸à¤µà¤°
à¤Ī à¤®à¤®à¤§
à¤Ĩ à¤°à¤¹
à¤Ĩ à¤¸à¤¨à¤¸
à¤¢ à¤ĺ
à¤ħ à¤ĺ
à¤ħ à¤¸à¤Ń
à¤ħ à¤³à¤¶
Ġà¤ıà¤ķ à¤¸à¤¦à¤¸
Ġà¤Ł à¤¯
Ġà¤Ł à¤¬
à¥ĩà¤Ĥ à¤Ĥ
à¤ªà¤£ à¤ĸ
à¤« à¤°à¤¦
Ġà¥ Ļ
à¤°à¤µ à¤Ĺ
à¤µà¤¸ à¤¨à¤µ
Ġà¤®à¤¹ à¤¦
Ġà¤ĩ à¤²à¤¯
Ġà¤ĩ à¤¤à¤µ
Ġà¤ĩ à¤ıà¤®à¤Ĩà¤¯
à¤¹à¤£ à¤¤à¤¸
Ġà¤¸à¤° à¤§
à¤ķà¤¡ à¤¹
Ġà¤§ à¤µà¤²à¤¸
à¤¯à¤® à¤Ĺ
à¤¯à¤® à¤¸à¤¹
à¤ı à¤Īà¤²
à¤ı à¤¬à¤¨
à¤ı à¤Ĩà¤Ī
à¤Ĭ à¤Ń
à¥ģà¤Ĥ à¤Ĥ
à¤Ŀ à¤¶
à¤Ŀ à¤¨à¤²
à¤ľà¤ª à¤¬
à¤ĸà¤² à¤¦à¤°
Ġà¤Ĩà¤® à¤Ĺ
à¤¤à¤ª à¤®
à¤°à¤ªà¤Ł à¤ª
à¥¦ à¥®
Ġà¤µà¤° à¤ĸ
à¤¯à¤¤ à¤®à¤§
à¤¬à¤Ī à¤Ń
à¤¶à¤¨ à¤ķà¤°
Ġà¤Ĩà¤¯ à¤¨à¤ļ
à¤£à¤¤ à¤ļ
Ġà¤ħà¤° à¤ľ
à¤¯à¤² à¤ª
à¤ªà¤¨ à¤µà¤°
à¤ĩ à¤¸à¤µ
à¤ķà¤² à¤µ
Ġà¤ĳ à¤¨à¤¡
Ġà¤Ĩà¤µ à¤ķà¤¹
à¤µà¤³ à¤¸
à¤¸à¤¹ à¤µ
Ġà¤¨à¤° à¤ĸ
à¤ĵ à¤ĺ
à¤ĵ à¤²à¤¸
Ġà¤®à¤² à¤µ
à¤°à¤¨ à¤®à¤§
à¤¸à¤¤ à¤¹
à¤ħà¤° à¤Ł
à¤ī à¤¤à¤°à¤£
Ġà¤ĵ à¤ķà¤¤
à¤¹à¤¨ à¤ķ
Ġà¤®à¤¨ à¤ķ
à¤¦à¤¨ à¤¦
à¤¶à¤² à¤¸
Ġà¤ĸà¤° à¤¯
à¤ŀ à¤¸
à¤¨à¤² à¤¸
à¤¥à¤³ à¤¹
à¤ıà¤¸ à¤Īà¤¸
à¤®à¤Ĺ à¤§
à¤®à¤Ĺ à¤¡à¤®à¤§
à¤ļà¤¨ à¤ľ
Ġà¤¬à¤° à¤¡
à¤¡à¤ķ à¤ªà¤¨
à¤¸à¤® à¤¦
Ġà¤ľà¤Ĺ à¤Ńà¤°à¤ļ
Ġà¤ħà¤² à¤ĸ
Ġà¤ħà¤² à¤«
à¤ıà¤ķ à¤ľ
à¤ıà¤ķ à¤Łà¥Ł
Ġà¥¨à¥¦ à¥«à¥¦
à¤ķà¤£ à¤ķ
à¤¤à¤¨ à¤®à¤§
à¤ľà¤¸ à¤ªà¤£
Ġà¤²à¤Ĺ à¤Ł
à¤µà¤¶ à¤¯à¤¨
à¤ıà¤® à¤¶
à¤ıà¤® à¤ıà¤µ
Ġà¤Ĳ à¤®
Ġà¥ª à¥§à¥¨
Ġà¥ª à¥§à¥§
à¤¨à¤Ĺ à¤°à¤ķà¤¡
Ġà¤Ĩà¤Ī à¤ªà¤£
Ġà¤īà¤ªà¤²à¤¬ à¤§
à¤¯à¤¸ à¤¨à¤ļ
à¥® à¥¦à¥¦
à¤ħà¤® à¤ľà¤¦
Ġà¤Ī à¤ļà¤²à¤¨
Ġà¤Ī à¤ıà¤¸à¤Ĩà¤¯
Ġà¤Ī à¤ĳà¤¨
à¤Ĭà¤¸ à¤ķà¤¡
Ġà¤ıà¤¸ à¤ĵà¤¸
Ġà¤ıà¤¸ à¤ıà¤®à¤Ī
Ġà¤ıà¤¨ à¤ıà¤®à¤ļ
Ġà¤Ńà¤° à¤Ĺ
à¤ĳ à¤¨à¤¨
à¤°à¤³ à¤¸à¤¹
Ġà¤¬à¤² à¤ª
à¤ķà¤Ł à¤ªà¤£
Ġà¤ªà¤°à¤µ à¤¨
Ġà¤ıà¤® à¤Ĩà¤°à¤ª
Ġà¤ıà¤® à¤ıà¤®à¤ļ
Ġ7 16
Ġ7 25
Ġ7 15
Ġ7 14
Ġ7 47
Ġà¤¢ à¤µà¤£
Ġà¤Ĺà¤Ł à¤¶
Ġà¥Ń à¥Ńà¥«
à¤ħà¤ª à¤¸
à¤Īà¤Ł à¤ª
à¥¨à¥¦ à¥¨à¥ª
Ġà¤Ĭ à¤ª
Ġ8 40
Ġ8 60
Ġà¥® à¥¨à¥¯
Ġà¤§à¤¨ à¤µà¤¡
Ġà¤§à¤¨ à¤¶à¤ķ
in o
in ation
à¤Ĩà¤ľ à¤¤à¤ķ
à¤®à¤£ à¤²
Ġà¥¯ à¥§à¥¦
Ġà¥¯ à¥¨à¥®
Ġà¥¯ à¥¨à¥Ń
Ġà¥¯ à¥Ńà¥¦
à¤²à¤® à¤¡à¤£
à¤ıà¤ļ à¤ıà¤®
Ġà¤· à¤Ł
Ġà¤· à¤·
Ġà¤į à¤¥
an ush
Ġ50 60
à¤¦à¤³ à¤µà¤¨
Ġ19 999
Ġà¤ļà¤ķà¤®à¤ķ à¤ª
Ġc an
Ġc age
Ġc ream
Ġà¤®à¤Ĺ à¤§
Ġà¤Ĩà¤ª à¤Łà¤¤
Ġà¤Ĩà¤ª à¤Ĩà¤ªà¤¸
à¤¦à¤¯ à¤ªà¤£
Ġà¤ıà¤² à¤ıà¤²
à¤¨à¤Ī à¤µ
à¤¨à¤Ī à¤¯à¤¨
Ġà¤īà¤ĺà¤¡ à¤¯
Ġs in
Ġs ci
Ġs ushant
Ġ30 1
à¤ľà¤¦ à¤°à¤µ
Ġà¤ıà¤ħà¤° à¤Ĺà¤¨
Ġà¤«à¤³ à¤Ŀ
à¤¤à¤°à¤£ à¤²
Ġ40 9
Ġà¥«à¥¦ à¥©
à¥§à¥¯ à¥«
à¥§à¥¯ à¥Ńà¥¨
à¤Īà¤¡ à¤µà¤°
or g
Ġm ac
à¤Łà¥Ł à¤®
Ġà¥¨à¥ª à¥¦à¥¦
à¤ªà¤³ à¤ķà¤°
Ġà¤Ĩà¤Ŀ à¤®à¤¨
Ġb mc
Ġb iden
Ġà¤¬à¤¦ à¤¡à¤²
Ġv a
Ġà¤Ńà¤µà¤¨ à¤²
id ae
ro l
ipl à¤ļ
Ġà¥² à¤ªà¤²
Ġ60 40
Ġg ir
Ġg ang
Ġg dp
Ġg ras
et ty
à¤ĩà¤ķ à¤¬
Ġw ild
Ġd a
Ġà¥©à¥Ń à¥¯
à¤Ķ à¤¸
Ġh ar
à¤ħà¤¹à¤®à¤¦ à¤ª
à¤ıà¤¶à¤¨ à¤¤à¤°
Ġ75 000
Ġà¥©à¥¨ à¥¦à¥¦
un ch
25 6
à¤ķà¤ķ à¤¥
Ġ48 5
ay a
re act
Ġ34 88
Ġ33 3
à¥¨à¥¨ à¥«
im f
Ġà¥©à¥ª à¥ª
Ġà¥¨à¥¦à¥§à¥« à¥¨à¥¦à¥§à¥¬
ov ic
Ġà¥¬à¥ª à¥®
el a
à¤¶à¤ķà¤¤ à¤¤
à¥§à¥® à¥¨
Ġ44 3
Ġà¥©à¥® à¥Ń
ut i
à¥§à¥ª à¥¯
à¤ıà¤¸à¤Ī à¤¬
à¤ıà¤¸à¤Ī à¤®à¤§
Ġà¥ªà¥© à¥¬
Ġ56 767
14 1
à¥§à¥§à¥ §
à¤ıà¤®à¤ıà¤¸ à¤ķ
Ġj an
ab ol
ab vp
Ġà¤ļà¤°à¤£ à¤¦
24 0
Ġ47 4
Ġà¥¬à¥© à¥©
Ġà¥«à¥¨ à¥ª
Ġà¥«à¥¨ à¥¯
Ġà¥«à¥¨ à¥¬
Ġà¥«à¥ª à¥«
à¤ĺà¤¡ à¤µà¤¤
Ġà¥¬à¥Ń à¥ª
Ġà¤¹à¤°à¤Ń à¤ľà¤¨à¤ļ
à¤ıà¤¸à¤ıà¤« à¤Ĩà¤¯
han ol
Ġ53 3
à¤ıà¤¨à¤ı à¤¨à¤ļ
à¤ıà¤Ĩà¤¯ à¤Ĩà¤¯à¤¬
elect ric
Ġà¥«à¥¯ à¥«
Ġà¥Ńà¥ª à¥¦
Ġà¥Ńà¥ª à¥Ń
Ġx iaomi
Ġx ander
Ġà¤Ĩà¤¯à¤ıà¤¸ à¤ıà¤²
sp ace
Ġ69 4
lo ud
amp ere
à¤ıà¤ıà¤¨à¤Ĩà¤¯ à¤¶
se ction
à¤ķà¤¢ à¤Ī
Ð° Ñ
Ġà¥§à¥¯à¥¬ à¥®
Ġà¥§à¥¯à¥Ń à¥ª
Ġà¤ļà¤ª à¤³à¤¤
à¥² à¤¨
Ġu an
con dens
qu al
Ġà¥§à¥¯à¥« à¥Ń
Ġcov axin
à¦ °
à¦ ²
à¦ ¿
Ġdi sc
pro spect
pf rda
Ġup a
Ġcr it
à² ¿
Ġà¤Ĩà¤¯à¤ıà¤¸à¤Ĩà¤¯ à¤¶
à¤īà¤ķ à¤³à¤²
arm y
ÃŃ à¤Ĺà¤ķ
vir on
Ġpr ess
tro lyte
Ġà¤ªà¤²à¤Łà¤£ à¤¨
Ġ00 5
Ġas ian
Ġà¤¸à¤°à¤µ à¤¦
bl ade
ici al
ator y
expos ed
ste c
Ġqu al
Ġqu est
xx x
Ġà¤®à¤Ŀ à¤¹à¤°
Ġà¤§à¤¡à¤§ à¤¡à¤¤
inc ia
à¤ĵà¤Ĩà¤° à¤ĵà¤ª
Ġbl ade
varia ble
Ġaf ric
Ġfat f
uc ation
dis charge
Ġsection al
rt c
Ġret urn
à¤ıà¤¨à¤Ī à¤ıà¤«à¤Ł
Ġcapacit or
à¤Ĩà¤ĩ à¤¸à¤²
Ġtw eet
Ġà¤¡à¤¬à¤¡ à¤¬à¤²
Ġà¤Ĩà¤¡à¤ª à¤¡à¤¦
Ġadv anced
homogen ization
inte gr
Ŀ¤ ï¸ı
ele trolyte
Ġà¤Ŀà¤£ à¤Ŀà¤£
Ġchi ef
Ġequ als
Ġprov incia
/ )
1 19
2 99
a ustralia
d d
f p
f ra
h and
m b
n ir
n ov
n ow
n asa
p il
s ig
s ystem
s ena
t witter
u x
v a
w f
w ant
± ±
Ã ´
Ã º
Ú ©
Ġ é
à¥ Ļ
à¤° à¤¹à¤¤
à¤° à¤ħà¤²
à¤° à¤īà¤¸
à¥Ģ |
à¤¤ à¤¨à¤²
à¤¯ à¤µà¤¨
à¤¯ à¤¡à¤ļ
à¤¯ à¤ĺà¤¡
à¤² à¤®à¤£
à¤² à¤°à¤¸à¤¹
à¤² à¤Ĩà¤īà¤Ł
à¤¿ '
à¤¿ à¥¤
à¤¨ à¤®à¤¹
à¤¨ à¤Ŀà¤¡
à¤¨ à¤Łà¤ªà¤°
à¤Ĥ âĢį
à¤¹ à¤Łà¤ķ
à¤¹ à¤ĩà¤¨
à¤¹ à¤°à¤®à¤ļ
à¤ķ à¤ĳà¤°
à¤ķ à¤Ĩà¤ī
à¤µ à¤¬à¤°
à¤µ à¤¦à¤°à¤®
à¤¸ à¤¤à¤¸
à¤£ à¤¥
à¤£ à¤¦à¤°à¤®
à¤® à¤°à¤µ
à¤® à¤¦à¤²
à¤® à¤ķà¤²
à¤® à¤³à¤²
à¤® à¤¯à¤ļà¤ķ
à¤® à¤³à¤®à¤³à¤£
à¤ª à¤³à¤¤
à¤ª à¤ķà¤¸
à¤ª à¤Łà¤¨à¤ļ
Ġà¤¸ à¤ľà¤¨
Ġà¤¸ à¤¨à¤Ĺ
Ġà¤¸ à¤Īà¤ļ
Ġà¤¸ à¤£à¤µ
Ġà¤¸ à¤¬à¤Ł
à¤¦ à¤ķà¤¨
à¤¦ à¤³à¤ļ
Ġà¤ª à¤Ŀ
Ġà¤ª à¤Łà¤°
Ġà¤® à¤ľà¤¨
Ġà¤® à¤«à¤¤
à¤Ł à¤¤à¤°
à¤Ł à¤Ĺà¤°
à¤Ł à¤°à¤ķà¤°
à¤Ł à¤°à¤®à¤¨
à¤Ł à¤Ĩà¤īà¤Ł
à¤Ĺ à¤¨à¤®à¤§
à¤Ĺ à¤®à¤®à¤§
à¤§ à¤ľ
à¤§ à¤°à¤ļ
à¤§ à¤īà¤¤
à¤§ à¤³à¤ļ
à¤§ à¤µà¤¡à¤ķà¤°
à¤ľ à¤¸à¤¤
à¤ľ à¤¦à¤°à¤®
Ġà¤µ à¤«
à¤¶ à¤¯à¤ļ
à¤¡ à¤°à¤¦
à¤¡ à¤µà¤ļ
à¤¡ à¤®à¤¨à¤®
à¤¡ à¤Ĩà¤³
Ġà¤¹ à¤°à¤ĸ
Ġà¤¹ à¤¬à¤²
Ġà¤¹ à¤ķà¤ļ
Ġà¤¹ à¤¦à¤Ĺ
Ġà¤¦ à¤ĸ
Ġà¤¯ à¤¶à¤¨
Ġà¤¯ à¤®à¤¦
à¤· à¤Ł
à¤· à¤¨à¤Ĺà¤°
à¤¬ à¤ķà¤¤
à¤¬ à¤¸à¤¦
à¤¬ à¤¨à¤¹
à¤¬ à¤ľà¤²
à¤¬ à¤¨à¤¦
Ġà¤° à¤¸à¤¹
Ġà¤° à¤¨à¤®à¤¶
à¤ĸ à¤µà¤¸
à¤ĸ à¤¨à¤ļ
à¤ĸ à¤°à¤ľ
à¤ĸ à¤¨à¤¦
Ġà¤¬ à¤Łà¤µ
Ġà¤¶ à¤¦
à¤µà¤° à¤¸à¤¹
à¤Ń à¤ķà¤°
à¤Ń à¤ľà¤¨
Ġà¤Ń à¤Łà¤¸
Ġà¤ħà¤¸ à¤µ
Ġà¤ļ à¤µà¤ļ
Ġà¤² à¤¸à¤¨
Ġà¤² à¤ľà¤ªà¤¤
Ġà¤² à¤ľà¤ªà¤¤à¤°
Ġà¤ī à¤®à¤²à¤²
Ġà¤ĸ à¤¸
Ġà¤ı à¤ıà¤«
Ġà¤ı à¤Ĩà¤¯à¤Ł
à¤Ī à¤ªà¤®à¤§
à¤°à¤£ à¤Ĺ
à¤¯à¤ķ à¤ħà¤Ń
à¤Ĩ à¤ľà¤°
à¥ī )
à¤°à¤® à¤ĸ
Ġà¤ıà¤ķ à¤ķà¤²
Ġà¥ Ĳ
à¤¤à¤² à¤²
à¤¤à¤² à¤¨
Ġà¤ł à¤¶
à¤µà¤¸ à¤¸
à¤µà¤¸ à¤Īà¤µ
Ġà¤ĩ à¤Łà¤¨
à¤ªà¤° à¤¯
à¤¹à¤£ à¤ļ
à¤¹à¤£ à¤µà¤£
Ġà¤¸à¤° à¤Ĺà¤®
à¤ªà¤² à¤ķà¤¡
à¤°à¤ª à¤¦à¤¹
Ġà¤¸à¤® à¤°à¤ľ
à¤µà¤² à¤®
à¤µà¤² à¤¨à¤¶
à¤ı à¤ĩà¤¶
à¤ı à¤ıà¤«à¤ª
à¤Ĭ à¤¡à¤¸
Ġà¤īà¤ª à¤¶à¤¹à¤°
à¤Ŀ à¤ľ
à¤²à¤¯ à¤¡
Ġà¤¡ à¤µà¤²
à¤µà¤¡ à¤¨
à¤°à¤² à¤ķ
Ġà¤¨à¤µ à¤±à¤¯
Ġà¤µà¤° à¤¯
à¤µà¤¤ à¤¦
à¤¡à¤² à¤®
à¤¡à¤² à¤Łà¤¨
à¤¡à¤² à¤¡à¤ļ
à¤¯à¤¤ à¤³
âĢį à¤¾
à¤Ĺà¤° à¤Ĺà¤Ł
à¤¶à¤¨ à¤¬à¤°
à¤¯à¤² à¤µ
à¤ĩ à¤ĵ
à¤ĩ à¤ľà¤ļ
à¤ĩ à¤¨à¤ª
à¤ĩ à¤ªà¤¸
à¤ķà¤² à¤¤
à¤¸à¤¨ à¤ķ
Ġà¤Ĩà¤µ à¤ľ
à¤ľà¤° à¤¹
à¤¤à¤µ à¤¦à¤°
Ġà¤ħà¤® à¤°à¤¤
à¤·à¤ķ à¤¸à¤®
à¤¬à¤¦ à¤¦à¤²
Ġà¤īà¤¦ à¤§
à¤ĵ à¤®à¤ª
à¤Ĩà¤¯ à¤ıà¤¸à¤ı
à¤Ĩà¤¯ à¤Ĩà¤¯à¤ıà¤¸
à¤Ĩà¤¯ à¤ĵà¤Ł
à¤¨à¤µ à¤¶
à¤¨à¤µ à¤īà¤¦
à¤µà¤¨ à¤®à¤§
à¤ħà¤° à¤«
à¤Ľ à¤ªà¤°
à¤Ľ à¤°à¤¦
à¤ī à¤Ŀ
à¤ī à¤¦à¤°à¤¨
Ġà¤ĵ à¤Ŀà¤°
Ġà¤ĵ à¤Ĩà¤°à¤ĵà¤ª
à¤ªà¤¦ à¤¯
à¤¹à¤¨ à¤ľ
à¤¤à¤ļ à¤²
Ġà¤ħà¤¤ à¤¨
à¤¦à¤¨ à¤ĸà¤°
à¤§à¤¨ à¤¦à¤°à¤µ
à¤¨à¤² à¤µ
Ġà¤ķà¤² à¤µ
Ġà¤Ĩà¤ľ à¤¬
à¤ħà¤¸ à¤®à¤§
Ġà¤¶à¤° à¤«
à¤§à¤µ à¤Łà¤ļ
Ġà¤Ĺà¤°à¤ľ à¤µ
à¤ıà¤¸ à¤µà¤°
à¤ıà¤¸ à¤ıà¤ļ
à¤ķà¤°à¤£ à¤¸
Ġà¤¯à¤¶ à¤ļ
à¤Ĩà¤° à¤ıà¤ļ
à¤Ĩà¤° à¤ıà¤¸à¤ı
à¤¸à¤® à¤ľà¤¤
Ġà¤ľà¤Ĺ à¤Ń
Ġà¤ľà¤Ĺ à¤¤à¤ª
Ġà¤¶à¤¹à¤° à¤ľ
à¤ĸà¤° à¤¬
Ġà¤¦à¤² à¤¸
à¤·à¤¦ à¤®à¤§
Ġà¤Ĩà¤ł à¤µà¤°
Ġà¤¬à¤¹ à¤²à¤ļ
à¤ªà¤Ł à¤¸
Ġà¤¶à¤¹ à¤Ŀ
à¤¸à¤ķ à¤¹
Ġà¤ħà¤µ à¤Ĺ
à¤¨à¤¨ à¤¨
à¤ľà¤Ĺ à¤®
Ġà¤ĳà¤« à¤°à¤¸
Ġ4 10
à¤ıà¤® à¤ıà¤®à¤ļ
à¤ıà¤® à¤ıà¤«à¤¬
à¤ıà¤® à¤Ĩà¤°à¤ķà¤¡
à¤¬à¤³ à¤ķà¤Ł
Ġà¥« à¥¨à¥§
Ġà¥« à¥§à¥§
Ġà¥« à¥¯à¥¯
Ġà¥ª à¥¨à¥§
à¤¨à¤Ĺ à¤°à¤¸à¤¹
Ġà¤Ĩà¤Ī à¤®
Ġà¤Ĩà¤Ī à¤ľà¤µà¤³
Ġà¤īà¤² à¤Łà¤µ
Ġà¤Ĩà¤µà¤¡ à¤¨
Ġà¤Ĩà¤µà¤¡ à¤¹
à¤ıà¤¨ à¤ıà¤ķ
à¤ıà¤¨ à¤Īà¤ª
Ġà¤µà¤¡ à¤ĸà¤³
Ġà¤ıà¤¨ à¤ıà¤®à¤¡
Ġà¤īà¤¡ à¤ª
à¤ıà¤« à¤ıà¤²
Ġà¤ªà¤°à¤µ à¤²
Ġà¤ªà¤°à¤µ à¤¡à¤²
Ġ6 65
Ġà¥¬ à¥¨à¥¦
Ġ7 19
Ġà¤¢ à¤¬
à¤¸à¤Ĺ à¤Ł
Ġà¤¬à¤¸ à¤Ł
Ġà¤¬à¤¸ à¤ªà¤²
Ġà¤¬à¤¸ à¤µà¤°à¤ļ
à¤ıà¤² à¤ĵà¤ıà¤¸
Ġà¥Ń à¥§à¥¨
Ġà¤ļà¤µ à¤¹
Ġ8 15
Ġ8 75
à¤¸à¤³ à¤Ĺ
Ġà¥® à¥§à¥«
Ġà¥® à¥®à¥¦
in i
Ġ15 0000
à¤Łà¤® à¤³à¤²
à¤Ĩà¤ľ à¤ħà¤ĸ
Ġà¥¯ à¥¦à¥¦à¥¦
Ġà¥¯ à¥¨à¥©
Ġà¥¯ à¥Ńà¥«
à¤²à¤ķà¤° à¤ª
Ġà¤ªà¤³ à¤µà¤¤
Ġà¥§à¥¨ à¥§à¥«
Ġà¥§à¥¯ à¥ªà¥¨
Ġà¤¶à¤¤à¤ķ à¤¹
Ġà¤ĩà¤² à¤Ł
à¤³à¤ļ à¤Ł
an s
an aly
Ġà¤ķà¤³ à¤®
at t
Ġ25 3
Ġà¤ıà¤« à¤Ĩà¤°à¤Ĩà¤¯
à¤¯à¤°à¤¸ à¤¸
Ġc at
Ġc ell
19 42
Ġà¤Ĩà¤ª à¤¤à¤ķ
Ġs s
à¤Ĭà¤² à¤Ł
à¤¯à¤£ à¤°
Ġà¤ªà¤² à¤Łà¤¨
Ġà¥§à¥ª à¥¨à¥§
Ġ16 000
Ġp e
Ġp er
Ġà¤°à¤® à¤®
Ġ21 00
à¤ĩà¤Ł à¤¦
Ġm ic
Ġm ca
à¤Łà¥Ł à¤¸
Ġà¤®à¤¶ à¤¹
Ġà¤Ĩà¤Īà¤µà¤¡ à¤²
à¤µà¤¹ à¤¨à¤ļ
Ġà¤Ŀà¤Łà¤ķ à¤£
Ġr ps
Ġr ow
le ase
Ġv al
Ġv il
Ġt op
Ġ22 00
Ġn h
di r
Ġà¥¨à¥© à¥¦à¥¦
22 5
Ġ[ [
it ion
Ġf oot
Ġà¤ħà¤µà¤ĺà¤¡ à¤¹
Ġ28 5
ipl à¤®à¤§
Ġg as
Ġ70 8
à¤łà¤£ à¤ķà¤°
Ġ23 8
Ġ80 8
à¥§à¥¦ à¥©
Ġà¥©à¥Ń à¥§
Ġà¥¬à¥¦ à¥ª
Ġà¤Ľà¤³ à¤¹
à¤¬à¤Ł à¤Ĺ
Ġh is
ra k
ra vi
Ġà¤²à¤ĸà¤¨ à¤Ĭà¤¤
10 9
10 80
Ġà¥Ńà¥¦ à¥«
Ġk ashmir
Ġà¥¨à¥¦à¥§à¥® à¥¨à¥¦à¥§à¥¯
Ġà¥®à¥¦ à¥§
Ġà¥©à¥¬ à¥¨
Ġ45 2
à¤¬à¤ķ à¤³à¤¤
Ġ36 1
Ġ48 8
ul ar
Ġà¥¯à¥¦ à¥«
ad a
ad hav
à¤¬à¤°à¤ª à¤ĸ
Ġ34 1
Ġà¥ªà¥® à¥©
Ġà¥ªà¥® à¥®
hi gh
Ġà¤¦à¤¡ à¤ªà¤¤
12 9
Ġ33 10
Ġ2015 2016
im d
Ġe l
Ġe pf
Ġe ffect
Ġà¥©à¥ª à¥Ń
à¤į à¤°
and ey
Ġà¥¬à¥ª à¥ª
Ġà¤®à¤ķ à¤¬à¤°
Ġ38 6
Ġà¥©à¥® à¥®
Ġà¥©à¥® à¥¦à¥¦
Ġ42 6
à¤ıà¤¸à¤Ī à¤Ĩà¤°
Ġà¥ªà¥ª à¥ª
Ġà¥ªà¥© à¥§
Ġ56 0
à¥§à¥§à¥ ¬
Ġà¥¬à¥« à¥ª
Ġà¥¬à¥« à¥¦à¥¦
Ġ65 00
Ġà¥«à¥« à¥®
Ġj ay
à¤²à¤ĸà¤¨ à¤Ĭà¤ļ
Ġ47 1
à¤ĩà¤« à¤Ł
Ġ43 9
Ġ52 9
aa k
Ġ46 8
om an
Ġà¤¹à¤¸à¤¤ à¤ĸ
Ġ39 2
Ġà¥«à¥¬ à¥Ń
Ġà¥«à¥ª à¥ª
Ġà¥ªà¥Ń à¥®
Ġ59 3
70 8
ak sh
Ġà¥¬à¥Ń à¥¨
23 8
ai k
à¤Īà¤ıà¤® à¤®à¤§
Ġà¤ªà¤¬ à¤®
Ġà¥«à¥® à¥¦
à¥¬à¥¦ à¥Ń
Ġà¥®à¥« à¥©
Ġà¥Ńà¥¬ à¥«
Ġre act
Ġà¤Ĩà¤¯à¤ı à¤ıà¤«
Ġà¥Ńà¥ª à¥«
Ġà¥¬à¥¬ à¥ª
ub le
Ġà¥¬à¥® à¥«
Ġà¥¨à¥¦à¥§à¥¨ à¥§à¥©
ig er
ig il
à¥Ńà¥¦ à¥®
Ġà¤Ĩà¤¯à¤ıà¤¸ à¤ĵ
à¥ªà¥¦ à¥«
à¤§à¤¡à¤ķ à¤ªà¤£
lo ks
Ġà¥®à¥ª à¥¯
Ġ76 2
Ġpost er
Ġu k
à¤Ĩà¤¯à¤ıà¤¸ à¤Ĩà¤¯à¤ļ
op po
ot ive
Ġà¤Ĩà¤¯à¤ĵà¤ıà¤¸ à¤µà¤°
Ġy oga
Ġy outube
cl usion
Ġ197 6
Ġra ut
à² °
à¤ıà¤®à¤Ĩà¤¯ à¤Ī
à¯ Ī
Ġco un
Ġà¤ıà¤¨à¤ıà¤ļ à¤Ĩà¤°à¤¸
Ġà¤ıà¤¨à¤ıà¤ļ à¤ıà¤Ĩà¤¯
Ġsp g
Ġà¤¨à¤ķà¤³à¤¤ à¤ªà¤£
à¤°à¥Ł à¤¤
ib er
Ġà¤Ĩà¤ĩ à¤¸à¤ķ
Ġam b
Ġà¤®à¤¶à¤° à¤«
Ġà¥§à¥¯à¥¦ à¥©
fi le
fi eld
àª ¾
à¤Łà¤Ĩà¤Ĭ à¤Łà¤µà¤°
Ġte aser
ck ing
Ðµ Ð½
ft ware
Ġme chan
Ġim f
à¤ĵà¤³ à¤ĸà¤¤
inter vention
Ġman ag
dc gi
Ġair port
Ġson y
Ġà¥¨à¥¦à¥¨ à¥§à¥¨à¥¨
ruct ur
jo ules
Ġà¤®à¤°à¤ķ à¤ľà¤ļ
Ġà¤«à¤£ à¤«
Ġà¤ıà¤®à¤ıà¤¸à¤ıà¤® à¤Īà¤ļ
arn ab
âĢİ )
Ġmal ik
Ġchampionship s
Ġà¤Ĺà¤Ŀ à¤¨à¤µ
ivers ary
hydro dynamic
udd in
vers e
Ġif s
Ġur l
Ġaug ust
ïģ ®
cos oc
Ġà¤ĸà¤µà¤ļ à¤Ł
indep endence
Ġà¤ħà¤²à¤¸ à¤Łà¤µ
Ġchan nel
semiconduct or
Ġmt nl
bserv ational
Ġend game
cw g
Ġagain st
Ġsecur ity
Ġtem ple
Ġà¤ľà¤¨à¤ļ à¤³à¤µà¤³
cann es
akosh govin
Ġ56767 8
loks abha
3 99
4 000
` `
a ap
b et
b and
c d
c ut
e k
e en
g l
i x
k c
k y
l ip
m ad
n à¤¯
n ta
n sa
o st
p on
p op
p pf
p oc
r en
r esh
r na
s ip
s ac
t em
u el
u ae
v ind
x pos
z uk
Â °
Â ³
Ð ¿
Ñ ĸ
â Ļ
Ġ à¥ĭ
Ġ Ñģ
à¤° à¤ħà¤¨
à¥ĩ ]
à¥Ģ *
à¤¤ à¤®à¤ķ
à¤¤ à¤Ńà¤°
à¤¯ à¤¤à¤²
à¤¯ à¤±à¤¯
à¤¯ à¤Łà¥Ł
à¤² à¤¡à¤²
à¤² à¤Ĺà¤£
à¤² à¤¨à¤µ
à¤² à¤®à¤¹
à¤² à¤µà¤ķ
à¤² à¤Ĺà¤³à¤¤
à¤¨ à¤¨à¤µ
à¤¨ à¤ħà¤¸
à¤¨ à¤°à¤ļà¤¨
à¤¨ à¤ĵà¤µ
à¤Ĥ à¥ģ
à¤¹ à¤¸à¤¹
à¤¹ à¤°à¤ķà¤°
à¤ķ à¤Ĺà¤£
à¤ķ à¤³à¤£
à¤ķ à¤ħà¤¨
à¤ļ à¤ľ
à¤ļ à¤·
à¤ļ à¤®à¤ķ
à¤µ à¤ªà¤¤
à¤¸ à¤Ĩà¤¯
à¤¸ à¤µà¤ļ
à¤¸ à¤µà¤ª
à¤¸ à¤¬à¤¸
à¤£ à¤Ŀ
à¤£ à¤¯à¤²
à¤£ à¤īà¤¤
à¤£ à¤ĸà¤Ł
à¤® à¤ªà¤²
à¤® à¤°à¤²
à¤® à¤Ĺà¤²
à¤® à¤Ĺà¤¤
à¤® à¤¸à¤²
à¤® à¤¸à¤®
Ġà¤Ĩ à¤ĩà¤¨
Ġà¤ķ à¤µà¤°
Ġà¤ķ à¤¸à¤ļ
Ġà¤ķ à¤Łà¤ķà¤ļ
Ġà¤ķ à¤Łà¤²à¤°
Ġà¤ķ à¤®à¤¨à¤¶
à¤ª à¤¡à¤Ĺ
à¥ģ à¥Ĥ
à¥ģ âĢĮ
Ġà¤¸ à¤ĺ
Ġà¤¸ à¤ķà¤°
Ġà¤¸ à¤Ĩà¤¦à¤¤
à¤¦ à¤ªà¤°
à¤¦ à¤¸à¤®
Ġà¤ª à¤°à¤®à¤¨
Ġà¤® à¤ĸà¤²
à¤Ł à¤¸à¤²
à¤Ł à¤Ľ
à¤Ł à¤Ĳà¤µà¤ľ
à¤Ł à¤°à¤ķà¤¨
à¤Ĺ à¤°à¤¶
à¤Ĺ à¤¦à¤¤
à¤Ĺ à¤¬à¤¦à¤²
Ġà¤ħ à¤ł
à¤§ à¤ĺ
Ġà¤¨ à¤¢
Ġà¤¨ à¤±
Ġà¤¨ à¤³à¤ª
à¤ľ à¤®à¤ļ
Ġà¤µ à¤Łà¤ª
à¤¶ à¤¸à¤¨
à¤¶ à¤°à¤ļà¤¨
à¤¡ à¤ĩ
à¤¡ à¤¬à¤¦
à¤¡ à¤°à¤ķà¤¡
à¤¡ à¤ĵà¤³à¤ĸ
Ġà¤¦ à¤µà¤¡à¤£
Ġà¤¯ à¤®à¤²
à¤³ à¤¬à¤°
à¤· à¤®à¤¹
à¤¬ à¤Ŀ
à¤¬ à¤®à¤ļ
à¤¬ à¤¬à¤²
à¤¬ à¤°à¤¸à¤¹
Ġà¤ľ à¤ĸà¤¡
Ġà¤ķà¤° à¤Ńà¤°à¤£
à¤ĸ à¤³à¤ķà¤°
Ġà¤¬ à¤®à¤¨
Ġà¤¬ à¤¸à¤¹
Ġà¤¬ à¤¸à¤¦
à¤¥ à¤°à¤ļ
à¤¥ à¤®à¤ļ
à¤µà¤° à¤Ł
à¤Ń à¤¡
Ġà¤Ĺ à¤Łà¤°
Ġà¤Ĺ à¤²à¤ķ
Ġà¤Ĺ à¤Łà¤¤
Ġà¤Ń à¤¨à¤µ
Ġà¤ī à¤ľà¤¬
à¤°à¤ķ à¤°à¤®
à¤°à¤ķ à¤±à¤¯
à¤°à¤¤ à¤Ńà¤ķ
à¤°à¤¤ à¤ĩà¤Łà¤²
à¤¤à¤° à¤®à¤¨
Ġà¤ĸ à¤ķ
Ġà¤ı à¤§
Ġà¤ı à¤®à¤§
Ġà¤ı à¤ıà¤®à¤Ł
à¤Ī à¤¤à¤ķ
à¤Ī à¤¡à¤®à¤§
à¤Ī à¤¤à¤ªà¤£
à¤Ī à¤ĳà¤ķ
à¤ĺ à¤µà¤¦
à¤Ĩ à¤ĵ
à¤Ĩ à¤ĩà¤¸
Ġà¤« à¤°à¤ªà¤Ł
à¤¢ à¤±à¤¯
à¤ħ à¤°à¤£
à¤ħ à¤ĸà¤²
à¤ħ à¤°à¤¸à¤¹
Ġà¤ıà¤ķ à¤°à¤ª
Ġà¤ıà¤ķ à¤Łà¤ķ
Ġà¤ıà¤ķ à¤Ĺà¤ł
à¤« à¤ª
à¤« à¤¶
à¤« à¤ķà¤°
Ġà¥ ĺ
à¤ķà¤° à¤¨à¤Ĺà¤°
à¥Ī à¥Ī
Ġà¤ĩ à¤¸à¤µ
Ġà¤¸à¤° à¤¬
à¤¯à¤® à¤ķà¤¡
Ġà¤¸à¤® à¤Ī
à¤°à¤¸ à¤¸
à¤Ĭ à¤Łà¤°
à¤Ĭ à¤ľà¤°
à¤Ĭ à¤¥à¤®
à¤Ĭ à¤Ŀà¤°
à¤Ĭ à¤ªà¤°à¤¹
Ġà¤īà¤ª à¤Ł
à¤Łà¤¨ à¤°à¤²
à¤Ŀ à¤®à¤¨
à¤²à¤¯ à¤¸
à¤²à¤¯ à¤¦
Ġà¤¤à¤° à¤¦
Ġà¤Ĩà¤° à¤Ĩà¤°à¤¬
à¤Ĺà¤² à¤Łà¤µ
Ġà¤¨à¤µ à¤®à¤¤à¤¦
à¤¸à¤° à¤Ń
à¤°à¤¦ à¤¯à¤¦
à¤°à¤ªà¤Ł à¤²
à¥¦ à¥§à¥¦
Ġà¤µà¤° à¤ªà¤°
à¤Ĺà¤¤ à¤¸
âĢ ª
à¤ľà¤¨ à¤Ĺ
à¤¬à¤Ī à¤¤à¤°
à¤Łà¤° à¤ľà¤µà¤³
Ġà¤Ĩà¤¯ à¤Ĩà¤¯à¤¸
Ġà¤Ĩà¤¯ à¤Ĩà¤°à¤ıà¤¸
à¤¯à¤² à¤ķ
à¤¯à¤² à¤¡à¤ļ
à¤ªà¤¨ à¤¨
à¤ĩ à¤ªà¤°
à¤¸à¤¨ à¤µà¤°
Ġà¤ĳ à¤°à¤Ĺ
à¤¯à¤ļ à¤ļ
à¤¤à¤µ à¤ļ
à¤£à¤¯ à¤¦
Ġà¤®à¤¤ à¤¦à¤°
à¤Ĩà¤¯ à¤Īà¤¡
à¤Ĩà¤¯ à¤ıà¤¸à¤ıà¤¸à¤ıà¤«
à¤¨à¤µ à¤®
à¤¨à¤µ à¤§
à¤¸à¤¤ à¤ľ
à¤µà¤¨ à¤¨
à¤µà¤¨ à¤ķà¤°
à¤ī à¤µ
à¤ī à¤ķà¤³
à¤ī à¤²à¤¹
à¤ªà¤¦ à¤Ń
Ġà¤ħà¤¤ à¤¹à¤°
Ġà¤®à¤¨ à¤¹
Ġà¤ħà¤ľ à¤¸
à¤§à¤¨ à¤¦
Ġà¤ĸà¤° à¤ĸà¤°
Ġà¤ħà¤¦ à¤¬
Ġà¤ľà¤¨ à¤Ĩà¤ķ
Ġà¤¸à¤¤ à¤¬
Ġà¤ķà¤ª à¤µà¤°
Ġà¤ķà¤¸ à¤®
Ġà¤īà¤ªà¤ļ à¤°
à¤ķà¤°à¤£ à¤µ
à¤Ńà¤µ à¤¨à¤ļ
à¤¨à¤° à¤Ī
à¤Ĩà¤° à¤ıà¤²à¤¡
à¤¹à¤² à¤¹
Ġà¤ªà¤µ à¤Īà¤ļ
à¤ªà¤ķ à¤ªà¤¦
à¤ĸà¤° à¤Ĺ
à¤ħà¤¨ à¤¨à¤¸
à¥Ł à¤®
à¤ķà¤£ à¤¸à¤¹
à¤¨à¤¨ à¤¥
à¤¨à¤ķ à¤¹
à¤Ĺà¤µ à¤Ĺà¤³
à¤¨à¤¸ à¤µà¤°
Ġà¤Ĩà¤ĺ à¤¡
à¤ıà¤® à¤¸à¤®
à¤ıà¤® à¤Ĩà¤¯à¤ı
à¤ıà¤® à¤ıà¤¨à¤¸
à¤ľà¤® à¤ĸ
à¤¯à¤° à¤«
Ġà¥« à¥§à¥©
à¤¨à¤Ĺ à¤°à¤¦
Ġà¤Ĩà¤Ī à¤¡
Ġà¤Ĩà¤Ī à¤¨à¤¸
Ġà¤īà¤Ń à¤¯à¤ļà¤°
Ġà¤īà¤² à¤¹à¤ķ
à¤ķà¤ļ à¤¯
à¤¤à¤¦ à¤¯
à¤ķà¤¨ à¤³
à¤ıà¤¨ à¤ıà¤®à¤¸
à¤ıà¤¨ à¤Ĩà¤°à¤Ĩà¤¯
Ġà¤¬à¤¨ à¤¶
Ġà¤Ī à¤ıà¤¸à¤ª
à¤Ĭà¤¸ à¤¬
Ġà¤ıà¤¸ à¤Ĩà¤°à¤ı
Ġà¤ıà¤¸ à¤ıà¤²à¤Ĩà¤°
à¤ľà¤£ à¤Ĺ
à¤Łà¤£ à¤ĸ
Ġà¤ıà¤¨ à¤Ŀ
Ġà¤īà¤¡ à¥Ł
20 3
à¤ķà¤Ł à¤ķà¤°
à¤ıà¤« à¤ķà¤¡
à¤ıà¤« à¤ıà¤®
Ġ6 13
Ġà¥¬ à¥§à¥Ń
Ġà¤¸à¤¨ à¤¦à¤¶
Ġà¤ıà¤® à¤ıà¤²
Ġ10 75
Ġà¤ķà¤ł à¤ª
Ġ7 23
Ġ7 999
à¤¸à¤Ĺ à¤¡à¤²
à¤ıà¤² à¤¹
à¤ıà¤² à¤Ĩà¤¯
à¤ıà¤² à¤ıà¤ļ
à¤ıà¤² à¤ıà¤Ł
Ġà¥Ń à¥§à¥©
Ġà¥Ń à¥Ńà¥¦
Ġà¥§à¥¦ à¥§à¥¨
à¤ħà¤ª à¤ª
à¤Īà¤Ł à¤¦
Ġà¤²à¤¢à¤¤ à¤¹
à¤¡à¤¸ à¤µà¤°
à¤¹à¤°à¤£ à¤¹
à¤¡à¤ª à¤¡
Ġà¤ĺà¤¡ à¤¯
à¤ĩà¤¨ à¤¶
à¤ĩà¤¨ à¤¸à¤¹
Ġà¤§à¤¨ à¤§
in al
Ġ15 16
Ġ15 999
Ġà¥¯ à¥¨à¥¦
Ġà¥¯ à¥¨à¥§
Ġà¤ħà¤« à¤¤
Ġà¤ħà¤« à¤¸
Ġ12 50
Ġ9 22
Ġ9 0000
à¤¶à¤® à¤¯
Ġà¥§à¥¯ à¥¨à¥¦
Ġà¥§à¥¯ à¥§à¥¯
Ġà¥§à¥¯ à¥ªà¥«
à¤ıà¤ļ à¤ķ
à¤ıà¤ļ à¤ĵà¤¨
Ġà¤ĺà¤¡à¤¤ à¤¯
Ġà¥§à¥« à¥¨à¥¦
Ġà¥§à¥« à¥¨à¥§
Ġ11 21
Ġà¤§à¤¡à¤ķ à¤®à¤§
Ġ14 15
Ġ14 999
à¤£à¤ķ à¤¥
à¤°à¤¬ à¤ķ
Ġà¤ıà¤« à¤ı
Ġà¤ıà¤« à¤ıà¤¸à¤Ĩà¤¯
ar ies
à¤°à¤¡ à¤¯
19 4
19 48
19 64
19 52
Ġà¤Ĩà¤ª à¤µà¤°
à¤¨à¤Ī à¤¯
à¤¨à¤Ī à¤ľà¤µà¤³
Ġ18 21
Ġ13 000
Ġs m
Ġs un
Ġs te
Ġs oc
à¤¦à¤Ĺ à¤¡à¤ļ
er ing
à¤£à¤µ à¤ł
Ġà¤§à¤°à¤£ à¤«
Ġà¥©à¥¦ à¥ªà¥¦
à¤¬à¤°à¤® à¤ļ
Ġp ass
Ġp uj
à¥§à¥¯ à¥Ńà¥®
à¤°à¤« à¤Łà¤²
à¤ªà¤°à¤¤ à¤²
Ġà¤Ńà¤°à¤¤ à¤¸
Ġm u
Ġm aj
Ġm urder
à¤¤à¤¬ à¤§
Ġà¥§à¥Ń à¥¨à¥§
Ġa v
à¤¶à¤¹ à¤°à¤ª
Ġà¤ľà¤² à¤ľà¤¨
Ġà¤¨à¤Ĭ à¤ª
Ġà¤ķà¤ļ à¤°à¤£
Ġr eo
Ġr ape
le y
Ġt urbine
st r
st andard
Ġn or
Ġn av
Ġn sc
Ġn ick
Ġn ca
à¤Ĩà¤Ī à¤¶
à¤µà¤Ĺà¤£ à¤²
Ġf ace
Ġf ree
Ġà¥¨à¥¬ à¥¦à¥¦
Ġg rand
Ġg lob
et h
et y
Ġà¤ıà¤ħ à¤°à¤®
à¤īà¤ª à¤ħà¤§
à¤µà¤¦ à¤®à¤£
Ġw ater
à¥§à¥¦ à¥ª
Ġd on
Ġd ate
Ġd ata
à¤Īà¤ĵ à¤ļ
Ġà¤¸à¤°à¤³ à¤ªà¤£
ir a
ir d
21 1
à¤¬à¤Ł à¤¯
Ġ0 50
is han
à¤§à¤ª à¤¥à¤ķ
co met
ra d
Ġà¥ªà¥« à¥©
un sc
18 3
Ġà¤īà¤ªà¤ľ à¤¤à¤ļ
10 6
up char
Ġà¤ķà¤£ à¤ķà¤£
Ġà¤ķà¤£ à¤ĸà¤°à¤¤
à¤Ĺà¤ªà¤¤ à¤®à¤§
Ġl ook
à¤Ĩà¤ª à¤ķà¤¡
Ġ48 1
ul kar
re m
à¥§à¥¨ à¥©
Ġà¤ıà¤ľ à¤¬à¤¸
Ġ34 4
Ġà¥ªà¥® à¥§
Ġà¤ħà¤Ŀ à¤°à¤µà¤°
hi m
Ġà¥¦ à¥§à¥«
à¤į à¤ªà¤ļ
el f
el y
Ġ64 7
11 1
ur u
Ġà¥©à¥® à¥¨
à¥§à¥ª à¥«
Ġ54 5
Ġj o
Ġj ohar
Ġà¤Ĩà¤¶à¤¯ à¤ĺà¤¨
Ġà¥ªà¥¬ à¥¦
Ġ47 2
Ġà¥¬à¥© à¥¬
Ġ43 6
Ġà¤ľà¤®à¤¤ à¤ļ
Ġà¥«à¥¨ à¥Ń
av is
Ġà¤¹à¤¸à¤¤ à¤ļ
Ġà¥«à¥ª à¥¬
Ġà¥ªà¥Ń à¥¨
Ġà¥ªà¥Ń à¥¯
Ġà¥¬à¥¨ à¥Ń
Ġà¤ĵà¤ĺ à¤³à¤¤
Ġà¤Ĩà¤¸à¤¨ à¤ķ
ak ar
Ġà¤Ĩà¤Ĭà¤Ł à¤¡
Ġà¥¬à¥Ń à¥«
Ġà¤ĵà¤Ŀ à¤°à¤¤
60 7
Ġà¤ıà¤ķà¤µ à¤Łà¤£
Ġà¥«à¥© à¥Ń
Ġà¥Ńà¥¬ à¥¯
à¥¨à¥Ń à¥«
Ġ99 5
Ġà¤Ĩà¤¯à¤ı à¤ıà¤«à¤ļ
à¥¨à¥¯ à¥©
Ġà¥¬à¥¬ à¥«
80 4
Ġà¥Ńà¥© à¥«
Ġà¥Ńà¥® à¥ª
Ġà¥Ńà¥® à¥¦à¥¦
Ġà¥¯à¥« à¥¨
Ġ74 5
Ġà¤Ĩà¤¯à¤ıà¤¸ à¤ıà¤²à¤ļ
Ġà¥Ńà¥Ń à¥¨
Ġà¥Ńà¥Ń à¥ª
Ġà¥Ńà¥Ń à¥§
à¤ħà¤¡ à¤Ĺà¤³
Ġà¤¨à¤ĸ à¤¶
Ġ68 5
Ġà¥¯à¥¯ à¥«
Ġde vi
Ġà¥§à¥¯à¥¬ à¥¬
cr yst
Ġch in
Ġch ina
29 3
à¤ıà¤Ī à¤ķà¤¡
une xpos
Ġà¤Īà¤¦ à¤ıà¤®
Ġ79 0
dr ill
Ġà¥¯à¥® à¥¨
Ġà¥¯à¥® à¥®
Ġà¥§à¥¯à¥« à¥¯
à¤¯à¤ªà¤° à¤¥
da ily
à¦ ¨
Ġ197 4
Ġra ins
Ð¾ ÑĢ
iz er
Ġbcci à¤¨
Ġ196 4
Ġà¤Ķà¤· à¤§à¤µ
à¥§à¥¯à¥® à¥«
Ġip c
pr ime
Ġà¤Ĩà¤Ĭ à¤Łà¤°
Ġà¤Ĩà¤Ĭ à¤Łà¤ķà¤®
Ñģ Ñĭ
Ġ119 11
Ġpm c
Ġpm jay
Ġto day
Ġun der
Ġà¤ıà¤¨à¤ıà¤ļ à¤ıà¤¸
Ð¾Ð »
Ġà¤«à¤ľ à¤²à¤ļ
à¥¨à¥¦à¥¨à¥¦ à¥¨à¥§
Ġle ad
à¤ªà¤µà¤¨ à¤¨
à¤ªà¤ļà¤¨ à¤¸
Ġam it
Ġà¤°à¤®à¤¨ à¤¦
Ġmy upchar
Ġà¤ªà¤²à¤Łà¤£ à¤ļ
à¤ķà¤ı à¤ĩ
Ġâ Ĩ
Ġinter face
Ðµ ÑĢ
Ġed ucation
therm od
ÑĮ ÐºÐ°
Ġsu zuk
Ġcrpf à¤ļ
Ġà¤īà¤¥à¤³ à¤ªà¤£
Ġà¤ľà¤ĸ à¤¡à¤²
Ġà¤ıà¤¨à¤Ī à¤Īà¤Ł
Ġpat el
ĠØ§ÙĦ Ø
rat ri
Ġmet oo
Ġpay tm
ris k
pay tm
Ġà¤Ĩà¤°à¤ıà¤« à¤Ĩà¤¯à¤¡
Ġher bs
glob al
Ġyo u
Ġris k
oper ating
Ġbhat t
Ġbig g
Ġsum mit
ncr b
ones ia
Ġfam ily
Ġarrest ed
nus u
Ġà¤Ĩà¤°à¤ıà¤² à¤ıà¤¸à¤ª
Ġgos wami
Ġcrit eria
viron ment
Ġquest ions
pop ulation
poc so
1 10
b es
b el
b ution
c eo
c ds
d en
e b
g t
g aut
g raph
i ifa
k g
k han
k art
k bps
k bc
l er
l ight
m os
n z
n ch
n ess
n arendramodi
o j
o bservational
r il
r cep
r ti
s f
s rh
s chool
x el
z a
Ã ¼
É Ļ
Ġ è
Ġ est
Ġ ðŁĳĩ
à¥ ĳ
à¤¾ &
à¤° à¤Ĩ
à¤° à¤Ĩà¤£
à¤° à¤¡à¤¸
à¤¯ à¤¬à¤¦
à¤¯ à¤Ĩà¤°
à¤² à¤¯à¤®
à¤¨ à¤ĸà¤°
à¤¨ à¤ıà¤ķ
à¤¨ à¤µà¤¤à¤ļ
à¤¨ à¤ħà¤«à¤Ĺ
à¤¨ à¤ħà¤¡
à¤¹ à¤°à¤¤
à¤¹ à¤īà¤¦
à¤¹ à¤ıà¤ĩà¤¨
à¤ķ à¤¸à¤ļ
à¤µ à¤¦à¤²
à¤µ à¤ľà¤¸
à¤¸ à¤Ŀ
à¤¸ à¤Ĺà¤²
à¤¸ à¤¡à¤²
à¤¸ à¤Ĺà¤°
à¤¸ à¤µà¤¨
à¤¸ à¤ľà¤®
à¤¸ à¤ıà¤²
à¤¸ à¤Īà¤ļ
à¤® à¤²à¤¯
à¤® à¤¤à¤¸
à¥ĭ âĢį
Ġà¤ķ à¤µà¤²
à¤ª à¤«
à¤ª à¤¤à¤¸
Ġà¤¸ à¤Ĺà¤²
à¤¦ à¤¦à¤°
à¤¦ à¤µà¤¸à¤¹
Ġà¤ª à¤ļà¤ķ
Ġà¤ª à¤¬à¤ļ
Ġà¤ª à¤¦à¤°à¤ļ
Ġà¤® à¤¢
Ġà¤® à¤Łà¤ķà¤°
à¤Ł à¤¶à¤¨
à¤Ł à¤ĩà¤¨
à¤Ł à¤¯à¤Ĺ
à¥Ĥ (
à¤Ĺ à¤ľà¤°
à¤Ĺ à¤¢à¤²
à¤Ĺ à¤¹à¤²
à¤Ĺ à¤µà¤°à¤¹
Ġà¤ħ à¤³à¤µà¤£
Ġà¤ħ à¤®à¤¨à¤ª
à¤§ à¤°à¤¸
à¤§ à¤°à¤¹
Ġà¤¨ à¤Ĺà¤¸
Ġà¤µ à¤£à¤Ĺ
à¤¶ à¤¦à¤°à¤®
à¤¶ à¤¸à¤®
à¤¡ à¤µà¤¸
à¤¡ à¤µà¤°à¤¹
à¤¡ à¤ªà¤®
à¤¡ à¤¸à¤¨à¤¨
Ġà¤¹ à¤¬à¤ļ
Ġà¤¯ à¤¨
Ġà¤¯ à¤®à¤°
à¤³ à¤ķà¤µ
à¤· à¤®à¤ļ
à¤¬ à¤ķà¤±
Ġà¤ľ à¤µà¤¨
Ġà¤ľ à¤¶à¤ª
Ġà¤° à¤Ĭ
Ġà¤ķà¤° à¤ªà¤²
Ġà¤ķà¤° à¤¡à¥Ł
à¤ĸ à¤¬à¤±
Ġà¤¬ à¤Ĺà¤¤
Ġà¤¬ à¤°à¤¹
Ġà¤¬ à¤Łà¤°à¤«
Ġà¤¶ à¤°à¤¨
à¤¥ à¤¸à¤¤
à¤¥ à¤¸à¤¬à¤ķ
à¤ł à¤°à¤¤
à¤Ń à¤Ī
à¤Ń à¤°à¤µà¤¸
Ġà¤Ĺ à¤Ĺ
Ġà¤Ĺ à¤¦à¤Ĺ
Ġà¤Ń à¤°à¤®
Ġà¤ħà¤¸ à¤ķ
Ġà¤ĺ à¤¤
Ġà¤Ŀ à¤¨
à¤°à¤¤ à¤Īà¤¯
à¤¤à¤° à¤Ń
à¤¤à¤° à¤®à¤¹
à¤¤à¤° à¤ļà¤¨
Ġà¤ĸ Âºà¤¯
Ġà¤ĸ à¤¬à¤±à¤¯
Ġà¤ı à¤ıà¤®à¤¸
à¤Ī à¤¸à¤®
à¤°à¤£ à¤Ń
à¤°à¤£ à¤¯à¤¦
à¤¯à¤ķ à¤²à¤®à¤§
à¤ĺ à¤ªà¤£
à¤Ĩ à¤Īà¤¡
à¤Ĩ à¤ķà¤²à¤¨
à¤Ĩ à¤łà¤ª
Ġà¤« à¤¤à¤¹
à¤¢ à¤°à¤ķ
à¤ħ à¤µà¤°
à¤ħ à¤¬à¤°
à¤ħ à¤²à¤¨
à¤ħ à¤ķà¤¸
à¤ħ à¤¥à¤°
à¤°à¤® à¤®
à¤°à¤® à¤£à¤ķ
Ġà¤Ł à¤£
Ġà¤Ł à¤«
à¤« à¤ķà¤¡
à¤« à¤°à¤¶
à¤« à¤¬à¤°
Ġà¥ ł
à¤°à¤µ à¤ªà¤¤
à¤µà¤¸ à¤¨à¤ķ
à¤µà¤¸ à¤Ĩà¤§
Ġà¤ĩ à¤Ń
Ġà¤ĩ à¤ĺ
Ġà¤ĩ à¤ķà¤°
Ġà¤ªà¤° à¤³à¤ļ
Ġà¤ªà¤° à¤¶à¤°
à¥ħ )
à¤ķà¤¡ à¤ķà¤¡
à¤ķà¤¡ à¤¸à¤¹
à¤± à¤ĸ
à¤¯à¤® à¤Ĩà¤§
à¤µà¤² à¤¹
à¤ı à¤¨à¤°
à¤ı à¤ħà¤°à¤ļ
à¤ı à¤Ĩà¤Ŀà¤®
à¤Ĭ à¤¸à¤¦
à¤Ĭ à¤ķà¤¹
Ġà¤ħà¤¨ à¤¬
Ġà¤īà¤ª à¤¬
Ġà¤īà¤ª à¤¶à¤¹à¤°à¤ª
à¤Łà¤¨ à¤°à¤¸
à¤Ŀ à¤°à¤¤
à¤Ŀ à¤ķà¤¡
à¤Ŀ à¤°à¤¸
à¤Ŀ à¤²à¤¨
à¤Ŀ à¤¨à¤¸
Ġà¤ķà¤°à¤¤ à¤¯
Ġà¤¡ à¤¯
Ġà¤¡ à¤¨
à¤µà¤¡ à¥Ł
à¤°à¤² à¤²
Ġà¤Ĩà¤° à¤ıà¤ıà¤«
Ġà¤¨à¤µ à¤Ĺ
à¤Łà¤ķ à¤¶
à¤µà¤¤ à¤³
à¤¡à¤² à¤²
Ġà¤ħà¤¸à¤¤ à¤¨
à¤°à¤¶ à¤ļ
âĢ ¬
à¤¬à¤Ī à¤°
à¤¬à¤Ī à¤¦à¤°à¤®
Ġà¤¸à¤¹ à¤ķà¤°
à¤Ĺà¤³ à¤®
à¤Īà¤² à¤¸à¤¹
à¤Īà¤² à¤ħà¤¶
à¤¸à¤² à¤²
à¤¸à¤² à¤ķà¤°
à¤ĩ à¤¨à¤µ
à¤ĩ à¤¡à¤¸
à¤ĩ à¤²à¤®
à¤ĩ à¤²à¤ª
à¤ĩ à¤¨à¤²à¤®à¤§
à¤ľà¤¯ à¤¨à¤Ĺà¤°à¤®
Ġà¤ĳ à¤°à¤¬
à¤·à¤ķ à¤ª
Ġà¤īà¤¦ à¤µ
Ġà¤īà¤¦ à¤¦
Ġà¤īà¤¦ à¤¬à¤¤
Ġà¤īà¤¦ à¤¯à¤µ
Ġà¤¨à¤° à¤Ńà¤ķ
Ġà¤ªà¤¦ à¤§
à¤¨à¤µ à¤¯
à¤ī à¤ĸ
à¤ī à¤«
Ġà¤ĵ à¤Ĺà¤²
Ġà¤ĵ à¤¤à¤¤
Ġà¤ĵ à¤¬à¤¡
Ġà¤ĵ à¤ıà¤¸à¤¡
à¤®à¤² à¤µà¤°
à¤¦à¤µ à¤µà¤°
à¤ĸà¤® à¤¯
à¤¯à¤¨ à¤ķ
à¤¯à¤¨ à¤ķà¤¡
Ġà¤ľà¤£ à¤ļ
à¤ķà¤¤ à¤¤
à¤ķà¤¤ à¤³
à¤¦à¤¨ à¤ķà¤°
à¤¦à¤¨ à¤ªà¤°
Ġà¤¤à¤¸ à¤¬
à¤ŀ à¤ªà¤¦
Ġà¤Ĩà¤ľ à¤®à¤Ĺà¤¢
Ġ20 26
Ġ20 28
à¤§à¤µ à¤Ĺà¤¡
Ġà¤īà¤® à¤ľà¤²
Ġà¤®à¤¦à¤¤ à¤Ĺ
Ġà¤¬à¤¦à¤² à¤µà¤²
Ġà¤¬à¤¦à¤² à¤µà¤£
à¤²à¤ļ à¤ķ
à¤ıà¤¸ à¤ĵà¤ª
à¤¯à¤µ à¤¯
à¤ļà¤¨ à¤¸à¤¹
à¤ļà¤¨ à¤¶à¤ķ
Ġà¤Ĩà¤¶ à¤¯à¤µ
Ġ3 22
à¤Ĩà¤° à¤µà¤°
à¤¹à¤² à¤®
Ġà¤Ĩà¤ł à¤¡
Ġà¤Ĩà¤ł à¤¨à¤Ĭ
Ġà¤¬à¤¹ à¤²à¤¨
à¤ľà¤² à¤®
à¤¯à¤ª à¤¹
Ġà¥¨à¥¦ à¥®à¥©
Ġà¤¶à¤¹ à¤ķ
à¤Ĩà¤¤ à¤ªà¤°
Ġà¤¸à¤¦ à¤®
à¤¸à¤ķ à¤°à¤¤
à¤£à¤§ à¤µà¤²
à¤¨à¤ķ à¤¨
Ġ4 22
Ġ4 12
Ġ4 14
à¤ıà¤® à¤ıà¤®à¤Ł
à¤¬à¤³ à¤ľà¤¬à¤°
à¤¯à¤° à¤Ĺ
à¤¨à¤Ĺ à¤Ł
à¤ķà¤¨ à¤ħà¤®
à¤ħà¤® à¤°à¤¸
Ġà¤Ī à¤·
Ġà¤Ī à¤Ĺà¤²
Ġà¤ıà¤¸ à¤Ĩà¤¯
Ġà¤°à¤£ à¤ĸ
Ġà¤ıà¤¨ à¤ıà¤«à¤¸
à¤ķà¤¦ à¤ļ
à¤ķà¤Ł à¤¹
à¤¡à¤¨ à¤¦
Ġà¥¬ à¥§à¥®
Ġà¥¬ à¥¨à¥ª
Ġà¤ıà¤® à¤ıà¤¸à¤¸
Ġ7 99
Ġ7 24
Ġ7 13
à¤¨à¤Ĺà¤° à¤ľà¤µà¤³
à¤¡à¤° à¤ªà¤£
Ġà¤¢ à¤®à¤¢
à¤ıà¤² à¤Ĩà¤°à¤®à¤§
Ġà¥Ń à¥§à¥®
à¤¶à¤ļ à¤¤
Ġà¤¨à¤¸ ÃŃà¤Ĺà¤ķ
Ġ8 27
à¤°à¤¥à¤® à¤ª
Ġà¥® à¥¨à¥®
à¤ħà¤² à¤¹
à¤®à¤£ à¤µ
Ġà¥¯ à¥¨à¥¨
Ġà¥¯ à¥§à¥§
Ġà¥¯ à¥©à¥«
Ġà¥¯ à¥®à¥¦
Ġà¤ħà¤« à¤¸à¤°
Ġ12 15
Ġ12 13
à¤Ĺà¤¸ à¤ªà¤£
Ġ9 19
Ġ9 28
Ġ9 34
Ġà¤Ĩà¤¦à¤° à¤¯
Ġà¤Ĺà¤£ à¤®
à¤²à¤ª à¤°à¤¤
Ġà¤®à¤¸ à¤°à¤¤
Ġà¥§à¥¯ à¥©à¥¦
Ġà¥§à¥¯ à¥ªà¥¦
Ġà¥§à¥¯ à¥ªà¥ª
à¤¦à¤® à¤®
à¤ıà¤ļ à¤Ī
à¤ıà¤ļ à¤ıà¤¸à¤¬
Ġà¤į à¤Ĺà¤°
on d
Ġ50 5
at r
Ġ19 46
Ġc re
à¤ªà¤µ à¤¨à¤ļ
Ġà¤ıà¤² à¤Ĩà¤°
à¤¨à¤Ī à¤¬
Ġ18 60
Ġs an
Ġs ind
Ġs hiv
Ġs ena
er ob
er gy
al m
Ġà¥§à¥© à¥¦à¥¦à¥¦
Ġp ul
Ġp ort
Ġp hone
Ġp nb
Ġp slv
ic y
à¥§à¥¯ à¥¬à¥¨
Ġ21 11
or der
Ġm un
Ġm im
Ġm ig
Ġà¥§à¥¦à¥¦ à¥«
Ġà¤ľà¤¨à¤°à¤² à¤¨
Ġa h
Ġa y
Ġa udi
Ġa shes
à¤¯à¤¬à¤° à¤¨
en ces
Ġb el
Ġb ab
Ġb atch
Ġb acteria
Ġà¤īà¤²à¤Ł à¤¹
Ġr os
Ġr ashi
Ġt i
Ġt end
Ġt ran
am o
Ġn ep
Ġà¥¨à¥© à¥«à¥¬
Ġà¥¨à¥© à¥®à¥Ń
à¤Ĩà¤Ī à¤¸à¤²
Ġà¤¶à¤® à¤µà¤£
à¤Ĩà¤¯à¤ı à¤¸à¤¨
à¤Ĩà¤¯à¤ı à¤²à¤¨
Ġf ra
Ġf un
Ġg l
à¤īà¤ª à¤ª
à¤¹à¤ľ à¤°à¤¤
Ġin x
Ġin de
à¥§à¥¦ à¥¯
Ġd em
Ġà¤¢à¤µà¤³ à¤£
Ġà¤ķà¤®à¤² à¤ľ
Ġ32 50
Ġ31 4
Ġ27 1
Ġh as
Ġh im
à¤°à¤¹à¤£ à¤ķ
ra structure
un ion
Ġà¤¦à¤£ à¤ķà¤Ł
ol k
ol low
à¤ıà¤ı à¤®à¤§
à¤ıà¤ı à¤ıà¤¨à¤Ĩà¤°à¤¸
Ġà¤ķà¤£ à¤Ńà¤°à¤¹
Ġà¤ĵà¤¢ à¥Ł
Ġl ic
Ġl it
Ġl rs
Ġ36 6
Ġ36 7
à¤Ĩà¤¯à¤ıà¤® à¤ıà¤ļ
à¤ªà¤ª à¤Īà¤ļ
ch ing
Ġà¥¯à¥¦ à¥¯
Ġo ver
os cope
à¤¨à¤ľ à¤¡
Ġà¤ĩà¤®à¤° à¤ľà¤¨
Ġà¤Ńà¤¡à¤ķ à¤µà¤¤
Ġà¥¦ à¥¨à¥¦
Ġà¥¦ à¥Ńà¥«
à¥§à¥Ń à¥¦
Ġà¥©à¥ª à¥©
ov olt
Ġà¥©à¥¯ à¥«
Ġà¤ĸà¤¤ à¤Ĺ
Ġ64 8
Ġ38 2
ag es
Ġà¥ªà¥ª à¥®
Ġ65 7
Ġj adhav
Ġà¤ļà¤°à¤£ à¤ľ
Ġà¤Ŀà¤²à¤ķ à¤¹
à¤ıà¤¸à¤Ĩà¤¯ à¤¬
Ġà¥ªà¥¬ à¥¦à¥¯
Ġ47 6
Ġà¥¬à¥© à¥¨
Ġà¥¬à¥© à¥«
Ġà¥¬à¥© à¥¯
Ġ63 2
Ġà¥«à¥Ń à¥¦
Ġà¥«à¥Ń à¥ª
Ġà¥«à¥Ń à¥®
Ġà¤ķà¤°à¤® à¤³à¤ķà¤°
Ġ46 7
ri kar
Ġà¥«à¥¬ à¥ª
Ġi it
Ġà¤ĵà¤ĺ à¤µà¤¤
Ġà¤°à¤¤à¤¨ à¤¸
Ġà¤²à¤ĸà¤¨à¤Ĭ à¤¹
Ġà¥«à¥® à¥Ń
Ġ85 7
à¤ıà¤¨à¤ı à¤®à¤§
Ġà¤«à¤²à¤ķ à¤¬
Ġà¥¬à¥¯ à¥¦
Ġà¥Ńà¥© à¥¨
Ġà¥Ńà¥® à¥¯
ub el
Ġà¥¬à¥® à¥¦
Ġà¥¬à¥® à¥¯
Ġst ar
Ġst art
Ġà¤Ĩà¤¯à¤ıà¤¸ à¤Ĩà¤¯à¤¸
Ġipl à¤®à¤§
if fi
Ġà¥®à¥¬ à¥¬
Ġà¤ıà¤¨à¤Ĩà¤¯ à¤ıà¤«à¤Ł
Ġ68 1
Ġ68 7
vi jay
Ġà¥®à¥ª à¥¦à¥¦
se x
Ð° Ð»
Ġà¤ķà¤Ŀ à¤Ĺà¤®
à¤Īà¤¦ à¤īà¤²
Ġà¤ķà¤³à¤¸ à¤ķà¤°à¤ļ
Ġà¥§à¥¯à¥Ń à¥©
cr ic
à¥² à¤²
Ġu apa
one y
Ġdi wali
500 00
Ġà¤ıà¤ıà¤¨ à¤ıà¤®
à¤·à¤£à¤Ńà¤° à¤¹
Ñģ Ðº
ang lad
kar an
ali dity
ult s
Ð¾Ð ½
à´ ķ
à¤ıà¤¨à¤ıà¤ļ à¤ıà¤Ĩà¤¯
Ġcom mit
man n
ph ase
à¥«à¥® à¥ª
Ġan n
so cial
Ġà¤«à¤£à¤¸ à¤³à¤ķà¤°
197 8
aut o
Ġcsk à¤ļ
Ġà¤«à¤²à¤Łà¤£ à¤ļ
Ġsa want
à¤ĵà¤³ à¤ĸà¤£
acc ess
Ġà¤¸à¤³ à¤¸à¤³
Ġà¤¬à¤°à¤¬ à¤Łà¤²
Ġass ociation
Ġà¥¨à¥¬à¥¦ à¥©à¥®à¥¬
form ation
adm aa
ĠÐ ¼
Ġph ase
pri y
Ġbh avis
off icial
ÙĬ Ø©
pre cis
Ġà¤¥à¤¡ à¤ķà¤²
dis ha
Ġà¤°à¤¨à¤° à¤ħà¤ª
Ġpay ment
âĸ º
âĸ ł
à¤«à¤ľ à¤Ī
Ġcp cb
Ġbill ion
Ġinf rastructure
gp ui
Ġran aut
Ġlatest ly
Ġif sc
Ġla unch
ev m
Ø³ Øª
set up
ene ca
Ġba at
pol ice
Ġsamp le
bio chemical
sab ic
Ġà¤Ĩà¤¡à¤¸ à¤ķà¤°
Ġpresident ial
shar ad
tri al
rel ative
Ġhor oscope
autom otive
à¤°à¤ľà¤¬ à¤°à¤¦à¤¸
Ġwind ow
kap il
raz eneca
guj arat
à¤Ĩà¤ľà¤¤à¤ķ à¤¨
Ġpress ure
integr ation
pil ot
analy tical
Ġfoot ball
Ġà¤«à¤£à¤« à¤£à¤²
Ġà¤Ĺà¤Łà¤¤ à¤Ł
Ġreo p
unexpos ed
Ġsuzuk i
Ġà¤ĵà¤¬à¤¡ à¤§
Ġà¥¨à¥¦à¥®à¥© à¥©à¥§
erob ic
Ġtend ulkar
Ġà¥¨à¥©à¥«à¥¬ à¥®à¥¯
Ġà¥¨à¥©à¥®à¥Ń à¥§à¥©
ovolt aic
Ġbhavis hya
Ø³Øª Ø§ÙĨ
' (
3 20
a us
b al
b is
b reaking
c v
c in
c ul
c so
c ircuit
d em
d own
e a
e ff
f ug
f ta
f arm
g u
g in
g sat
g old
i di
j ust
l ap
m ers
n or
n iv
o us
o pm
o hydrodynamic
p ackaging
s he
t ip
t ed
t el
t ovoltaic
u ck
w b
w est
y o
z ing
Ã ¬
Å ¡
Ï Ģ
Ï Į
Õ ¡
â ŀ
Ġ ç
à¤ İ
Ġà¤ ©
Ġà¤ ŀ
à¤¾ *
à¤¾ @
à¥į à¥Ģ
à¤° à¤¬à¤¤
à¤° à¤Łà¤ķ
à¥ĩ *
à¥ĩ à¥Ģ
à¥ĩ >>
à¤¤ à¤®à¤²
à¤¤ à¤Łà¤ķà¤°
à¤¯ à¤°à¤ª
à¤¯ à¤¤à¤ª
à¤¯ à¤Łà¤¸
à¤² à¤Ĺà¤²
à¤² à¤ľà¤¨
à¤² à¤Ĩà¤°
à¤¿ à¥ģ
à¤¨ à¤Ľ
à¤¨ à¤ķà¤°à¤£
à¤¹ à¤²à¤Ĺ
à¤ķ à¤°à¤ķà¤¡
à¤ļ à¤¤à¤¹
à¤ļ à¤µà¤°à¤ļ
à¤ļ à¤°à¤¸à¤¹
à¤ļ à¤®à¤¨à¤ļ
à¤µ à¤®à¤¨
à¤£ à¤ł
à¤£ à¤µà¤¸
à¤£ à¤¨à¤ļ
à¤® à¤ħ
à¤® à¤±
à¤® à¤³à¤£
à¥ĭ à¤ĥ
à¥ĭ à¤¼
Ġà¤Ĩ à¤ªà¤®
Ġà¤ķ à¤¢à¤£
à¤ª à¤ľà¤µà¤³
à¥ģ à¥¤
à¤¦ à¤¯à¤ļ
Ġà¤ª à¤¬à¤²
Ġà¤® à¤Ľ
Ġà¤® à¤ĸà¤°
Ġà¤® à¤ĸà¤¦
à¤Ł à¤Ī
à¤Ĺ à¤¡à¤ķ
à¤Ĺ à¤īà¤¨
à¤Ĺ à¤°à¤ļà¤¨
Ġà¤ħ à¤©
à¤§ à¤°à¤²
à¤§ à¤³à¤¤
Ġà¤¨ à¤Ī
Ġà¤¨ à¤¬à¤°
Ġà¤¨ à¤¦à¤µ
Ġà¤¨ à¤¡à¤¤
Ġà¤¨ à¤¨à¤ķ
Ġà¤¨ à¤Ŀà¤®
à¤ľ à¤°à¤ª
à¤ľ à¤µà¤°à¤¹
Ġà¤µ à¤°à¤ķ
Ġà¤µ à¤¨à¤¨
Ġà¤µ à¤¨à¤®à¤§
Ġà¤µ à¤łà¤µà¤¤
à¤¶ à¤³
à¤¶ à¤ªà¤°à¤¦
Ġà¤¤ à¤¦à¤°
Ġà¤¤ à¤²à¤¤
à¤¡ à¤Īà¤ļ
à¤¡ à¤«à¤°
Ġà¤¹ à¤Ĺà¤£à¤¦
à¤³ à¤¸à¤£
à¤³ à¤ĺà¤°
à¤· à¤¸à¤¤
à¤¬ à¤¦à¤°
à¤¬ à¤¨à¤²
à¤¬ à¤¸à¤®
à¤¬ à¤¨à¤¸
à¤¬ à¤¸à¤µ
à¤¬ à¤ħà¤²
à¤¬ à¤Łà¤²à¤°à¤¨
Ġà¤ľ à¤Ĺà¤°
Ġà¤ľ à¤²à¤¨
Ġà¤ľ à¤²à¤°
Ġà¤ľ à¤¸à¤¬
Ġà¤° à¤®à¤µ
Ġà¤ķà¤° à¤°
à¤ĸ à¤ħà¤¨
à¤ĸ à¤¡à¤ķà¤ª
Ġà¤¬ à¤Ľ
Ġà¤¬ à¤³à¤µ
Ġà¤¬ à¤¨à¤Ĺ
Ġà¤¶ à¤Ĺ
à¤¥ à¤¨à¤¨
à¤µà¤° à¤£à¤¤
à¤Ń à¤Ń
à¤Ń à¤¸à¤®
Ġà¤Ĺ à¤³à¤ķ
Ġà¤Ĺ à¤Łà¤ļà¤°
Ġà¤Ń à¤³
Ġà¤Ń à¤Ń
Ġà¤Ń à¤Łà¤²
Ġà¤ħà¤¸ à¤«
Ġà¤Ĩà¤£ à¤ĩ
Ġà¤ļ à¤¹à¤°à¤²
Ġà¤² à¤ļ
Ġà¤² à¤²à¤ķ
Ġà¤² à¤Łà¤ªà¤Ł
Ġà¤Ŀ à¤Ĩà¤²
Ġà¤ī à¤¤à¤²
Ġà¤ī à¤¨à¤ļ
Ġà¤ī à¤ķà¤¸
à¤°à¤ķ à¤Łà¤²
à¤°à¤¤ à¤¸à¤¹
à¤¤à¤° à¤¡à¤¤
Ġà¤ĸ à¤¤à¤¨
Ġà¤ĸ à¤¨à¤¨
Ġà¤ı à¤Ŀ
Ġà¤ı à¤²à¤ķ
Ġà¤ı à¤¯à¤°à¤²
Ġà¤ı à¤ļà¤ķ
Ġà¤ı à¤ıà¤®à¤Ĩà¤°
Ġà¤ı à¤Ĩà¤°à¤ľ
à¤Ī à¤¦à¤°
à¤Ī à¤ªà¤¦
à¤Ī à¤µà¤°à¤¹
à¤Ī à¤Īà¤®
à¤Ī à¤«à¤ļ
à¤ĺ à¤°à¤ª
à¤ĺ à¤²à¤²
à¤Ĩ à¤ĸà¤²
à¤Ĩ à¤Īà¤Ł
Ġà¤« à¤³à¤µ
à¤¢ à¤ªà¤£
à¤ħ à¤¬à¤²
à¤°à¤® à¤¶à¤ķ
à¤« à¤Ī
à¤« à¤«
à¤« à¤¸à¤²
à¤¤à¤² à¤ķ
à¤¤à¤² à¤µà¤ķà¤°
à¥Ī à¤¾
Ġà¤ĩ à¤ķà¤¨
Ġà¤ĩ à¤¦à¤Ĺ
Ġà¤ªà¤° à¤Ńà¤µ
Ġà¤¸à¤° à¤¸à¤°
Ġà¤¸à¤° à¤³à¤ļ
à¤°à¤ª à¤ļ
Ġà¤§ à¤¨à¤¹
Ġà¤§ à¤ľà¤¤
à¤¯à¤® à¤µà¤¯
à¤¯à¤® à¤µà¤°à¤ļ
à¤ı à¤ľà¤¨
à¤ı à¤ļà¤²
à¤ı à¤¬à¤ļ
à¤ı à¤Ĩà¤¯à¤²
à¤Ĭ à¤Ĺà¤°
à¤Ĭ à¤¤à¤ļ
à¤Ĭ à¤¸à¤ķ
à¤Ĭ à¤ļà¤ļ
Ġà¤ħà¤¨ à¤ıà¤ķ
Ġà¤īà¤ª à¤§
Ġà¤īà¤ª à¤µà¤¨
Ġà¤īà¤ª à¤Ĺà¤µ
à¤Ŀ à¤Łà¤ķ
Ġà¤¡ à¤Ŀà¤¨à¤¹
à¤ľà¤ª à¤ľà¤µà¤³
Ġà¤¤à¤° à¤³à¤¤
à¤µà¤£ à¤ļ
à¤µà¤£ à¤¬
à¤µà¤£ à¤¦à¤¹à¤¨
à¤°à¤ļ à¤°
à¤Ĺà¤² à¤ªà¤Ł
Ġà¤¨à¤µ à¤¤à¤°
à¤¸à¤° à¤ĸ
à¤Łà¤ķ à¤ª
à¤Łà¤ķ à¤¸à¤¹
à¤Łà¤ķ à¤³à¤²
à¤µà¤¤ à¤¬à¤°
à¤¡à¤² à¤ª
à¤Łà¤² à¤¸à¤¹
à¤Ĺà¤¤ à¤ªà¤£
à¤Ĺà¤¤ à¤¸à¤®
à¤ľà¤¨ à¤ķà¤°
à¤®à¤¨ à¤¹
à¤Ĺà¤° à¤ĸ
Ġà¤¸à¤¹ à¤¨à¤ļ
Ġà¤¸à¤¹ à¤ļà¤°
à¤¶à¤¨ à¤°à¤ļ
à¤¶à¤¨ à¤¸à¤®
à¤Ĺà¤³ à¤°
à¤Ĺà¤£ à¤ķà¤¶
Ġà¤Ĩà¤¯ à¤Ŀ
Ġà¤Ĩà¤¯ à¤¸à¤°
Ġà¤Ĩà¤¯ à¤ıà¤¸à¤ª
à¤²à¤ķ à¤¸
à¤²à¤ķ à¤¢
à¤¸à¤² à¤µ
à¤ĩ à¤ªà¤¦
à¤ĩ à¤Ŀà¤°
Ġà¤ħà¤ª à¤Łà¤¨
à¤µà¤³ à¤¯
à¤µà¤³ à¤Łà¤ªà¤£
à¤°à¤ľ à¤®à¤§
à¤°à¤ľ à¤®à¤²
Ġà¤ªà¤¹ à¤²à¤µ
à¥ĭà¤Ĥ à¤Ĥ
Ġà¤ħà¤® à¤¦
Ġà¤®à¤¤ à¤Ĺà¤£à¤¨
à¤ĵ à¤¨à¤ļ
à¤ĵ à¤¸à¤®à¤§
à¤ĵ à¤Īà¤¸
Ġà¤ķà¤® à¤²à¤®
à¤Ĩà¤¯ à¤¸à¤¹
à¤Ĩà¤¯ à¤¡à¤¬
à¤Ĩà¤¯ à¤ıà¤¸à¤¸
à¤Ĩà¤¯ à¤ıà¤¸à¤ª
à¤µà¤¨ à¤¤
à¤µà¤¨ à¤¥à¤¡
à¤ħà¤° à¤¬à¤¦
à¤Ľ à¤ł
à¤ī à¤ļà¤°
à¤ī à¤ļà¤ķ
Ġà¤ĵ à¤Ĺ
Ġà¤ĵ à¤Īà¤¸
Ġà¤ĵ à¤µà¤°à¤¨
à¤ªà¤¦ à¤°à¤®
à¤®à¤ķ à¤µ
à¤®à¤ķ à¤£
à¤¹à¤¨ à¤¶
à¤¦à¤µ à¤¦
à¤¯à¤¨ à¤°à¤ļ
à¤¯à¤¨ à¤²à¤ª
à¤§à¤¨ à¤°
à¤¶à¤² à¤¹
à¤ķà¤¸ à¤®à¤§
à¤·à¤¯ à¤µ
à¤·à¤¯ à¤µà¤Ł
Ġà¤ĺà¤° à¤ªà¤£
à¤¨à¤² à¤¸à¤¹
Ġà¤ķà¤² à¤¤
Ġà¤ķà¤² à¤ļ
à¤¸à¤¦ à¤ļ
Ġ20 27
à¤²à¤¤ à¤Ł
Ġà¤®à¤¦à¤¤ à¤¦
à¤ıà¤¸ à¤®
à¤ıà¤¸ à¤ıà¤²à¤ļ
Ġà¤Ĩà¤Ĺ à¤µà¤£
Ġà¤Ľ à¤°
Ġà¤Ľ à¤²
Ġà¤Ľ à¤¨
Ġà¤Ľ à¤±
à¤ļà¤¨ à¤Ĺ
à¤ļà¤¨ à¤µà¤°
à¤¡à¤¤ à¤°à¤ķà¤°
à¤µà¤ļ à¤³
à¤¡à¤ķ à¤µà¤°
à¤¡à¤ķ à¤ªà¤²
à¤¡à¤ķ à¤Łà¤¨
à¤Ĩà¤° à¤«
à¤Ĩà¤° à¤Ĩà¤¯à¤¨
à¤Ĩà¤° à¤ıà¤¸à¤ª
à¤¸à¤® à¤Łà¤²
à¤¹à¤² à¤¸
Ġà¤ħà¤² à¤¬à¤Ĺà¤¦
Ġà¤Ĩà¤ł à¤®à¤§
à¤¬à¤² à¤¬
à¤ªà¤Ł à¤µ
à¤ľà¤² à¤²
Ġà¤¸à¤¦ à¤Ń
à¤¸à¤ķ à¤³
à¤ķà¤£ à¤¸
Ġ5 18
à¤¤à¤¨ à¤¤
à¤¤à¤¨ à¤¯
à¤Ĺà¤µ à¤Ī
à¤¨à¤¸ à¤µ
Ġ4 21
Ġà¤Ĳ à¤²
Ġà¥ª à¥¨à¥¦à¥¦
à¥Ń à¥¦à¥¦
à¥Ń à¥¨à¥¦à¥§à¥Ń
Ġà¤Ī à¤Ŀ
Ġà¤Ī à¤Ĺà¤°
Ġà¤Ī à¤ıà¤®à¤µ
Ġà¤ıà¤¸ à¤Ī
à¤ľà¤£ à¤ķ
Ġà¤ħà¤Ĺ à¤°à¤¤à¤²
Ġà¤°à¤£ à¤¥
Ġà¤°à¤£ à¤Ń
Ġà¤ıà¤¨ à¤ıà¤¬
à¤ĳ à¤ĩà¤²
Ġà¤µà¤¸ à¤µà¤£
20 40
Ġà¤¬à¤² à¤¹
Ġà¤¬à¤² à¤Ńà¤¦
à¤ķà¤Ł à¤¸à¤®à¤¯
Ġà¤¹à¤° à¤ıà¤ķ
Ġà¤ªà¤Ł à¤ªà¤¡à¤Ĺ
Ġ6 10
Ġà¥¬ à¥§à¥¬
Ġà¥¬ à¥§à¥¨
à¤Īà¤ķ à¤®
Ġà¤ıà¤® à¤ıà¤«
Ġà¤ıà¤® à¤Īà¤Ł
à¤ķà¤® à¤Ĺà¤³
Ġ10 20
Ġà¤Łà¤ª à¤±
Ġ7 18
Ġ7 11
à¤¨à¤Ĺà¤° à¤¨
Ġà¤°à¤¹ à¤®à¤¤
Ġà¥Ń à¥¨à¥«
Ġà¥Ń à¥¬à¥¦
à¤§à¤° à¤¨à¤ļ
à¤Īà¤Ł à¤®
Ġ8 13
à¤¹à¤ķ à¤ªà¤¯
à¤¸à¤³ à¤ª
à¤¸à¤³ à¤§à¤°
Ġà¥® à¥§à¥®
Ġà¥® à¥¨à¥ª
Ġà¥® à¥¨à¥Ń
à¤ķà¤³ à¤®à¤¨
Ġà¤ĺà¤¡ à¤®
Ġà¤Ĩà¤ķà¤¡ à¤¯
à¤ĩà¤¨ à¤¡
à¤ĩà¤¨ à¤ķà¤¡
Ġà¤¸à¤ª à¤¬à¤¸à¤ª
Ġà¤§à¤¨ à¤ĸà¤°
in ik
à¤°à¤Ĺ à¤®
Ġà¤ħà¤« à¤Ĺà¤£
Ġà¤ĩà¤¶ à¤°
Ġ12 25
à¤Ĩà¤Ĺ à¤®à¤¨
à¤²à¤ķà¤° à¤µà¤°
Ġ9 21
Ġ9 15
Ġ9 47
Ġ9 65
à¤Ŀà¤° à¤¬
Ġà¥§à¥¨ à¥¬à¥Ń
à¤²à¤® à¤ĸ
Ġà¤ķà¤Ł à¤°à¤ļ
Ġà¥§à¥¯ à¥ªà¥¬
Ġà¤¶à¤¤à¤ķ à¤Ńà¤°
à¤¦à¤® à¤ª
Ġà¤ķà¤¡ à¤µà¤³
à¤¦à¤£ à¤ķ
Ġ11 400
Ġà¤į à¤ªà¤¦
à¤°à¤¥ à¤¯
on s
on t
Ġà¤ķà¤³ à¤¶
Ġà¤ħà¤¹à¤®à¤¦ à¤µà¤°
Ġà¤ħà¤°à¤µ à¤²
Ġ19 00
Ġ19 21
Ġ19 44
Ġà¤Ķà¤·à¤§ à¤ª
Ġà¤ħà¤µà¤¸ à¤°
à¤¯à¤°à¤¸ à¤¬
à¤¯à¤°à¤¸ à¤®à¤§
Ġc are
19 5
19 60
19 77
19 66
Ġà¤ıà¤² à¤ıà¤²à¤ª
à¤ĩà¤² à¤§
Ġ13 20
Ġs w
Ġs at
Ġs ar
Ġs en
Ġs ri
Ġs how
Ġà¤§à¤®à¤ķ à¤µà¤£
er a
à¤¯à¤£ à¤²
Ġà¤ħà¤ļ à¤¡à¤£
Ġà¤¤à¤³ à¤ª
Ġà¤¤à¤³ à¤ªà¤£
Ġ30 40
Ġ37 00
Ġà¤«à¤³ à¤¹
Ġà¤«à¤³ à¤§
Ġà¤ĭ à¤ľ
Ġ40 5
al al
al ia
Ġà¥§à¥© à¥«à¥¦
Ġà¥«à¥¦ à¥®
Ġà¤¦à¤°à¤µ à¤³à¤¤
Ġp as
Ġp um
Ġp impri
ic ci
ic se
Ġà¥§à¥® à¥¦à¥¦à¥¦
à¥§à¥¯ à¥¦
à¥§à¥¯ à¥¬à¥¦
à¤°à¤« à¤²
Ġà¤Ĺà¤³ à¤¯
Ġà¤Īà¤¶ à¤¸
or n
or ity
Ġm il
Ġa x
Ġa er
Ġa ic
Ġa imim
à¤£à¤ªà¤¦à¤ķ à¤¹
Ġà¤ľà¤² à¤§
ip c
ip e
à¤®à¤°à¤£ à¤¹
Ġb od
à¤Ĩà¤¯à¤Ĩà¤° à¤¡
Ġà¤ķà¤ļ à¤°à¤²
Ġà¤¦à¤¶ à¤¹à¤¤à¤µ
Ġv is
Ġv irus
Ġv ot
Ġv alidity
Ġt ot
à¤¯à¤ªà¤¦à¤ķ à¤¹
st ar
am il
ion ic
Ġn ag
Ġn cr
à¤Ĩà¤Ī à¤µà¤°
Ġà¤¨à¤ľ à¤«
22 90
à¤³à¤ª à¤Īà¤¤
à¤Ĩà¤¯à¤ı à¤ıà¤«
à¤Ĩà¤¯à¤ı à¤ıà¤¨à¤ıà¤¸
it ish
Ġf ifa
Ġf ame
Ġf aug
Ġà¤®à¤°à¤£ à¤ª
ro s
as i
Ġ28 00
Ġ60 70
Ġ70 80
Ġà¤ħà¤ªà¤¹à¤°à¤£ à¤ª
et hanol
Ġà¥¨à¥Ń à¥¦à¥¦
Ġin c
Ġw ar
Ġw arm
Ġ80 90
Ġd ha
Ġd na
Ġd ream
à¤µà¤Ĺ à¤¨à¤¸
Ġà¤¹à¤¸à¤¨ à¤¬
Ġà¥©à¥Ń à¥¨
Ġà¤¤à¤¨ à¤ĸ
Ġà¥¬à¥¦ à¥©
Ġ0 21
is e
is l
is ation
Ġ300 9
à¤®à¤Ł à¤ªà¤£
Ġh om
Ġh ist
ra y
ra pe
Ġà¥ªà¥« à¥Ń
Ġà¥©à¥¨ à¥«à¥¦
à¤ķà¤¬ à¤Ĺ
16 5
16 6
à¤ıà¤ı à¤¨à¤¸
Ġà¥©à¥¬ à¥Ń
Ġ45 8
Ġ90 3
Ġl and
il dr
Ġ36 2
à¤Ĩà¤¯à¤ıà¤® à¤ıà¤«à¤ļ
Ġà¥Ńà¥« à¥©
ch wad
Ġà¥¯à¥¦ à¥ª
Ġà¥¯à¥¦ à¥Ń
à¥§à¥¬ à¥¦
ad har
ad nav
re g
re charge
re public
à¥§à¥¨ à¥¯
à¥§à¥¨ à¥¦à¥¦
oo p
oo mi
Ġà¥ªà¥® à¥¬
os p
12 2018
Ġe pay
Ġà¤ıà¤° à¤°à¤¸
à¤į à¤¶
à¥§à¥§ à¥¦à¥¦
Ġà¥ªà¥¯ à¥ª
Ġà¥ªà¥¯ à¥©
Ġ38 8
Ġà¥©à¥® à¥©
ut s
ut tar
à¥§à¥ª à¥©
Ġà¥ªà¥© à¥Ń
à¤°à¤ĺ à¤³à¤µ
Ġ56 6
Ġ56 9
Ġ49 3
Ġà¥ªà¥¨ à¥Ń
Ġà¥ªà¥¨ à¥®
Ġà¥¬à¥« à¥«
Ġà¥¬à¥« à¥®
à¤¸à¤°à¤¤ à¤¨
Ġà¥ªà¥¬ à¥¨
Ġà¥ªà¥¬ à¥ª
Ġà¥ªà¥¬ à¥©
Ġ43 5
Ġà¤Ĺà¤Ĺà¤¨ à¤¦
à¤Ĩà¤°à¤ıà¤« à¤¨
om en
av y
Ġ39 1
Ġà¥«à¥¬ à¥¯
Ġà¥«à¥¬ à¥®
à¤ĺà¤¡ à¤¤à¤ļ
Ġà¥ªà¥Ń à¥«
Ġà¥¬à¥¨ à¥¬
à¤¸à¤Ĺà¤¢ à¤®à¤§à¤²
Ġ62 6
ak a
har y
har ma
à¤ıà¤¸à¤ıà¤« à¤¡
Ġ67 4
Ġà¥«à¥® à¥©
Ġà¥«à¥® à¥¬
te e
Ġ53 5
Ġ53 00
Ġà¥®à¥« à¥Ń
Ġà¥«à¥© à¥ª
Ġre port
à¥¨à¥¯ à¥¦
Ġà¤«à¤²à¤ķ à¤¹
à¤¸à¤®à¤¨ à¤²
Ġst ri
Ġà¤Ĩà¤¯à¤ıà¤¸ à¤ıà¤²à¤®à¤§
Ġà¤¹à¤¡à¤ªà¤¸à¤° à¤®à¤§
ly cer
Ġipl à¤ļ
ss r
à¥©à¥« à¥«
Ġà¥Ńà¥Ń à¥¬
à¤ıà¤®à¤Ĩà¤° à¤Ĩà¤¯
Ġà¥®à¥¯ à¥®
Ġà¥¯à¥¬ à¥«
Ġà¥®à¥© à¥¨
Ġà¤Ĩà¤¯à¤ıà¤¨à¤ıà¤¸ à¤µ
à¥®à¥¦ à¥¯
Ġde vel
à¤ıà¤¨à¤Ĩà¤¯à¤ı à¤ķà¤¡
Ġà¥¯à¥ª à¥ª
app le
Ġà¤Ĩà¤¯à¤ıà¤¨ à¤Ł
Ġ83 4
Ġ195 8
to p
Ġà¤Ŀà¤° à¤Ŀà¤°
eng e
à¤Īà¤ķà¤¨ à¤µà¤°
ist ry
me an
con sent
Ġ79 4
Ġà¤ªà¤¸à¤° à¤Ł
dr do
Ġà¥¯à¥Ń à¥®
Ġà¤²à¤Łà¤ķ à¤£
cl os
mah akoshgovin
Ġdi sp
Ġ88 4
à¤³à¤ķà¤¤ à¤ķà¤°
ank han
ank ovic
198 6
Ġ94 1
Ġà¤Ĩà¤Ĭ à¤Łà¤ª
Ġcon gress
ang ana
Ġà¥§à¥§à¥ª à¥«
ast ag
ult ure
ain er
Ġà¥§à¥§à¥¨ à¥§
Ġà¤ħà¤µà¤¨ à¤¤
Ð¾Ð ´
Ð¾Ð ¼
Ġà¤Ĩà¤ļà¤° à¤Łà¤ªà¤£
à¤Łà¤ľ à¤Ĺà¤¤
Ġsp ace
Ġic loud
od al
od ds
à´ °
ge ar
Ġ137 2
Ġsh etty
ĠâĢ łà¤¿
Ġex it
à° °
à° ¿
gst n
ÃŃ à¤¶à¤¤
à¤Ĩà¤Ŀ à¤®à¤Ĺà¤¢
Ġpr ime
Ġpr asad
à¤Ĩà¤¯à¤ıà¤¨à¤ıà¤¸ à¤µ
Ġpol itical
à¤Īà¤ıà¤¸ à¤Ĩà¤¯à¤¸
Ġas i
so ftware
Ð½ Ñĭ
ary an
bh u
à¤²à¤®à¤¨ à¤¨
à¤ħà¤Ŀ à¤¹à¤°à¤²
à¤¦à¤¶à¤ķ à¤Ńà¤°
58 6
Ġ159 21
Ġab out
sat ta
Ġgoo ds
Ġman dir
Ġus b
Ġen ergy
Ġ184 26
Ġcor por
ĠÐ ²
ĠÐ¾Ð±Ð» Ñĭ
af ta
Ġph p
Ġlok satta
Ïģ v
off ee
ugh ter
à§ ĩ
à¤°à¤Ī à¤ħà¤ª
à¤ıà¤¸à¤ıà¤¨à¤ı à¤²à¤²
Ð°Ð ²
tr p
Ġà¤°à¤ĸà¤¡ à¤ªà¤Ł
Ġspe ed
âĸ ª
140 6
Ġà¤ľà¤« à¤°à¤¯
Ġà¥¦à¥§à¥¦ à¥Ńà¥¨à¥¦à¥§à¥Ń
udd hav
confound ers
per im
Ġpoll s
Ġgen eral
magnet ohydrodynamic
ynam ics
nit ish
Ġdd ca
random ization
ĠÑ Ħ
Ġolymp ic
Ġpos itive
Ġek uber
Ġvir al
Ġho use
Ġdis charge
Ġast razeneca
Ġji had
Ġrt gs
Ġent ry
Ġà¤«à¤¡à¤« à¤¡
rist mas
abol ic
sac red
âĻ ¦
comet ax
cryst all
Ġchin chwad
thermod ynamics
gaut am
Ġà¤°à¤Ĭ à¤«
à¤¢à¤°à¤ķ à¤µà¤¡
alm ankhan
ubel ight
anglad esh
Ġann iversary
inik anth
Ġtot al
2290 1406
adnav is
Ġcorpor ation
ĠÐ¾Ð±Ð»Ñĭ ÑģÑĭ
) ]
3 60
4 50
7 20
7 66
] âĢĮ
a di
a ction
a ff
a ustral
b ic
b oo
b urn
c wc
d u
d z
d ar
f lo
g n
g il
g eo
g lycer
h il
i as
k har
k yc
k offee
l s
l t
l al
l pg
m ult
m psc
n r
n ep
n sc
n okia
n tui
n obel
o i
o ch
p ad
p ens
r iv
r ess
r hea
s y
s am
s ha
s ii
t ap
t om
t iger
u f
v at
w s
w in
Â ·
Ã £
Ã §
Ä «
Ä ĵ
Î ¯
Ï ĥ
Ï ħ
à ¨
å ±±
ï Ĥ
Ġ ÙĦ
à¥ °
à¤° à¤°à¤£
à¤° à¤ħà¤¸
à¤° à¤Ĩà¤§
à¤° à¤ħà¤Ń
à¤° à¤ħà¤¦
à¥ĩ à¤¿
à¥ĩ à¤¾à¤Ĥ
à¥ĩ âĢĭ
à¤¤ à¤Ľ
à¤¤ à¤¦à¤¨
à¤¤ à¤ħà¤¶
à¤¤ à¤īà¤²
à¤¤ à¤īà¤²à¤®
à¤¯ à¤ħà¤¸
à¤¯ à¤Ĺà¤µ
à¤¯ à¤ªà¤°à¤¸
à¤² à¤°à¤µ
à¤² à¤ªà¤ķ
à¤² à¤Łà¤ļ
à¤² à¤¹à¤µ
à¤² à¤°à¤ķà¤¡
à¤¿ à¥ĩà¤Ĥ
à¤¨ à¤ı
à¤¨ à¤Ńà¤°
à¤¨ à¤ħà¤¨
à¤¨ à¤¸à¤£
à¤¨ à¤°à¤ķà¤¡
à¤¨ à¤ĺà¤Łà¤ķ
à¤¹ à¤ľà¤ļ
à¤¹ à¤¬à¤ľ
à¤¹ à¤īà¤²à¤¹à¤ķ
à¤ķ à¤¤à¤²
à¤ķ à¥Ł
à¤ķ à¤¨à¤¸
à¤ķ à¤§à¤°
à¤ķ à¤Łà¤ķà¤®à¤§
à¤ļ à¤ħ
à¤ļ à¤ªà¤²
à¤µ à¤µà¤¸
à¤µ à¤Ŀ
à¤µ à¤Ľ
à¤µ à¤īà¤¤
à¤¸ à¤¥
à¤¸ à¤µà¤¸
à¤¸ à¤¹à¤°
à¤¸ à¤¦à¤µ
à¤¸ à¤Łà¤¸
à¤¸ à¤ħà¤§
à¤£ à¤«
à¤£ à¤ªà¤ķ
à¤£ à¤¦à¤ķ
à¤® à¤¸à¤ļ
à¤® à¤«à¤³
à¤® à¤«à¤²
à¥ĭ (
à¥ĭ à¤¿
à¥ĭ ''
Ġà¤Ĩ à¤ı
Ġà¤Ĩ à¤³à¤µà¤£
Ġà¤Ĩ à¤°à¤ķà¤¡
à¤ª à¤Ŀ
à¤ª à¤¬à¤°
à¤ª à¤ľà¤²
à¤ª à¤¡à¤³à¤ķà¤°
à¥ģ /
Ġà¤¸ à¤¹à¤¤
Ġà¤¸ à¤¡à¤¤
à¤¦ à¤°à¤£
Ġà¤ª à¤¸à¤²
Ġà¤ª à¤¨à¤Ĺ
Ġà¤® à¤Ĺà¤¨
Ġà¤® à¤°à¤ķà¤¡
à¤Ł à¤¯à¤®
à¤Ł à¤Ĩà¤§
à¤Ł à¤¸à¤¨à¤²
à¤Ł à¤īà¤¡
à¤Ĺ à¤¥
à¤Ĺ à¤ķà¤£
à¤Ĺ à¤°à¤£à¤ļ
Ġà¤ħ à¤Ĺà¤¡
à¤§ à¤¹à¤¸
Ġà¤¨ à¤®à¤²
à¤ľ à¤ħ
à¤ľ à¤¤à¤¹
à¤ľ à¤°à¤ķà¤°
à¤ľ à¤łà¤°
à¤ľ à¤Ĺà¤°à¤¹
Ġà¤µ à¤°à¤®
Ġà¤µ à¤°à¤¸
Ġà¤µ à¤§à¤µ
Ġà¤µ à¤°à¤®à¤²
à¤¶ à¤°à¤®à¤§
Ġà¤¤ à¤£à¤¤
à¤¡ à¤¬à¤¸
à¤¡ à¤¯à¤£
Ġà¤¹ à¤¥
Ġà¤¹ à¤¬à¤®à¤§
Ġà¤¹ à¤Ĺà¤µà¤£
Ġà¤¦ à¤ľ
Ġà¤¯ à¤°
Ġà¤¯ à¤®à¤¨
Ġà¤¯ à¤¶à¤²
à¤³ à¤īà¤ľ
à¤· à¤Ĺà¤£
à¤· à¤²à¤ļ
à¤· à¤¬à¤¦à¤²
à¤¬ à¤¸à¤¤
à¤¬ à¤¨à¤¨
à¤¬ à¤¡à¤µ
à¤¬ à¤¡à¤¨
à¤¬ à¤°à¤ķà¤°
à¤¬ à¤Łà¤ķà¤°
à¤¬ à¤Łà¤²à¤°
Ġà¤ľ à¤¯à¤®
Ġà¤ľ à¤Ŀ
Ġà¤ľ à¤²à¤¤
Ġà¤ľ à¤²à¤¤à¤ľ
Ġà¤° à¤ª
Ġà¤° à¤¡à¤Ĺ
Ġà¤° à¤¸à¤°à¤¶
Ġà¤ķà¤° à¤¯
Ġà¤ķà¤° à¤²
Ġà¤ķà¤° à¤¨à¤¨
Ġà¤ķà¤° à¤µà¤ľ
à¤ĸ à¤°à¤¸
Ġà¤¶ à¤¹à¤²
Ġà¤¶ à¤²à¤Ń
Ġà¤¶ à¤µà¤Ĺ
à¤¥ à¤ªà¤¨
à¤¥ à¤ķà¤¤
à¤¥ à¤¯à¤¶
à¤µà¤° à¤¶
à¤µà¤° à¤¸à¤®
à¤Ń à¤®à¤§
à¤Ń à¤°à¤¤à¤¨
Ġà¤Ĺ à¤ľà¤²
Ġà¤Ĺ à¤¨à¤¨
Ġà¤Ĺ à¤¡à¤ª
Ġà¤ħà¤¸ à¤¸
Ġà¤ļ à¤¦
Ġà¤ļ à¤¶
Ġà¤ļ à¤°à¤ķ
Ġà¤ļ à¤®à¤°
Ġà¤Ŀ à¤±
Ġà¤Ŀ à¤Ŀ
Ġà¤ī à¤¸à¤¤
Ġà¤ī à¤¬à¤³
Ġà¤ī à¤®à¤²à¤¤
à¤°à¤¤ à¤¡à¤¤
Ġà¤ķà¤°à¤£ à¤ľ
Ġà¤ķà¤°à¤£ à¤ħà¤°
Ġà¤ĸ à¤¬
Ġà¤ĸ à¤ªà¤£
Ġà¤ĸ à¤¬à¤¦
Ġà¤ĸ à¤¡à¤Ĺ
Ġà¤ı à¤µà¤°
Ġà¤ı à¤ıà¤ļ
Ġà¤ı à¤¥à¤²
à¤Ī à¤¸à¤²
à¤Ī à¤ıà¤¸à¤ª
à¤°à¤£ à¤°
à¤°à¤£ à¤®à¤§
à¤ĺ à¤¡à¤¯
à¤ĺ à¤¨à¤ļà¤ķ
à¤Ĩ à¤¸à¤®
à¤Ĩ à¤ªà¤®à¤§
Ġà¤« à¤³à¤²
Ġà¤« à¤¡à¤µ
Ġà¤« à¤Łà¤«
à¤¢ à¤²à¤¯
à¤ħ à¤ªà¤²
à¤ħ à¤¸à¤¹à¤ķ
à¥ī '
à¤°à¤® à¤µà¤°
à¤°à¤® à¤¸à¤¹
à¤°à¤® à¤ªà¤¤
à¥ĩà¤Ĥ à¥¤
à¤« à¤®à¤¨
à¤« à¤ĸà¤°
à¤« à¤¡à¤°
Ġà¥ ħ
Ġà¥ Ľ
à¤°à¤µ à¤£à¤¤
Ġà¤ĩ à¤£
Ġà¤ĩ à¤µà¤²
Ġà¤ĩ à¤¨à¤ļ
Ġà¤ĩ à¤Łà¤°
Ġà¤ĩ à¤ľà¤°
à¤¹à¤£ à¤¤à¤ļ
Ġà¤ªà¤° à¤³à¤®à¤§
Ġà¤¸à¤° à¤ªà¤£
Ġà¤¸à¤° à¤Ĺà¤°
à¤ķà¤¡ à¤¨
à¤ķà¤¡ à¤£
à¤°à¤ª à¤³à¤£
Ġà¤§ à¤°à¤®à¤µ
à¤¯à¤® à¤ªà¤£
Ġà¤ħà¤§ à¤ªà¤¤à¤¨
à¤ı à¤µà¤°
à¤ı à¤¨à¤²
à¤ı à¤²à¤°
à¤ı à¤ľà¤¬
à¤ı à¤Ĩà¤¯à¤ķà¤¡
à¤ı à¤ıà¤®à¤ª
à¤ı à¤ıà¤«à¤Ĩà¤¯
à¤°à¤¸ à¤Łà¤²
à¤Ĭ à¤£à¤¤
à¤Ŀ à¤°à¤µ
à¤Ŀ à¤¡à¤¹
Ġà¤¡ à¤ª
Ġà¤¡ à¤®à¤°
Ġà¤¡ à¤³à¤®
à¤ľà¤ª à¤¸à¤®à¤µ
à¤¦à¤° à¤Ĺ
à¤°à¤² à¤¸
Ġà¤Ĩà¤° à¤Ĩà¤°
Ġà¤Ĩà¤° à¤ıà¤ļ
Ġà¤Ĩà¤° à¤Ĩà¤¯à¤¸
Ġà¤Ĩà¤° à¤ĵà¤¬
Ġà¤¸à¤°à¤ķ à¤µ
à¤°à¤¦ à¤¯à¤°
à¤Łà¤ķ à¤£
à¤Łà¤ķ à¤°à¤¤
à¤ľà¤¨ à¤¸à¤®
à¤ľà¤¨ à¤¶à¤ķ
à¤ľà¤¨ à¤ķà¤ª
à¤¾à¤ģ '
à¤¬à¤Ī à¤®à¤¹
à¤¬à¤Ī à¤®à¤§à¤²
à¤¬à¤Ī à¤ľà¤µà¤³à¤ļ
à¤Łà¤° à¤®à¤§à¤²
Ġà¤¸à¤¹ à¤īà¤¤
à¤¶à¤¨ à¤²à¤®à¤§
Ġà¤ħà¤Ń à¤¯à¤¸
à¤Ĺà¤³ à¤ªà¤£
Ġà¤Ĩà¤¯ à¤¡à¤¬
Ġà¤Ĩà¤¯ à¤ıà¤¸à¤¸
Ġà¤Ĩà¤¯ à¤ıà¤¸à¤ıà¤¸
Ġà¤Ĩà¤¯ à¤ıà¤®à¤ª
Ġà¤Ĩà¤¯ à¤Ĩà¤¯à¤ıà¤®à¤ļ
Ġà¤Ĩà¤¯ à¤ĵà¤Ł
à¤Īà¤² à¤µà¤°à¤¹
à¤²à¤ķ à¤¦
à¤²à¤ķ à¤¶
à¤²à¤ķ à¤°à¤µ
Ġà¤Ĩà¤¤ à¤¬à¤Ł
à¤¸à¤² à¤Łà¤¨
à¤ĩ à¤ķà¤¡à¤ļ
à¤ľà¤¯ à¤¨à¤Ĺà¤°à¤ļ
Ġà¤ħà¤ª à¤µà¤°
Ġà¤ħà¤ª à¤Ń
Ġà¤ħà¤ª à¤®à¤§
Ġà¤ĳ à¤®
Ġà¤ĳ à¤¯à¤²
Ġà¤ĳ à¤¨à¤°à¤ļ
à¤¸à¤ļ à¤ķ
Ġà¤ªà¤¹ à¤µ
à¤®à¤¤ à¤¶
à¤·à¤ķ à¤¸
à¤¸à¤¹ à¤ª
Ġà¤īà¤¦ à¤Ńà¤µà¤£
Ġà¤®à¤¤ à¤ļ
Ġà¤®à¤¤ à¤ªà¤°
à¤ĵ à¤Ī
à¤ĵ à¤Ĩà¤¯
à¤ĵ à¤ıà¤¨
à¤ĵ à¤²à¤¹
à¤ĵ à¤£à¤®
à¤ĵ à¤ıà¤²à¤Ł
à¤¯à¤¦ à¥Ł
Ġà¤ķà¤® à¤²à¤ķ
Ġà¤ªà¤¦ à¤Ĺ
Ġà¤ªà¤¦ à¤°à¤®
à¤Ĩà¤¯ à¤ħ
à¤Ĩà¤¯ à¤Ĩà¤¯à¤¸
à¤Ĩà¤¯ à¤ıà¤¸à¤ıà¤¸
à¤¨à¤µ à¤µà¤¨
à¤¨à¤µ à¤ĺà¤°
à¤ªà¤¤ à¤®
à¤Ľ à¤¦
à¤Ľ à¤ªà¤£
à¤ī à¤¦à¤°
à¤ī à¤Łà¤£
à¤ī à¤¡à¤°
à¤ī à¤ĸà¤³
à¤ī à¤²à¤ľ
à¤ī à¤ªà¤°à¤¹
à¤ī à¤¡à¤¦
Ġà¤¥ à¤ķà¤£
Ġà¤ĵ à¤ļ
Ġà¤ĵ à¤µà¤°
Ġà¤ĵ à¤ľà¤¸
à¤Ĭà¤¨ à¤¦
à¤¦à¤µ à¤ľ
à¤ľà¤ķ à¤ªà¤£
à¤¦à¤¨ à¤ª
à¤§à¤¨ à¤¬
Ġà¤²à¤ķ à¤¬
Ġà¤ľà¤¨ à¤ªà¤¦
Ġà¤ĺà¤° à¤ĺ
à¤¨à¤² à¤®
à¤¨à¤² à¤ķà¤¡
à¤°à¤ĸ à¤§
à¤°à¤ĸ à¤°à¤¤
Ġ20 41
à¤Ĩà¤® à¤Ł
à¤Ĩà¤® à¤¸à¤Ń
à¤²à¤¤ à¤¯
à¤¥à¤³ à¤µà¤°
Ġà¤īà¤® à¤Ĺ
à¤ĺà¤Łà¤¨ à¤ķ
à¤ĺà¤Łà¤¨ à¤¶
à¤°à¤¹ à¤Ń
Ġà¤¬à¤¦à¤² à¤µà¤¤
à¤ıà¤¸ à¤ıà¤®à¤ı
à¤®à¤Ĺ à¤¡à¤ļ
Ġà¤Ľ à¤³à¤ª
à¤µà¤ļ à¤¤
Ġà¤¬à¤° à¤³à¤£
à¤¡à¤ķ à¤Łà¤²
à¤¤à¤¹ à¤²à¤ķ
à¤Ĩà¤° à¤¯
Ġà¤ľà¤Ĺ à¤µà¤²
à¤¹à¤² à¤°
à¤ªà¤ķ à¤ķ
à¤ªà¤ķ à¤ħà¤§
à¤ĸà¤° à¤¯
Ġà¤ħà¤² à¤¶à¤¬
Ġà¤Ĩà¤ł à¤²
à¤¶à¤ķ à¤ªà¤¦
Ġà¤¸à¤¦ à¤¸à¤¦
à¤¤à¤³ à¤ĺà¤°
à¤°à¤Ń à¤ľ
à¤¨à¤¨ à¤¸
à¤¸à¤§ à¤°
à¤¨à¤¸ à¤®à¤§
Ġà¤®à¤° à¤³
Ġà¤ĳà¤« à¤¬
à¤ıà¤® à¤ıà¤«
à¤ıà¤® à¤ıà¤¸à¤¸
à¤Ĺà¤¡ à¤§
Ġà¤Ĳ à¤¹
Ġà¤Ĳ à¤¤à¤°
Ġà¤Ĳ à¤Ĺà¤³
Ġà¤ªà¤£ à¤¨à¤®
à¥© à¥¨à¥¦
Ġà¥« à¥¨à¥¨
Ġà¤ľà¤µà¤³ à¤¹
Ġà¤īà¤² à¤Łà¤«
à¤ķà¤¨ à¤ª
à¤ıà¤¨ à¤ıà¤«à¤¸
à¤ıà¤¨ à¤Ĩà¤°à¤¡
à¤ıà¤¨ à¤ıà¤®à¤Ĩà¤°à¤¸
Ġà¤¸à¤Ń à¤°à¤µ
à¤ľà¤£ à¤ļ
Ġà¤°à¤£ à¤µà¤°
Ġà¤ıà¤¨ à¤ıà¤¸à¤ıà¤«à¤¡
à¤¹à¤³ à¤¹à¤³
à¤ĳ à¤²à¤®
à¤ķà¤Ł à¤µà¤£
Ġà¤¹à¤° à¤¬
à¤ıà¤« à¤ľ
Ġà¤ªà¤Ł à¤¤à¤ļ
Ġ6 24
Ġà¤Ķ à¤²
Ġà¤ıà¤® à¤ıà¤¨
à¤¬à¤¸ à¤Ĺ
à¤¬à¤¸ à¤µà¤°
Ġà¤ªà¤¡ à¤Ŀà¤¡à¤¹
à¤¨à¤Ĺà¤° à¤¬
à¤¨à¤Ĺà¤° à¤°à¤ļà¤¨
à¤¡à¤° à¤°à¤µ
Ġà¤Ĺà¤Ł à¤¸
à¤ıà¤² à¤¡à¤¬
Ġà¤®à¤ľ à¤¹à¤°
Ġà¥Ń à¥§à¥§
Ġà¥Ń à¥¨à¥ª
Ġà¥§à¥¦ à¥«à¥¦
à¤Īà¤Ł à¤¸à¤µà¤°
à¤¦à¤ķ à¤¹
Ġà¤Ĭ à¤§
Ġà¤Ĭ à¤·
Ġà¤Ĭ à¤¸à¤¦à¤°
Ġ8 80
Ġ8 26
Ġà¥® à¥§à¥¦
Ġà¥® à¥¬à¥¦
à¤ķà¤³ à¥Ł
à¤ĩà¤¨ à¤«
in let
à¤ħà¤² à¤Ł
à¤Łà¤® à¤ª
Ġà¥¯ à¥§à¥¨
Ġà¤µà¤¨ à¤¶
Ġà¤łà¤° à¤²à¤¯
Ġ12 21
Ġ9 26
à¤¶à¤¹à¤° à¤Ńà¤°
à¤¸à¤Ĺà¤³ à¤ļ
Ġà¥§à¥¨ à¥«à¥¦
à¤ĸà¤¨ à¤¶
à¤¯à¤¡ à¤°à¤ļ
Ġ50 1
Ġ50 7
à¤¦à¤³ à¤ķà¤°
Ġ19 29
Ġ19 34
Ġà¤ıà¤« à¤ļ
Ġà¤ıà¤« à¤ľ
ar g
Ġc al
Ġc amp
Ġc ity
19 70
19 80
Ġà¤ªà¤¦à¤ķ à¤¤à¤ķ
Ġà¤Ĳà¤ķ à¤µà¤£
Ġà¤ıà¤ĸ à¤¤à¤ª
Ġà¤ıà¤² à¤ĩà¤¡
à¤¨à¤Ī à¤®
à¤¨à¤Ī à¤¸à¤¹
Ġ13 500
Ġs d
Ġs n
Ġs co
Ġs ul
Ġs ha
Ġs op
Ġs chool
er ic
à¤¯à¤£ à¤Ń
Ġà¤Ńà¤Ł à¤ľ
Ġ30 35
à¤ľà¤¦ à¤¸
à¤łà¥Ł à¤ª
Ġà¥§à¥ª à¥¦à¥¦à¥¦
Ġà¤§à¤°à¤£ à¤¸
Ġ37 à¥¦
Ġà¤§à¤µà¤¨ à¤¹
201 213
à¤Ĺà¤ľ à¤¹
Ġà¤¸à¤£ à¤¹
à¤¬à¤°à¤® à¤¨
Ġp et
Ġp ack
ic ai
à¤°à¤Ł à¤ªà¤£
Ġà¥§à¥¬ à¥®à¥¦
à¥§à¥¯ à¥ªà¥®
à¥§à¥¯ à¥Ńà¥ª
à¥§à¥¯ à¥Ńà¥Ń
à¤ĩà¤® à¤°à¤¤
à¤ĩà¤Ł à¤¸à¤¹
Ġ17 18
à¤Īà¤¡ à¤ªà¤Ł
Ġm as
Ġm ad
Ġm ay
Ġm ha
Ġm ess
Ġm ach
à¤ªà¤¡ à¤¤à¤ļ
Ġà¥¨à¥ª à¥¨à¥¨
Ġa pr
Ġà¤ħà¤£ à¤ª
à¤ªà¤³ à¥Ł
à¤²à¤¬ à¤ķ
à¤²à¤¬ à¤¤à¤°
en ch
Ġb lock
Ġb arc
Ġb engal
Ġà¤īà¤²à¤Ł à¤µà¤²
à¤¡à¤µà¤² à¤ķà¤°
Ġà¤Ĩà¤Ł à¤ªà¤²
Ġr un
à¤ĸà¤³ à¤ĸà¤³
le ad
Ġv vpat
Ġt hat
à¤¯à¤ªà¤¦ à¤ķà¤µ
am ent
ion al
Ġ22 20
Ġ22 50
Ġn cp
Ġà¤īà¤ľ à¤³à¤µ
di ers
à¤¯à¤Ĺ à¤°à¤¸
Ġà¤ļà¤®à¤ļ à¤®à¤¤
à¤¶à¤ª à¤¥à¤Ĺ
it r
it is
Ġf e
Ġf ta
Ġf und
Ġf estival
id el
as ks
Ġà¥² à¤µ
Ġà¥² à¤ªà¤¦
à¤łà¤£ à¤®à¤§
à¤īà¤ª à¤īà¤ª
à¤¯à¤ľ à¤°à¤ļ
Ġin formation
Ġw atch
à¥§à¥¦ à¥§
Ġd rs
Ġà¤¹à¤¸à¤¨ à¤ª
Ġà¥©à¥Ń à¥¦à¥¦
à¤ħà¤« à¤²
à¤Īà¤ĵ à¤¨
Ġà¥¬à¥¦ à¥§
Ġà¤ĵà¤ªà¤¨ à¤¸
Ġà¤Ĩà¤łà¤µà¤¤ à¤¹
Ġ0 75
à¤®à¤ł à¤³
Ġh iv
Ġh dil
co ol
Ġà¥ªà¥« à¥§
Ġà¥ªà¥« à¥®
Ġà¤§à¤® à¤¤à¤°
18 5
10 1
ol a
à¤¯à¤Ĺà¤¡ à¤¸à¤¹
25 000
Ġ45 1
Ġà¤ªà¤µà¤¨ à¤¨
Ġl i
Ġl pg
à¥§à¥« à¥§
15 20
Ġ36 4
Ġ29 67
Ġà¥¯à¥¦ à¥©
17 3
à¥§à¥¬ à¥§
ad ha
Ġà¤¬à¤¸à¤®à¤§ à¤²
Ġo ci
à¤ĭ à¤ļ
Ġà¤Ńà¤² à¤¤à¤ļ
Ġ33 9
ind u
Ġà¤¦à¤® à¤µà¤£
Ġe p
Ġe cosoc
Ġà¥©à¥© à¥§
and al
Ġà¥¬à¥ª à¥¨
Ġà¥¬à¥ª à¥§
Ġà¥¬à¥ª à¥Ń
el le
Ġ64 4
Ġ44 7
Ġà¥ªà¥¯ à¥¨
ag h
à¥§à¥© à¥©
Ġ42 3
ut nik
Ġà¥ªà¥ª à¥¬
à¤°à¤ľà¤¨ à¤¨à¤ķ
Ġ56 5
Ġ55 6
Ġ55 000
Ġà¥ªà¥¨ à¥ª
Ġà¥ªà¥¨ à¥¬
à¤ıà¤®à¤ıà¤¸ à¤¡
Ġà¥«à¥« à¥¨
Ġà¥«à¥« à¥¬
Ġà¥«à¥« à¥Ń
à¤ĳà¤« à¤°à¤ļ
Ġj oshi
ab ang
24 4
Ġ47 3
Ġ47 9
Ġà¥¬à¥© à¥®
Ġà¥«à¥¨ à¥®
à¤Ĩà¤¯à¤ıà¤¨ à¤ıà¤²à¤¡
Ġ63 8
Ġà¤¤à¤°à¤£ à¤ľ
Ġ46 4
ri er
om b
av engers
Ġà¥«à¥¬ à¥¦
Ġà¥«à¥¬ à¥¨
Ġà¥«à¥ª à¥§
Ġi bps
Ġà¤¨à¤°à¤¸ à¤¯
Ġ59 1
Ġà¥¬à¥Ń à¥¦
Ġà¥¬à¥Ń à¥¬
Ġ67 385
Ġpo co
Ġà¥«à¥® à¥¨
Ġà¥«à¥® à¥«
te ch
ĠÂ «
Ġ53 2
Ġà¤¹à¤°à¤Ńà¤ľà¤¨ à¤²
Ġà¤ķà¤ªà¤² à¤¨
à¤ĵà¤ıà¤¸ à¤¡
à¤ıà¤¨à¤ı à¤¨à¤¨
à¤²à¤ĺ à¤°à¤²
Ġà¤¡à¤¬à¤² à¤°
à¥¨à¥¬ à¥«
Ġà¤«à¤²à¤ķ à¤¨
Ġà¥¬à¥¬ à¥¨
Ġà¥¬à¥¯ à¥©
80 9
Ġà¥Ńà¥© à¥¬
Ġà¥Ńà¥© à¥®
Ġà¥Ńà¥® à¥¬
à¤Ŀà¤« à¤°à¤ª
Ġà¥Ńà¥Ń à¥¯
Ġ69 5
à¤ªà¤°à¤® à¤ª
lo c
Ġà¥®à¥© à¥§
Ġà¥®à¥© à¥Ń
Ġ77 7
Ġ77 9
Ġà¥®à¥ª à¥«
Ġà¤ħà¤¥ à¤¯
35 5
27 8
Ġde ep
à¤Īà¤¦ à¤īà¤²à¤«
cor ona
Ġà¥¬à¥¦à¥¦ à¥¦à¥¦
Ġà¥§à¥¯à¥¬ à¥©
à¤Īà¤Ī à¤ıà¤¸à¤ıà¤²
cr ime
cr ystal
cr ipt
Ġà¤¨à¤³ à¤¦
Ġà¤Ŀà¤° à¤Ĺà¤°
à¥² à¤£
Ġà¤Īà¤ķ à¤ļà¤°
Ġà¤¤à¤¹ à¤¹à¤¯
con om
à¥ģà¥į à¤Ĥ
à¥ªà¥Ń à¥¨
cl r
mah a
Ġra di
Ġdi es
Ġdi sh
Ġdi ff
Ġdi was
Ġà¤īà¤²à¤¥ à¤µà¤£
à¥§à¥¯à¥® à¥§
Ġà¤¸à¤«à¤¦à¤° à¤Ĺ
à² ¨
à² ķ
pr an
ma il
ex t
ex perim
Ñģ ÑĮÐºÐ°
Ġcon nect
à¤°à¤Ĺà¤³ à¤£
Ġfir e
Ġà¤Ĩà¤¯à¤ıà¤¸à¤Ĩà¤¯ à¤ıà¤¸
kar i
kar gil
Ġcbi à¤ļ
act er
à¤®à¤¦à¤¨ à¤²
Ġà¥§à¥§à¥¨ à¥¦
Ġà¤¦à¤®à¤£ à¤¦
all enge
Ġpl ayer
out let
out put
Ø§ Ø±
Ġres pon
à¤ıà¤¨à¤ıà¤ļ à¤ıà¤¸
Ġsh oot
Ġle vel
à¤ĺà¤³à¤¤ à¤ļ
Ġfor ce
à° ¾
à¥įà¤Ĥ à¤¿
à¥¬à¥® à¥¯
li e
Ġsms à¤ļ
nu cle
Ġà¤Ńà¤°à¤ķ à¤Łà¤£
Ġà¥§à¥§à¥® à¥«
Ġam ino
Ġpr an
cov axin
und ai
à¤ĵà¤ıà¤ļ à¤¸
à¤Ĩà¤¢ à¤³à¤²
ts d
ime i
dt v
Ġan ush
pl at
we i
Ġ00 4
197 3
pho tovoltaic
Ġà¤¸à¤°à¤µ à¤Ł
Ġed à¤ļ
Ġà¥Ł à¤¶
Ġà¤¶à¤¹à¤¨ à¤¶
par abolic
Ġai adm
âĢĭâĢĭ âĢĭâĢĭ
Ġà¤ıà¤¸à¤ıà¤® à¤ıà¤ļà¤ıà¤¸
ating s
Ġser v
à¤ıà¤Ĩà¤¯à¤ıà¤® à¤Ĩà¤¯à¤ıà¤®à¤ļ
Ġen vironment
gen erator
car bon
à¤®à¤²à¤¨ à¤Ĺà¤°
electron s
aw s
ĠÐ ¿
Ġà¤ļà¤ªà¤ĸà¤² à¤ªà¤£
bo y
Ġà¤Ķà¤Ł à¤ĺà¤Łà¤ķ
Ġà¤¹à¤°à¤® à¤²à¤ķà¤°
à¤Ĩà¤¯à¤ıà¤¸à¤Ĩà¤¯ à¤ıà¤¸
Ġhe alth
Ġpat il
à¤°à¤ı à¤ķà¤¶
Ġà¤Ĩà¤¯à¤Ĩà¤¯ à¤ıà¤¸à¤Īà¤Ĩà¤°
Ġne ft
Ġà¦ ¬
Ġà¤¤à¤¡à¤¤ à¤¡
Ġpar rikar
its ar
oxid ant
rr r
à¤ķà¤°à¤¦à¤¨ à¤®à¤§
à¤¸à¤¹à¤¨ à¤¶à¤ķ
kas harma
à¤ħà¤Ŀà¤° à¤¬
à¤¯à¤ıà¤¸ à¤Ĩà¤°à¤¸
por al
Ġchar ge
Ġns g
aic wa
shiv sena
hu a
Ġolymp ics
Ġcapacit ors
tor que
Ġà¤ĸà¤µà¤ļ à¤Łà¤ªà¤£
Ġà¤ıà¤Ĩà¤¯à¤ıà¤« à¤ıà¤«à¤ļ
Ġsamp ling
indep th
pet rol
fri end
Ġcondition ing
shah r
Ġaccoun ts
Ġ870 1
Ġ011 22901406
Ġhind ost
Ġà¤¦à¤³à¤£à¤µà¤³ à¤£à¤®
gan esh
amr itsar
cont ainer
preval ence
tw o
Ġsin ha
Ġsci ence
nov ate
Ġcoun cil
tem poral
Ġface book
Ġdevi ation
Ġport al
Ġinde x
cric info
access ible
Ġreop ening
opm ent
à¤µà¤°à¤£à¤¤ à¤ľ
Ġdevel opment
clos ed
cometax india
]âĢĮ ]
austral ian
idel ines
asks rk
Ġshoot ing
Ġaiadm k
Ġhindost an
' )
0 7
1 22
3 30
4 80
[ ]]
a is
b b
b ir
b ern
b nf
c id
c pl
d om
e ction
f an
f by
g em
g ical
g all
i ata
j as
j un
k k
k il
k inet
m ake
n n
n ick
o bile
p ing
p pm
p ly
p cl
r b
r id
s us
s ul
t ime
u al
u ff
w to
w ash
w atch
x it
y ush
y outh
z y
¸ Ĥ
Ã ¿
Å Ł
Î ´
Ð ¼
Ù Ĥ
Ù ĥ
Ù ī
á Ł
â ľ
ã Ĥ
Ġ {
Ġ à¥Ĥ
Ġ ess
Ĺ ı
à¤¾ |
à¤° à¤³à¤¤
à¤° à¤¹à¤¨
à¤° à¤¥à¤³
à¤° à¤īà¤¤
à¤° à¤Īà¤¸à¤ļ
à¥ĩ à¥ĥ
à¤¤ à¤¤à¤ª
à¤¤ à¤¹à¤°
à¤¤ à¤ľà¤¯
à¤¯ à¤¯à¤ļ
à¤¯ à¤¸à¤¤
à¤¯ à¤µà¤³à¤£
à¤¯ à¤¹à¤¨à¤¨
à¤² à¤¸à¤²
à¤² à¤Ĩà¤§
à¤² à¤Ĩà¤Ĭà¤Ł
à¤² à¤ħà¤Ŀ
à¤¿ à¤¿
à¤¨ à¤¤à¤²
à¤¨ à¤Łà¤¨
à¤¨ à¤ľà¤®
à¤¨ à¤®à¤µ
à¤¨ à¤īà¤¤
à¤¨ à¤¤à¤°à¤¹
à¤Ĥ ''
à¤¹ à¤¤à¤°
à¤¹ à¤ªà¤£
à¤¹ à¤ľà¤°
à¤¹ à¤¸à¤¦
à¤¹ à¤ĸà¤°
à¤¹ à¤¸à¤ķ
à¤¹ à¤ļà¤°
à¤¹ à¤Łà¤µ
à¤¹ à¤°à¤®à¤¨
à¤¹ à¤ĩà¤¨à¤°
à¤ķ à¤²à¤¯
à¤ķ à¤¨à¤²
à¤ķ à¤®à¤Ĺ
à¤ķ à¤Ĩà¤§
à¤ķ à¤°à¤®à¤¨
à¤ķ à¤Ĳà¤¶
à¤ķ à¤®à¤Ĺà¤¡
à¤ļ à¤§
à¤ļ à¤³
à¤ļ à¤ĩ
à¤ļ à¤·à¤ķ
à¤ļ à¤ħà¤ª
à¤ļ à¤ķà¤µ
à¤ļ à¤¯à¤¹
à¤ļ à¤Łà¤ķà¤¨
à¤µ à¤ħ
à¤µ à¤¯à¤®
à¤µ à¤Ĺà¤³à¤¤
à¤¸ à¤¸à¤ļ
à¤¸ à¤Ĩà¤°
à¤¸ à¤ĸà¤°
à¤£ à¤ľà¤¯
à¤£ à¤ħà¤°
à¤£ à¤ľà¤µà¤³
à¤® à¤¤à¤²
à¤® à¤£à¤¤
à¤® à¤ĩ
à¤® à¤¡à¤£
à¤® à¤¸à¤ķ
à¤® à¤¬à¤¸
à¤® à¤®à¤¯
à¤® à¤Łà¤ķà¤°
à¥ĭ à¤¾
Ġà¤Ĩ à¤°à¤ļ
Ġà¤Ĩ à¤ĵ
Ġà¤Ĩ à¤ĸà¤¡
Ġà¤ķ à¤²à¤¨
à¤ª à¤¥à¤¨
à¤ª à¤³à¤¸
à¤ª à¤Łà¤¨à¤®à¤§
Ġà¤¸ à¤Ĺà¤°
Ġà¤¸ à¤¨à¤ķ
Ġà¤¸ à¤ĺà¤¨
à¤¦ à¤Ĩà¤°
à¤¦ à¤¬à¤²
à¤¦ à¤Ĺà¤¦à¤Ĺ
Ġà¤ª à¤¨à¤¡
à¤Ł à¤³à¤²
à¤Ł à¤¶à¤°
à¤Ĺ à¤¨à¤¹
à¤Ĺ à¤ķà¤®
à¤Ĺ à¤Łà¤¬
à¤Ĺ à¤°à¤¸à¤¹
Ġà¤ħ à¤¬à¤²
à¤§ à¤µà¤¡
Ġà¤¨ à¤°à¤µà¤¡
à¤ľ à¤¤à¤²
à¤ľ à¤¤à¤ķ
à¤ľ à¤¸à¤¨
à¤ľ à¤³à¤²
à¤ľ à¤¬à¤²
à¤ľ à¤³à¤ľ
à¤ľ à¤°à¤ļà¤¨
Ġà¤µ à¤ĺ
à¤¶ à¤Łà¤¨
à¤¶ à¤ħà¤°
à¤¶ à¤¹à¤¨
à¤¶ à¤ķà¤¸
à¤¶ à¤ıà¤ķ
à¤¡ à¤²à¤¯
à¤¡ à¤Ĳà¤µà¤ľ
Ġà¤¹ à¤£à¤ľ
Ġà¤¹ à¤¡à¤ªà¤£
Ġà¤¦ à¤°à¤ķ
Ġà¤¦ à¤ļà¤ķà¤¤
à¤³ à¤³
à¤³ à¤Ĺà¤¡
à¤· à¤®à¤§
à¤· à¤®à¤²
à¤· à¥Ł
à¤¬ à¤¥
à¤¬ à¤ªà¤¦
à¤¬ à¤ķà¤ļ
à¤¬ à¤Ĩà¤ļ
Ġà¤ľ à¤±
Ġà¤ľ à¤°à¤¤à¤°
Ġà¤° à¤¡à¤µà¤²
Ġà¤ķà¤° à¤¦à¤°
Ġà¤ķà¤° à¤ªà¤¦
Ġà¤ķà¤° à¤®à¤µ
Ġà¤ķà¤° à¤ķà¤ª
à¤ĸ à¤¤à¤°
à¤ĸ à¤¤à¤ķ
à¤ĸ à¤¤à¤ļ
à¤ĸ à¤µà¤¯
à¤ĸ à¤±à¤¯
à¤ĸ à¤¸à¤²à¤®
Ġà¤¬ à¤¹à¤¤
Ġà¤¬ à¤¡à¤ķ
Ġà¤¬ à¤Ĺà¤Ł
à¤¥ à¤°à¤£
à¤¥ à¤ķà¤°
à¤¥ à¤±
à¤µà¤° à¤®à¤²
à¤µà¤° à¤¸à¤Ĺ
à¤µà¤° à¤®à¤®à¤§
à¤Ń à¤°à¤µ
à¤Ń à¤¶à¤ķ
à¤Ń à¤Ĺà¤µà¤¤
Ġà¤Ĺ à¤®à¤¨
Ġà¤Ĺ à¤³à¤µ
Ġà¤Ĺ à¤Ŀà¤¨
Ġà¤Ń à¤£
Ġà¤Ń à¤°à¤¹
Ġà¤Ń à¤¯à¤ļà¤ķ
Ġà¤ħà¤¸ à¤²à¤¯
Ġà¤ļ à¤µà¤°
Ġà¤ļ à¤°à¤ķà¤²
Ġà¤ļ à¤ĺà¤³à¤¤
Ġà¤ļ à¤ĺà¤³à¤£
Ġà¤ĺ à¤°à¤²
Ġà¤Ŀ à¤¨à¤ķ
Ġà¤ī à¤¢
Ġà¤ī à¤°à¤³
Ġà¤ī à¤°à¤¤à¤ļ
Ġà¤ī à¤Ŀà¤®
à¤¤à¤° à¤®à¤²
Ġà¤Ĩà¤² à¤²
Ġà¤Ĩà¤² à¤®à¤ļ
Ġà¤ı à¤¦
Ġà¤ı à¤®à¤°
Ġà¤ı à¤¡à¤¸
Ġà¤ı à¤Ĩà¤°à¤¸
à¤Ī à¤¤à¤ļ
à¤Ī à¤ıà¤¨
à¤Ī à¤Ĩà¤°à¤¸
à¤Ī à¤«à¤ķ
à¤°à¤£ à¤¯à¤ļ
à¤°à¤£ à¤ªà¤¤
à¤°à¤£ à¤µà¤¨
à¤ĺ à¤°à¤²
à¤ĺ à¤¨à¤¨
à¤ĺ à¤®à¤®à¤§
à¤Ĩ à¤®à¤¨
à¤Ĩ à¤«à¤¤
à¤¢ à¤¶
à¤ħ à¤ªà¤¨
à¤ħ à¤ļà¤²
à¤ħ à¤Ńà¤µ
à¤ħ à¤²à¤®à¤§
à¤ħ à¤¯à¤¶à¤¸
à¤°à¤® à¤¨à¤®
Ġà¤Ł à¤Ĺ
Ġà¤Ł à¤°à¤ķ
Ġà¤Ł à¤ªà¤²
Ġà¤Ł à¤µà¤ķ
à¤ªà¤£ à¤¬
à¤°à¤µ à¤³à¤£
Ġà¤®à¤¹ à¤µ
à¤ķà¤° à¤Ł
à¤ķà¤° à¤Ń
Ġà¤ĩ à¤¹
Ġà¤ĩ à¤¤à¤¸
Ġà¤ªà¤° à¤¨
Ġà¤¸à¤° à¤«
Ġà¤¸à¤° à¤¨à¤¦
à¥ħ à¥į
à¤ķà¤¡ à¤ķà¤°
à¤ķà¤¡ à¤µà¤Ł
Ġà¤§ à¤¤
à¤¯à¤® à¤¸à¤®
Ġà¤ħà¤§ à¤°
Ġà¤¸à¤® à¤·
Ġà¤¸à¤® à¤µà¤¯à¤¸
à¤µà¤² à¤ªà¤®
à¤ı à¤¤à¤°
à¤ı à¤ķà¤°
à¤ı à¤Ŀ
à¤ı à¤¸à¤°
à¤ı à¤¸à¤¦
à¤ı à¤¨à¤¨
à¤ı à¤²à¤¦
à¤ı à¤ıà¤®à¤ıà¤¸
à¤ı à¤ıà¤¸à¤Ĩà¤¯
à¤°à¤¸ à¤ĺ
à¤°à¤¸ à¤ªà¤¤
à¤Ĭ à¤¸à¤µ
Ġà¤īà¤ª à¤°à¤£
à¤Łà¤¨ à¤ķ
à¤Łà¤¨ à¤¦
à¤Ŀ à¤³
à¤Ŀ à¤īà¤¦
Ġà¤ķà¤°à¤¤ à¤¤
à¤²à¤¯ à¤²
à¤µà¤¡ à¤°à¤¹
à¤µà¤¡ à¤°à¤®à¤§
à¤µà¤¡ à¤¨à¤Ĺà¤°
à¤µà¤£ à¤ĸ
à¤°à¤² à¤µà¤°
Ġà¤ħà¤¸à¤² à¤²
à¤¬à¤¤ à¤¸
à¤¹à¤¤ à¤¨
à¤¹à¤¤ à¤¹
Ġà¤Ĩà¤° à¤ıà¤ķ
à¤·à¤£ à¤²
à¤·à¤£ à¤¤à¤¤
à¤·à¤£ à¤Ńà¤°à¤ļ
à¤¸à¤° à¤¬à¤¤
à¤¤à¤ª à¤¨
à¤°à¤ªà¤Ł à¤°à¤¸
Ġà¤µà¤° à¤Ī
à¤µà¤¤ à¤ıà¤ĩà¤¶
à¤¡à¤² à¤ķ
à¤¡à¤² à¤ķà¤°
à¤Łà¤² à¤ª
à¤ľà¤¨ à¤ªà¤¦
à¤ľà¤¨ à¤ħà¤Ń
à¤®à¤¨ à¤ķ
à¤®à¤¨ à¤®à¤§
à¤¬à¤° à¤®à¤§à¤²
à¤¦à¤² à¤¬
à¤Łà¤° à¤¯
à¤¶à¤¨ à¤¤
à¤¶à¤¨ à¤°à¤¸
à¤¶à¤¨ à¤²à¤¨
à¤Ĺà¤³ à¤ķ
à¤Ĺà¤£ à¤²
à¤¯à¤² à¤¹
à¤¯à¤² à¤¶
à¤²à¤ķ à¤Łà¤ªà¤£
Ġà¤Ĩà¤¤ à¤¡à¥Ł
à¤¸à¤² à¤Ł
à¤¸à¤² à¤Ĺà¤ļ
à¤ĩ à¤ķà¤°
à¤ĩ à¤ªà¤ļ
à¤ĩ à¤²à¤¦
à¤ĩ à¤®à¤®à¤§
à¤ĩ à¤ĳà¤ķ
à¤ķà¤² à¤ķà¤¡
à¤®à¤ļ à¤Ł
à¤ľà¤¯ à¤¸à¤¹
à¤¸à¤¨ à¤®à¤§
Ġà¤ĳ à¤¨à¤¬
à¤µà¤³ à¤ķ
à¤£à¤¯ à¤¶
à¤·à¤ķ à¤ĺà¤Łà¤ķ
à¤¸à¤¹ à¤ľà¤ļ
à¤¸à¤¹ à¤ľà¤¤
Ġà¤īà¤¦ à¤®
Ġà¤īà¤¦ à¤¯à¤ķ
à¤ĵ à¤ľà¤¨
à¤ĵ à¤Īà¤ª
à¤°à¤¨ à¤¹
à¤µà¤¨ à¤ªà¤°
à¤³à¤¤ à¤¯
à¤Ľ à¤ķ
à¤Ľ à¤¦à¤¨
à¤²à¤¨ à¤®à¤§
à¤ī à¤°à¤¤
à¤ī à¤łà¤²
à¤ī à¤®à¤¦
à¤ī à¤Ĺà¤µà¤£
Ġà¤ĵ à¤«
à¤¦à¤µ à¤Ĳà¤µà¤ľ
à¤ľà¤ķ à¤®à¤²
à¤¹à¤® à¤ĸ
Ġà¤¦à¤° à¤¹à¤®
Ġà¤ħà¤¦ à¤ĸà¤²
à¤ķà¤¸ à¤®à¤¤
Ġà¤¹à¤² à¤¦
Ġà¤¹à¤² à¤¦à¤°
à¤¦à¤°à¤® à¤¯
à¤·à¤¯ à¤¶
à¤²à¤Ĺ à¤¨
à¤¸à¤¦ à¤¹
à¤¸à¤¦ à¤Ńà¤µà¤¨
Ġ20 47
à¤Ĩà¤® à¤µ
Ġà¤īà¤® à¤ľ
Ġà¤īà¤® à¤°à¤ĸ
à¤ĺà¤Łà¤¨ à¤µ
Ġà¤¦à¤¹ à¤¶à¤µà¤¤
à¤°à¤¹ à¤ķ
à¤°à¤¹ à¤Ł
Ġà¤®à¤¦à¤¤ à¤¶
à¤ıà¤¸ à¤¶
à¤ıà¤¸ à¤Īà¤²
à¤ıà¤¸ à¤ıà¤®à¤ıà¤¸
à¤ıà¤¸ à¤ĵà¤ľ
Ġà¤Ĩà¤Ĺ à¤°à¤¤à¤²
Ġà¤Ľ à¤¤à¤°à¤ª
Ġà¤¯à¤¶ à¤¶
à¤¨à¤° à¤¡
à¤Ĩà¤° à¤Ĩà¤°à¤¬
à¤Ĩà¤° à¤Ĩà¤¯à¤ıà¤²
à¤¸à¤® à¤Ī
à¤¸à¤® à¤ľà¤²
Ġà¤ªà¤µ à¤Īà¤®à¤§
Ġà¤ľà¤® à¤¦
Ġà¤ľà¤® à¤²à¤¯
Ġà¤Ĩà¤ł à¤¨
à¤¬à¤² à¤¸à¤¹
à¤¸à¤£ à¤īà¤¤
à¤ıà¤ķ à¤®à¤¤
à¤ıà¤ķ à¤ıà¤ķ
Ġà¥¨à¥¦ à¥¬à¥¦
Ġà¥¨à¥¦ à¥ªà¥¦
Ġà¤¶à¤¹ à¤¨à¤µ
Ġ5 17
Ġ5 14
Ġ5 24
Ġ5 70
Ġà¤ľà¤¬ à¤¬
à¤¨à¤ķ à¤±
à¤¨à¤¸ à¤¬
Ġ4 11
à¤ıà¤® à¤ıà¤¨
à¤ıà¤® à¤ıà¤²à¤ļ
à¤ıà¤® à¤ĵà¤²
à¤ıà¤® à¤ĵà¤¸
à¤Ĺà¤¡ à¤¯
Ġà¤ªà¤£ à¤¶
Ġà¥« à¥§à¥®
Ġà¤ľà¤µà¤³ à¤ķà¤°
Ġà¤ªà¤°à¤¤ à¤ļ
à¤ħà¤® à¤³à¤¨
Ġà¤Ī à¤¶à¤¨
Ġà¤Ī à¤ħà¤°
Ġà¤Ī à¤ıà¤¨à¤Ł
Ġà¤ıà¤¸ à¤ıà¤¸à¤ľ
à¤ľà¤£ à¤¹
Ġà¤ıà¤¨ à¤Ĩ
Ġà¤ıà¤¨ à¤Ĩà¤¯à¤ª
Ġà¤ıà¤¨ à¤ıà¤®à¤¸
Ġà¤ıà¤¨ à¤Ĩà¤°à¤ıà¤¸
Ġà¤ıà¤¨ à¤ıà¤²à¤¸
à¤³à¤ľ à¤µà¤³
Ġà¤Ńà¤° à¤ľà¤°
Ġà¤Ńà¤° à¤¡à¤¸à¤°
à¤¸à¤ª à¤¥à¤ķ
à¤ĳ à¤Īà¤²
Ġà¤«à¤² à¤Łà¤£à¤ķà¤°
à¤°à¤³ à¤µà¤°
à¤Īà¤¨ à¤ª
à¤Īà¤¨ à¤ħà¤ª
Ġà¤¹à¤¸ à¤¬
à¤ķà¤Ł à¥Ł
Ġ6 21
Ġ6 17
Ġ6 12
Ġà¤Ķ à¤¦à¤¯
Ġà¥¬ à¥§à¥§
Ġà¤¸à¤¨ à¤¶
Ġ10 50
Ġ10 25
Ġ10 17
à¤®à¤¸ à¤¨à¤ļ
Ġà¤ķà¤ł à¤¡à¥Ł
Ġà¤ªà¤¡ à¤¸à¤³à¤Ĺ
Ġà¤ĩà¤¥ à¤ª
Ġ7 17
Ġ7 60
à¤¡à¤ķà¤° à¤¹
à¤¡à¤° à¤¬à¤°
à¤¡à¤° à¤°à¤µà¤°
Ġà¤¢ à¤³à¤¤
à¤ıà¤² à¤¬à¤¦
à¤ıà¤² à¤Īà¤Ł
à¤ıà¤² à¤ıà¤¸à¤ıà¤¸
à¤ıà¤² à¤Īà¤ıà¤®
Ġà¥Ń à¥¨à¥§
Ġà¥Ń à¥§à¥Ń
Ġà¥Ń à¥¨à¥¯
Ġà¤¬à¤ĺ à¤µà¤²
Ġà¤ħà¤¡ à¤®
Ġà¥§à¥¦ à¥¨à¥§
à¤Īà¤Ł à¤ªà¤£
à¤¨à¤® à¤¬
Ġà¤Ĭ à¤²
Ġà¤Ĭ à¤ľ
à¤¡à¤¸ à¤¨à¤ļ
Ġ8 21
Ġ8 25
à¤ķà¤ª à¤Ńà¤°
Ġà¥® à¥§à¥Ń
à¤¨à¤¤ à¤ľ
Ġà¤Ĩà¤« à¤³
Ġ15 50
âĢĮ à¤¾
à¤ķà¤µ à¤ļà¤¨
Ġà¥¯ à¥¬à¥¦
à¤µà¤ľ à¤§
Ġà¤¤à¤£ à¤¨
Ġ9 70
Ġ9 23
Ġ9 37
à¤Łà¤¸ à¤¸
à¤¦à¤ļ à¤ķà¤²
Ġà¥§à¥¨ à¥§à¥¨
Ġà¥§à¥¨ à¥§à¥©
Ġà¥§à¥¨ à¥¨à¥Ń
Ġà¥§à¥¨ à¥ªà¥«
à¤²à¤ª à¤¥à¤ķ
Ġ11 35
Ġ100 5
Ġà¤į à¤¶à¤²
Ġà¤«à¤°à¤ķ à¤ļ
an il
Ġà¤ĺà¤Łà¤ķ à¤¦
Ġà¤ħà¤¹à¤®à¤¦ à¤¸
à¤¦à¤³ à¤ªà¤£
at ri
à¤°à¤¬ à¤ļ
Ġ19 25
Ġà¤Ķà¤·à¤§ à¤¶
Ġà¤ķà¤³à¤¤ à¤¨à¤ķà¤³à¤¤
Ġc d
19 50
19 69
Ġà¤ıà¤² à¤ıà¤®à¤Ł
Ġà¤ıà¤² à¤ıà¤ļà¤¬
Ġ18 75
Ġ18 73
à¤£à¤ļ à¤Ł
Ġ13 21
Ġà¤īà¤ĺà¤¡ à¤īà¤ĺà¤¡
à¤¬à¤¨ à¤µà¤¤
Ġs em
Ġs alman
à¤°à¤®à¤£ à¤Ń
Ġà¤Ĺà¤® à¤µà¤¤
à¤¹à¤¸ à¤ķà¤°
Ġ16 21
Ġà¤ĭ à¤¦
Ġà¤ĭ à¤Ĺ
à¤Ĺà¤® à¤¬
à¤¬à¤°à¤® à¤²
à¤ļà¤ª à¤¡
à¤ļà¤ª à¤³
Ġp al
Ġp ers
Ġp ti
Ġp admaa
Ġà¤¨à¤Ĺà¤°à¤¸ à¤¦à¤¸
Ġà¥§à¥® à¥¬à¥¦
Ġà¤¦à¤¬ à¤£
à¥§à¥¯ à¥¨
à¥§à¥¯ à¥«à¥¦
à¤³à¤¸ à¤Łà¤ªà¤£
à¤¸à¤¦à¤° à¤¹
Ġà¤µà¤ľà¤¨ à¤µ
à¤°à¤« à¤ļ
à¤ªà¤°à¤¤ à¤µ
Ġà¤Ĺà¤³ à¤ªà¤Ł
Ġà¤ĸà¤¡ à¥Ł
Ġà¤ĸà¤¡ à¤¤à¤°à¤ļ
Ġà¤ıà¤ļ à¤ıà¤«à¤¸
Ġà¤ıà¤ļ à¤ıà¤ı
Ġà¤ıà¤ļ à¤ıà¤¸à¤¸
Ġà¤ıà¤ļ à¤ıà¤®à¤Ł
Ġm b
Ġm c
Ġm ol
Ġm el
Ġm atch
Ġm ission
Ġm ukh
à¤ªà¤¡ à¤¯
es ults
à¤Łà¥Ł à¤ķ
à¤Łà¥Ł à¤§
à¤ĩà¤¥ à¤ª
à¤²à¤®à¤¤ à¤µ
Ġa j
Ġa z
Ġa cb
Ġa gr
Ġà¤ľà¤² à¤Ĭà¤°
Ġà¥ªà¥¦ à¥Ń
Ġà¥ªà¥¦ à¥«à¥¦
Ġà¥ªà¥¦ à¥ªà¥«
à¤³à¤ķà¤° à¤ľ
Ġà¤¨à¤Ĭ à¤µà¤°
à¤®à¤°à¤£ à¤°
Ġb u
Ġb us
Ġb ul
Ġb est
Ġb order
à¤¡à¤µà¤² à¤µ
Ġr c
Ġr en
Ġr hea
Ġà¤¬à¤¦ à¤¡
Ġv e
Ġt en
Ġt oo
50 50
à¤¯à¤« à¤²à¤®
st er
à¤īà¤¨ à¤¦à¤°à¤®
Ġà¤Ĺà¤°à¤® à¤ļ
am ata
Ġ22 000
Ġn m
Ġn on
Ġn at
Ġn ation
Ġn umb
Ġn ta
Ġn arendramodi
Ġn okia
ct ad
di k
à¤¯à¤ķà¤² à¤¸à¤¹
à¤¡à¤¬ à¤¡à¤²
à¤Ĩà¤¯à¤ı à¤²à¤²
Ġà¤ıà¤«à¤Ĩà¤¯à¤Ĩà¤° à¤µà¤°
Ġà¤ļà¤¢ à¥Ł
it ics
Ġf t
Ġf arm
Ġf ather
Ġf astag
Ġà¤¹à¤¦ à¤¯à¤µ
30 4
Ġà¤¬à¤¡ à¤µà¤¤
Ġà¥² à¤Łà¤°
Ġ60 3
Ġ60 6
Ġg up
Ġg eo
à¤¸à¤ħ à¤ªà¤¨
et ro
Ġ23 21
Ġw h
Ġw as
Ġw ork
Ġw ife
Ġ80 3
Ġd w
Ġd en
Ġd re
Ġd el
Ġd ell
Ġd ry
Ġd rd
à¤¶à¤°à¤¦ à¤ļ
à¤ħà¤« à¤Ŀà¤²
Ġ31 122018
ir y
Ġ27 28
Ġ0 26
is ed
Ġà¤ħà¤¡à¤ķ à¤µà¤¤
Ġh el
Ġh all
co p
us a
Ġà¤ļà¤²à¤¨ à¤¸
Ġà¤ļà¤²à¤¨ à¤Ł
Ġà¤ļà¤²à¤¨ à¤«
Ġ75 6
ra p
ra in
18 00
18 000
Ġà¥Ńà¥¦ à¥©
Ġà¥Ńà¥¦ à¥Ń
up s
Ġk tm
Ġk rish
à¤ľà¤¦à¤° à¤¹
Ġà¥®à¥¦ à¥®
25 1
à¤«à¤² à¤Łà¤£
Ġ90 10
Ġl ist
Ġl og
Ġl anka
à¥§à¥« à¥¨
à¥§à¥« à¥«
il ing
Ġà¥¨à¥¦à¥§à¥ª à¥¨à¥¦à¥§à¥«
Ġà¥Ńà¥« à¥¨
Ġà¥Ńà¥« à¥¯
ul b
ch and
re qu
re cord
Ġo s
Ġo tt
Ġo wa
Ġà¥ªà¥® à¥¯
Ġà¤°à¤¡ à¤µà¤¤
Ġ33 000
à¤ıà¤¨à¤Ĩà¤¯ à¤Ĩà¤¯à¤ıà¤«
ind onesia
à¥§à¥Ń à¥¨
Ġe ar
Ġà¥©à¥ª à¥¦à¥¦
à¤į à¤¡à¤®
and h
à¤Īà¤ľ à¤¡
iv er
Ġà¤¸à¤¬ à¤°à¤µ
11 4
Ġ38 9
Ġ38 00
ur se
à¤Łà¤°à¤¸ à¤¨à¤ļ
à¥§à¥© à¥¯
Ġ42 7
Ġ42 9
Ġà¤¬à¤¬ à¤¨à¤¦
à¥§à¥ª à¥®
Ġà¥ªà¥ª à¥¯
à¤ıà¤¸à¤ıà¤¸ à¤¬
à¤ıà¤¸à¤ıà¤¸ à¤Ĩà¤°
14 00
à¤¤à¤Ń à¤Ł
à¥§à¥§à¥ §à¥
à¥§à¥§à¥ §à¥¨
Ġà¥¬à¥« à¥¬
ac id
à¤ķà¤ħà¤ª à¤®
Ġà¥©à¥¦à¥¦ à¥¬
Ġà¥«à¥« à¥«
Ġà¥«à¥« à¥§
Ġj am
Ġj nusu
Ġ105 00
à¤§à¤°à¤£ à¤Ĺ
24 5
24 9
Ġà¥ªà¥¬ à¥¬
Ġà¥¬à¥© à¥Ń
em e
em ic
Ġà¤ĭà¤·à¤Ń à¤¨
Ġà¤¤à¤°à¤£ à¤¤à¤²
Ġà¤¤à¤Ĺà¤¡ à¥Ł
Ġ46 9
om et
av i
Ġ39 8
Ġà¥«à¥¬ à¥§
Ġà¥«à¥¬ à¥¬
Ġà¥«à¥ª à¥¯
Ġà¥«à¥ª à¥Ń
Ġi b
Ġà¥ªà¥Ń à¥ª
Ġà¥ªà¥Ń à¥¬
Ġà¥¬à¥¨ à¥¯
Ġ59 09
à¥¨à¥© à¥¨
Ġà¥¨à¥¦à¥§à¥© à¥¨à¥¦à¥§à¥ª
ak er
à¤³à¤ªà¤Ł à¤ªà¤£
har d
har dik
Ġà¥«à¥® à¥ª
Ġà¥«à¥® à¥§
Ġà¥«à¥® à¥®
Ġ85 1
Ġ53 4
à¤µà¤¨à¤ļ à¤ķ
Ġà¤ķà¤ªà¤² à¤ª
he alth
he avy
Ġà¥®à¥« à¥ª
Ġà¥®à¥« à¥¬
Ġà¥®à¥« à¥¦à¥¦
Ġà¤®à¤ķà¤° à¤§
Ġà¥«à¥© à¥§
Ġà¥«à¥© à¥¯
Ġà¥Ńà¥¬ à¥Ń
Ġre action
à¥¨à¥® à¥®
à¥¨à¥Ń à¥Ń
à¤ľà¤Ńà¤µà¤¨ à¤®à¤§
13 8
à¤²à¤ĺ à¤°à¤¸à¤¹
à¤ıà¤Ĩà¤¯ à¤¯
à¤§à¤µà¤¨ à¤²
Ġà¥«à¥¯ à¥¬
à¤Īà¤« à¤¬à¤¦
Ġà¤Ńà¤Łà¤ķ à¤£
ers h
Ġà¥Ńà¥® à¥©
Ġà¥¯à¥« à¥Ń
à¤Łà¤°à¤® à¤¨à¤¨
ig a
à® ¯
à® ´
à® ļ
Ġst and
Ġst andard
pm aas
Ġ95 2
Ġ78 7
Ġon e
Ġà¤ıà¤¨à¤ıà¤¸ à¤ıà¤¸à¤ļ
Ġà¤¹à¤Łà¤ķ à¤¤
Ġà¥®à¥¬ à¥©
Ġà¤®à¤Ĭ à¤¸à¤°
Ġà¥®à¥¯ à¥ª
Ġpro duct
Ġà¥¯à¥¬ à¥¨
Ġà¥¯à¥¬ à¥§
Ġà¥®à¥© à¥©
ha el
Ġ77 2
Ġ77 5
Ġ77 38
Ġ76 1
à¥®à¥¦ à¥§à¥§
27 3
mp l
75 8
Ð° ÑĤ
à¤Īà¤¦ à¤ıà¤®
Ġà¥Ńà¥¯ à¥¨
cr uit
to t
sh ire
hy derabad
à¤ıà¤®à¤ıà¤² à¤¡
con nect
ms me
à¥ªà¥¯ à¥¦
Ġà¤Ĩà¤°à¤ıà¤¸à¤ıà¤¸ à¤¶
Ġà¥¯à¥Ń à¥¯
Ġy e
Ġà¤Ĩà¤°à¤ıà¤¸ à¤µ
Ġà¥®à¥® à¥¦à¥¦
Ġà¤¬à¤¹à¤² à¤µà¤°
Ġ197 9
Ġ97 1
Ġ97 9
Ġ88 8
Ġà¤ħà¤²à¤ķ à¤¨
pro te
Ġ196 6
Ġà¤īà¤°à¤£ à¤®à¤§
ank ita
ug c
à¥§à¥¯à¥® à¥¨
Ġip o
Ġà¤ķà¤°à¤¡ à¤Ī
à² ¦
ex chang
Ġà¤Ĺà¤¡à¤Ĺ à¤¡à¤£
Ñģ Ð¸
à¤¸à¤į à¤ªà¤ķà¤¡
à¤Ĩà¤¯à¤Ĩà¤¯ à¤ıà¤¸à¤¸
Ġcon vers
Ġis sf
Ġto ur
à¤¦à¤¶à¤¹ à¤°à¤ļ
po on
Ġcbi à¤ķà¤¡
pn cricinfo
à¤Ĩà¤Ĭ à¤Łà¤®à¤§
Ġun it
Ġun sc
à¥©à¥Ń à¥¯
Ġà¥¯à¥¦à¥¦ à¥¦à¥¦
à¥¨à¥¦à¥§à¥© à¥§à¥ª
à¥©à¥¯ à¥ª
à´ Ł
Ġmi x
Ġmi ui
Ġà¤ķà¤µà¤¡ à¤¸
à¥ģà¥ģ à¥ģ
Ġfin als
pp a
pos it
à¤µà¤¨à¤Ĺà¤° à¤®à¤§
for bes
ib o
man ohar
Ġà¤īà¤ķà¤¡ à¤¤
à¤ķà¤®à¤¤ à¤¶
Ġ2024 25
ard han
Ġ190 6
85 4
ow ifi
à¤¨à¤¥ à¤Ł
Ġà¤Ĩà¤¯à¤ıà¤® à¤ıà¤ļ
à¤¹à¤¡à¤ªà¤¸à¤° à¤®à¤§
Ġpol icy
pl an
197 2
à¤Łà¤ħ à¤ªà¤²
Ġà¤ıà¤®à¤ıà¤ļ à¤¬
ithi k
Ġâ Ĥ¹
Ġnia à¤ļ
ft ii
Ġà¤«à¤²à¤Łà¤£ à¤®à¤§
Ġrbi à¤ļ
à¤Ĩà¤¯à¤ıà¤¸à¤ıà¤« à¤¨
Ġ326 182
Ġà¤ıà¤«à¤Ĩà¤¯à¤Ĩ à¤°à¤¦
à¤¹à¤°à¤Ń à¤ľà¤¨à¤¨
à¤ıà¤Ĩà¤¯à¤ıà¤® à¤ª
Ġev ent
gen cy
Ġit r
Ġgo yal
Ġà¤¬à¤°à¤ļ à¤¸
Ġà¤ĵà¤²à¤¸à¤° à¤ªà¤£
Ġtr ust
tra cking
Ġà¤ķà¤¨à¤ķ à¤¦
Ġà¤Īà¤ıà¤®à¤Ĩà¤¯ à¤µà¤°
Ġ219 3
af db
Ġà¤ħà¤ķà¤®à¤² à¤ļ
cc d
Ġà¤®à¤ĸ à¤®à¤²
à³ ģ
Ġà¤®à¤°à¤ķ à¤ľ
Ġà¤īà¤ªà¤² à¤¬à¤¦
Ġrss à¤ļ
Ġbox ing
Ġà¤ıà¤®à¤ıà¤¸à¤ıà¤® à¤Īà¤²
Ġà¤ıà¤®à¤ıà¤¸à¤ıà¤® à¤Īà¤¨
à¤ıà¤¨à¤ıà¤« à¤ıà¤Ĩà¤¯
Ġà¤ıà¤®à¤ıà¤ıà¤ļ à¤ļ
Ġso ci
rt gs
Ġà¤°à¤ĸà¤¡ à¤µà¤²
Ġorg an
anc er
Ġbo y
paramet er
Ġà¤ľà¤« à¤°à¤µà¤°
__ __
ber crime
Ġran veer
Ġà¤ħà¤µà¤ļ à¤Ł
sol ar
Ġap ps
htt ps
volt s
Ġhy undai
Ġtrain ing
dev ices
ific ation
Ġloc al
fr ench
wat ts
Ġà¤¶à¤¯à¤¨ à¤¯
Ġcha in
Ġbr ics
Ġpi xel
Ã³ dz
à· Ĭ
dra g
à¤Ĩà¤¢à¤³ à¤°
Ð¾Ð² ÑģÐºÐ°Ñı
Ġà¤ıà¤®à¤ĵ à¤Ĩà¤°à¤Ł
nag pur
Ġà¤¤à¤³à¤¤ à¤³
quant itative
enn ai
Ġunivers ity
free zing
Ġà¤ľà¤³à¤® à¤Ł
Ġgir l
condens er
prospect ive
Ġafric a
à¤ķà¤Ĩà¤ī à¤Łà¤ļ
high light
Ġreact ants
Ġmanag ement
bet z
Ġà¥§à¥¯à¥ªà¥ª à¥ªà¥«
Ġsind hu
Ġpslv c
Ġay odhya
olk ata
Ġcommit tee
farm er
Ġwarm ing
Ġ3009 2018
Ġhist ory
Ð½Ñĭ Ð¹
abang g
Ġdiff usion
experim ental
bern o
à¤ľà¤³à¤ľ à¤³
Ġpadmaa wards
Ġmukh erjee
Ġdre ams
Ġdrd o
requ en
Ġowa isi
Ġ5909 804
pmaas ha
( '
0 2
1 21
1 16
6 000
a q
a il
b à¤ļ
b at
b en
b as
b re
b engal
b wf
d ip
e os
f it
f oc
f li
f ood
f ire
f gm
g ar
g ed
g um
g ative
h s
h ur
h uri
i le
i od
j k
j ack
k am
k ha
l g
l it
l ay
l ab
l ish
m k
m v
m im
m el
m iss
m fat
n am
n il
n ss
n ey
n cov
p k
p al
p and
r it
r ation
r ia
s w
s à¤¤
s en
s im
s el
s ide
s arscov
s outh
t es
t ata
u de
u apa
v est
w abetainfo
x i
z os
Â ½
Î º
Î ¼
Ñ ĺ
á ±
Ġ et
Ġ ol
Ġ ÑĤ
Ġ ðŁ
Ġ ire
Ġ <<
Ġ Ù¾
Ġ army
à¤¾ \
à¤° à¤ĸà¤®
à¤° à¤Ĩà¤°
à¤° à¤µà¤°à¤£
à¤° à¤¥à¤¨
à¥ĩ à¥ĭ
à¥Ģ _
à¥Ģ à¥į
à¤¤ à¤Ĭ
à¤¤ à¤Ĩà¤ªà¤²
à¤¤ à¤Łà¤¬
à¤¯ à¤ĺ
à¤¯ à¤¬à¤ľ
à¤¯ à¤¹à¤ķ
à¤¯ à¤īà¤¦
à¤¯ à¤¬à¤°à¤®
à¤¯ à¤µà¤¨à¤ª
à¤² à¤Ĩ
à¤² à¤ªà¤²
à¤² à¤Ĩà¤£
à¤² à¤ħà¤¶
à¤² à¤ĸà¤µ
à¤² à¤ĳà¤ķ
à¤¿ à¥ĭ
à¤¿ à¤¾à¤Ĥ
à¤¨ à¤ł
à¤¨ à¤±
à¤¨ à¤ľà¤ª
à¤¨ à¤¯à¤²
à¤¨ à¤¨à¤¹
à¤¨ à¤ĺà¤°
à¤¨ à¤īà¤¦
à¤¨ à¤ĺà¤¨
à¤¹ à¤¸à¤²
à¤¹ à¤¸à¤®
à¤¹ à¤¦à¤Ĺ
à¤¹ à¤ĩà¤ļ
à¤ķ à¤¹à¤®
à¤ķ à¤¬à¤²
à¤ķ à¤¨à¤¨
à¤ķ à¤¨à¤ķ
à¤ķ à¤®à¤¦
à¤ķ à¤¦à¤²à¤ļ
à¤ķ Âºà¤¯
à¤ķ à¤ħà¤ªà¤¹
à¤ķ à¤³à¤¤à¤ļ
à¤ļ à¤²à¤¯
à¤µ à¤ķà¤¤
à¤µ à¤ľà¤²
à¤µ à¤®à¤£
à¤¸ à¤®à¤¹
à¤¸ à¤ıà¤¸
à¤¸ à¤ĩà¤¨
à¤¸ à¤Ĳà¤µà¤ľ
à¤¸ à¤ĸà¤²à¤¨
à¤£ à¤Ł
à¤£ à¤¬à¤¦
à¤£ à¤ķà¤¸
à¤£ à¤®à¤£
à¤£ à¤¬à¤ļ
à¤£ à¤°à¤£à¤µ
à¤£ à¤ĩà¤°
à¤® à¤ªà¤¦
à¤® à¤¯à¤¨
à¤® à¤¶à¤ķ
à¤® à¤Ĩà¤§
à¤® à¤³à¤µà¤²
à¤® à¤³à¤¨
à¤® à¤ľà¤¦
à¤® à¤¬à¤°à¤®
Ġà¤Ĩ à¤Łà¤ķ
Ġà¤Ĩ à¤ķà¤°à¤£
Ġà¤Ĩ à¤ĩà¤¡
Ġà¤ķ à¤ªà¤°
Ġà¤ķ à¤¹à¤²
à¤ª à¤¶à¤¨
à¤ª à¤¸à¤µà¤°
à¥ģ à¤¼
Ġà¤¸ à¤ªà¤°
Ġà¤¸ à¤±
Ġà¤¸ à¤«à¤³
à¤¦ à¤Ŀ
à¤¦ à¤ľà¤¨
à¤¦ à¤¤à¤ļ
à¤¦ à¤Īà¤ª
Ġà¤ª à¤³à¤²
Ġà¤ª à¤²à¤µ
Ġà¤® à¤¢à¤²
Ġà¤® à¤¸à¤£
Ġà¤® à¤Ĭà¤¸
Ġà¤® à¤³à¤®
Ġà¤® à¤¦à¤°à¤ļ
à¤Ł à¤ıà¤ķ
à¤Ł à¤ĵà¤µ
à¤Ł à¤®à¤¨à¤ļ
à¥Ĥ ]
à¥Ĥ à¤¾
à¤Ĺ à¤µà¤¸
à¤Ĺ à¤¸à¤°
à¤Ĺ à¤¤à¤ª
à¤Ĺ à¤¦à¤²
à¤Ĺ à¤¹à¤¨
à¤Ĺ à¤®à¤µ
à¤Ĺ à¤¬à¤ľ
à¤Ĺ à¤®à¤¯
à¤Ĺ à¤īà¤ªà¤Ĺ
Ġà¤ħ à¤°à¤ķ
Ġà¤ħ à¤¯à¤®
Ġà¤ħ à¤³à¤£
Ġà¤ħ à¤¡à¤ļ
Ġà¤ħ à¤¡à¤¨
Ġà¤ħ à¤³à¤Ĺ
Ġà¤Ĩà¤¹ à¤°
Ġà¤¨ à¤²à¤Ĺ
Ġà¤¨ à¤¶à¤°
à¤ľ à¤Ĺà¤µ
à¤ľ à¤±à¤¯
Ġà¤µ à¤¯à¤ļ
Ġà¤µ à¤¦à¤µ
Ġà¤µ à¤Łà¤¤
Ġà¤µ à¤°à¤ķà¤®
à¤¶ à¤·
à¤¶ à¤°à¤ľ
à¤¶ à¤¯à¤¨
à¤¶ à¤īà¤¤
à¤¶ à¤Ĺà¤¨
à¤¶ à¤®à¤¸
à¤¶ à¤°à¤µà¤°
à¤¶ à¤µà¤Ń
Ġà¤¤ à¤°à¤ķ
Ġà¤¤ à¤µà¤²
Ġà¤¤ à¤°à¤µà¤¡
à¤¡ à¤µà¤¨
à¤¡ à¤®à¤Ĺ
à¤¡ à¤°à¤ķà¤°
à¤¡ à¤Ŀà¤¨
à¤¡ à¤¸à¤¨à¤²
Ġà¤¹ à¤¸à¤±
Ġà¤¹ à¤ķà¤¦
Ġà¤¹ à¤¦à¤¯
Ġà¤¹ à¤¡à¤¸à¤¨
Ġà¤¹ à¤¡à¤¬à¤¡à¤²
Ġà¤¦ à¤µà¤£
Ġà¤¦ à¤°à¤ļ
Ġà¤¦ à¤²à¤¨
Ġà¤¯ à¤Īà¤²
à¤³ à¤ı
à¤· à¤²à¤ª
à¤¬ à¤¢
Ġà¤ľ à¤°à¤ķ
Ġà¤ľ à¤¸à¤®
Ġà¤ľ à¤³à¤µ
Ġà¤ľ à¤°à¤¨à¤²
Ġà¤° à¤¹à¤£
Ġà¤° à¤µà¤²
Ġà¤° à¤¹à¤¤
Ġà¤° à¤Īà¤¸à¤®à¤§
Ġà¤ķà¤° à¤¬
Ġà¤ķà¤° à¤®à¤°
Ġà¤ķà¤° à¤ķà¤ļ
à¤ĸ à¤°à¤ķ
à¤ĸ à¤ķà¤¡
à¤ĸ à¤¦à¤°
à¤ĸ à¤³à¤£
à¤ĸ à¤¤à¤¹
à¤ĸ à¤Łà¤ªà¤£
Ġà¤¬ à¤§à¤£
Ġà¤¶ à¤Ł
Ġà¤¶ à¤¦à¤°
Ġà¤¶ à¤ªà¤¤
à¤ł à¤ľ
à¤ł à¤Ī
à¤ł à¤ķà¤°
à¤µà¤° à¤¦à¤°
à¤µà¤° à¤¨à¤Ĺà¤°
à¤Ń à¤°à¤®à¤¸
à¤Ń à¤¡à¤Ń
Ġà¤Ĺ à¤¹à¤°
Ġà¤Ĺ à¤®à¤Ĺ
Ġà¤Ĺ à¤°à¤¸à¤®à¤ľ
Ġà¤Ń à¤¬
Ġà¤ħà¤¸ à¤¹à¤¨
Ġà¤² à¤¥
Ġà¤² à¤Łà¤ª
Ġà¤² à¤Īà¤ļ
Ġà¤ī à¤Łà¤²
Ġà¤ī à¤¬à¤°à¤ļ
Ġà¤ī à¤°à¤ķà¤¤
Ġà¤ī à¤Łà¤Ĺ
Ġà¤ī à¤°à¤£à¤ļ
à¤°à¤ķ à¤ļà¤°
à¤°à¤ķ à¤¬à¤¸à¤ļ
à¤°à¤¤ à¤ħ
à¤°à¤¤ à¤ķà¤¡
à¤¤à¤° à¤Ĺ
Ġà¤ĸ à¤¡à¤ª
Ġà¤ĸ à¤µà¤³à¤£
Ġà¤ĸ à¤°à¤µà¤¡
Ġà¤ĸ à¤µà¤³à¤¤
Ġà¤ı à¤²à¤¯
Ġà¤ı à¤²à¤µ
Ġà¤ı à¤ıà¤²
Ġà¤ı à¤ıà¤Ĩà¤¯
à¤Ī à¤¨à¤µ
à¤Ī à¤¹à¤²
à¤Ī à¤¡à¤°
à¤Ī à¤¹à¤¦
à¤°à¤£ à¤¬à¤¦
à¤¯à¤ķ à¤²à¤°
à¤ĺ à¤ªà¤°
à¤ĺ à¤¨à¤¶
à¤ĺ à¤¸à¤°à¤¤
à¤Ĩ à¤±
à¤Ĩ à¤¨à¤ļ
à¤Ĩ à¤¤à¤¤
à¤Ĩ à¤¸à¤µ
Ġà¤« à¤°à¤®
Ġà¤« à¤ķà¤°
à¤¢ à¤®
à¤¢ à¤ķà¤²
à¤¢ à¤°à¤ķà¤°
à¤ħ à¤Ĺà¤°
à¤ħ à¤¶à¤¨
à¤ħ à¤Ĺà¤£
à¤ħ à¤¹à¤²
à¤ħ à¤²à¤°
à¤ħ à¤Ĺà¤¸
à¤ħ à¤ĸà¤¨
à¤°à¤® à¤ķà¤¡
Ġà¤ıà¤ķ à¤®à¤§
Ġà¤ıà¤ķ à¤ªà¤ķ
à¤« à¤²à¤¤
à¤°à¤µ à¤®
à¤µà¤¸ à¤¦
à¤µà¤¸ à¤®à¤¤
à¤ķà¤° à¤Ĺ
à¤ķà¤° à¤ĸ
Ġà¤ĩ à¤Ĺà¤²
Ġà¤ĩ à¤²à¤ķ
Ġà¤ĩ à¤®à¤¤
Ġà¤ĩ à¤¶à¤ķ
Ġà¤ĩ à¤¯à¤°à¤®à¤§
à¤ªà¤° à¤Ń
à¤ªà¤° à¤¸à¤¹
Ġà¤ªà¤° à¤ĸ
à¤ķà¤¡ à¤¬
Ġà¤§ à¤µà¤¡
Ġà¤§ à¤¸à¤®
à¤± à¤²
à¤¯à¤® à¤ķà¤°
Ġà¤¸à¤® à¤¥
Ġà¤¸à¤® à¤°à¤ķ
Ġà¤¸à¤® à¤¨à¤µ
à¤ı à¤Łà¤µà¤°
Ġà¤īà¤ª à¤®à¤°
Ġà¤īà¤ª à¤īà¤¤
Ġà¤īà¤ª à¤°à¤ķà¤°
Ġà¤īà¤ª à¤ªà¤°à¤°
à¤Łà¤¨ à¤Ł
à¤Łà¤¨ à¤Ĺà¤°
à¤Łà¤¨ à¤ªà¤°à¤³
Ġà¤¡ à¤µà¤°
à¤µà¤¡ à¤µà¤£
Ġà¤¤à¤° à¤³
Ġà¤¤à¤° à¤«à¤¦
à¤¦à¤° à¤¬à¤²
à¤¦à¤° à¤¨à¤Ĺà¤°
à¤µà¤£ à¤ª
à¤µà¤£ à¤ķà¤°
à¤°à¤² à¤¤
à¤°à¤² à¤¯à¤ķ
à¤°à¤² à¤Ĺà¤¤à¤ļ
à¤ĸà¤² à¤ķà¤°
Ġà¤¸à¤°à¤ķ à¤µà¤¤
à¤¸à¤° à¤³à¤¸
Ġà¤Ĩà¤® à¤ķ
Ġà¤Ĩà¤® à¤°à¤¸
Ġà¤Ĩà¤® à¤¦à¤°
à¤¤à¤ª à¤¦à¤ķ
à¤Łà¤ķ à¤¯
à¤Łà¤ķ à¤¬
à¤°à¤ķà¤°à¤£ à¤¤
à¤¡à¤² à¤¹
à¤¡à¤² à¤°à¤ļ
à¤°à¤¶ à¤°à¤£
à¤Łà¤² à¤¶
à¤ľà¤¨ à¤Ń
à¤ľà¤¨ à¤ķà¤¡
à¤¦à¤² à¤²
à¤¦à¤² à¤¸
Ġà¤¸à¤¹ à¤Ĺ
[...]
