{"<s>":0,"<pad>":1,"</s>":2,"<unk>":3,"<mask>":4,"!":5,"\"":6,"#":7,"$":8,"%":9,"&":10,"'":11,"(":12,")":13,"*":14,"+":15,",":16,"-":17,".":18,"/":19,"0":20,"1":21,"2":22,"3":23,"4":24,"5":25,"6":26,"7":27,"8":28,"9":29,":":30,";":31,"<":32,"=":33,">":34,"?":35,"@":36,"A":37,"B":38,"C":39,"D":40,"E":41,"F":42,"G":43,"H":44,"I":45,"J":46,"K":47,"L":48,"M":49,"N":50,"O":51,"P":52,"Q":53,"R":54,"S":55,"T":56,"U":57,"V":58,"W":59,"X":60,"Y":61,"Z":62,"[":63,"\\":64,"]":65,"^":66,"_":67,"`":68,"a":69,"b":70,"c":71,"d":72,"e":73,"f":74,"g":75,"h":76,"i":77,"j":78,"k":79,"l":80,"m":81,"n":82,"o":83,"p":84,"q":85,"r":86,"s":87,"t":88,"u":89,"v":90,"w":91,"x":92,"y":93,"z":94,"{":95,"|":96,"}":97,"~":98,"¡":99,"¢":100,"£":101,"¤":102,"¥":103,"¦":104,"§":105,"¨":106,"©":107,"ª":108,"«":109,"¬":110,"®":111,"¯":112,"°":113,"±":114,"²":115,"³":116,"´":117,"µ":118,"¶":119,"·":120,"¸":121,"¹":122,"º":123,"»":124,"¼":125,"½":126,"¾":127,"¿":128,"À":129,"Á":130,"Â":131,"Ã":132,"Ä":133,"Å":134,"Æ":135,"Ç":136,"È":137,"É":138,"Ê":139,"Ë":140,"Ì":141,"Í":142,"Î":143,"Ï":144,"Ð":145,"Ñ":146,"Ò":147,"Ó":148,"Ô":149,"Õ":150,"Ö":151,"×":152,"Ø":153,"Ù":154,"Ú":155,"Û":156,"Ü":157,"Ý":158,"Þ":159,"ß":160,"à":161,"á":162,"â":163,"ã":164,"ä":165,"å":166,"æ":167,"ç":168,"è":169,"é":170,"ê":171,"ë":172,"ì":173,"í":174,"î":175,"ï":176,"ð":177,"ñ":178,"ò":179,"ó":180,"ô":181,"õ":182,"ö":183,"÷":184,"ø":185,"ù":186,"ú":187,"û":188,"ü":189,"ý":190,"þ":191,"ÿ":192,"Ā":193,"ā":194,"Ă":195,"ă":196,"Ą":197,"ą":198,"Ć":199,"ć":200,"Ĉ":201,"ĉ":202,"Ċ":203,"ċ":204,"Č":205,"č":206,"Ď":207,"ď":208,"Đ":209,"đ":210,"Ē":211,"ē":212,"Ĕ":213,"ĕ":214,"Ė":215,"ė":216,"Ę":217,"ę":218,"Ě":219,"ě":220,"Ĝ":221,"ĝ":222,"Ğ":223,"ğ":224,"Ġ":225,"ġ":226,"Ģ":227,"ģ":228,"Ĥ":229,"ĥ":230,"Ħ":231,"ħ":232,"Ĩ":233,"ĩ":234,"Ī":235,"ī":236,"Ĭ":237,"ĭ":238,"Į":239,"į":240,"İ":241,"ı":242,"Ĳ":243,"ĳ":244,"Ĵ":245,"ĵ":246,"Ķ":247,"ķ":248,"ĸ":249,"Ĺ":250,"ĺ":251,"Ļ":252,"ļ":253,"Ľ":254,"ľ":255,"Ŀ":256,"ŀ":257,"Ł":258,"ł":259,"Ń":260,"à¤":261,"à¥":262,"Ġà¤":263,"à¤¾":264,"à¥į":265,"à¤°":266,"à¥ĩ":267,"à¥Ģ":268,"à¤¤":269,"à¤¯":270,"à¤²":271,"à¤¿":272,"à¤¨":273,"à¤Ĥ":274,"à¤¹":275,"à¤ķ":276,"à¤ļ":277,"à¤µ":278,"à¤¸":279,"à¤£":280,"à¤®":281,"à¥ĭ":282,"Ġà¤Ĩ":283,"Ġà¤ķ":284,"à¤ª":285,"à¥ģ":286,"Ġà¤¸":287,"à¤¦":288,"Ġà¤ª":289,"à¤¾à¤Ĥ":290,"Ġà¤®":291,"à¤Ł":292,"à¥Ĥ":293,"à¤Ĺ":294,"Ġà¤ħ":295,"à¤§":296,"Ġà¤Ĩà¤¹":297,"Ġà¤¨":298,"à¤ľ":299,"Ġà¤µ":300,"à¤¶":301,"Ġà¤¤":302,"à¤¡":303,"Ġà¤¹":304,"Ġà¤¦":305,"Ġà¤¯":306,"à¤³":307,"à¤·":308,"à¤¬":309,"Ġà¤ľ":310,"Ġà¤°":311,"Ġà¤ķà¤°":312,"à¤ĸ":313,"Ġà¤¬":314,"Ġà¤¶":315,"à¤¥":316,"à¤ł":317,"à¤µà¤°":318,"à¤Ń":319,"Ġà¤Ĺ":320,"Ġà¤Ń":321,"Ġà¤ħà¤¸":322,"Ġà¤Ĩà¤£":323,"Ġà¤ļ":324,"Ġà¤²":325,"Ġà¤ĺ":326,"Ġà¤Ŀ":327,"Ġà¤ī":328,"à¤°à¤ķ":329,"à¤°à¤¤":330,"à¤¤à¤°":331,"à¤®à¤§":332,"Ġà¤Ĩà¤²":333,"Ġà¤ķà¤°à¤£":334,"Ġà¤ĸ":335,"Ġà¤ı":336,"à¤Ī":337,"à¤°à¤£":338,"à¤¯à¤ķ":339,"à¤ĺ":340,"à¤Ĩ":341,"à¤¿à¤Ĥ":342,"Ġà¤«":343,"à¥ĥ":344,"à¤¢":345,"à¤ħ":346,"à¥ī":347,"à¤°à¤®":348,"Ġà¤ıà¤ķ":349,"Ġà¤Ł":350,"à¥ĩà¤Ĥ":351,"à¤ªà¤£":352,"à¤«":353,"Ġà¥":354,"à¤°à¤µ":355,"à¤¤à¤²":356,"Ġà¤ł":357,"à¤µà¤¸":358,"Ġà¤®à¤¹":359,"à¤ķà¤°":360,"à¥Ī":361,"Ġà¤ĩ":362,"à¤ªà¤°":363,"à¤¹à¤£":364,"Ġà¤ªà¤°":365,"Ġà¤¸à¤°":366,"à¥ħ":367,"à¤ķà¤¡":368,"à¤ªà¤²":369,"à¤°à¤ª":370,"Ġà¤§":371,"à¤±":372,"à¤¯à¤®":373,"Ġà¤ħà¤§":374,"Ġà¤¸à¤®":375,"à¤µà¤²":376,"à¤ı":377,"à¤°à¤¸":378,"à¤Ĭ":379,"à¥ģà¤Ĥ":380,"Ġà¤ħà¤¨":381,"Ġà¤īà¤ª":382,"à¤Łà¤¨":383,"à¥Į":384,"à¤Ŀ":385,"à¥Ģà¤Ĥ":386,"Ġà¤ķà¤°à¤¤":387,"à¤²à¤¯":388,"Ġà¤¡":389,"à¤ľà¤ª":390,"à¤µà¤¡":391,"Ġà¤¤à¤°":392,"à¤¦à¤°":393,"à¤µà¤£":394,"à¤°à¤²":395,"à¤°à¤ļ":396,"Ġà¤ħà¤¸à¤²":397,"à¤¬à¤¤":398,"à¤¹à¤¤":399,"à¤ģ":400,"Ġà¤¶à¤ķ":401,"Ġà¤Ĩà¤°":402,"à¤Ĺà¤²":403,"à¤·à¤£":404,"à¤ĸà¤²":405,"Ġà¤¸à¤°à¤ķ":406,"Ġà¤¨à¤µ":407,"à¤¸à¤°":408,"Ġà¤Ĩà¤®":409,"à¤¤à¤ª":410,"à¤°à¤§":411,"Ġà¤Ĩà¤ªà¤²":412,"à¤°à¤¦":413,"à¤°à¤ªà¤Ł":414,"à¤Łà¤ķ":415,"à¥¦":416,"Ġà¤µà¤°":417,"à¤°à¤ķà¤°à¤£":418,"à¤µà¤¤":419,"à¤¡à¤²":420,"Ġà¤ħà¤¸à¤¤":421,"à¤°à¤¶":422,"à¤Łà¤²":423,"à¤Ĺà¤¤":424,"à¤¯à¤¤":425,"Ġà¤ħà¤¶":426,"âĢ":427,"à¤ľà¤¨":428,"à¤®à¤¨":429,"à¤¨à¤ļ":430,"à¤¾à¤ģ":431,"à¤¬à¤°":432,"âĢį":433,"Ġà¤īà¤¤":434,"à¤¬à¤Ī":435,"Ġ(":436,"à¤¦à¤²":437,"à¤Ĺà¤°":438,"Ġà¤ĺà¤Łà¤¨":439,"à¤Łà¤°":440,"Ġà¤¸à¤¹":441,"à¤¶à¤¨":442,"Ġà¤ħà¤Ń":443,"à¤Ĺà¤³":444,"à¤Ĺà¤£":445,"Ġà¤Ĩà¤¯":446,"à¤£à¤¤":447,"à¤¹à¤°":448,"à¤¤à¤ķ":449,"à¤Īà¤²":450,"Ġà¤ħà¤°":451,"à¥įâĢį":452,"à¤µà¤¡à¤£":453,"à¤¯à¤²":454,"§à¥":455,"à¤²à¤ķ":456,"Ġ1":457,"à¤ªà¤¨":458,"Ġà¤Ĩà¤¤":459,"à¤¸à¤²":460,"à¤ĩ":461,"à¤ķà¤²":462,"à¤®à¤ļ":463,"à¤¸à¤Ń":464,"Ġà¤ªà¤ķ":465,"à¤ľà¤¯":466,"Ġ2":467,"Ġà¤ħà¤ª":468,"à¤¸à¤¨":469,"Ġà¤ĳ":470,"à¤¯à¤ļ":471,"Ġà¤Ĩà¤µ":472,"à¤¸à¤ļ":473,"à¤¤à¤¸":474,"Ġà¤¶à¤ķà¤¤":475,"à¤ľà¤°":476,"à¤µà¤³":477,"à¤°à¤ľ":478,"Ġà¤ªà¤¹":479,"à¤®à¤¤":480,"à¥ĭà¤Ĥ":481,"à¤¤à¤µ":482,"à¤£à¤¯":483,"Ġà¤ħà¤®":484,"à¤·à¤ķ":485,"à¤¬à¤¦":486,"Ġà¤ªà¤¤":487,"à¤¸à¤¹":488,"Ġà¤īà¤¦":489,"Ġà¤®à¤¤":490,"Ġà¤¨à¤°":491,"à¤ĵ":492,"à¤¯à¤¦":493,"Ġà¤ķà¤®":494,"à¤¡à¤£":495,"Ġà¤īà¤ªà¤¸":496,"Ġà¤ªà¤¦":497,"à¤Ĩà¤¯":498,"Ġà¥¨":499,"à¤¨à¤µ":500,"Ġà¤®à¤§":501,"Ġà¤®à¤²":502,"Ġà¤¤à¤ª":503,"à¤ªà¤¤":504,"à¤°à¤¨":505,"à¤¸à¤¤":506,"à¤µà¤¨":507,"à¤³à¤¤":508,"à¤ħà¤°":509,"à¤Ľ":510,"à¤²à¤¨":511,"à¤ī":512,"Ġà¤¥":513,"Ġà¤ĵ":514,"Ġà¤ļà¤°":515,"à¤®à¤²":516,"à¤ªà¤¦":517,"à¤®à¤ķ":518,"à¤¹à¤¨":519,"à¤Ĭà¤¨":520,"à¤¦à¤µ":521,"à¤¤à¤ļ":522,"à¤ĸà¤®":523,"à¤¯à¤¨":524,"Ġà¤ħà¤¤":525,"à¤ķà¤¶":526,"Ġà¥§à¥":527,"à¤ľà¤ķ":528,"Ġà¤ľà¤£":529,"Ġà¤®à¤¨":530,"Ġà¤ħà¤ľ":531,"Ġà¤Ĩà¤ªà¤£":532,"à¤ķà¤¤":533,"à¤ªà¤¯":534,"à¤¦à¤¨":535,"Ġà¤ħà¤Łà¤ķ":536,"Ġà¤®à¤¹à¤¤":537,"Ġà¤Ĩà¤¦":538,"à¤§à¤¨":539,"à¤¹à¤®":540,"Ġà¤¦à¤°":541,"Ġà¤¹à¤µ":542,"à¤¶à¤²":543,"Ġà¤ĸà¤°":544,"Ġà¤²à¤ķ":545,"Ġà¤ħà¤¦":546,"Ġà¤¤à¤¸":547,"à¤ŀ":548,"Ġà¤ľà¤¨":549,"à¤ķà¤¸":550,"Ġà¤ľà¤ĸà¤®":551,"à¤¯à¤µà¤¸":552,"Ġà¤¹à¤²":553,"à¤¦à¤°à¤®":554,"à¤·à¤¯":555,"Ġà¤¨à¤ķ":556,"à¤³à¤²":557,"Ġà¤ĺà¤°":558,"à¤°à¤¯à¤¤":559,"à¤¦à¤¤":560,"à¤¨à¤²":561,"Ġà¤¸à¤¤":562,"à¤ļà¤²":563,"Ġà¤ķà¤²":564,"à¤²à¤Ĺ":565,"Ġà¤ķà¤ª":566,"Ġà¤ķà¤¸":567,"à¤³à¤£":568,"Ġà¤Ĩà¤ľ":569,"à¤°à¤ĸ":570,"à¤¹à¤Łà¤²":571,"à¤ħà¤¸":572,"Ġà¤®à¤¤à¤¦":573,"à¤ľà¤ªà¤ļ":574,"à¤¸à¤¦":575,"Ġà¤¶à¤°":576,"Ġ20":577,"Ġà¤īà¤ªà¤ļ":578,"à¤®à¤¹":579,"à¥¨":580,"Ġà¤¤à¤¯":581,"à¤Ńà¤°":582,"à¤§à¤µ":583,"à¤Ĩà¤®":584,"à¤²à¤¤":585,"à¤¥à¤³":586,"à¤¢à¤¤":587,"Ġà¤Ĩà¤µà¤¶":588,"Ġà¤īà¤®":589,"à¤¡à¤ļ":590,"Ġà¤Łà¤ķ":591,"à¤ĺà¤Łà¤¨":592,"Ġà¤¦à¤¹":593,"à¤°à¤¹":594,"Ġà¤®à¤¦à¤¤":595,"Ġà¤¬à¤¦à¤²":596,"Ġà¤Ĺà¤°à¤ľ":597,"à¤²à¤ļ":598,"à¤łà¤ķ":599,"à¤ıà¤¸":600,"Ġà¤¸à¤§":601,"Ġà¤Ĩà¤Ĺ":602,"Ġà¤¹à¤ľ":603,"à¤¹à¤£à¤ľ":604,"à¤®à¤Ĺ":605,"Ġà¤Ĩà¤§":606,"à¤¤à¤®":607,"à¤¯à¤µ":608,"Ġà¤Ľ":609,"à¤ļà¤¨":610,"à¤ķà¤°à¤£":611,"à¤¨à¤¸à¤Ń":612,"à¤¡à¤¤":613,"Ġà¤¯à¤¶":614,"à¤¢à¤²":615,"à¤µà¤ļ":616,"Ġà¤¬à¤°":617,"Ġà¤Ĩà¤¶":618,"à¤¡à¤ķ":619,"à¤¤à¤¹":620,"à¤Ńà¤µ":621,"Ġà¤¤à¤ķ":622,"à¤¨à¤°":623,"Ġ3":624,"à¤¶à¤¤à¤µ":625,"à¤Ĩà¤°":626,"à¤ķà¤¸à¤Ń":627,"à¤¸à¤®":628,"à¤¨à¤¹":629,"Ġà¤ľà¤Ĺ":630,"Ġà¤¸à¤²":631,"Ġà¤ªà¤¡à¤²":632,"à¤¹à¤²":633,"à¤¡à¤³":634,"Ġà¤ªà¤µ":635,"Ġ'":636,"Ġà¤¶à¤¹à¤°":637,"à¤ªà¤ķ":638,"à¤µà¤ķà¤°":639,"Ġà¤Ĩà¤®à¤ļ":640,"à¤ªà¤·":641,"Ġà¤ħà¤ªà¤ĺ":642,"Ġà¤ľà¤®":643,"à¥§à¥":644,"à¤ĸà¤°":645,"Ġà¤ķà¤§":646,"à¤Łà¤¤":647,"00":648,"à¤Ĩà¤£":649,"Ġà¤¦à¤²":650,"Ġà¤ĺà¤¡à¤²":651,"à¤µà¤ķ":652,"Ġà¤°à¤¸":653,"Ġà¤ħà¤²":654,"à¤ħà¤¨":655,"Ġà¤Ĩà¤®à¤¦":656,"à¤¸à¤±":657,"Ġà¤ħà¤¸à¤£":658,"Ġà¤¸à¤Ĺà¤³":659,"Ġà¤¦à¤¹à¤¶à¤¤à¤µ":660,"à¤·à¤¦":661,"à¤°à¤®à¤§":662,"à¤ħà¤¶":663,"Ġà¤Ĩà¤ł":664,"Ġà¤¬à¤¹":665,"à¥«":666,"à¤¬à¤²":667,"à¤ªà¤Ł":668,"à¤¶à¤ķ":669,"à¤¶à¤¯":670,"à¤¸à¤£":671,"à¥Ł":672,"à¤ĥ":673,"Ġà¥©":674,"à¤ľà¤²":675,"à¤ıà¤ķ":676,"à¤¡à¤£à¤µ":677,"Ġà¤ĩà¤¤à¤°":678,"Ġà¤«à¤¡à¤£à¤µ":679,"à¤¤à¤¤":680,"à¤¯à¤ª":681,"à¤µà¤°à¤£":682,"Ġà¥¨à¥¦":683,"à¤Łà¤ļ":684,"Ġà¤¶à¤¹":685,"à¤¥à¤®":686,"Ġà¤¸à¤¹à¤Ń":687,"à¤Ĩà¤¤":688,"Ġà¤łà¤°à¤²":689,"Ġà¤¸à¤¦":690,"à¤Ĺà¤¦":691,"à¤¸à¤ķ":692,"à¤ķà¤£":693,"à¤¤à¤ķà¤±":694,"Ġ5":695,"à¤¹à¤µ":696,"à¤Ĩà¤ªà¤²":697,"à¤§à¤¤":698,"Ġà¤Ĩà¤¨":699,"à¤¤à¤³":700,"à¤°à¤Ń":701,"à¤¬à¤¤à¤ļ":702,"à¤£à¤§":703,"à¤¤à¤¨":704,"Ġà¤ħà¤µ":705,"Ġà¤¸à¤ķ":706,"à¤¨à¤¨":707,"à¤¸à¤§":708,"Âł":709,"à¥Ĥà¤Ĥ":710,"Ġà¤ľà¤¬":711,"Ġà¤ľà¤µ":712,"à¤¨à¤ķ":713,"Ġà¤ħà¤ķ":714,"Ġà¤²à¤¢":715,"Ġà¤īà¤ļ":716,"Ġà¤²à¤µà¤ķà¤°":717,"à¤Ĺà¤µ":718,"à¤¨à¤¸":719,"à¤łà¤²":720,"à¤ľà¤Ĺ":721,"Ġà¤ľà¤¨à¤¤":722,"Ġà¤Ĩà¤£à¤ĸ":723,"à¤ľà¤¸":724,"Ġà¤®à¤°":725,"à¤²à¤µ":726,"Ġà¤ĳà¤«":727,"à¤®à¤°":728,"Ġà¤Ĩà¤ĺ":729,"à¤³à¤µ":730,"Ġà¤²à¤Ĺ":731,"à¤µà¤¶":732,"à¤°à¤ªà¤¤":733,"Ġà¥§":734,"Ġ4":735,"à¤®à¤¹à¤¤":736,"Ġà¤¨à¤¸à¤²":737,"Ġ201":738,"à¤ıà¤®":739,"Ġà¤°à¤µ":740,"Ġà¤ıà¤ķà¤¤":741,"à¤¬à¤³":742,"Ġà¤ķà¤¶":743,"à¤Ĺà¤¡":744,"Ġà¤¹à¤¤":745,"à¤ľà¤®":746,"à¤µà¤¯":747,"Ġà¤Ĳ":748,"à¤°à¤ķà¤²":749,"à¤¤à¤ķà¤°":750,"à¤¨à¤®à¤§":751,"à¤ªà¤ļ":752,"à¥ª":753,"à¤°à¤¦à¤°":754,"à¤²à¤²":755,"Ġà¤ªà¤£":756,"à¤¯à¤°à¤²":757,"à¤¯à¤°":758,"à¥©":759,"à¤¡à¤µ":760,"Ġà¤ĵà¤³":761,"à¤§à¤ķ":762,"Ġà¤µà¤ķ":763,"Ġà¥«":764,"à¤ļà¤°":765,"Ġà¥ª":766,"à¤®à¤¦":767,"Ġà¤°à¤ķ":768,"Ġà¤¸à¤¦à¤¸":769,"Ġà¤ľà¤µà¤³":770,"Ġà¤¸à¤®à¤ľ":771,"à¤¬à¤Īà¤¤":772,"à¤¤à¤°à¤°":773,"à¤µà¤ª":774,"à¤¨à¤Ĺ":775,"à¤ªà¤¹":776,"à¥§":777,"Ġà¤ªà¤¶":778,"Ġà¤¸à¤ļ":779,"à¤²à¤£":780,"Ġà¤¸à¤¹à¤ķ":781,"à¤ªà¤²à¤¬":782,"Ġà¤Ĩà¤Ī":783,"Ġà¤Ĩà¤ķ":784,"Ġà¤īà¤ªà¤²à¤¬":785,"Ġà¤Ĺà¤°":786,"à¤¯à¤¸":787,"Ġà¤ªà¤°à¤¤":788,"Ġà¤¨à¤¯":789,"à¤Ĩà¤ªà¤£":790,"à¤®à¤µ":791,"Ġà¤īà¤Ń":792,"à¥¯":793,"à¤¥à¤µ":794,"à¥¬":795,"Ġà¤īà¤²":796,"à¤ķà¤ļ":797,"à¤¤à¤¦":798,"Ġà¤Ĩà¤µà¤¡":799,"à¥Ń":800,"Ġà¤ıà¤ķà¤¦":801,"à¤¹à¤£à¤¤":802,"à¤ķà¤¨":803,"Ġà¤¶à¤ķà¤²":804,"à¤ıà¤¨":805,"Ġà¤¸à¤Ń":806,"à¥®":807,"Ġà¤Ĩà¤¢":808,"à¤ħà¤®":809,"Ġà¤¬à¤¨":810,"Ġà¤µà¤¡":811,"à¤¯à¤ķà¤°":812,"Ġà¤ľà¤°":813,"à¥īà¤Ĥ":814,"Ġà¤¬à¤ļ":815,"à¤ĺà¤°":816,"à¥¦à¥¦":817,"à¤¢à¤£":818,"à¤¸à¤µ":819,"à¤Ĩà¤§":820,"à¤µà¤¢":821,"Ġà¤ħà¤ĸ":822,"à¤¡à¤®à¤§":823,"à¤¸à¤°à¤ķ":824,"Ġà¤Ī":825,"à¤¥à¤ķ":826,"à¤³à¤µà¤²":827,"Ġà¤¸à¤®à¤¸":828,"à¤Ĭà¤¸":829,"Ġà¤ıà¤¸":830,"Ġà¤ĩà¤¨":831,"à¤ľà¤£":832,"à¤Łà¤£":833,"Ġà¤ħà¤Ĺ":834,"Ġà¤°à¤£":835,"Ġà¤ıà¤¨":836,"Ġà¤ĳà¤¸":837,"à¤Łà¤®à¤§":838,"à¤³à¤ľ":839,"à¤¹à¤³":840,"Ġà¤Ńà¤°":841,"à¤¸à¤ª":842,"à¤ĳ":843,"à¤²à¤°":844,"à¤ľà¤µ":845,"Ġà¤īà¤¡":846,"Ġà¤¨à¤¸à¤¤":847,"à¤īà¤¤":848,"à¤²à¤®à¤§":849,"à¤Łà¤µà¤°":850,"à¤¤à¤µà¤£":851,"Ġà¤«à¤²":852,"Ġà¤«à¤ķ":853,"Ġà¤µà¤¸":854,"à¤°à¤³":855,"Ġà¤ªà¤¸":856,"Ġà¤§à¤ķ":857,"Ġà¤§à¤°":858,"Ġà¤²à¤µà¤ķà¤°à¤ļ":859,"à¤ķà¤¦":860,"20":861,"à¤Īà¤¨":862,"à¤¸à¤®à¤§":863,"à¤ļà¤£":864,"Ġà¤¬à¤¸à¤²":865,"à¤Ĺà¤ļ":866,"Ġà¤¬à¤²":867,"Ġà¤ħà¤¹à¤µ":868,"Ġà¤¹à¤¸":869,"à¤ķà¤Ł":870,"Ġà¤¹à¤°":871,"à¤ıà¤«":872,"Ġà¤¦à¤ķ":873,"Ġà¤ĩà¤ļ":874,"Ġà¤ªà¤Ł":875,"Ġà¤ľà¤ª":876,"Ġà¤ļà¤ķ":877,"Ġà¤¸à¤µ":878,"Ġà¤ªà¤°à¤µ":879,"à¤¡à¤¨":880,"Ġà¤ĩà¤®":881,"Ġ6":882,"à¤ħà¤Ń":883,"Ġà¤Ķ":884,"Ġà¥¬":885,"à¤Ĺà¤¨":886,"à¤µà¤§":887,"Ġà¤¸à¤¨":888,"à¤Īà¤ķ":889,"Ġà¤ĵà¤³à¤ĸ":890,"à¤·à¤¤":891,"Ġà¤ıà¤®":892,"à¥Ģ)":893,"à¤ľà¤ªà¤¨":894,"Ġà¤ĩà¤¤à¤ķ":895,"à¤ķà¤®":896,"à¤¬à¤¸":897,"Ġà¤ľà¤¯":898,"Ġ10":899,"Ġà¤Łà¤ª":900,"à¤§à¤²":901,"à¤®à¤¸":902,"Ġà¤°à¤¦":903,"à¤Ĩà¤®à¤ļ":904,"Ġà¤ķà¤ł":905,"Ġà¤ħà¤¬":906,"Ġà¤ªà¤¡":907,"Ġà¤ĩà¤¥":908,"à¤¤à¤¡":909,"Ġ7":910,"à¤²à¤¦":911,"à¤µà¤°à¤ļ":912,"Ġà¤²à¤·":913,"à¤¡à¤ķà¤°":914,"à¤¨à¤Ĺà¤°":915,"à¤¡à¤°":916,"Ġà¤¬à¤³":917,"à¤ľà¤ļ":918,"Ġà¤¢":919,"à¤¸à¤Ĺ":920,"Ġà¤Ĺà¤Ł":921,"à¤ļà¤µ":922,"à¤łà¤µ":923,"Ġà¤¬à¤¸":924,"à¤ıà¤²":925,"Ġà¤Ĩà¤łà¤µà¤¡":926,"Ġà¤°à¤¹":927,"Ġà¤¶à¤°à¤¦":928,"à¤£à¤¸":929,"Ġà¤®à¤ľ":930,"à¤¡à¤ļà¤£":931,"Ġà¥Ń":932,"Ġà¤«à¤°":933,"à¤¶à¤ļ":934,"Ġà¤ªà¤¥à¤ķ":935,"Ġà¤¬à¤ĺ":936,"à¤°à¤µà¤°":937,"à¤§à¤°":938,"Ġà¤ĩà¤¤":939,"Ġà¤ħà¤¡":940,"Ġà¥§à¥¦":941,"à¤ħà¤ª":942,"Ġà¤¨à¤¸":943,"à¤µà¤Ł":944,"à¤Īà¤Ł":945,"Ġà¤²à¤¢à¤¤":946,"à¤µà¤°à¤¹":947,"Ġà¤¤à¤¤":948,"Ġà¤ªà¤¡à¤¤":949,"à¤±à¤¯":950,"à¥¨à¥¦":951,"Ġà¥¨à¥¦à¥§à¥":952,"Ġà¤ħà¤¡à¤ļà¤£":953,"Ġà¤¯à¤¶à¤¸":954,"Ġà¤¸à¤²à¤®":955,"à¤¦à¤ķ":956,"à¤¯à¤¶":957,"à¤¨à¤®":958,"à¤¶à¤Ńà¤°":959,"Ġà¤Ĭ":960,"à¤Ĺà¤ª":961,"à¤ľà¤µà¤³":962,"Ġà¤łà¤°à¤µ":963,"Ġà¤¦à¤°à¤®":964,"âĢįà¥ħ":965,"Ġà¤ļà¤µ":966,"à¤¬à¤ľ":967,"Ġà¤¶à¤¬":968,"Ġà¤īà¤ĺ":969,"à¤¡à¤¸":970,"Ġà¤²à¤¹":971,"à¤µà¤Ń":972,"à¤ªà¤®":973,"Ġ8":974,"à¤¹à¤ķ":975,"à¤°à¤¥à¤®":976,"à¤¸à¤³":977,"à¤ķà¤ª":978,"Ġà¥®":979,"à¤ľà¤ªà¤²":980,"à¤ĸà¤£":981,"à¤¹à¤°à¤£":982,"à¤·à¤®à¤¤":983,"à¤ķà¤³":984,"à¤¡à¤ª":985,"à¤¶à¤µ":986,"Ġà¤ĺà¤¡":987,"Ġà¤Ĩà¤£à¤£":988,"Ġà¤ıà¤ķà¤®":989,"à¤¥à¤¨":990,"à¤¨à¤¤":991,"Ġà¤Ĩà¤Ń":992,"Ġà¤Ĩà¤«":993,"à¤°à¤¯":994,"à¤¨à¤ª":995,"Ġà¤Ĩà¤ķà¤¡":996,"à¤ĩà¤¨":997,"Ġà¤ķà¤¨":998,"à¤·à¤®":999,"à¤§à¤£":1000,"à¤®à¤²à¤¬à¤ľ":1001,"Ġà¤¸à¤ª":1002,"à¤³à¤µà¤£":1003,"à¤Łà¤ª":1004,"Ġà¤īà¤°":1005,"Ġà¤ķà¤²à¤®":1006,"Ġà¤ĩà¤¸":1007,"Ġà¤§à¤¨":1008,"Ġà¤ĩà¤°":1009,"in":1010,"à¤ħà¤²":1011,"Ġ15":1012,"à¤Łà¤®":1013,"à¤°à¤µà¤ł":1014,"Ġà¤¨à¤®":1015,"à¤¨à¤¯":1016,"âĢĮ":1017,"à¤¯à¤µà¤¹":1018,"Ġà¤Ĩà¤£à¤²":1019,"à¤Ĩà¤ľ":1020,"à¤µà¤ľà¤¨":1021,"à¤ķà¤µ":1022,"Ġà¤Ĭà¤°":1023,"à¤²à¤¸":1024,"à¤°à¤Ĺ":1025,"Ġà¤īà¤ļà¤²":1026,"à¤®à¤£":1027,"Ġà¥¯":1028,"Ġà¤Ńà¤µ":1029,"à¤Łà¤°à¤µà¤°":1030,"à¤µà¤ľ":1031,"Ġà¤µà¤¨":1032,"Ġà¤¬à¤ľ":1033,"Ġà¤¸à¤®à¤°":1034,"à¤²à¤Ń":1035,"Ġà¤ħà¤«":1036,"Ġà¤łà¤°":1037,"Ġà¤¤à¤£":1038,"à¤¶à¤®à¤¨":1039,"Ġà¤ĩà¤¶":1040,"Ġà¤¶à¤ª":1041,"à¤¡à¤Ĺ":1042,"à¤¸à¤µà¤°":1043,"Ġ12":1044,"à¤°à¤ķà¤¡":1045,"à¤£à¤ªà¤£":1046,"à¤Ĺà¤¸":1047,"à¤Ĩà¤Ĺ":1048,"à¤¨à¤¦":1049,"Ġà¤«à¤Łà¤ķ":1050,"à¤ªà¤¸":1051,"à¤²à¤ķà¤°":1052,"à¤ªà¤¡à¤²":1053,"à¤¹à¤®à¤¦":1054,"Ġà¤īà¤¤à¤°":1055,"Ġ9":1056,"à¤Ĩà¤¯à¤ļ":1057,"à¤¨à¤¤à¤³":1058,"à¤Ŀà¤°":1059,"Ġà¤¤à¤¬":1060,"à¤¶à¤¹à¤°":1061,"à¤Īà¤ļ":1062,"Ġà¤Ĩà¤¦à¤°":1063,"Ġà¤Ŀà¤³":1064,"à¤ľà¤ĸà¤®":1065,"à¤Łà¤¸":1066,"Ġà¤Ĩà¤µà¤¡à¤¤":1067,"à¤¶à¤®":1068,"à¤·à¤ªà¤¦":1069,"Ġà¤¨à¤¦":1070,"Ġà¤ķà¤¥":1071,"à¤¢à¤µ":1072,"à¤¸à¤Ĺà¤³":1073,"à¤¦à¤ļ":1074,"Ġà¤Ĺà¤£":1075,"Ġà¤ħà¤Ĺà¤¦":1076,"à¤ĸà¤¤":1077,"à¤¬à¤°à¤ļ":1078,"à¤¶à¤¨à¤²":1079,"à¤łà¤µà¤²":1080,"Ġà¤¹à¤ķ":1081,"à¤¡à¤®":1082,"à¤¯à¤ķà¤¤":1083,"Ġà¤¦à¤¤":1084,"à¤¸à¤³à¤²":1085,"à¤¯à¤¯":1086,"à¤³à¤¨":1087,"Ġà¤ªà¤³":1088,"à¤Ĭà¤¤":1089,"Ġà¥§à¥¨":1090,"à¤¯à¤¸à¤Ń":1091,"à¤²à¤®":1092,"Ġà¤°à¤¶":1093,"à¤Ĺà¤³à¤µ":1094,"Ġà¤ĺà¤¸":1095,"à¤²à¤ª":1096,"à¤ľà¤¤":1097,"à¤īà¤¦":1098,"à¤°à¤Ĺà¤¤":1099,"Ġà¤®à¤¸":1100,"Ġà¤īà¤ªà¤¯":1101,"à¤ħà¤§":1102,"Ġà¤ķà¤Ł":1103,"Ġà¥§à¥¯":1104,"Ġà¤¦à¤ĸà¤²":1105,"à¤ĸà¤¨":1106,"à¤µà¤µ":1107,"Ġà¤¶à¤¤à¤ķ":1108,"Ġà¤īà¤ªà¤ķ":1109,"Ġà¤īà¤ªà¤®":1110,"à¤¹à¤£à¤£":1111,"à¤¦à¤®":1112,"Ġà¤ĩà¤²":1113,"à¤ıà¤ļ":1114,"Ġà¤ĺà¤¡à¤¤":1115,"Ġà¤ķà¤¡":1116,"à¤·à¤¨":1117,"à¤ļà¤¬à¤°":1118,"à¤¤à¤ªà¤£":1119,"à¤ħà¤ľ":1120,"à¤¸à¤¸":1121,"à¤µà¤ļà¤·à¤ķ":1122,"à¤łà¤µà¤£":1123,"à¤³à¤ļ":1124,"à¥Ģ'":1125,"à¤¦à¤£":1126,"Ġà¥§à¥«":1127,"à¤Ĩà¤¯à¤¨":1128,"à¤¦à¤¹":1129,"à¤·à¤§":1130,"à¤ªà¤¦à¤ķ":1131,"à¤§à¤ļ":1132,"à¤Łà¤°à¤¨":1133,"à¤·à¤ª":1134,"à¤¸à¤¬":1135,"Ġà¤ıà¤µà¤¢":1136,"Ġà¤ªà¤°à¤°":1137,"Ġà¤īà¤¶":1138,"Ġà¤¨à¤Ĺ":1139,"à¤Ľà¤¤":1140,"Ġ11":1141,"à¤¾)":1142,"Ġà¤·":1143,"Ġ100":1144,"à¤ľà¤ªà¤®à¤§":1145,"Ġà¤ĳà¤ķ":1146,"à¤¤à¤¥":1147,"à¤¯à¤µà¤°":1148,"Ġà¤ĸà¤³":1149,"Ġà¤į":1150,"à¤¯à¤¡":1151,"à¤°à¤¥":1152,"Ġà¤ĸà¤Łà¤²":1153,"on":1154,"Ġà¤ªà¤Łà¤ķ":1155,"à¤¥à¤¸":1156,"à¤°à¤µà¤£":1157,"Ġà¤¬à¤¨à¤²":1158,"Ġà¤«à¤°à¤ķ":1159,"à¤Ĺà¤¦à¤°":1160,"an":1161,"Ġà¤Ĩà¤¸":1162,"Ġà¤ķà¤³":1163,"Ġà¤ĺà¤Łà¤ķ":1164,"à¤ħà¤ªà¤ĺ":1165,"Ġà¤Ńà¤°à¤ª":1166,"Ġ2019":1167,"à¤ķà¤®à¤§":1168,"à¤ħà¤ĸ":1169,"Ġà¤¤à¤°à¤¤":1170,"Ġà¤µà¤¯":1171,"Ġà¤ķà¤¬":1172,"Ġà¤Ĩà¤¯à¤ª":1173,"à¤ĸà¤µ":1174,"Ġ50":1175,"à¤ĳà¤¸":1176,"Ġà¤ľà¤µà¤³à¤ª":1177,"à¤°à¤µà¤ķ":1178,"Ġà¤ľà¤Ĺà¤Ńà¤°":1179,"à¤¬à¤Īà¤ļ":1180,"Ġà¤¶à¤¸":1181,"Ġà¤Ĩà¤¯à¤¸":1182,"Ġà¤²à¤¸":1183,"Ġà¤§à¤¡à¤ķ":1184,"Ġà¤ħà¤¹à¤®à¤¦":1185,"Ġà¤¹à¤ľà¤°":1186,"à¤§à¤³":1187,"Ġà¤¸à¤®à¤ľà¤¤":1188,"Ġà¤ĳà¤²":1189,"Ġà¤ĸà¤³à¤¬à¤³":1190,"à¤¦à¤³":1191,"Ġà¤ªà¤ķà¤¡":1192,"at":1193,"à¤ıà¤¸à¤Ł":1194,"Ġà¤Ľà¤¤":1195,"Ġ14":1196,"Ġà¤ħà¤°à¤µ":1197,"à¤Ĩà¤¯à¤¸":1198,"à¤Łà¤«":1199,"à¤¥à¤²":1200,"à¤£à¤ķ":1201,"à¤¬à¤µ":1202,"Ġ25":1203,"à¤°à¤¬":1204,"Ġ19":1205,"à¥įâĢĮ":1206,"Ġà¤Ķà¤·à¤§":1207,"à¤¸à¤³à¤§":1208,"à¤¢à¤ļ":1209,"à¤²à¤¹":1210,"Ġà¤·à¤Łà¤ķ":1211,"Ġà¤¶à¤ªà¤¥":1212,"à¤¾'":1213,"à¤¤à¤®à¤§":1214,"Ġà¤ļà¤ķà¤®à¤ķ":1215,"Ġà¤ªà¤¡à¤£":1216,"Ġà¤ħà¤µà¤¸":1217,"Ġà¤ıà¤ķà¤¹":1218,"Ġà¤ıà¤«":1219,"à¤łà¤¡":1220,"à¤¯à¤°à¤¸":1221,"à¤Łà¤ªà¤Ł":1222,"Ġà¤¹à¤Ł":1223,"à¤ļà¤ķ":1224,"à¤«à¤¤":1225,"ar":1226,"Ġà¤ĳà¤¨à¤²":1227,"à¤®à¤®à¤§":1228,"à¤«à¤°":1229,"à¤Łà¤¬":1230,"Ġà¤¤à¤¶":1231,"Ġà¤ķà¤³à¤¤":1232,"Ġà¤ľà¤µà¤³à¤ļ":1233,"Ġà¤ªà¤¸à¤°à¤²":1234,"Ġà¤ħà¤µà¤ĺ":1235,"à¤ħà¤¤":1236,"Ġà¤¬à¤¦à¤²à¤²":1237,"Ġc":1238,"à¤¨à¤¶":1239,"Ġà¤Ĩà¤¢à¤³à¤²":1240,"Ġà¤ħà¤ªà¤¯à¤¶":1241,"Ġà¤ĵà¤³à¤ĸà¤²":1242,"Ġà¤ªà¤°à¤¦":1243,"à¤°à¤¡":1244,"à¤¦à¤µà¤²":1245,"19":1246,"à¤ĸà¤µà¤²":1247,"Ġà¤®à¤Ĺ":1248,"à¤ļà¤¤":1249,"à¤¤à¤°à¤ļ":1250,"à¤Ĳ":1251,"à¤ªà¤µ":1252,"Ġà¤łà¤°à¤¤":1253,"à¤ĩà¤¤à¤°":1254,"Ġà¤ªà¤¦à¤ķ":1255,"Ġà¤Ĩà¤ª":1256,"à¤Łà¤²à¤®à¤§":1257,"à¤¶à¤¨à¤ļ":1258,"Ġà¤Ĳà¤ķ":1259,"Ġà¤ıà¤ĸ":1260,"à¤¢à¤µà¤£":1261,"à¤ªà¤°à¤²":1262,"Ġà¤ħà¤¯":1263,"à¤¦à¤¯":1264,"Ġà¤ĺà¤Ł":1265,"Ġà¤ıà¤²":1266,"à¤¨à¤Ī":1267,"à¤µà¤Łà¤ļ":1268,"à¤ĩà¤²":1269,"à¤®à¤ª":1270,"à¤°à¤·":1271,"à¤ªà¤¶":1272,"à¤®à¤¯":1273,"Ġà¤Ĺà¤¡à¤ķà¤°":1274,"Ġ18":1275,"Ġà¤°à¤£à¤µ":1276,"à¤£à¤ļ":1277,"à¤³à¤ķ":1278,"Ġà¤®à¤¨à¤¸":1279,"à¤¬à¤ļ":1280,"Ġ13":1281,"à¤¨à¤µà¤°":1282,"à¤¸à¤²à¤®":1283,"à¤®à¤µà¤°":1284,"Ġà¤īà¤ĺà¤¡":1285,"à¤¬à¤¨":1286,"Ġs":1287,"Ġà¤Ĺà¤¤":1288,"à¤¦à¤Ĺ":1289,"Ġà¤§à¤®à¤ķ":1290,"Ġà¤¶à¤¨":1291,"Ġà¤¹à¤³":1292,"à¤³à¤Ĺ":1293,"Ġà¤®à¤®à¤¤":1294,"à¤¬à¤¹":1295,"Ġà¤ħà¤ľà¤¯":1296,"à¤Ĭà¤²":1297,"er":1298,"Ġà¤ªà¤¦à¤µ":1299,"à¤ĺà¤¨":1300,"Ġà¤¸à¤¤à¤¤":1301,"à¤¯à¤£":1302,"Ġà¤Ńà¤Ł":1303,"Ġà¤ħà¤ļ":1304,"Ġà¤ħà¤Ł":1305,"à¤°à¤®à¤£":1306,"Ġà¤ªà¤²":1307,"à¥Īà¤Ĥ":1308,"Ġà¤¤à¤³":1309,"à¥ħà¤Ĥ":1310,"Ġà¥¨à¥«":1311,"Ġà¤Ĺà¤®":1312,"Ġ30":1313,"à¤ľà¤¦":1314,"Ġà¤ħà¤µà¤²":1315,"à¤°à¤ªà¤£":1316,"à¤£à¤µ":1317,"Ġà¤¨à¤Ĺà¤°":1318,"à¤¨à¤¡":1319,"à¤¹à¤¸":1320,"à¤łà¥Ł":1321,"Ġà¤ıà¤ħà¤°":1322,"Ġà¥§à¥ª":1323,"à¤·à¤¯à¤ķ":1324,"Ġà¤§à¤°à¤£":1325,"Ġà¥¤":1326,"Ġ16":1327,"Ġ37":1328,"à¤¶à¤°":1329,"Ġà¤§à¤µà¤¨":1330,"Ġà¤Ĺà¤¡":1331,"Ġà¤¸à¤²à¤Ĺ":1332,"à¤²à¤µà¤ķà¤°":1333,"à¤¬à¤°à¤²":1334,"Ġà¤«à¤³":1335,"à¤¯à¤Łà¤¨":1336,"à¤£à¤µà¤¤":1337,"à¤ĩà¤¸":1338,"à¤°à¤ķà¤°":1339,"à¤¤à¤°à¤£":1340,"Ġà¤®à¤ľà¤¬":1341,"Ġà¤¸à¤ľ":1342,"Ġà¤ĭ":1343,"Ġà¤¬à¤¨à¤µ":1344,"Ġ40":1345,"à¤ļà¤¸":1346,"Ġà¤Ĩà¤°à¤ķ":1347,"à¤µà¤¤à¤ļ":1348,"al":1349,"à¤¥à¤Ĺ":1350,"Ġà¥§à¥©":1351,"Ġà¥«à¥¦":1352,"Ġà¤ıà¤ª":1353,"Ġà¥©à¥¦":1354,"Ġ|":1355,"à¤Ĺà¤®":1356,"201":1357,"à¤ľà¤§":1358,"à¤Īà¤¤":1359,"à¤Ĺà¤ľ":1360,"à¤ķà¤§":1361,"à¤Łà¤°à¤ļ":1362,"à¤ľà¤¨à¤ķ":1363,"Ġà¤¸à¤£":1364,"à¤¬à¤°à¤®":1365,"à¤ļà¤ª":1366,"Ġà¤¦à¤°à¤µ":1367,"Ġ2018":1368,"Ġp":1369,"Ġà¥§à¥§":1370,"ic":1371,"Ġà¤¨à¤Ĺà¤°à¤¸":1372,"Ġ/":1373,"Ġà¤¸à¤¹à¤¨":1374,"Ġà¤ªà¤°à¤¤à¤²":1375,"Ġà¤°à¤®":1376,"à¤°à¤Ł":1377,"Ġà¤®à¤¨à¤®":1378,"Ġà¥§à¥¬":1379,"Ġà¤ĳà¤Ĺà¤¸":1380,"Ġà¥§à¥®":1381,"Ġà¤¦à¤¬":1382,"Ġà¤ıà¤ķà¤ļ":1383,"Ġà¤Ĩà¤¢à¤³":1384,"à¥§à¥¯":1385,"Ġà¤¤à¤®":1386,"à¤¢à¤¦":1387,"à¤²à¤µà¤ķà¤°à¤ļ":1388,"à¤ĩà¤®":1389,"Ġ21":1390,"à¤³à¤¸":1391,"Ġà¤¤à¤ªà¤¶":1392,"à¤¸à¤¦à¤°":1393,"Ġà¤µà¤ľà¤¨":1394,"à¤¶à¤®à¤§":1395,"à¤°à¤«":1396,"Ġà¤Ĳà¤¤":1397,"Ġà¤ĵà¤µ":1398,"Ġà¤«à¤¸":1399,"à¤ĩà¤Ł":1400,"à¤ªà¤°à¤¤":1401,"à¤¬à¤¡":1402,"Ġà¤®à¤¦":1403,"Ġ17":1404,"Ġà¤ķà¤¡à¤ķ":1405,"à¤®à¤¶":1406,"Ġà¤ħà¤«à¤Ĺ":1407,"à¤ħà¤¦":1408,"Ġà¤Ĺà¤³":1409,"Ġà¤¤à¤¥":1410,"Ġà¤ĸà¤¡":1411,"Ġ200":1412,"Ġà¤ıà¤ļ":1413,"à¤Ĩà¤¯à¤ª":1414,"à¤Ĺà¤®à¤§":1415,"Ġà¤łà¤°à¤µà¤²":1416,"Ġà¤§à¤¡":1417,"à¤Īà¤¡":1418,"Ġà¤ħà¤ªà¤µ":1419,"à¤ļà¤ļ":1420,"à¥ĩ'":1421,"à¤¯à¤¬":1422,"à¤Łà¤µ":1423,"à¤£à¤¨":1424,"à¤ĸà¤ķ":1425,"Ġà¤¸à¤®à¤ľà¤²":1426,"Ġà¤ķà¤µ":1427,"Ġà¤Īà¤¶":1428,"Ġà¤¶à¤µà¤µ":1429,"Ġà¤¦à¤°à¤°":1430,"à¤ľà¤®à¤§":1431,"Ġà¤Ńà¤°à¤¤":1432,"à¤ľà¤ªà¤ķà¤¡":1433,"Ġà¤īà¤¤à¤°à¤²":1434,"or":1435,"Ġm":1436,"Ġà¤ĵà¤²":1437,"Ġà¤ĺà¤¸à¤°à¤£":1438,"à¤¤à¤¬":1439,"à¤ħà¤Ĺ":1440,"Ġà¥§à¥¦à¥¦":1441,"Ġà¤¬à¤¨à¤µà¤£":1442,"Ġà¤°à¤£à¤¬":1443,"à¤ªà¤µà¤¯":1444,"à¤ªà¤¡":1445,"es":1446,"Ġà¤ħà¤¡à¤ķà¤²":1447,"à¤Ĩà¤¯à¤Ł":1448,"à¤£à¤®":1449,"à¤ĩà¤¤à¤ķ":1450,"Ġà¤łà¤°à¤£":1451,"à¤Łà¥Ł":1452,"à¤¢à¤µà¤²":1453,"Ġà¤®à¤¶":1454,"à¤¶à¤¤à¤ķ":1455,"Ġà¤Ĩà¤łà¤µà¤£":1456,"Ġà¤īà¤ļà¤²à¤²":1457,"Ġà¤ªà¤°à¤¸":1458,"Ġà¥¨à¥ª":1459,"à¤ĩà¤¥":1460,"à¤¯à¤°à¤¤":1461,"Ġà¤ķà¤¸à¤²":1462,"à¤·à¤£à¤®":1463,"à¤¶à¤¨à¤®à¤§":1464,"Ġà¤µà¤Ĺà¤³":1465,"à¥ĩ)":1466,"à¤°à¤®à¤µ":1467,"à¤®à¤§à¤²":1468,"Ġà¤īà¤§":1469,"Ġà¤Ĩà¤µà¤¡à¤²":1470,"Ġà¥§à¥Ń":1471,"Ġà¤ľà¤¨à¤°à¤²":1472,"Ġà¤µà¤¨à¤¡":1473,"Ġà¤łà¤ª":1474,"à¤²à¤®à¤¤":1475,"à¤¹à¤¨à¤¤":1476,"Ġà¤®à¤¹à¤¸":1477,"à¤ıà¤«à¤ļ":1478,"à¤¸à¤ķà¤¡":1479,"Ġà¤¬à¤±":1480,"Ġa":1481,"à¤ªà¤°à¤£":1482,"à¤¡à¥Ł":1483,"à¤¯à¤Ł":1484,"à¤Ĩà¤°à¤ª":1485,"à¤£à¤ªà¤¦à¤ķ":1486,"Ġà¤¦à¤®à¤¦":1487,"Ġà¤ħà¤£":1488,"Ġà¤«à¤¸à¤µà¤£":1489,"Ġ2017":1490,"Ġà¤¸à¤¹à¤ľ":1491,"Ġà¤¬à¤¦à¤²à¤¤":1492,"à¤Ĺà¤¦à¤ªà¤¤":1493,"Ġà¤§à¤°à¤²":1494,"à¤°à¤µà¤²":1495,"à¤Ĩà¤°à¤¸":1496,"Ġà¤ħà¤®à¤°":1497,"à¤ĸà¤¡":1498,"à¤¶à¤¹":1499,"à¤°à¤°":1500,"Ġà¤Ńà¤°à¤²":1501,"Ġà¤¤à¤ľ":1502,"Ġà¥¨à¥¦à¥¦":1503,"à¤Īà¤¸":1504,"Ġà¤¤à¤¡":1505,"Ġà¤²à¤¢à¤£":1506,"Ġà¤Ĩà¤Īà¤µà¤¡":1507,"Ġà¤Ŀà¤³à¤ķà¤£":1508,"Ġà¤ıà¤¨à¤¡":1509,"Ġà¤µà¤¤":1510,"Ġà¤ľà¤²":1511,"Ġà¤īà¤ªà¤¨":1512,"à¤¦à¤¹à¤¶à¤¤à¤µ":1513,"à¤µà¤¹":1514,"à¤ªà¤³":1515,"à¤¯à¤¬à¤°":1516,"à¤Ĳà¤µà¤ľ":1517,"Ġ370":1518,"Ġà¤¦à¤Ĺà¤¡":1519,"à¤¤à¤°à¤¹":1520,"à¤²à¤¬":1521,"à¤¤à¤¶":1522,"en":1523,"à¤Ĩà¤¶":1524,"à¤²à¤¡":1525,"Ġà¥ªà¥¦":1526,"ip":1527,"à¤³à¤ķà¤°":1528,"Ġà¤ľà¤¸":1529,"Ġà¤¶à¤ķà¤£":1530,"Ġà¤¨à¤Ĭ":1531,"à¤Ĩà¤£à¤ĸ":1532,"à¤ļà¤µà¤£":1533,"Ġà¤Ĩà¤Ŀ":1534,"Ġà¤ħà¤¡à¤¥à¤³":1535,"à¤ħà¤ķ":1536,"à¤ķà¤¹":1537,"à¤ıà¤µà¤¢":1538,"à¤ķà¤µà¤°":1539,"Ġà¤ĺà¤¡à¤µ":1540,"Ġà¤īà¤¨":1541,"à¤®à¤°à¤£":1542,"Ġà¤Ńà¤¯":1543,"à¤°à¤£à¤µ":1544,"Ġb":1545,"à¤ľà¤¬":1546,"à¤¯à¤ķà¤µ":1547,"Ġà¤Ŀà¤Łà¤ķ":1548,"Ġà¤Ĩà¤ľà¤ļ":1549,"à¤ķà¤ľ":1550,"à¤Ĩà¤¯à¤Ĩà¤°":1551,"Ġà¤¬à¤¦à¤²à¤£":1552,"Ġà¤īà¤²à¤Ł":1553,"Ġà¤ķà¤ļ":1554,"à¤¥à¤°":1555,"à¤¡à¤µà¤²":1556,"Ġà¤¹à¤®":1557,"Ġà¤ĵà¤¬":1558,"à¤°à¤¦à¤¸":1559,"Ġà¤Ĩà¤Ł":1560,"Ġr":1561,"à¥¨à¥¦à¥§à¥":1562,"à¤¬à¤£":1563,"Ġà¤¬à¤¦":1564,"à¤¯à¤Łà¤ķ":1565,"à¤ĸà¤³":1566,"à¤¨à¤ķà¤¡":1567,"Ġà¤¦à¤¶":1568,"Ġà¤²à¤¢à¤µà¤£":1569,"le":1570,"Ġà¤¥à¤°":1571,"à¤²à¤µà¤°":1572,"Ġà¤ķà¤¦":1573,"Ġv":1574,"à¤³à¤µà¤¤":1575,"à¤«à¤ķ":1576,"Ġà¤¨à¤ľà¤°":1577,"à¤³à¤®":1578,"à¤µà¤¸à¤Ńà¤°":1579,"à¤°à¤³à¤®à¤§":1580,"Ġà¤¸à¤°à¤ļ":1581,"Ġà¤Īà¤¡":1582,"Ġà¤Ĩà¤ķà¤°":1583,"Ġà¤Ĺà¤µ":1584,"Ġà¤¬à¤¸à¤¤":1585,"Ġ)":1586,"à¤ıà¤²à¤ļ":1587,"Ġà¤Ĩà¤ªà¤¤":1588,"Ġà¤Ńà¤°à¤£":1589,"à¤°à¤¥à¤®à¤ļ":1590,"à¤¹à¤ļà¤²":1591,"Ġà¤ħà¤¥à¤µ":1592,"Ġt":1593,"à¤²à¤µà¤£":1594,"Ġà¤¤à¤²":1595,"Ġà¤ľà¤Ĺà¤¤":1596,"50":1597,"à¤¯à¤Ńà¤°":1598,"Ġà¤®à¤ľà¤²":1599,"à¤²à¤µà¤²":1600,"à¤ªà¤°à¤¸":1601,"à¤ªà¤®à¤§":1602,"Ġà¥¨à¥¨":1603,"à¤ľà¤¨à¤¤":1604,"à¤ķà¤ľà¤£":1605,"à¤¨à¤ªà¤¦":1606,"à¤·à¤°":1607,"à¤¯à¤«":1608,"à¤¦à¤®à¤§":1609,"Ġà¤¸à¤®à¤¨":1610,"à¤¯à¤ªà¤¦à¤ķ":1611,"st":1612,"à¤¸à¤¯":1613,"à¤§à¤®":1614,"Ġà¤ľà¤¬à¤°à¤¦à¤¸":1615,"Ġà¤¬à¤ĺà¤¤":1616,"à¤īà¤¨":1617,"Ġà¤¬à¤ķ":1618,"à¤¯à¤ªà¤¦":1619,"Ġ500":1620,"Ġà¤ħà¤ªà¤°":1621,"Ġà¤ªà¤Łà¤²":1622,"à¤¸à¤±à¤¯":1623,"Ġà¥¨à¥§":1624,"Ġà¤Ĺà¤°à¤®":1625,"am":1626,"à¤Ĺà¤Ł":1627,"Ġà¤ĸà¤¨":1628,"Ġà¤ıà¤ķà¤¨":1629,"Ġà¤ĳà¤ªà¤°":1630,"ion":1631,"Ġà¤¸à¤¹à¤®à¤¤":1632,"Ġà¤ľà¤²à¤¦":1633,"Ġ22":1634,"Ġn":1635,"à¤¯à¤®à¤ļ":1636,"à¤¹à¤¬":1637,"Ġà¤¸à¤ĸ":1638,"à¤Ńà¤ķ":1639,"à¤ľà¤ªà¤¶":1640,"Ġà¤īà¤ľ":1641,"à¤Ńà¤µà¤¤":1642,"à¤¶à¤¦":1643,"à¤¹à¤°à¤²":1644,"ct":1645,"à¤¤à¤ªà¤¤":1646,"di":1647,"à¤¯à¤ķà¤¡":1648,"Ġà¤ķà¤ķ":1649,"à¥ģà¤ĥ":1650,"Ġà¤ķà¤³à¤²":1651,"à¤ªà¤µà¤£":1652,"Ġà¤ħà¤µà¤ķ":1653,"à¤¤à¤ķà¤±à¤¯":1654,"à¤¶à¤µà¤²":1655,"à¤¯à¤ķà¤²":1656,"Ġà¤¦à¤¶à¤²à¤ķ":1657,"Ġà¤Ńà¤ķ":1658,"Ġà¥¨à¥©":1659,"à¤¬à¤µà¤£":1660,"à¤Ĩà¤Ī":1661,"Ġà¤¶à¤¶":1662,"Ġà¤ķà¤¦à¤®":1663,"à¤µà¤Ĺà¤£":1664,"Ġà¤¶à¤®":1665,"à¤¤à¤ķà¤¯":1666,"Ġà¤Ĺà¤®à¤µ":1667,"Ġà¤ħà¤¡à¤µ":1668,"Ġà¤¨à¤ľ":1669,"Ġà¤īà¤ªà¤°":1670,"22":1671,"à¤¯à¤¹":1672,"Ġ[":1673,"à¤«à¤°à¤¨":1674,"à¤ªà¤ªà¤¤":1675,"Ġà¤Ĩà¤ļ":1676,"Ġà¤ıà¤ķà¤Ł":1677,"à¤¸à¤Ĺà¤¡":1678,"à¤°à¤ªà¤°":1679,"Ġà¤¬à¤¨à¤µà¤²":1680,"Ġà¤ªà¤¡à¤¦":1681,"à¤¯à¤Ĺ":1682,"Ġà¤ĭà¤·":1683,"Ġà¤Ķà¤°":1684,"à¤ķà¤ł":1685,"à¤Ĩà¤¯à¤ķà¤¡":1686,"Ġà¤¸à¤¦à¤°":1687,"à¤¡à¤¬":1688,"Ġ24":1689,"à¤³à¤ª":1690,"à¤³à¤ĸ":1691,"à¤Ĩà¤¯à¤ı":1692,"Ġà¤¶à¤¤":1693,"Ġà¤ľà¤¹":1694,"Ġà¤ıà¤«à¤Ĩà¤¯à¤Ĩà¤°":1695,"à¤°à¤®à¤ķ":1696,"Ġà¤īà¤ªà¤¨à¤Ĺà¤°":1697,"à¤¬à¤°à¤¦":1698,"à¤¤à¤µà¤²":1699,"Ġ2020":1700,"Ġà¤ĺà¤¸à¤°à¤²":1701,"à¤īà¤°":1702,"à¤ĸà¤µà¤£":1703,"Ġà¤¬à¤¸à¤£":1704,"Ġà¤ļà¤®à¤ļ":1705,"à¤¶à¤ª":1706,"à¤Īà¤®":1707,"à¤¤à¤ľ":1708,"Ġà¤ļà¤¢":1709,"à¤ĩà¤¡":1710,"Ġà¤Łà¤°":1711,"Ġà¤²à¤¢à¤µ":1712,"it":1713,"Ġà¤°à¤¤":1714,"Ġf":1715,"Ġà¤ħà¤¹":1716,"Ġà¤Ńà¤µà¤¨":1717,"id":1718,"Ġà¤¹à¤¦":1719,"à¤Ńà¤²":1720,"Ġ35":1721,"à¤Łà¤ķà¤°":1722,"à¤Ĩà¤¨":1723,"Ġà¤°à¤ļà¤¨":1724,"à¤Ĩà¤¹":1725,"Ġà¤ħà¤µà¤ĺà¤¡":1726,"Ġà¤¶à¤ªà¤¥à¤µ":1727,"Ġà¤®à¤°à¤£":1728,"Ġà¤ħà¤Łà¤²":1729,"Ġà¤²à¤µ":1730,"ro":1731,"à¤Łà¤°à¤®à¤§":1732,"30":1733,"à¤ĸà¤¦":1734,"à¤¦à¤µà¤£":1735,"Ġà¤¢à¤ķà¤²":1736,"à¤£à¤ªà¤¤":1737,"Ġà¥¨à¥¬":1738,"as":1739,"à¤®à¤ľ":1740,"à¤µà¤¸à¤¨":1741,"Ġà¤Ŀà¤ª":1742,"à¤ĵà¤²":1743,"à¤¬à¤¦à¤²":1744,"Ġà¤īà¤·":1745,"Ġà¤¬à¤¡":1746,"à¤¡à¤µà¤°":1747,"Ġ28":1748,"Ġà¤¡à¤¬":1749,"à¤®à¤¤à¤¦":1750,"Ġà¤ľà¤²à¤¸":1751,"Ġà¤¦à¤¶à¤ķ":1752,"à¤°à¤ªà¤¦":1753,"à¤¨à¤ªà¤°":1754,"ipl":1755,"à¤ľà¤¬à¤³":1756,"à¤ıà¤²à¤®à¤§":1757,"à¤¬à¤µà¤²":1758,"Ġà¤Ĺà¤ª":1759,"à¥¤":1760,"Ġà¥²":1761,"Ġà¤¹à¤²à¤µ":1762,"Ġ60":1763,"à¤Ĩà¤¯à¤¡":1764,"à¤°à¤ªà¤Łà¤¸":1765,"Ġg":1766,"à¤¸à¤ħ":1767,"à¤°à¤ļà¤¨":1768,"à¤µà¤¹à¤¨":1769,"Ġà¤ĩà¤ľ":1770,"à¤¯à¤¥":1771,"à¤²à¤µà¤¤":1772,"à¤īà¤ªà¤ļ":1773,"à¤²à¤Ł":1774,"à¤¯à¤Ń":1775,"à¤īà¤ļ":1776,"Ġà¤ľà¤¡":1777,"Ġ70":1778,"Ġà¤ħà¤ªà¤¹à¤°à¤£":1779,"à¤¬à¤§":1780,"à¤«à¤³":1781,"Ġà¤ķà¤¤à¤°":1782,"Ġà¤¸à¤°à¤¦":1783,"Ġ2016":1784,"à¤¶à¤¸":1785,"à¤Ĩà¤²":1786,"Ġà¥¨à¥®":1787,"Ġà¤ªà¤ķà¤¡à¤²":1788,"à¤¦à¤²à¤ļ":1789,"Ġà¤Ĩà¤¦à¤®":1790,"à¤ıà¤¨à¤¯":1791,"Ġà¤ľà¤³":1792,"000":1793,"à¤ľà¤Ĺà¤Ńà¤°":1794,"à¤łà¤£":1795,"Ġ26":1796,"à¤Ŀà¤¨":1797,"à¤ıà¤®à¤¸":1798,"à¤Ĺà¤¶":1799,"et":1800,"à¤ħà¤Ĺà¤¦":1801,"Ġà¤ħà¤¶à¤ķ":1802,"à¤Ŀà¤µ":1803,"Ġà¤ıà¤ħ":1804,"à¤ķà¤µà¤£":1805,"à¤Ĩà¤ĺ":1806,"Ġà¥¨à¥Ń":1807,"Ġà¥©à¥«":1808,"à¤īà¤ª":1809,"à¤¹à¤ľ":1810,"Ġà¤ħà¤«à¤µ":1811,"à¤¸à¤®à¤µ":1812,"Ġà¤ħà¤ªà¤®":1813,"Ġà¤¨à¤µà¤¨":1814,"Ġ23":1815,"à¤¹à¤ļ":1816,"à¤§à¤¶à¤¤à¤ķ":1817,"à¤³à¤µà¤³":1818,"à¤Ĩà¤¦":1819,"à¤Ĩà¤ľà¤ļ":1820,"à¤ĩà¤ķ":1821,"Ġà¥¨à¥¯":1822,"Ġà¤Ńà¤¨":1823,"Ġà¤ľà¤¨à¤ľ":1824,"Ġà¤¦à¤Ĺà¤¡à¤«":1825,"à¤µà¤¦":1826,"à¤Īà¤ªà¤°":1827,"à¥Įà¤Ĥ":1828,"à¤°à¤ķà¤¤":1829,"Ġà¤¸à¤°à¤¨":1830,"à¤¯à¤ľ":1831,"Ġà¤®à¤£":1832,"à¤ľà¤ªà¤µà¤°":1833,"Ġin":1834,"à¤¸à¤ĸ":1835,"Ġà¤ļà¤¹":1836,"Ġà¤¬à¤ļà¤¤":1837,"Ġà¤°à¤ľà¤¨":1838,"à¤Łà¤¹":1839,"Ġw":1840,"Ġà¤Ĩà¤ľà¤¹":1841,"à¤¤à¤£":1842,"Ġà¤ħà¤°à¤¬":1843,"Ġ80":1844,"à¤ħà¤¯":1845,"à¥§à¥¦":1846,"Ġà¤Ķà¤¦":1847,"Ġà¤ĩà¤ķ":1848,"Ġd":1849,"Ġà¤īà¤ĺà¤¡à¤ķ":1850,"99":1851,"à¤µà¤Ĺ":1852,"à¤ļà¤¹":1853,"Ġà¤¢à¤µà¤³":1854,"Ġà¤ķà¤®à¤²":1855,"à¤Ĭà¤ķ":1856,"à¤²à¤°à¤ļ":1857,"à¤ĺà¤¡à¤²":1858,"à¤¯à¤°à¤¸à¤ļ":1859,"Ġà¤¸à¤¤à¤°":1860,"Ġ[]":1861,"Ġà¤¹à¤¸à¤¨":1862,"à¤ķà¤°à¤¤":1863,"Ġà¤®à¤¤à¤Ń":1864,"à¤£à¤²":1865,"à¤ĩà¤°":1866,"à¤¤à¤°à¤ª":1867,"Ġà¥§à¥§à¥":1868,"Ġà¤Ĳà¤ķà¤²":1869,"à¤²à¤ªà¤Ł":1870,"Ġà¤ĵà¤¡":1871,"Ġà¤ķà¤ªà¤¡":1872,"à¤µà¤ľà¤£":1873,"Ġà¥©à¥Ń":1874,"à¤ªà¤µà¤²":1875,"Ġà¤µà¤³à¤£":1876,"à¤¶à¤°à¤¦":1877,"Ġà¤ĺà¤°à¤ļ":1878,"à¤¬à¤¤à¤¹":1879,"à¤®à¤¬":1880,"Ġà¤Ĩà¤µà¤°":1881,"à¤Ĺà¤µà¤¤":1882,"Ġà¤ļà¤·à¤ķ":1883,"Ġà¤¹à¤²à¤µà¤£":1884,"à¤¶à¤¤":1885,"à¤²à¤ķà¤®":1886,"à¤Ķ":1887,"Ġà¤ªà¤ķà¤¡à¤£":1888,"à¤ħà¤«":1889,"à¤Īà¤ĵ":1890,"à¤¾à¥ħ":1891,"Ġà¤ĸà¤¬à¤°à¤¦":1892,"à¤Ĩà¤¸":1893,"à¤¨à¤¬":1894,"Ġà¤¤à¤¨":1895,"à¤Łà¤ķà¤ļ":1896,"Ġà¤Ĩà¤Īà¤ļ":1897,"à¤¾à¥ĩ":1898,"Ġ32":1899,"Ġà¤¦à¤¯":1900,"à¤ĺà¤ķ":1901,"Ġà¤ľà¤Ĺà¤£":1902,"Ġà¤¸à¤°à¤³":1903,"Ġà¤²à¤ĺ":1904,"Ġà¤ķà¤³à¤µ":1905,"Ġà¤ªà¤¨":1906,"Ġà¤µà¤ļà¤¨":1907,"Ġà¤¬à¤³à¤ķà¤Ł":1908,"Ġ31":1909,"ir":1910,"Ġà¤ĩà¤¥à¤²":1911,"Ġ27":1912,"à¤ķà¤·":1913,"à¤¬à¤®à¤§":1914,"Ġà¤ľà¤®à¤²":1915,"à¤Īà¤µ":1916,"Ġà¤°à¤ļà¤²":1917,"Ġà¤ļà¤³à¤µà¤³":1918,"à¤°à¤®à¤¨":1919,"à¤¬à¤Īà¤²":1920,"Ġà¤°à¤£à¤ľ":1921,"21":1922,"à¤¦à¤¯à¤µ":1923,"à¤¨à¤ªà¤£":1924,"Ġà¤Ĩà¤¢à¤³à¤¤":1925,"Ġà¤¸à¤Ī":1926,"Ġà¤¨à¤¡":1927,"Ġà¤Ĳà¤¶":1928,"à¤¦à¤¨à¤¶":1929,"Ġà¤łà¤°à¤µà¤£":1930,"à¤¯à¤¬à¤³":1931,"Ġà¤¸à¤«":1932,"à¤Ńà¤¯":1933,"à¤¢à¤¤à¤ļ":1934,"Ġà¥¬à¥¦":1935,"Ġà¤ªà¤Ĺ":1936,"à¤µà¤ĺ":1937,"à¤Ĺà¤¹":1938,"Ġà¤¸à¤°à¤¸":1939,"à¤ķà¤¯":1940,"à¤²à¤ľ":1941,"à¤¶à¤¬":1942,"à¤·à¤µà¤°":1943,"Ġà¤Ľà¤³":1944,"Ġà¤ĵà¤ªà¤¨":1945,"Ġà¤°à¤ľ":1946,"Ġà¤¹à¤°à¤¯":1947,"à¤¡à¤µà¤£":1948,"Ġà¤īà¤ªà¤ķà¤°à¤£":1949,"à¤łà¤¯":1950,"à¤ķà¤±":1951,"à¤Ĺà¤®à¤¨":1952,"à¤¯à¤²à¤Ł":1953,"à¤µà¤¤à¤²":1954,"à¤¬à¤Ł":1955,"Ġà¤¸à¤µà¤¯":1956,"Ġà¤Ĩà¤łà¤µà¤¤":1957,"à¤ĵà¤ļ":1958,"Ġà¤¹à¤Łà¤µà¤£":1959,"Ġà¤Ŀà¤³à¤ķ":1960,"Ġà¤ĳà¤°":1961,"Ġ0":1962,"is":1963,"Ġà¤¨à¤¶":1964,"Ġà¤Ĺà¤¦":1965,"à¤ĳà¤¨à¤²":1966,"Ġà¤Ĺà¤²":1967,"à¤¢à¤°":1968,"à¤®à¤ł":1969,"Ġà¤ħà¤¡à¤ķ":1970,"à¤¡à¤«":1971,"à¤ĸà¤µà¤¤":1972,"à¤µà¤°à¤ķà¤°":1973,"Ġà¤īà¤¦à¤¯":1974,"Ġà¤Ĩà¤łà¤µà¤¡à¥Ł":1975,"Ġà¤Ĩà¤³":1976,"Ġ300":1977,"Ġà¤¨à¤·":1978,"Ġà¤ķà¤ļà¤°":1979,"à¤¤à¤Ĺà¤¤":1980,"à¤ıà¤«à¤¸":1981,"Ġà¤²à¤¢à¤µà¤¤":1982,"Ġà¤ĳà¤«à¤°":1983,"à¤¡à¤ĸ":1984,"à¤®à¤Ł":1985,"Ġà¥¨à¥¦à¥§à¥¯":1986,"Ġà¤īà¤ªà¤Ĺ":1987,"à¤ļà¤®à¤§":1988,"à¤¨à¤Ĺà¤°à¤ª":1989,"Ġh":1990,"Ġà¤Ńà¤Ĺà¤µ":1991,"Ġà¤īà¤¸":1992,"Ġà¤ĸà¤¡à¤¸":1993,"à¤§à¤ª":1994,"à¤Łà¤¦":1995,"Ġà¤īà¤ļà¤²à¤£":1996,"Ġà¤īà¤ľà¤µ":1997,"à¤¯à¤®à¤µà¤°":1998,"Ġà¤¦à¤µ":1999,"à¤ľà¤µà¤Ł":2000,"Ġà¤ħà¤ªà¤ķ":2001,"Ġà¤Ĩà¤£à¤¤":2002,"Ġà¤īà¤ªà¤µ":2003,"à¤£à¤Ĺ":2004,"à¤ľà¤ªà¤¸":2005,"à¤¹à¤¨à¤ļ":2006,"Ġà¤ıà¤Ł":2007,"à¤Łà¤ªà¤£":2008,"Ġ150":2009,"à¤¯à¤®à¤¸":2010,"Ġà¤ľà¤¸à¤ª":2011,"à¤µà¤²à¤¤":2012,"à¤®à¤¤à¤°à¤¤":2013,"à¤ľà¤¹":2014,"à¤ªà¤¬":2015,"Ġà¤²à¤¢à¤µà¤²":2016,"co":2017,"us":2018,"à¤¯à¤¨à¤²à¤®à¤§":2019,"à¤¡à¤¨à¤®à¤§":2020,"Ġà¤ķà¤®à¤¤à¤°à¤¤":2021,"à¤°à¤¤à¤ª":2022,"à¤ĵà¤¨":2023,"Ġà¤ļà¤²à¤¨":2024,"à¤ħà¤¹à¤®à¤¦":2025,"à¤ıà¤¶à¤¨":2026,"Ġà¤Ĩà¤¯à¤¡":2027,"à¤°à¤¹à¤£":2028,"à¥©à¥¦":2029,"à¤£à¤¹":2030,"Ġà¤°à¤ķà¤®":2031,"à¤ľà¤µà¤²":2032,"Ġ75":2033,"à¤¼":2034,"Ġà¥«à¥¦à¥¦":2035,"Ġà¤¨à¤µà¤°":2036,"Ġà¤Ĩà¤¯à¤Ł":2037,"Ġà¤¬à¤¨à¤¤":2038,"ra":2039,"Ġà¥ªà¥«":2040,"Ġà¤¬à¤¨à¤£":2041,"à¤Ĺà¤µà¤£":2042,"Ġà¤Ĩà¤łà¤µà¤²":2043,"Ġà¥©à¥¨":2044,"Ġvs":2045,"à¤¹à¤°à¤ļ":2046,"à¤³à¤®à¤§":2047,"Ġà¤§à¤®":2048,"Ġà¤Ľà¤Ĺà¤¨":2049,"à¤¯à¤ĺà¤Łà¤¨":2050,"un":2051,"à¤ļà¤µà¤²":2052,"Ġà¤īà¤°à¤²":2053,"à¤·à¤ķà¤ªà¤¦":2054,"à¤ķà¤¬":2055,"à¤ľà¤µà¤°":2056,"Ġà¤¦à¤£":2057,"à¤Łà¤¨à¤ļ":2058,"à¤¯à¤Ŀ":2059,"à¤ıà¤ĸ":2060,"Ġà¤ĵà¤®":2061,"à¤²à¤ĸ":2062,"16":2063,"Ġà¤¹à¤¨":2064,"Ġà¤ķà¤·":2065,"Ġà¤µà¤Ĺà¤³à¤¤":2066,"à¤Ĩà¤¯à¤²":2067,"à¤¬à¤Īà¤®à¤§":2068,"à¤¯à¤µà¤§":2069,"18":2070,"à¤®à¤Ń":2071,"à¤ªà¤µà¤°":2072,"Ġà¤ļà¤¤":2073,"Ġà¤²à¤ĸà¤¨":2074,"à¤¦à¤°à¤²":2075,"Ġà¤ľà¤¯à¤ª":2076,"Ġà¤īà¤ªà¤ľ":2077,"Ġà¤Ĩà¤Īà¤¨":2078,"Ġà¤¹à¤Łà¤µ":2079,"10":2080,"Ġà¤²à¤¡":2081,"Ġà¤ĳà¤Ł":2082,"Ġà¥¥":2083,"à¤¯à¤²à¤²":2084,"ing":2085,"à¤ıà¤Ł":2086,"à¤ĸà¤ļ":2087,"Ġà¥©à¥§":2088,"à¤°à¤³à¤ļ":2089,"bi":2090,"à¤ıà¤¸à¤ļ":2091,"ĠĠ":2092,"Ġà¤ħà¤·":2093,"à¤ĸà¤°à¤ļ":2094,"Ġà¤Łà¤¨":2095,"à¤¯à¤¨à¤°":2096,"à¤µà¤¡à¤²":2097,"Ġà¤ıà¤ļà¤¡":2098,"Ġà¤ªà¤ł":2099,"Ġà¤°à¤¨":2100,"Ġà¥Ńà¥¦":2101,"Ġà¤ªà¤°à¤®":2102,"ol":2103,"up":2104,"à¤īà¤®":2105,"à¤¹à¤®à¤¦à¤¨":2106,"Ġà¤ıà¤ķà¤®à¤¤":2107,"Ġà¤¬à¤¸à¤ª":2108,"à¤ıà¤ı":2109,"Ġà¤Ĩà¤łà¤µ":2110,"Ġà¤ĵà¤³à¤ĸà¤¤":2111,"Ġà¤¸à¤µà¤²à¤¤":2112,"Ġà¤¹à¤²à¤ķ":2113,"Ġà¤Ĩà¤ľà¤ªà¤°":2114,"Ġà¤¢à¤Ĺ":2115,"à¤°à¤¤à¤ļ":2116,"à¤®à¤¨à¤¸":2117,"à¤¨à¤ķà¤°":2118,"Ġà¤Ńà¤Ĺà¤¤":2119,"à¤ķà¤¡à¤ļ":2120,"à¤ħà¤«à¤Ĺ":2121,"à¤¨à¤Ń":2122,"à¤¡à¤¯":2123,"Ġk":2124,"Ġà¤ĵà¤¸":2125,"à¤Ĺà¤µà¤²":2126,"à¤ľà¤¦à¤°":2127,"Ġà¤ķà¤£":2128,"''":2129,"à¤¹à¤±":2130,"Ġà¥¨à¥¦à¥§à¥®":2131,"Ġà¤īà¤ķ":2132,"à¤°à¤ķà¤ļ":2133,"à¤µà¤®":2134,"Ġà¤®à¤¨à¤ª":2135,"à¤¦à¤¶":2136,"Ġà¤¸à¤¹à¤¸":2137,"Ġà¤ľà¤µà¤³à¤ľà¤µà¤³":2138,"Ġà¥®à¥¦":2139,"Ġà¤Ĩà¤ĸ":2140,"Ġà¥©à¥¬":2141,"Ġà¤ĩà¤°à¤«":2142,"à¤¯à¤¨à¤¶":2143,"Ġà¤®à¤¯":2144,"Ġà¤ıà¤¨à¤¸":2145,"ed":2146,"Ġà¤¯à¤ľà¤®":2147,"Ġà¤Ńà¤Ĺ":2148,"Ġà¤°à¤ĺ":2149,"à¤§à¤¨à¤ķ":2150,"Ġà¤ķà¤³à¤µà¤²":2151,"à¤Ĺà¤ªà¤¤":2152,"à¤¬à¤°à¤®à¤§":2153,"Ġà¤ıà¤ķà¤°":2154,"à¤ħà¤°à¤ļ":2155,"Ġà¤ĵà¤¢":2156,"à¤¯à¤Ĺà¤¡":2157,"à¤®à¤®":2158,"Ġà¤Ĺà¤Łà¤¨":2159,"Ġà¤ĺà¤Łà¤¸":2160,"25":2161,"à¤«à¤²":2162,"à¤ļà¤¶":2163,"à¤®à¤³":2164,"à¤ªà¤§":2165,"Ġà¥¨à¥¦à¥§à¥Ń":2166,"Ġà¤¹à¤°à¤ķà¤¤":2167,"à¤ĳà¤ķ":2168,"à¤ļà¤¯":2169,"Ġà¤Ĩà¤Īà¤²":2170,"Ġà¤¦à¤£à¤ķ":2171,"à¤¬à¤Īà¤ª":2172,"à¤¨à¤ªà¤¤":2173,"Ġà¤®à¤ļ":2174,"à¤·à¤²à¤µ":2175,"à¤Īà¤¶":2176,"Ġ45":2177,"Ġà¤ªà¤µà¤¨":2178,"à¤Ĺà¤ķ":2179,"à¤ĵà¤µ":2180,"à¤Łà¤ķà¤®à¤§":2181,"Ġà¥¨à¥¦à¥§à¥¬":2182,"Ġà¤¸à¤®à¤Ń":2183,"à¤°à¤¸à¤¨":2184,"Ġà¤ĸà¤²":2185,"Ġà¤²à¤¢à¤²":2186,"Ġà¤¦à¤°à¤µà¤°":2187,"Ġà¤µà¤°à¤ļ":2188,"à¤¤à¤¯":2189,"Ġà¤īà¤¸à¤³à¤²":2190,"à¤Ĩà¤°à¤¡":2191,"Ġ90":2192,"Ġl":2193,"Ġà¤Ĩà¤°à¤¬":2194,"Ġà¤®à¤¤à¤®":2195,"à¤ķà¤ªà¤£":2196,"à¤Ĩà¤ķ":2197,"à¤ıà¤¨à¤¡":2198,"à¤ķà¤²à¤¨":2199,"à¤Ĩà¤ª":2200,"à¥§à¥«":2201,"à¤°à¤µà¤¤":2202,"âĢĭ":2203,"15":2204,"Ġà¤Ĩà¤Ŀà¤®":2205,"à¤²à¤ªà¤£":2206,"à¤¬à¤ķ":2207,"à¤¨à¤¯à¤Ń":2208,"il":2209,"Ġ36":2210,"Ġà¤Ĺà¤ľ":2211,"à¤ķà¤ķ":2212,"Ġ29":2213,"à¤ķà¤°à¤ª":2214,"à¤Ĩà¤¯à¤ıà¤®":2215,"Ġà¥¨à¥¦à¥§à¥ª":2216,"Ġà¤ľà¤¬à¤°":2217,"à¤Ĭà¤¯":2218,"Ġ48":2219,"Ġà¤Łà¤³à¤²":2220,"à¤¨à¤§":2221,"à¤ļà¤µà¤¡":2222,"à¥ĭ'":2223,"à¤·à¤Ńà¤°":2224,"Ġà¤Ĩà¤ľà¤µà¤°":2225,"à¤łà¤®":2226,"à¤²à¤ĺà¤°":2227,"à¤·à¤±":2228,"Ġà¤¹à¤Łà¤µà¤²":2229,"Ġà¤ĩà¤Łà¤²":2230,"Ġà¤Ĩà¤¸à¤ª":2231,"à¤²à¤·":2232,"à¤Ĭà¤°":2233,"à¤£à¤ĺ":2234,"Ġà¤ĺà¤¡à¤£":2235,"Ġà¤Ĺà¤³à¤«":2236,"Ġà¤īà¤Ĺ":2237,"à¤ªà¤ª":2238,"Ġà¤¨à¤«":2239,"à¤łà¤¤":2240,"à¤µà¤°à¤²":2241,"Ġà¥Ńà¥«":2242,"ul":2243,"à¤£à¤µà¤²":2244,"à¤Łà¤¨à¤®à¤§":2245,"à¤ķà¤µà¤²":2246,"à¤ķà¤²à¤®":2247,"Ġ2014":2248,"à¤ĳà¤²":2249,"Ġà¤¦à¤¸":2250,"Ġà¤Ĳà¤ķà¤¤":2251,"Ġà¤Ńà¤°à¤Ńà¤°":2252,"Ġà¤ªà¤¡à¤¸":2253,"ch":2254,"à¤¨à¤µà¤¤":2255,"à¤¯à¤Ĺà¤°":2256,"Ġà¤īà¤¤à¤°à¤£":2257,"Ġà¤¨à¤µà¤ľ":2258,"Ġà¥¨à¥¦à¥¨à¥¦":2259,"Ġà¤īà¤ĺà¤¡à¤²":2260,"Ġà¥¯à¥¦":2261,"17":2262,"à¤·à¤µ":2263,"à¥§à¥¬":2264,"à¤¸à¤³à¤¤":2265,"Ġà¤¸à¤°à¤ª":2266,"Ġà¤ĩà¤µ":2267,"ad":2268,"à¤µà¤Ī":2269,"à¤¬à¤°à¤ª":2270,"à¤łà¤ª":2271,"Ġà¤ĸà¤Ł":2272,"ay":2273,"re":2274,"Ġà¤µà¤§":2275,"à¤¦à¤°à¤°":2276,"à¤ľà¤¶":2277,"Ġà¤¯à¤·":2278,"à¤°à¤¸à¤¹":2279,"à¤¦à¤Ń":2280,"à¤¾/":2281,"à¤°à¤°à¤ķ":2282,"à¥§à¥¨":2283,"Ġà¤ħà¤®à¤²":2284,"Ġà¤¦à¤£à¤¦à¤£":2285,"à¤¹à¤¯":2286,"à¤£à¤¬":2287,"Ġà¤ķà¤¹":2288,"Ġà¤¬à¤¸à¤®à¤§":2289,"à¤ĵà¤®à¤§":2290,"à¤¯à¤¸à¤¨":2291,"Ġà¤¸à¤¯":2292,"à¤°à¤¤à¤°à¤¤":2293,"Ġà¤ıà¤¨à¤Ĩà¤°à¤¸":2294,"à¥¨à¥§":2295,"Ġà¤īà¤®à¤Łà¤²":2296,"Ġo":2297,"à¤¨à¤ĸ":2298,"à¤ļà¤¦":2299,"à¤¸à¤«":2300,"oo":2301,"à¤ıà¤ħà¤°":2302,"à¤¦à¤ª":2303,"Ġà¤ıà¤ľ":2304,"à¤Ĭà¤Ł":2305,"à¤ıà¤¸à¤¸":2306,"à¤¸à¤²à¤ļ":2307,"à¤ĩà¤¤":2308,"à¤¯à¤¶à¤¸":2309,"Ġ34":2310,"à¤Ĩà¤ł":2311,"Ġà¥ªà¥®":2312,"à¤ħà¤Łà¤ķ":2313,"à¤¨à¤§à¤¨":2314,"Ġà¤°à¤£à¤¦":2315,"Ġà¤¸à¤¸":2316,"à¤¡à¤¹":2317,"à¤¹à¤®à¤¦à¤¨à¤Ĺà¤°":2318,"à¤«à¤¨":2319,"Ġà¤¬à¤¸à¤ļ":2320,"à¤·à¤ļ":2321,"os":2322,"Ġà¤«à¤°à¤¹":2323,"Ġà¤īà¤Ńà¤¯":2324,"Ġà¤Ĩà¤ķà¤¸":2325,"à¤Łà¤¯":2326,"à¤µà¤³à¤£":2327,"Ġà¤ħà¤Ŀ":2328,"à¤·à¤Ń":2329,"Ġà¤°à¤ĸ":2330,"à¤ķà¤°à¤ļ":2331,"à¤¸à¤²à¤Ĺ":2332,"Ġà¤īà¤¡à¤µà¤²":2333,"à¤¥à¤¤":2334,"Ġà¤µà¤¨à¤¸":2335,"à¤¬à¤°à¤¤":2336,"à¤ĭ":2337,"à¥¨à¥¦à¥¦":2338,"Ġà¤ļà¤°à¤¬":2339,"Ġà¤Ĩà¤Ĺà¤®à¤¨":2340,"à¥ĭ)":2341,"Ġà¤¬à¤¸à¤µ":2342,"Ġà¤īà¤łà¤µà¤²":2343,"Ġà¤Ńà¤¡":2344,"hi":2345,"Ġà¤°à¤¡":2346,"à¤¤à¤ļà¤°":2347,"à¤Ńà¤µà¤²":2348,"Ġ400":2349,"Ġà¤µà¤³":2350,"Ġà¤¦à¤¡":2351,"à¤ľà¤ªà¤¤":2352,"Ġà¤°à¤£à¤¨":2353,"à¤¸à¤°à¤£":2354,"Ġà¤ļà¤¹à¤²":2355,"à¤¡à¤¶":2356,"Ġà¤ĵà¤°":2357,"à¤ıà¤ª":2358,"12":2359,"à¤¨à¤ľ":2360,"à¤£à¤®à¤§":2361,"Ġà¤Ĳà¤µà¤ľ":2362,"à¤ıà¤¨à¤ıà¤¸":2363,"Ġà¤ľà¤¯à¤¶":2364,"Ġà¤ĩà¤®à¤°":2365,"Ġà¤®à¤§à¤²":2366,"à¤³à¤¶":2367,"à¤¦à¤°à¤ļ":2368,"Ġà¤Ńà¤²":2369,"Ġà¤Ńà¤¡à¤ķ":2370,"à¤²à¤«":2371,"Ġà¤¨à¤µà¤¨à¤µ":2372,"Ġ33":2373,"à¤ıà¤¨à¤Ĩà¤¯":2374,"à¤·à¤¸":2375,"Ġà¤ļà¤®à¤ķ":2376,"Ġà¤ĩà¤«":2377,"à¥¨à¥¨":2378,"à¤¬à¤¡à¤¤":2379,"Ġà¤Ŀà¤³à¤ķà¤²":2380,"Ġà¤ªà¤§":2381,"Ġà¤¬à¤Ł":2382,"à¤«à¤ļ":2383,"Ġà¥¦":2384,"Ġ2022":2385,"ind":2386,"à¤Łà¤ħà¤ª":2387,"à¤ĸà¤Ł":2388,"à¥§à¥Ń":2389,"à¤Īà¤²à¤ļ":2390,"à¤¦à¤¬":2391,"à¤¢à¤µà¤¤":2392,"à¤¨à¤Ĺà¤°à¤®à¤§":2393,"Ġà¤¬à¤¨à¤µà¤¤":2394,"à¤ĺà¤¤":2395,"Ġ2015":2396,"à¤ļà¤²à¤¨":2397,"Ġà¤µà¤Ĺ":2398,"à¤Ńà¤£":2399,"ÂłÂł":2400,"à¤ªà¤¥":2401,"Ġà¤¦à¤®":2402,"à¤ĺà¤Ł":2403,"ap":2404,"à¤¶à¤ıà¤®":2405,"im":2406,"Ġà¤µà¤²":2407,"Ġe":2408,"à¤ħà¤ľà¤¯":2409,"à¤ĵà¤®":2410,"à¤īà¤²à¤Ł":2411,"Ġà¤¨à¤µà¤²":2412,"à¤Ŀà¤µà¤£":2413,"à¤¬à¤Īà¤Ĺ":2414,"Ġà¥©à¥ª":2415,"à¤ķà¤¥":2416,"à¥¨à¥«":2417,"Ġà¤ħà¤ªà¤¡":2418,"Ġà¤¢à¤ķà¤²à¤£":2419,"à¤ĺà¤®":2420,"à¤µà¤¬à¤³":2421,"à¤ªà¤°à¤ķà¤°":2422,"Ġà¤ıà¤°":2423,"Ġà¤¯à¤¶à¤µ":2424,"à¤ıà¤ķà¤¦":2425,"Ġà¥¨à¥¦à¥§à¥«":2426,"à¤°à¤£à¤¬":2427,"à¤·à¤°à¤¶":2428,"Ġà¤łà¤³à¤ķ":2429,"Ġà¥©à¥©":2430,"ation":2431,"Ġà¤ĺà¤Łà¤²":2432,"à¤Īà¤ª":2433,"Ġà¤ħà¤µà¤®":2434,"à¤¸à¤°à¤ļ":2435,"à¤°à¤³à¤ķ":2436,"à¤¸à¤ľ":2437,"à¤¦à¤¦":2438,"à¤Ĩà¤°à¤¬":2439,"à¤į":2440,"à¤¯à¤®à¤¨":2441,"and":2442,"à¤¬à¤Īà¤ķà¤°":2443,"ov":2444,"Ġà¤īà¤²à¤Ĺ":2445,"Ġà¥§à¥¯à¥¯":2446,"Ġà¤ľà¤¯à¤¸":2447,"à¤Ĩà¤µà¤¶":2448,"à¤µà¤°à¤¤":2449,"Ġà¤ħà¤¸à¤¦":2450,"Ġà¤Ĩà¤¡à¤µ":2451,"Ġà¥¬à¥ª":2452,"Ġà¤īà¤ĺà¤¡à¤£":2453,"200":2454,"à¤Īà¤ľ":2455,"à¤Łà¤¨à¤ªà¤Ł":2456,"Ġà¤®à¤ķ":2457,"à¤Ńà¤°à¤£":2458,"Ġà¤ĺà¤°à¤Ĺ":2459,"Ġà¤¤à¤¡à¤ľ":2460,"Ġà¤ħà¤¨à¤¨":2461,"à¤Ĺà¤£à¤ķ":2462,"Ġà¤ľà¤Ĺà¤¦":2463,"à¤ıà¤¨à¤ľ":2464,"el":2465,"à¤¶à¤ķà¤¤":2466,"Ġà¤¨à¤µà¤µ":2467,"à¤ĺà¤µ":2468,"Ġà¤īà¤ªà¤®à¤¹":2469,"à¤¬à¤µà¤°":2470,"à¥§à¥®":2471,"Ġà¤¬à¤ĺà¤£":2472,"iv":2473,"à¤ªà¤°à¤µ":2474,"à¥Ĥ)":2475,"Ġà¤īà¤¡à¤µ":2476,"Ġà¥©à¥¯":2477,"à¤¹à¥Ł":2478,"Ġà¤ªà¤Łà¤¨":2479,"à¤Ĺà¤¢":2480,"Ġà¤ĸà¤¤":2481,"à¤ªà¤°à¤¦":2482,"Ġà¤¸à¤¬":2483,"Ġà¤ĵà¤ķ":2484,"Ġà¤°à¤ĸà¤¡à¤²":2485,"à¤¸à¤¶":2486,"à¤Īà¤Łà¤µà¤°":2487,"Ġà¤¸à¤®à¤¤":2488,"Ġà¤īà¤łà¤²":2489,"à¤ķà¤°à¤²":2490,"à¤ĩà¤µ":2491,"lect":2492,"à¤²à¤¶":2493,"à¤ıà¤¡":2494,"à¥§à¥§":2495,"à¤¯à¤¨à¤²":2496,"à¤¤à¤¸à¤°":2497,"à¤ıà¤¬":2498,"à¤ľà¤µà¤³à¤ª":2499,"à¤µà¤¨à¤¸à¤¤":2500,"Ġà¤¦à¤¹à¤¶à¤¤":2501,"Ġà¤ľà¤¯à¤²à¤²":2502,"Ġ64":2503,"à¤¡à¤ĺ":2504,"à¤¬à¤°à¤ªà¤°":2505,"à¥įâĢįâĢĮ":2506,"Ġà¤ĳà¤¡":2507,"à¤µà¤¨à¤¶":2508,"à¤°à¤£à¤¹":2509,"à¤µà¤¡à¤°":2510,"Ġ44":2511,"Ġà¤įà¤ķ":2512,"à¥«à¥¦":2513,"11":2514,"Ġà¤¦à¤Ĺ":2515,"Ġà¤ļà¤¢à¤µà¤²":2516,"Ġà¤ªà¤°à¤ķ":2517,"à¤łà¤¸":2518,"Ġà¤Ĩà¤¯à¤Ĩà¤¯à¤Ł":2519,"à¤¥à¤¶":2520,"à¤ħà¤µ":2521,"à¤ĵà¤¸":2522,"Ġà¥ªà¥¯":2523,"à¤Ĺà¤µà¤¡":2524,"Ġà¤ĩà¤¤à¤°à¤¹":2525,"à¤ªà¤¡à¤¤":2526,"à¤¬à¤±":2527,"Ġ38":2528,"à¤°à¤Ńà¤°":2529,"Ġà¤Ĩà¤¯à¤°":2530,"à¤µà¤¬":2531,"Ġà¤Ĩà¤¯à¤ķà¤°":2532,"à¤ıà¤¸à¤ª":2533,"Ġà¤¤à¤Łà¤ķà¤°":2534,"à¤¥à¤ļ":2535,"Ġà¤ıà¤ķà¤¤à¤°":2536,"Ġà¥©à¥Ńà¥¦":2537,"à¥ĩà¥ĩ":2538,"Ġà¤Īà¤µ":2539,"à¤¸à¤³à¤£":2540,"ag":2541,"Ġà¤ħà¤ķà¤¸":2542,"à¤³à¥Ł":2543,"Ġà¤¶à¤°à¤£":2544,"Ġà¤ªà¤¸à¤°à¤¤":2545,"Ġà¤¬à¤¦à¤¨":2546,"Ġà¤īà¤ł":2547,"Ġà¤ªà¤°à¤¤à¤£":2548,"ur":2549,"à¤¡à¤°à¤ļ":2550,"à¤³à¤Ĺà¤£":2551,"à¤Łà¤°à¤¸":2552,"à¤ĵà¤¤":2553,"à¤ľà¤«":2554,"à¤¶à¤Ńà¤ķ":2555,"à¤£à¤ª":2556,"à¤¦à¤¸":2557,"Ġà¤°à¤ļ":2558,"à¤łà¤°":2559,"à¥§à¥©":2560,"Ġà¥©à¥®":2561,"Ġ42":2562,"Ġà¤ıà¤ķà¤¦à¤®":2563,"Ġà¤ĭà¤¤":2564,"Ġà¤ªà¤¨à¤µ":2565,"à¤°à¤ªà¤ķ":2566,"Ġà¤µà¤¨à¤µ":2567,"Ġà¤¦à¤³à¤£":2568,"à¤ªà¤°à¤¹":2569,"à¤µà¤ķà¤±":2570,"ut":2571,"Ġà¤¬à¤¬":2572,"Ġà¤«à¤Ł":2573,"à¥§à¥ª":2574,"Ġà¤µà¤Ĺà¤³à¤£":2575,"à¤¶à¤¨à¤µà¤°":2576,"à¤²à¤¨à¤ķà¤°":2577,"Ġà¤ĺà¤¡à¤µà¤£":2578,"à¤£à¤ľ":2579,"à¤¶à¤¨à¤¸":2580,"um":2581,"à¥Ģà¤ĥ":2582,"à¤ĸà¤Ń":2583,"à¤ıà¤¸à¤Ī":2584,"Ġà¥ªà¥ª":2585,"à¤ıà¤¸à¤ıà¤¸":2586,"Ġà¤Ĺà¤³à¤¤":2587,"2019":2588,"ho":2589,"ia":2590,"Ġà¤īà¤®à¤°":2591,">>":2592,"à¤°à¤ľà¤¨":2593,"à¥Ģ/":2594,"Ġà¤ªà¤¦à¤°":2595,"à¤ħà¤ļ":2596,"Ġà¤ĸà¤±":2597,"Ġà¥ªà¥©":2598,"à¤°à¤ĺ":2599,"Ġà¤ªà¤°à¤«":2600,"Ġà¤ªà¤°à¤µà¤¡à¤£":2601,"Ġà¤¹à¤³à¤¦":2602,"à¤¯à¤Ŀà¤°":2603,"à¤¸à¤°à¤²":2604,"Ġà¤ıà¤¡":2605,"Ġ56":2606,"Ġà¤Ĩà¤ľà¤ª":2607,"à¤ıà¤¨à¤¸":2608,"à¤°à¤¸à¤°à¤£":2609,"à¤Ńà¤Ĺ":2610,"à¤¸à¤®à¤¸":2611,"Ġà¤ħà¤²à¤°":2612,"Ġà¤Ńà¤Ĺà¤¤à¤¸":2613,"14":2614,"à¤ªà¤°à¤°":2615,"Ġ49":2616,"à¤¤à¤Ń":2617,"Ġà¤īà¤¤à¤°à¤¤":2618,"Ġ55":2619,"à¤¬à¤Īà¤¤à¤²":2620,"Ġà¤Ĳà¤ķà¤£":2621,"à¤¯à¤¡à¤°":2622,"Ġà¤µà¤³à¤¸":2623,"à¥§à¥§à¥":2624,"Ġà¤Ĺà¤¹":2625,"Ġà¤Īà¤®":2626,"Ġà¥ªà¥¨":2627,"Ġà¤µà¤¹":2628,"à¤¡à¤¦":2629,"à¤°à¤£à¤ªà¤£":2630,"2014":2631,"Ġà¤ľà¤¨à¤¸":2632,"Ġà¤¸à¤Īà¤¦":2633,"à¤¸à¤ķà¤°":2634,"Ġà¤¨à¤Ĺà¤°à¤ª":2635,"à¤¬à¤Īà¤¸à¤¹":2636,"à¤°à¤¸à¤Ń":2637,"Ġà¥¬à¥«":2638,"ac":2639,"à¤¨à¤¤à¤°":2640,"à¤łà¤Ń":2641,"à¤ĵà¤¹":2642,"à¤Ĩà¤°à¤ıà¤«à¤ļ":2643,"à¤¤à¤Ĺ":2644,"à¤µà¤®à¤§":2645,"Ġ65":2646,"à¤¸à¤°à¤¤":2647,"à¤µà¤ªà¤Ł":2648,"Ġà¤ķà¤¤":2649,"à¤ķà¤°à¤¨":2650,"Ġà¤ħà¤ķà¤¬à¤°":2651,"à¤ıà¤®à¤ª":2652,"Ġà¤Ĩà¤ĸà¤²":2653,"à¥ĥà¤Ĥ":2654,"à¤¸à¤°à¤¨":2655,"à¤ķà¤ħà¤ª":2656,"Ġà¤ħà¤¯à¤¶à¤¸":2657,"à¤Łà¤°à¤ª":2658,"Ġà¤ħà¤Ńà¤¯":2659,"à¤Ĭà¤¦":2660,"à¤¯à¤«à¤²":2661,"à¤¬à¤°à¤£":2662,"Ġà¥©à¥¦à¥¦":2663,"à¤ħà¤¸à¤²":2664,"à¤¹à¤°à¤¨":2665,"à¤ıà¤®à¤ıà¤¸":2666,"Ġà¤¹à¤°à¤µà¤²":2667,"à¤Ĺà¤°à¤®":2668,"à¤°à¤ªà¤³":2669,"Ġà¤ıà¤¬":2670,"à¤ıà¤¸à¤¬":2671,"Ġ54":2672,"Ġà¤Ĩà¤¬":2673,"Ġà¤ķà¤¢":2674,"Ġà¤ķà¤°à¤µ":2675,"à¤¶à¤¨à¤¶":2676,"à¤Ĺà¤Ń":2677,"Ġà¥«à¥«":2678,"à¤ĳà¤«":2679,"Ġà¤ħà¤Łà¤²à¤¬":2680,"à¤ıà¤¤":2681,"Ġj":2682,"à¤¶à¤ķà¤°":2683,"à¤Ŀà¤²":2684,"ps":2685,"Ġà¤¤à¤²à¤µ":2686,"à¤Ĩà¤«":2687,"à¤Ĺà¤¤à¤ļ":2688,"à¤µà¤¸à¤®":2689,"Ġà¤ıà¤µ":2690,"à¤Ĭà¤¨à¤¹":2691,"ab":2692,"Ġà¤ıà¤ľà¤¨":2693,"Ġà¤ĩà¤¬":2694,"Ġà¤ħà¤Łà¤ķà¤ª":2695,"Ġ105":2696,"à¤§à¤°à¤£":2697,"à¤ĸà¤¬à¤°":2698,"à¤ıà¤¶à¤¨à¤ļ":2699,"à¤¦à¥Ł":2700,"Ġà¤ħà¤ªà¤²":2701,"Ġà¤²à¤²":2702,"à¤¨à¤¸à¤°":2703,"Ġà¤ļà¤°à¤£":2704,"à¤²à¤ĸà¤¨":2705,"Ġà¤Ŀà¤²à¤ķ":2706,"Ġà¤Ĩà¤¶à¤¯":2707,"à¤µà¤ªà¤ķ":2708,"à¤·à¤¬":2709,"Ġà¤īà¤£":2710,"à¤°à¤ĸà¤ª":2711,"à¤£à¤§à¤°":2712,"à¤Ŀà¤®":2713,"eo":2714,"Ġà¤ıà¤ķà¤ľ":2715,"Ġà¤¸à¤¹à¤¯":2716,"à¤Ĩà¤µ":2717,"ah":2718,"à¤®à¤«":2719,"à¤Ĭà¤¨à¤ļ":2720,"à¤ıà¤¸à¤Ĩà¤¯":2721,"24":2722,"à¤¬à¤Īà¤¨":2723,"Ġà¤¸à¤®à¤ľà¤£":2724,"Ġ#":2725,"Ġà¤¦à¤³à¤£à¤µà¤³à¤£":2726,"Ġà¤ħà¤ķà¤°":2727,"à¤²à¤ķà¤¤":2728,"Ġà¥ªà¥¬":2729,"à¤¦à¤¤à¤µ":2730,"Ġà¤ħà¤¹à¤®à¤¦à¤¨à¤Ĺà¤°":2731,"Ġà¤§à¤°à¤¤":2732,"à¤Ĭà¤¨à¤²":2733,"Ġà¤ıà¤ħà¤°à¤Ł":2734,"à¤¿à¥į":2735,"Ġ47":2736,"à¤Ķà¤°":2737,"Ġà¤Ńà¤¡à¤ķà¤²":2738,"Ġà¤Ĺà¤µà¤¸":2739,"Ġà¤ªà¤Łà¤ķà¤¥":2740,"à¤±à¤£":2741,"Ġà¤Ĩà¤¯à¤«":2742,"Ġà¥¬à¥©":2743,"à¤ªà¤ªà¤°":2744,"Ġà¤ĺà¤£":2745,"Ġà¤µà¤°à¤³":2746,"à¤ĵà¤ª":2747,"à¤īà¤²":2748,"Ġà¤ħà¤µà¤¶":2749,"à¤Ĺà¤§":2750,"à¤ĩà¤«":2751,"2018":2752,"Ġ250":2753,"à¤¡à¤¨à¤ļ":2754,"à¤³à¤Ĺà¤²":2755,"Ġà¤ķà¤®à¤²à¤¨":2756,"Ġà¤ħà¤µà¤§":2757,"Ġ43":2758,"à¤ľà¤¡":2759,"à¤ħà¤°à¤®à¤§":2760,"Ġà¤ļà¤¢à¤īà¤¤":2761,"Ġà¤ľà¤®à¤¤":2762,"Ġà¤ķà¤¡à¤ķà¤¡":2763,"em":2764,"à¤¡à¤ķà¤¡":2765,"Ġà¤īà¤ªà¤¸à¤Ń":2766,"à¤ħà¤°à¤®à¤¨":2767,"Ġà¤¤à¤¹à¤¸":2768,"à¤Ńà¤¦":2769,"Ġà¤ĵà¤Ł":2770,"Ġà¥«à¥¨":2771,"à¤¸à¤ªà¤Ł":2772,"à¤°à¤ªà¤Łà¤Ĺ":2773,"Ġà¤Ķà¤ªà¤ļ":2774,"Ġà¤ĵà¤®à¤°":2775,"2017":2776,"à¤®à¤ĺ":2777,"à¤Łà¤¡":2778,"à¤łà¤³à¤ķ":2779,"Ġà¤ĺà¤¨":2780,"à¤ľà¤ªà¤µ":2781,"Ġ52":2782,"Ġà¤Ĺà¤Ĺà¤¨":2783,"à¤Ĩà¤¯à¤ıà¤¨":2784,"à¤µà¤ªà¤¦":2785,"à¤Łà¤µà¤²":2786,"Ġà¤Ĭà¤¸":2787,"Ġà¤¢à¤ķà¤²à¤²":2788,"à¤Ńà¤µà¤¨":2789,"à¤°à¤µà¤¸":2790,"à¤ľà¤¨à¤ļ":2791,"Ġà¤¦à¤°à¤¡":2792,"Ġà¤įà¤¸":2793,"Âº":2794,"à¤Ĺà¤°à¤ľ":2795,"Ġ63":2796,"Ġà¤ıà¤®à¤ıà¤¸":2797,"Ġ125":2798,"à¤¸à¤¸à¤¹":2799,"Ġà¤ıà¤ķà¤¸":2800,"Ġà¥«à¥Ń":2801,"Ġà¤ĭà¤·à¤Ń":2802,"aa":2803,"à¤¨à¤£":2804,"à¥¦à¥¦à¥¦":2805,"Ġà¤łà¤°à¤µà¤¤":2806,"Ġà¤¤à¤°à¤£":2807,"Ġà¤²à¤ª":2808,"à¤¯à¤²à¤ļ":2809,"Ġà¤ķà¤°à¤®":2810,"Ġà¤ļà¤²":2811,"Ġà¤²à¤¤":2812,"à¤ľà¤¯à¤ª":2813,"Ġà¤łà¤¸":2814,"à¤Ĩà¤¯à¤ıà¤®à¤ļ":2815,"Ġà¤ħà¤¸à¤¹":2816,"à¤²à¤ķà¤²":2817,"à¤ľà¤µà¤³à¤ļ":2818,"à¤Łà¤°à¤²":2819,"Ġà¤ľà¤¤à¤¨":2820,"Ġà¤¥à¤ķ":2821,"ent":2822,"Ġà¤µà¤ļà¤¨à¤¬à¤¦":2823,"à¤ħà¤°à¤µ":2824,"Ġà¤īà¤ªà¤ķà¤°":2825,"à¤Ĩà¤°à¤ıà¤«":2826,"ci":2827,"Ġà¤¤à¤Ĺà¤¡":2828,"ld":2829,"Ġ46":2830,"Ġà¤°à¤£à¤§":2831,"à¤ĩà¤ľ":2832,"ri":2833,"à¤¥à¤ª":2834,"Ġà¤ıà¤¸à¤Ĩà¤¯à¤Ł":2835,"Ġà¥§à¥¯à¥®":2836,"à¤°à¤¤à¤°":2837,"à¤ıà¤¸à¤ı":2838,"om":2839,"à¤¹à¤¨à¤¹":2840,"à¥¨à¥ª":2841,"à¤Ĩà¤®à¤¦":2842,"à¤µà¤§à¤Ĺ":2843,"Ġà¤īà¤ļà¤²à¤¤":2844,"av":2845,"Ġà¤¸à¤ĸà¤²":2846,"Ġà¤ķà¤®à¤ķ":2847,"à¤¹à¤ª":2848,"Ġà¤¸à¤¡à¤ķ":2849,"Ġà¤¹à¤¸à¤¤":2850,"à¤¶à¤¨à¤¨":2851,"à¤ĩà¤Łà¤µà¤°":2852,"Ġà¤ľà¤³à¤Ĺ":2853,"Ġà¤īà¤łà¤µ":2854,"Ġà¤ĸà¤¡à¤ķ":2855,"Ġà¤ıà¤¶":2856,"à¤ıà¤¤à¤¨":2857,"à¤Ŀà¤¡":2858,"à¤ĩà¤¶":2859,"Ġ199":2860,"à¤¸à¤Ĺà¤¡à¤®à¤§":2861,"Ġà¤¸à¤¶à¤ķ":2862,"Ġà¤ªà¤¥":2863,"Ġà¤ķà¤ªà¤®à¤§":2864,"Ġ39":2865,"Ġà¥«à¥¬":2866,"à¤µà¤¤à¤®":2867,"Ġà¥«à¥ª":2868,"Ġà¤ĵà¤³à¤ĸà¤ªà¤¤":2869,"Ġà¤ıà¤ħà¤°à¤²":2870,"Ġà¤Ĩà¤ĸà¤£":2871,"Ġà¤¬à¤°à¤¸":2872,"Ġà¤Ĩà¤ªà¤Ł":2873,"à¤¶à¤µà¤µ":2874,"à¤²à¤¬à¤°":2875,"à¤¨à¤¸à¤¹":2876,"à¤®à¤ķà¤°":2877,"Ġà¤Ĩà¤°à¤Ł":2878,"Ġà¥ªà¥§":2879,"à¤¨à¤¬à¤°":2880,"à¤ĺà¤¡":2881,"Ġà¤¹à¤³à¤¹à¤³":2882,"à¤Ĭà¤ļ":2883,"Ġà¤ľà¤¶":2884,"Ġà¤ıà¤¸à¤Ł":2885,"orld":2886,"Âºà¤¯":2887,"Ġà¤¨à¤Ĺà¤°à¤µ":2888,"Ġà¤¦à¤¡à¤ªà¤£":2889,"à¤Ĩà¤¡":2890,"Ġi":2891,"à¤ĺà¤£":2892,"à¤²à¤¢":2893,"à¤¦à¤µà¤¨":2894,"Ġà¤¨à¤°à¤¸":2895,"Ġà¤¬à¤ľà¤°":2896,"Ġà¥ªà¥Ń":2897,"à¤¯à¤ªà¤£":2898,"à¤Łà¤°à¤¦":2899,"Ġà¤ªà¤¦à¤Ń":2900,"à¤ĺà¤°à¤ļ":2901,"Ġà¤ľà¤¨à¤¹":2902,"Ġà¤ªà¤ļà¤¨":2903,"à¤¡à¤Ľ":2904,"à¤¤à¤¤à¤§":2905,"Ġcup":2906,"Â»":2907,"Ġà¤¸à¤®à¤µ":2908,"Ġà¥§à¥«à¥¦":2909,"à¤µà¤ł":2910,"à¤Ĺà¤²à¤ļ":2911,"Ġà¥¬à¥¨":2912,"Ġà¤¸à¤¶à¤¸":2913,"à¤¯à¤¤à¤ķ":2914,"à¤ĵà¤ķ":2915,"Ġà¤¸à¤¡":2916,"à¤Ĩà¤°à¤ļ":2917,"Ġà¤Ĩà¤°à¤¡":2918,"Ġà¤ĵà¤¦":2919,"Ġà¤°à¤¬":2920,"à¤¬à¤µà¤¤":2921,"Ġà¤ıà¤®à¤Ĩà¤¯à¤¡":2922,"à¤ļà¤®":2923,"Ġà¤¨à¤¬":2924,"à¤ħà¤°à¤¬":2925,"à¤łà¤¬à¤³":2926,"Ġà¤ļà¤®":2927,"Ġà¤ĵà¤ĺ":2928,"à¤ľà¤µà¤£":2929,"à¤¶à¤ĸà¤¬à¤°":2930,"à¤Īà¤°":2931,"Ġà¤ĵà¤ª":2932,"à¤ıà¤¨à¤Ĩà¤°à¤¸":2933,"Ġà¤Ĩà¤ªà¤ļ":2934,"à¤Ĺà¤ł":2935,"gb":2936,"à¤ĺà¤ļ":2937,"à¤«à¤¸":2938,"Ġà¤ľà¤²à¤µ":2939,"ew":2940,"à¤¨à¤Īà¤ļ":2941,"à¤¯à¤°à¤¸à¤®":2942,"th":2943,"Ġà¤Ĩà¤¸à¤¨":2944,"à¤ħà¤µà¤ĺ":2945,"Ġà¤Ĺà¤¸":2946,"à¤ıà¤®à¤ķ":2947,"Ġ59":2948,"à¤¸à¤Ĺà¤¢":2949,"à¤ıà¤ļà¤¡":2950,"Ġà¤ľà¤²à¤®":2951,"Ġà¤ıà¤¸à¤¬":2952,"à¤¸à¤ĺ":2953,"Ġà¤¸à¤¨à¤°":2954,"Ġà¤ħà¤µà¤¤":2955,"à¥¨à¥©":2956,"Ġà¤¹à¤°à¤²":2957,"à¤°à¤¶à¤¸":2958,"Ġà¤īà¤²à¤Ĺà¤¡":2959,"70":2960,"Ġà¤ªà¤¡à¤Ŀà¤¡":2961,"à¤§à¤¶":2962,"à¤łà¤ļ":2963,"Ġà¤Ŀà¤Ł":2964,"à¤°à¤®à¤¨à¤ª":2965,"Ġ62":2966,"Ġà¥¨à¥¦à¥§à¥©":2967,"Ġà¤ĺà¤¡à¤µà¤²":2968,"Ġà¤®à¤¦à¤¤à¤ķ":2969,"dia":2970,"ak":2971,"à¤ĵà¤¡":2972,"à¤ĵà¤°à¤¡":2973,"Ġà¤°à¤¤à¤¨":2974,"Ġà¤Īà¤¸":2975,"à¤ħà¤¬":2976,"à¤¤à¤Ł":2977,"à¤ļà¤ľà¤£":2978,"Ġ41":2979,"à¤ıà¤¨à¤¬":2980,"Ġ600":2981,"à¤¯à¤°à¤ļ":2982,"à¤ľà¤µà¤¡":2983,"à¤³à¤ªà¤Ł":2984,"Ġà¤īà¤ªà¤ħà¤§":2985,"à¤ķà¤µà¤¤":2986,"à¤®à¤¦à¤¤":2987,"Ġà¤ĳà¤ª":2988,"à¤īà¤¸":2989,"Ġ57":2990,"à¤³à¤¹":2991,"Ġà¤Ĩà¤Ĭà¤Ł":2992,"Ġà¤¤à¤°à¤ļ":2993,"har":2994,"à¤¸à¤¹à¤ķ":2995,"Ġà¤Ľà¤ª":2996,"à¤ĸà¤°à¤ª":2997,"Ġà¥¬à¥Ń":2998,"tt":2999,"vid":3000,"à¤³à¤¯":3001,"Ġà¥«à¥§":3002,"23":3003,"à¤²à¤Ńà¤Ń":3004,"à¤¾à¤¾":3005,"à¤®à¤ªà¤£":3006,"à¤Ĺà¤µà¤°":3007,"Ġà¤¹à¤°à¤Ń":3008,"Ġà¤ĸà¤ļ":3009,"à¤ħà¤µà¤ķ":3010,"Ġà¤ĸà¤³à¤¬à¤³à¤ľà¤¨à¤ķ":3011,"à¤ķà¤¸à¤¨":3012,"à¤ļà¤¡":3013,"à¤Īà¤¬":3014,"à¤Łà¤²à¤ļ":3015,"à¤ķà¤ķà¤³":3016,"Ġà¤ľà¤²à¤¦à¤Ĺà¤¤":3017,"Ġà¤²à¤ĸà¤¨à¤Ĭ":3018,"à¤¦à¤²à¤¹":3019,"à¤ľà¤¯à¤¨":3020,"Ġà¤īà¤²à¤Łà¤²":3021,"met":3022,"ai":3023,"à¤¯à¤²à¤¯":3024,"à¤®à¤¯à¤¤":3025,"Ġà¤ıà¤ķà¤ľà¤£":3026,"à¤ıà¤¸à¤ıà¤«":3027,"Ġ51":3028,"Ġà¤ĺà¤¬à¤°":3029,"à¤Īà¤®à¤§":3030,"à¤°à¤µà¤¡":3031,"Ġà¤ħà¤ªà¤¤":3032,"Ġà¤ħà¤Łà¤ķà¤¹":3033,"à¥¨à¥¦à¥§à¥ª":3034,"Ġà¤ªà¤Łà¤¤":3035,"à¤ķà¤°à¤¦":3036,"Ġà¤¤à¤³à¤£":3037,"à¤¡à¤ªà¤¸à¤°":3038,"à¤Ķà¤·à¤§":3039,"40":3040,"ter":3041,"à¤·à¤²":3042,"à¤Ńà¤®":3043,"à¤Īà¤ıà¤®":3044,"à¤ıà¤¨à¤ª":3045,"Ġ67":3046,"à¤®à¤ĸ":3047,"à¤ªà¤°à¤ķ":3048,"Ġà¤ªà¤¬":3049,"à¤¬à¤²à¤ķ":3050,"Ġà¤ĸà¤²à¤¨":3051,"à¤«à¤µ":3052,"à¤µà¤¡à¤ķ":3053,"Ġà¤Ĺà¤£à¤ªà¤¤":3054,"à¤¨à¤°à¤ļ":3055,"à¤¸à¤¬à¤°":3056,"Ġà¤µà¤¸à¤²":3057,"Ġà¤Ĺà¤£à¤¨":3058,"Ġpo":3059,"à¤¨à¤µà¤£":3060,"Ġà¤ĸà¤ľ":3061,"à¤µà¤³à¤²":3062,"Ġà¤¤à¤¹à¤ķ":3063,"à¤¬à¤ĺ":3064,"Ġà¤¬à¤¯":3065,"à¤ħà¤£":3066,"Ġà¥«à¥®":3067,"2022":3068,"à¤¬à¤¸à¤ª":3069,"à¤¤à¤Ĳà¤µà¤ľ":3070,"Ġà¤¨à¤¸à¤£":3071,"Ġà¤ıà¤¨à¤ª":3072,"à¤¯à¤®à¤®à¤§":3073,"de":3074,"à¤·à¤¹":3075,"à¤µà¤¡à¤¤":3076,"à¤Łà¤Ĺ":3077,"Ġà¥ªà¥¦à¥¦":3078,"est":3079,"Ġà¤ıà¤ħà¤°à¤µ":3080,"Ġà¤µà¤ľ":3081,"à¤¡à¤²à¤µà¤°":3082,"han":3083,"à¤µà¤ªà¤³":3084,"à¤ķà¤¸à¤²":3085,"à¤§à¤¹":3086,"Ġà¤«à¤¸à¤²":3087,"Ġà¤«à¤¡à¤ķ":3088,"à¤ľà¤¯à¤¸":3089,"Ġà¤ķà¤¡à¤µ":3090,"à¤Ĺà¤£à¤¨":3091,"à¤¯à¤¨à¤ļ":3092,"à¤µà¤µà¤¤":3093,"à¤Łà¤ķà¤²":3094,"à¤®à¤¦à¤ļ":3095,"Ġà¤ĸà¤¬à¤°":3096,"à¤¸à¤¨à¤²":3097,"Ġ85":3098,"à¤²à¤ķà¤°à¤ļ":3099,"Ġà¤Ńà¤²à¤¤":3100,"à¤Ĩà¤°à¤Ł":3101,"à¤ļà¤ªà¤¤":3102,"Ġà¤ªà¤°à¤Ńà¤£":3103,"Ġà¤īà¤¦à¤¯à¤¨à¤°":3104,"à¤Ĩà¤ľà¤¹":3105,"100":3106,"à¤¯à¤Łà¤°":3107,"à¤¤à¤ªà¤¦":3108,"à¤°à¤®à¤§à¤²":3109,"à¤¸à¤«à¤°":3110,"à¥¯à¥¯":3111,"à¥¬à¥¦":3112,"Ġà¤¹à¤°à¤µ":3113,"Ġà¤¬à¤¸à¤µà¤£":3114,"te":3115,"Ġà¤ªà¤°à¤¬":3116,"à¤°à¤¸à¤®à¤ľ":3117,"Ġà¤Ĩà¤®à¤¨":3118,"à¤¸à¤¤à¤¤":3119,"à¤²à¤®à¤¡à¤²":3120,"Ġà¤ķà¤¬à¤¡":3121,"Ġà¤īà¤¤à¤°à¤µà¤²":3122,"ĠÂ":3123,"à¤®à¤®à¤¤":3124,"Ġà¤ªà¤³à¤µ":3125,"à¤°à¤®à¤¸":3126,"Ġà¤ħà¤¨à¤¸":3127,"Ġ53":3128,"à¤µà¤¨à¤ļ":3129,"Ġà¤®à¤¦à¤¨":3130,"Ġà¤Ńà¤¤":3131,"à¤ľà¤ķà¤¤":3132,"à¤µà¤¸à¤ķà¤°":3133,"Ġà¤īà¤ªà¤ª":3134,"à¤Łà¤²à¤°":3135,"Ġà¤ĵà¤Ŀ":3136,"à¤²à¤¦à¤¸":3137,"Ġà¤¹à¤°à¤Ńà¤ľà¤¨":3138,"ud":3139,"Ġà¤ķà¤ªà¤²":3140,"à¤ĺà¤²":3141,"à¤¶à¤¨à¤¹":3142,"à¤¨à¤Īà¤¤":3143,"Ġà¤ĸà¤°à¤ļ":3144,"Ġà¤ĩà¤¸à¤®":3145,"à¤¹à¤°à¤®à¤§":3146,"60":3147,"he":3148,"Ġà¤®à¤¹à¤®":3149,"art":3150,"à¤ħà¤¹à¤µ":3151,"Ġà¤°à¤¡à¤¤":3152,"à¤ħà¤®à¤°":3153,"à¤µà¤²à¤¨":3154,"à¥¨à¥¦à¥§à¥¯":3155,"Ġà¥®à¥«":3156,"Ġ198":3157,"à¤¶à¤¶":3158,"Ġà¤¹à¤ª":3159,"Ġà¤ıà¤ķà¤µ":3160,"Ġà¤ħà¤µà¤¯à¤µ":3161,"à¤Łà¤¸à¤°":3162,"à¤ĸà¤®à¤§":3163,"ce":3164,"Ġà¤®à¤ķà¤°":3165,"Ġà¤ĵà¤¢à¤²":3166,"Ġ58":3167,"à¤µà¤ĸ":3168,"à¤°à¤ķà¤Ł":3169,"à¤¤à¤°à¤¦":3170,"Ġà¤ĵà¤³à¤ĸà¤£":3171,"à¤Ńà¤¨":3172,"Ġà¥«à¥©":3173,"Ġà¤µà¤¸à¤¤":3174,"à¤¶à¤µà¤¤":3175,"à¤ĸà¤¹":3176,"à¤ıà¤®à¤Ł":3177,"à¤¯à¤¦à¤²":3178,"à¤³à¤ªà¤°":3179,"Ġà¤īà¤ķà¤³":3180,"à¤ĵà¤µà¤°":3181,"Ġà¥Ńà¥¬":3182,"Ġà¤ĳà¤¨":3183,"Ġre":3184,"à¤ļà¤µà¤¤":3185,"à¤ıà¤®à¤ļ":3186,"à¤¸à¤¦à¤¸":3187,"à¥¨à¥®":3188,"Ġà¤Ĩà¤Ĺà¤³":3189,"à¥¨à¥Ń":3190,"à¤ľà¤Ńà¤µà¤¨":3191,"à¤°à¤®à¤ļ":3192,"Ġà¥¨à¥§à¥§à¥":3193,"com":3194,"Ġà¤ķà¤£à¤ķ":3195,"Ġà¤«à¤µ":3196,"Ġà¤ľà¤Ĺà¤¨":3197,"13":3198,"à¤ľà¤¯à¤ķ":3199,"à¤łà¤µà¤¤":3200,"à¤¡à¤ķà¤ª":3201,"Ġà¤¸à¤¹à¤ľà¤ªà¤£":3202,"à¤µà¤¸à¤°":3203,"Ġà¤ħà¤¡à¤µà¤²":3204,"Ġà¤įà¤¡":3205,"//":3206,"à¤¯à¤¦à¤°":3207,"Ġà¤¤à¤¡à¤ķ":3208,"à¤ĵà¤ıà¤¸":3209,"Ġà¤Ĩà¤¦à¤³à¤²":3210,"Ġ130":3211,"à¤ķà¤¸à¤¨à¤¶":3212,"Ġ120":3213,"à¤Ĩà¤Īà¤µà¤¡":3214,"Ġà¤ķà¤±à¤£":3215,"Ġà¤µà¤³à¤µ":3216,"à¤°à¤¶à¤ķ":3217,"à¤īà¤¡":3218,"à¤Ĭà¤¨à¤®":3219,"à¤ıà¤¨à¤ı":3220,"à¤²à¤ĺ":3221,"à¤¨à¤ľà¤£":3222,"Ġà¤¯à¤µà¤¤à¤®":3223,"à¤¹à¤¦":3224,"à¤ıà¤Ĩà¤¯":3225,"à¤§à¤µà¤¨":3226,"Ġà¤Ĺà¤¡à¤¬à¤¡":3227,"metoo":3228,"à¤Łà¤Ł":3229,"elect":3230,"à¤¬à¤°à¤¨":3231,"Ġ99":3232,"Ġà¤īà¤łà¤µà¤£":3233,"Ġà¤ªà¤°à¤³":3234,"Ġà¤¡à¤¬à¤²":3235,"à¤Ĺà¤²à¤¨":3236,"Ġà¤Ĩà¤¯à¤ı":3237,"à¤¹à¤°à¤¯":3238,"Ġà¥«à¥¯":3239,"Ġà¤ªà¤°à¤¤à¤¤":3240,"Ġà¤īà¤«":3241,"à¤ľà¤ªà¤ª":3242,"à¥¨à¥¬":3243,"Ġà¤ªà¤Łà¤µ":3244,"à¤ªà¤Ĺ":3245,"à¤¡à¤®à¤§à¤²":3246,"Ġà¤ħà¤¡à¤ķà¤£":3247,"à¤°à¤¬à¤°":3248,"à¤ħà¤Łà¤²":3249,"à¤Ĭà¤¸à¤«":3250,"Ġà¤Ĩà¤°à¤¤":3251,"Ġà¤¬à¤¢à¤¤":3252,"Ġà¤Ĺà¤¡à¤ļ":3253,"Ġà¤ĸà¤ļà¤²":3254,"à¤ħà¤°à¤¸":3255,"à¤ıà¤¶":3256,"à¥¨à¥¯":3257,"Ġà¤ľà¤Ĺà¤ľ":3258,"Ġà¤§à¤¡à¤ķà¤²":3259,"Ġà¤¹à¤°à¤®à¤¨à¤ª":3260,"à¤ıà¤ķà¤¤":3261,"Ġ700":3262,"à¤²à¤Ńà¤¤":3263,"Ġà¤įà¤ª":3264,"ive":3265,"cb":3266,"Ġà¤ķà¤¹à¤°":3267,"Ġà¤ļà¤®à¤¤":3268,"Ġà¥Ńà¥ª":3269,"à¤ķà¤®à¤²":3270,"à¤Ĩà¤°à¤ķ":3271,"Ġà¤¸à¤ªà¤¶":3272,"Ġà¤Ĩà¤°à¤¸":3273,"Ġà¤ķà¤°à¤¦":3274,"Ġà¤īà¤®à¤Łà¤¤":3275,"à¤¹à¤²à¤ªà¤®":3276,"Ġà¤°à¤®à¤£":3277,"Ġà¤¨à¤µà¤±":3278,"à¤®à¤¨à¤Ĺà¤°":3279,"Ġà¤ķà¤®à¤°":3280,"à¤¨à¤µà¤ľ":3281,"Ġà¤ľà¤¯à¤¦":3282,"Ġà¤ĺà¤¸à¤°":3283,"2015":3284,"Ġà¤ķà¤£à¤ķà¤µà¤²":3285,"Ġà¤Ŀà¤¡à¤¤":3286,"à¤Īà¤«":3287,"à¤¸à¤°à¤¦":3288,"à¤Łà¤°à¤Ł":3289,"à¤īà¤Ĺ":3290,"Ġà¤Ĳà¤°à¤£":3291,"Ġà¤īà¤¤à¤°à¤µ":3292,"à¤ķà¤Łà¤µà¤°":3293,"Ġà¤Ńà¤Łà¤ķ":3294,"Ġà¤²à¤ªà¤µ":3295,"à¤°à¤ľà¤£":3296,"Ġà¤ªà¤¸à¤°à¤µà¤£":3297,"47":3298,"à¤¸à¤Ł":3299,"Ġà¤ľà¤ªà¤£":3300,"Ġà¤§à¤¡à¤ª":3301,"Ġà¥¬à¥§":3302,"à¤¨à¤«":3303,"Ġà¤µà¤³à¤²":3304,"Ġof":3305,"Ġà¤«à¤²à¤ķ":3306,"Ġà¤Ĩà¤µà¤ķ":3307,"à¤Ĩà¤°à¤ıà¤¸":3308,"Ġà¤ļà¤¡":3309,"à¤µà¤¨à¤®":3310,"ers":3311,"Ġà¤ĭà¤£":3312,"à¤ªà¤±":3313,"Ġhtt":3314,"à¤°à¤¬à¤³":3315,"à¤Ńà¤Ĺà¤µ":3316,"Ġà¥¬à¥¬":3317,"à¤ªà¤¦à¤°":3318,"Ġà¤«à¤¤":3319,"Ġà¤ĩà¤¯à¤¤":3320,"à¤¸à¤ķà¤Ł":3321,"Ġà¤ıà¤¸à¤ª":3322,"Ġà¥¬à¥¯":3323,"à¤²à¤ķà¤°à¤¨":3324,"à¤¯à¤°à¤¨":3325,"à¥īà¤ģ":3326,"Ġà¤¹à¤²à¤µà¤²":3327,"à¤ĳà¤Ĺà¤¸":3328,"80":3329,"Ġà¤Ĩà¤°à¤ª":3330,"Ġ800":3331,"Ġà¤¨à¤ľà¤°à¤ķ":3332,"Ġà¤¬à¤°à¤ĸ":3333,"à¤µà¤¤à¤¹":3334,"Ġà¤ħà¤Ĺà¤°à¤µ":3335,"Ġ1000":3336,"à¤¸à¤¨à¤¨":3337,"à¤®à¤ķà¤¤":3338,"Ġà¤ħà¤ĸà¤¤":3339,"Ġà¥Ńà¥©":3340,"Ġà¥Ńà¥®":3341,"2016":3342,"ub":3343,"à¤¸à¤®à¤¨":3344,"à¤·à¤µà¤²":3345,"Ġà¤ĺà¤°à¤«":3346,"à¤ıà¤ķà¤®":3347,"Ġà¥¬à¥®":3348,"Ġà¤ªà¤²à¤Łà¤µ":3349,"à¤¦à¤°à¤µ":3350,"Ġà¤ľà¤¤":3351,"à¤¥à¤¡":3352,"Ġà¤ħà¤¸à¤®à¤°":3353,"Ġà¤°à¤¹à¤¸":3354,"Ġx":3355,"Ġà¤¤à¤Ł":3356,"à¤¢à¤°à¤ª":3357,"Ġà¥¨à¥¦à¥§à¥¨":3358,"Ġà¤ĥ":3359,"à¤¯à¤§":3360,"Ġà¤ķà¤³à¤£":3361,"à¤¦à¤°à¤µà¤°":3362,"à¤Ĺà¤£à¤µ":3363,"Ġà¤ıà¤®à¤Ĩà¤¯à¤ıà¤®à¤ļ":3364,"Ġà¥¯à¥«":3365,"à¥Ģà¥¤":3366,"Ġà¤¸à¤¦à¤¨":3367,"à¤Łà¤°à¤®":3368,"Ġà¤Ĺà¤µà¤¸à¤£":3369,"ig":3370,"à¤Ĭà¤¥":3371,"à¤¬à¤Īà¤µà¤°":3372,"à¤ħà¤°à¤µà¤°":3373,"Ġ73":3374,"Ġà¤°à¤¹à¤®":3375,"à¤Ńà¤§":3376,"Ġà¤ħà¤¨à¤ª":3377,"Ġà¥§à¥¨à¥«":3378,"Ġà¤ĩà¤Ł":3379,"à¤¨à¤²à¤®à¤§":3380,"à¥Ńà¥¦":3381,"à¤¹à¤¶":3382,"Ġà¤Ńà¤°à¤§":3383,"Ġà¤ħà¤¨à¤§":3384,"Ġà¤¨à¤µà¤¦":3385,"à¤Ńà¤¤":3386,"à¤Łà¤ķà¤¨":3387,"Ġà¤ħà¤µà¤ľà¤¡":3388,"Ġ201819":3389,"à®":3390,"Ġ74":3391,"à¤Ńà¤°à¤ª":3392,"Ġà¤Ĺà¤¹à¤²":3393,"à¤°à¤¤à¤®":3394,"à¤·à¤£à¤¹":3395,"à¤ĩà¤¥à¤²":3396,"Ġà¤¹à¤²à¤Ĺà¤°":3397,"Ġà¤ıà¤¨à¤Ĩà¤¯à¤ı":3398,"Ġà¤ļà¤®à¤ķà¤¦":3399,"à¤Ĺà¤ľà¤¨":3400,"Ġà¤¹à¤°à¤¦":3401,"Ġà¤¹à¤¸à¤²":3402,"Ġà¤°à¤ļà¤£":3403,"à¤ĸà¤²à¤¨":3404,"à¤²à¤ķà¤ªà¤¦":3405,"Ġà¤¤à¤ªà¤®":3406,"à¥Ńà¥«":3407,"Ġ144":3408,"Ġst":3409,"cci":3410,"Ġà¤ħà¤¨à¤°":3411,"à¤¯à¤ļà¤ķ":3412,"à¥Ĥ'":3413,"à¤ħà¤µà¤¶":3414,"Ġà¤Ĩà¤¯à¤ıà¤¸":3415,"à¥ªà¥¦":3416,"pm":3417,"à¤ķà¤«":3418,"Ġà¤¹à¤¡à¤ªà¤¸à¤°":3419,"à¤ĵà¤¦":3420,"à¤¥à¤¤à¤ľ":3421,"à¤ľà¤¨à¤¶":3422,"Ġà¤¥à¤ķà¤µ":3423,"à¤ıà¤®à¤®à¤§":3424,"Ġà¤ªà¤¸à¤°à¤µ":3425,"Ġ95":3426,"ly":3427,"Ġipl":3428,"Ġà¤®à¤ľà¤ķ":3429,"Ġà¤¬à¤¸à¤µà¤°":3430,"video":3431,"ĠÂ·":3432,"ss":3433,"Ġà¤ĵà¤¶":3434,"Ġà¤ıà¤¨à¤Ł":3435,"à¤µà¤±":3436,"Ġà¤®à¤³":3437,"à¤¸à¤°à¤ķà¤°":3438,"icc":3439,"à¤Ŀà¤«":3440,"Ġà¤Ĩà¤ľà¤®":3441,"à¤Łà¤£à¤®":3442,"Ġà¤łà¤ªà¤ķ":3443,"Ġ2021":3444,"Ã·":3445,"à¤§à¤¡à¤ķ":3446,"à¤Łà¤ªà¤°":3447,"à¤§à¤¡":3448,"à¤·à¤¯à¤ļ":3449,"à¤ıà¤µ":3450,"à¤¬à¤Īà¤¹":3451,"Ġ78":3452,"à¤Ĩà¤ľà¤ªà¤°":3453,"Ġà¤µà¤Ĺà¤³à¤²":3454,"ww":3455,"Ġon":3456,"Ġà¤®à¤¯à¤¤":3457,"Ġà¤¨à¤°à¤µà¤£":3458,"Ġà¤µà¤³à¤µà¤£":3459,"Ġà¤¹à¤¯":3460,"Ġà¤ıà¤²à¤ª":3461,"à¤ħà¤¹":3462,"Ġà¤ľà¤¯à¤°":3463,"à¤µà¤¨à¤ķ":3464,"Ġà¤Ĩà¤¡":3465,"Ġà¤ªà¤ª":3466,"Ġà¤²à¤¶":3467,"à¤ĺà¤¡à¤£":3468,"Ġà¤Ĩà¤ªà¤£à¤ļ":3469,"à¥©à¥«":3470,"Ġà¤ħà¤Ŀà¤°":3471,"Ġà¤łà¤£à¤ķ":3472,"à¤²à¤°à¤¤":3473,"à¤Łà¤µà¤¡":3474,"Ġà¤ıà¤¨à¤ıà¤¸":3475,"à¤Ĩà¤ļ":3476,"à¤ĩà¤ļ":3477,"Ġà¤Īà¤ª":3478,"à¤£à¤µà¤°":3479,"à¤¶à¤¨à¤°":3480,"à¤Ľà¤ª":3481,"à¤§à¤¨à¤¸":3482,"Ġà¤īà¤ĺà¤¡à¤¤":3483,"Ġà¤Ĩà¤µà¤³":3484,"Ġà¥§à¥¨à¥¦":3485,"à¤¬à¤°à¤®à¤¤":3486,"Ġà¤ħà¤¥à¤ķ":3487,"à¤¤à¤ķà¤®":3488,"à¤īà¤ªà¤®":3489,"sp":3490,"à¤ħà¤¡à¤ļà¤£":3491,"à¤°à¤®à¤¹":3492,"Ġà¤ĵà¤¢à¤µà¤²":3493,"Ġà¤¬à¤¸à¤µà¤²":3494,"Ġà¥Ńà¥Ń":3495,"à¤£à¤ķà¤°":3496,"à¤°à¤¤à¤µ":3497,"à¤Ĩà¤¯à¤Ĩà¤¯à¤Ł":3498,"if":3499,"Ġà¤²à¤µà¤ļ":3500,"Ġà¤¬à¤¸à¤¸":3501,"65":3502,"à¤¤à¤µà¤¸":3503,"à¤¹à¤ļà¤£":3504,"Ġà¤¹à¤Łà¤ķ":3505,"Ġà¤«à¤¸à¤µ":3506,"à¤ħà¤¡":3507,"à¤ıà¤¸à¤ıà¤«à¤ļ":3508,"Ġ69":3509,"Ġà¥§à¥¦à¥«":3510,"Ġà¤ıà¤²à¤Īà¤¡":3511,"à¤ĭà¤·":3512,"Ġà¤¨à¤ĸ":3513,"Ġà¤Ĩà¤°à¤ľ":3514,"Ġà¤īà¤¦à¤ĺ":3515,"dat":3516,"à¤ĺà¤¡à¤¤":3517,"Ġà¤ĸà¤¡à¤¤à¤°":3518,"Ġà¤īà¤ķà¤³à¤£":3519,"ĠâĢĭ":3520,"à¤ªà¤°à¤®":3521,"Ġà¤ĸà¤ªà¤µ":3522,"à¤Īà¤µà¤°":3523,"à¤¨à¤µà¤¨":3524,"Ġà¤¦à¤°à¤¬":3525,"à¤ĭà¤¤":3526,"Ġà¤ķà¤³à¤µà¤£":3527,"à¤«à¤°à¤¸":3528,"à¤ıà¤®à¤Ĩà¤°":3529,"Ġà¥®à¥¬":3530,"lo":3531,"à¤¾à¤Ĥà¤Ĥ":3532,"à¤Ĩà¤Īà¤ļ":3533,"999":3534,"Ġà¤®à¤Ĭ":3535,"Ġà¤¨à¤²":3536,"à¤ıà¤¸à¤Ĩà¤°":3537,"à¤¡à¤ķà¤ªà¤®à¤§":3538,"Ġà¤ıà¤¨à¤Ĩà¤¯":3539,"Ġà¥®à¥¯":3540,"à¤ªà¤£à¤¨":3541,"Ġà¤ĸà¤°à¤Ĺ":3542,"à¤®à¤¹à¤¸":3543,"à¥§à¥¯à¥¯":3544,"Ġà¤ķà¤ļà¤±":3545,"Ġà¤¨à¤®à¤¸":3546,"à¤«à¤¡à¤£à¤µ":3547,"à¤īà¤Ńà¤¯":3548,"Ġ68":3549,"à¤¡à¤°à¤µà¤°":3550,"amp":3551,"Ġà¥¯à¥¯":3552,"Ġpro":3553,"Ġmar":3554,"Ġà¤ħà¤¨à¤²":3555,"à¤ĵà¤¬":3556,"Ġà¤Ĩà¤ľà¤µà¤°à¤ļ":3557,"à¤ļà¤µà¤°":3558,"à¤¦à¤Ĺà¤¡":3559,"Ġà¤¸à¤¹à¤µ":3560,"à¤¸à¤Ĺà¤¡à¤ļ":3561,"Ġà¤°à¤¹à¤¦":3562,"Ġà¥¯à¥¬":3563,"à¥ĩà¥¤":3564,"à¤Ĺà¤°à¤ļ":3565,"Ġà¤Ĺà¤¯":3566,"Ġà¤īà¤§à¤³":3567,"à¤Ĩà¤Ĭà¤Ł":3568,"à¤¸à¤¹à¤ľ":3569,"à¤īà¤ªà¤°":3570,"Ġà¤īà¤®à¤Łà¤µà¤²":3571,"Ġà¥®à¥©":3572,"Ġhttps":3573,"45":3574,"à¤¬à¤°à¤µà¤°":3575,"Ġà¤Ľà¤¡":3576,"Ġà¤¸à¤Ĺà¤³à¥Ł":3577,"à¤ıà¤®à¤Ĩà¤°à¤¡":3578,"à¤¦à¤ķà¤¤":3579,"à¤µà¤³à¤¤":3580,"Ġà¥Ńà¥¨":3581,"à¤µà¤Łà¤ªà¤°":3582,"à¤¯à¤·":3583,"à¤£à¤µà¤£":3584,"Ġà¤¨à¤³à¤ķ":3585,"Ġà¤ľà¤®à¤µ":3586,"ha":3587,"à¤ļà¤ªà¤£":3588,"à¤°à¤¤à¤¨":3589,"Ġ77":3590,"à¤¯à¤īà¤¤":3591,"à¤ªà¤ĸ":3592,"à¤Ĭà¤¸à¤®à¤§":3593,"199":3594,"vi":3595,"à¤°à¤ł":3596,"à¤¨à¤°à¤²":3597,"à¤Ĺà¤Ŀ":3598,"Ġà¤ľà¤Ł":3599,"Ġà¤ķà¤°à¤ª":3600,"à¤¬à¤Īà¤ķà¤¡":3601,"à¤ĩà¤Łà¤²":3602,"Ġà¥®à¥ª":3603,"à¤¯à¤°à¤¸à¤¨":3604,"26":3605,"à¤²à¤ķà¤¡":3606,"à¤£à¤£":3607,"Ġà¤¸à¤¬à¤²":3608,"Ġà¤¨à¤¥":3609,"Ġà¤ıà¤®à¤¬":3610,"Ġ128":3611,"Ġà¤īà¤¡à¤¤":3612,"à¤ĺà¤³à¤²":3613,"à¤ıà¤ıà¤¨à¤Ĩà¤¯":3614,"Ġ72":3615,"Ġà¥¨à¥«à¥¦":3616,"à¤Ĩà¤łà¤µà¤¡":3617,"à¤ªà¤¡à¤ªà¤Ł":3618,"à¤¨à¤Ńà¤°à¤ª":3619,"à¤¨à¤¸à¤¨":3620,"Ġà¤¦à¤¯à¤¨":3621,"Ġà¤²à¤ĸ":3622,"à¤®à¤¨à¤®":3623,"Ġà¤Ĩà¤¯à¤ıà¤¨à¤ıà¤¸":3624,"Ġà¤īà¤¤à¤°à¤µà¤£":3625,"à¤³à¤®à¤³":3626,"à¤Ńà¤µà¤£":3627,"à¤¨à¤®à¤§à¤²":3628,"Ġ76":3629,"à¤²à¤¥":3630,"Ġà¤¨à¤¤":3631,"à¤ħà¤Ł":3632,"Ġà¤ķà¤²à¤°":3633,"à¤¤à¤®à¤ľ":3634,"à¤Łà¤°à¤¨à¤²":3635,"Ġà¤ħà¤¥":3636,"à¤¥à¤°à¤¸":3637,"à¤®à¤ķà¤°à¤£":3638,"artic":3639,"35":3640,"à¤¦à¤µà¤¤":3641,"Ġà¤¬à¤¤":3642,"Ġà¤Ĺà¤ł":3643,"Ġà¤ıà¤¸à¤¡":3644,"Ġ66":3645,"Ġà¤¥à¤ķà¤¬":3646,"à¤ĳà¤ªà¤°":3647,"rc":3648,"Ġ350":3649,"à¤ıà¤®à¤Ī":3650,"à¤¨à¤Ĺà¤°à¤ļ":3651,"à¥®à¥¦":3652,"à¤¨à¤¦à¤¯":3653,"à¤Ĳà¤¶":3654,"à¥¨à¥¦à¥§à¥®":3655,"Ġà¤Ĩà¤ī":3656,"Ġà¤ķà¤Łà¤ķ":3657,"Ġà¤ªà¤³à¤¤":3658,"à¤¶à¤Ń":3659,"Ġà¤Ŀà¤¹":3660,"à¤¸à¤¤à¤°":3661,"Ġà¤°à¤¥":3662,"Ġà¥¨à¥¦à¥§à¥§":3663,"Ġà¤ĺà¤¸à¤°à¤¤":3664,"à¤¾à¥¤":3665,"à¤²à¤ªà¤¤":3666,"à¤²à¤ªà¤¦":3667,"à¤·à¤¦à¤°":3668,"Ġà¤ľà¤¦à¤¯":3669,"Ġà¤ħà¤¸à¤®":3670,"à¤¦à¤µà¤ļ":3671,"à¤ŀà¤¤":3672,"Ġ180":3673,"Ġà¥§à¥©à¥¦":3674,"à¤°à¤Łà¥Ł":3675,"à¤µà¤Ĺà¤£à¤ļ":3676,"27":3677,"mp":3678,"à¤µà¤Ĺà¤¨":3679,"à¤Ĺà¤¬":3680,"à¤¡à¤µà¤¤":3681,"Ġà¤¶à¤µ":3682,"Ġà¤ıà¤ħà¤°à¤ª":3683,"Ġde":3684,"se":3685,"à¤¾(":3686,"Ġà¤ĩà¤ķà¤¡":3687,"à¤µà¤¨à¤¸":3688,"à¤ıà¤¸à¤Ĩà¤¯à¤Ł":3689,"à¤Ĩà¤ľà¤µà¤°":3690,"75":3691,"à¤²à¤°à¤®à¤§":3692,"à¤ķà¤¢":3693,"Ġà¤ªà¤Łà¤£":3694,"Ġà¤īà¤¬à¤¦":3695,"à¤«à¤¡à¤ķ":3696,"Ġà¤Ĩà¤µà¤³à¤²":3697,"Ġ2013":3698,"Ġ61":3699,"Ġà¤īà¤§à¤³à¤²":3700,"à¤£à¤¦":3701,"à¤ľà¤¦à¤ļ":3702,"Ġà¤Ńà¤¦":3703,"Ġà¤ĵà¤ıà¤¨à¤ľ":3704,"à¤ıà¤¨à¤Ĩà¤¯à¤ı":3705,"à¥¨à¥¦à¥§à¥«":3706,"ull":3707,"Ð°":3708,"Ġ`":3709,"à¤¤à¤µà¤°":3710,"à¤²à¤°à¤²":3711,"à¤®à¤¸à¤¨":3712,"Ġà¤ķà¤Ŀ":3713,"à¤°à¤¤à¤®à¤§":3714,"à¤°à¤£à¤ļ":3715,"à¤¸à¤²à¤¤":3716,"article":3717,"Ġà¤¸à¤°à¤¤":3718,"à¤¬à¤Ĺ":3719,"à¤Ńà¤ª":3720,"Ġà¤Ĩà¤¯à¤¨":3721,"Ġà¤¦à¤°à¤¹":3722,"à¤¾à¤ĥ":3723,"à¤ľà¤¯à¤²à¤²":3724,"Ġà¤ıà¤®à¤ľ":3725,"Ġà¥®à¥Ń":3726,"Ġ91":3727,"Ġà¤Ńà¤¸":3728,"à¤Īà¤¦":3729,"Ġà¤Ĩà¤ľà¤¤":3730,"à¥©à¥§":3731,"Ġà¤ļà¤¢à¤²":3732,"Ġà¤§à¤µà¤¨à¤ļ":3733,"Ġà¤Ĺà¤°à¤ľà¤ļ":3734,"Ġà¥Ńà¥§":3735,"à¤ķà¤¸à¤¹":3736,"à¤ĸà¤¸":3737,"à¤¦à¤°à¤¨":3738,"à¤ķà¤²à¤ļ":3739,"à¤§à¤µà¤Ł":3740,"Ġà¤ªà¤£à¤ľ":3741,"Ġà¤ªà¤¸à¤°à¤µà¤²":3742,"Ġà¥¯à¥ª":3743,"electro":3744,"à¤ªà¤ł":3745,"à¤Łà¤µà¤£":3746,"à¤°à¤µà¤¶":3747,"à¤Łà¤ķà¤±":3748,"à¤īà¤ªà¤¸":3749,"à¤ĳà¤¨":3750,"ction":3751,"à¤¨à¤¬à¤¦":3752,"à¤Īà¤ķà¤ļ":3753,"Ġà¤Ķà¤ļ":3754,"app":3755,"Ġà¤Ĩà¤¯à¤ıà¤ıà¤¸":3756,"cor":3757,"à¤¤à¤°à¤®":3758,"Ġà¤ĳà¤Īà¤²":3759,"à¤Ĩà¤¯à¤¬":3760,"à¤µà¤¨à¤¡":3761,"à¥ĩ/":3762,"à¤ħà¤¹à¤®à¤¦à¤¨à¤Ĺà¤°":3763,"à¤°à¤®à¤°à¤£":3764,"à¤¯à¤®à¤²":3765,"Ġà¤Ĩà¤¯à¤ıà¤¨":3766,"ant":3767,"Ġà¤ķà¤³à¤¸":3768,"Ġà¤µà¤¨à¤Ĺ":3769,"à¤ıà¤Łà¤°":3770,"Ġ2000":3771,"à¤ıà¤¸à¤¡":3772,"Ġà¤ľà¤®à¤µà¤²":3773,"Ġà¥¨à¥¦à¥¦à¥®":3774,"Ġà¤¬à¤Łà¤²à¤°":3775,"à¤ĵà¤ľ":3776,"à¤ıà¤«à¤Ł":3777,"Ġ83":3778,"à¥¨à¥¦à¥§à¥¬":3779,"Ġworld":3780,"à¤®à¤°à¤¸":3781,"à¤ľà¤³":3782,"à¤ĸà¤ªà¤¦":3783,"à¤¤à¤°à¤ľà¤®":3784,"à¤Īà¤²à¤µà¤°":3785,"Ġà¥¬à¥¦à¥¦":3786,"Ġà¥Ńà¥¯":3787,"Ġà¤ļà¤µà¤¦":3788,"Ġà¤ķà¤¢à¤Īà¤¤":3789,"à¤ľà¤µà¤¤":3790,"à¤¶à¤µà¤°":3791,"Ġà¤¯à¤¥":3792,"à¤Īà¤¦à¤²":3793,"à¤ªà¤£à¤ľ":3794,"à¤ķà¤¡à¤²":3795,"à¤ĳà¤°":3796,"Ġà¥§à¥¯à¥¬":3797,"Ġà¥§à¥¯à¥Ń":3798,"à¤Ĩà¤¯à¤ıà¤¨à¤ıà¤ķ":3799,"ik":3800,"Ġà¤®à¤¥":3801,"à¤¬à¤¸à¤®à¤§":3802,"à¤Īà¤Ī":3803,"à¤ĺà¤Łà¤ķ":3804,"à¤ªà¤°à¤ļ":3805,"à¤®à¤ļà¤°":3806,"Ġà¤Ĩà¤Īà¤¸":3807,"end":3808,"48":3809,"à¤¯à¤¯à¤¨":3810,"Ġà¤Ĺà¤²à¤µ":3811,"Ġ195":3812,"cr":3813,"à¤¯à¤ľà¤°":3814,"à¤ļà¤Ĺ":3815,"Ġà¤¯à¤ķ":3816,"Ġà¤ĸà¤£":3817,"athi":3818,"Ġà¤¤à¤Łà¤°à¤ķ":3819,"to":3820,"Ġà¤ªà¤°à¤¤à¤«":3821,"Ġà¤§à¤µà¤¨à¤¨":3822,"ical":3823,"à¥¨à¥¦à¥§à¥Ń":3824,"à¤¯à¤®à¤°":3825,"à¤°à¤ļà¤²":3826,"à¤Ĺà¤²à¤ª":3827,"à¤¹à¤¨à¤§":3828,"Ġà¤įà¤£":3829,"à¤¤à¤¬à¤¦":3830,"à¤Ĥ'":3831,"à¤®à¤ľà¤¨":3832,"à¤Łà¤°à¤µ":3833,"Ġà¤¯à¤ľ":3834,"Ġà¤ļà¤ª":3835,"à¤£à¤¤à¤£":3836,"à¤ĩà¤¨à¤ļ":3837,"à¤¸à¤®à¤°":3838,"à¤ķà¤°à¤®":3839,"Ġà¤¨à¤³":3840,"à¤·à¤ªà¤£":3841,"à¤¬à¤¶":3842,"Ġà¤°à¤«":3843,"à¤¤à¤¨à¤ª":3844,"ine":3845,"à¤Łà¤¶":3846,"à¤¡à¤ªà¤²":3847,"à¤Ŀà¤¬":3848,"à¤īà¤¨à¤ļ":3849,"Ġà¤įà¤¨":3850,"Ġà¥§à¥¦à¥¦à¥¦":3851,"Ġà¤Ńà¤¯à¤Ń":3852,"Ġà¤§à¤¡à¤ªà¤¡":3853,"caa":3854,"à¤¸à¤°à¤¸":3855,"à¤¬à¤Īà¤¤à¤¹":3856,"à¤¹à¤¨à¤¸":3857,"Ġà¤ıà¤¸à¤¸":3858,"jp":3859,"Ġ+":3860,"à¤¯à¤¡à¤¨":3861,"à¤łà¤ªà¤£":3862,"Ġà¤Ŀà¤°":3863,"Ġà¤Ĳà¤¨":3864,"Ġà¤Ĳà¤¨à¤µ":3865,"2020":3866,"Ġà¤ħà¤¡à¤µà¤£":3867,"sh":3868,"Ġarticle":3869,"Ġà¤ķà¤ªà¤ļ":3870,"Ġà¤ªà¤Łà¤µà¤£":3871,"à¤µà¤ĺà¤µ":3872,"à¤²à¤ĸà¤¨à¤Ĭ":3873,"ep":3874,"Ġà¤±":3875,"à¤ļà¤¦à¤°à¤®":3876,"Ġà¤®à¤Ł":3877,"à¤°à¤£à¤¤":3878,"à¤°à¤®à¤¶":3879,"à¤ľà¤ªà¤ķ":3880,"à¤ľà¤¯à¤µà¤°":3881,"à¤īà¤·":3882,"Ġà¤Īà¤°":3883,"Ġ71":3884,"ase":3885,"Ġpost":3886,"à¤Ļ":3887,"à¤¨à¤Ĭ":3888,"Ġà¤¨à¤¯à¤¨":3889,"Ġà¤§à¤°à¤ª":3890,"à¤ķà¤²à¤®à¤§":3891,"Ġà¤Ĩà¤¦à¤°à¤£":3892,"à¥ªà¥«":3893,"Ġfull":3894,"Ġmarathi":3895,"à¥²":3896,"à¤ķà¤Ń":3897,"Ġà¤Ĩà¤ªà¤¸":3898,"Ġà¤®à¤ł":3899,"à¤Ńà¤³":3900,"Ġà¤Ĺà¤¤à¤µ":3901,"Ġà¤ĺà¤µà¤ĺà¤µ":3902,"à¤¤à¤°à¤¨":3903,"Ġà¤Īà¤ķ":3904,"Ġà¥¯à¥©":3905,"Ġ201920":3906,"à¤¿à¤ĥ":3907,"à¤ķà¤¤à¤°":3908,"à¤·à¤¯à¤¨":3909,"Ġà¤Ŀà¤Łà¤ªà¤Ł":3910,"à¤ıà¤¸à¤¨":3911,"à¤¡à¤°à¤°":3912,"Ġà¤īà¤ĺà¤¡à¤ªà¤£":3913,"Ġà¤§à¤°à¤ªà¤ķà¤¡":3914,"à¤µà¤¨à¤µ":3915,"à¤³à¤Ĺà¤¤":3916,"Ġà¤¸à¤°à¤¸à¤ķà¤Ł":3917,"à¤µà¤¤à¤µà¤°":3918,"à¤ĩà¤°à¤«":3919,"Ġch":3920,"Ġà¤¬à¤¡à¤Ĺ":3921,"à¤ķà¤°à¤ıà¤¤":3922,"à¤¬à¤Īà¤¸":3923,"Ġà¤ıà¤¸à¤ıà¤®à¤ıà¤¸":3924,"à¤¹à¤³à¥Ł":3925,"Ġ201718":3926,"hy":3927,"Ġu":3928,"Ġà¤¤à¤¹":3929,"à¤ĸà¤ªà¤£":3930,"à¤īà¤¨à¤²":3931,"Ġà¤īà¤²à¤Łà¤¸":3932,"Ġà¤Ńà¤°à¤ĺ":3933,"Ġà¤ĵà¤ªà¤¨à¤ļ":3934,"28":3935,"29":3936,"Ġà¤ľà¤«à¤°":3937,"Ġà¤¶à¤¬à¤°":3938,"Ġà¤Ĺà¤µà¤³":3939,"Ġà¤ĸà¤Łà¤ķ":3940,"à¤Ĩà¤¯à¤ıà¤¸":3941,"Ġà¤ªà¤²à¤Ł":3942,"à¤½":3943,"Ġà¤¸à¤Ł":3944,"Ġà¤¤à¤«":3945,"Ġà¤¬à¤Łà¤£":3946,"à¤ħà¤°à¤²":3947,"Ġà¤ľà¤®à¤£":3948,"à¤ıà¤ķà¤¹":3949,"Ġà¤Ĺà¤¡à¤¦":3950,"à¤¿Ã·":3951,"à¤ķà¤ĺà¤°":3952,"Ġà¤¸à¤ķà¤²":3953,"à¤Łà¤®à¤¸":3954,"Ġà¤īà¤°à¤¤":3955,"à¤ıà¤Ī":3956,"Ġà¤¡à¤ļ":3957,"Ġà¤ķà¤®à¤ľ":3958,"Ġà¤Ĩà¤ªà¤£à¤¹":3959,"à¤ľà¤²à¤¸":3960,"une":3961,"à¤¢à¤±":3962,"Ġà¤¹à¤¤à¤¬à¤²":3963,"Ġà¤Ĩà¤Īà¤¬":3964,"Ġà¤Ĩà¤łà¤µà¤¡à¤¯":3965,"eng":3966,"à¤°à¤¤à¤¹":3967,"à¤°à¤ªà¤Łà¤¹":3968,"à¤ľà¤¨à¤¹":3969,"Ġ104":3970,"Ġ87":3971,"à¤Ńà¤°à¤¤":3972,"à¤Ńà¤°à¤§":3973,"Ġà¤īà¤ªà¤¦":3974,"Ġà¤ľà¤²à¤®à¤¯":3975,"à¤Ĺà¤¡à¤ļ":3976,"à¤ĸà¤¬à¤°à¤¦":3977,"à¤ıà¤®à¤ıà¤²":3978,"Ġac":3979,"à¤¤à¤°à¤²":3980,"à¤Īà¤ķà¤¨":3981,"irus":3982,"world":3983,"à¤¤à¤°à¤ķ":3984,"à¤¦à¤°à¤¸":3985,"Ġà¤®à¤°à¤¤":3986,"à¤§à¤°à¤¨":3987,"à¤¢à¥Ł":3988,"à¤¯à¤®à¤¸à¤¨":3989,"à¤Ĺà¤³à¤¯":3990,"à¤µà¤¨à¤Ĺ":3991,"Ġelect":3992,"à¤ļà¤°à¤ļ":3993,"à¤¸à¤Ĩà¤ĺ":3994,"à¤Ĩà¤ªà¤¤":3995,"à¤«à¤Ł":3996,"Ġà¤¸à¤°à¤ķà¤¤":3997,"Ġà¤ľà¤¨à¤Ĺà¤£à¤¨":3998,"à¤ıà¤¸à¤ıà¤¨":3999,"à¤ļà¤ķà¤®à¤ķ":4000,"ist":4001,"odi":4002,"à¤ľà¤®à¤¹":4003,"Ġà¤¬à¤¹à¤°":4004,"Ġà¤²à¤¹à¤°":4005,"à¤Īà¤¨à¤ļ":4006,"Ġà¤ĳà¤¬":4007,"Ġà¤ħà¤®à¤°à¤¨":4008,"à¤µà¤¯à¤ķ":4009,"Ġà¤ļà¤¢à¤µ":4010,"Ġà¤ıà¤¨à¤°":4011,"Ġà¤¸à¤¹à¤²":4012,"à¤Ĩà¤¯à¤®à¤§":4013,"Ġ81":4014,"Ġ84":4015,"Ġà¤Ĺà¤£à¤µ":4016,"Ġà¤ıà¤«à¤¸":4017,"Ġà¥²à¤ª":4018,"à¤«à¤¸à¤µà¤£":4019,"me":4020,"op":4021,"à¤²à¤Ĺà¤¤":4022,"à¤Łà¤µà¤¸":4023,"à¤§à¤µà¤¸":4024,"à¤¶à¤Ŀ":4025,"à¤µà¤°à¤¨":4026,"à¤Ĭà¤¸à¤ļ":4027,"Ġà¤Īà¤¦":4028,"Ġà¥®à¥¦à¥¦":4029,"Ġaus":4030,"à¤®à¤¨à¤ª":4031,"à¤Łà¤°à¤¹":4032,"à¤ªà¤¦à¤µ":4033,"à¤ĺà¤°à¤Ĺ":4034,"Ġ110":4035,"con":4036,"à¤¨à¤°à¤¨":4037,"à¤ķà¤ķà¤²":4038,"à¤ļà¤°à¤²":4039,"à¤°à¤ķà¤¨":4040,"à¤¢à¤µà¤³":4041,"à¤Ĺà¤³à¥Ł":4042,"à¤°à¤¨à¤Ĺà¤°":4043,"Ġà¤ıà¤®à¤¸":4044,"Ġ288":4045,"ms":4046,"ot":4047,"à¤ľà¤³à¤Ĺ":4048,"Ġà¤µà¤³à¤¤":4049,"Ġà¤¤à¤Ĺ":4050,"à¤·à¤¶":4051,"Ġà¤¬à¤¨à¤¸":4052,"à¤«à¤°à¤ª":4053,"à¤ķà¤°à¤°":4054,"à¤¯à¤®à¤Ĺà¤¤":4055,"Ġà¤īà¤ªà¤Ń":4056,"à¤¡à¤³à¤ķà¤°":4057,"Ġà¤ªà¤µà¤Ī":4058,"Ġ''":4059,"Ġà¤ĳà¤«à¤²":4060,"Ġà¤īà¤¡à¤µà¤£":4061,"à¤ķà¤ķà¤¡":4062,"à¤¦à¤®à¤°":4063,"Ġà¤¹à¤¬":4064,"à¤µà¤¸à¤ħà¤ĸ":4065,"Ġà¥®à¥§":4066,"Ġ175":4067,"à¤®à¤¸à¤²à¤¤":4068,"à¤¡à¤¸à¤¨":4069,"à¤·à¤°à¤¤":4070,"à¤¯à¤ķà¤²à¤µà¤°":4071,"Ġà¤ķà¤®à¤³":4072,"Ġà¤¯à¤¶à¤¹":4073,"Ġà¤ķà¤¡à¤§":4074,"Ġà¤ĵà¤¸à¤°à¤²":4075,"qu":4076,"Ġà¤µà¤¨à¤®":4077,"à¤¶à¤µà¤£":4078,"à¤®à¤¤à¤®":4079,"à¤Ĩà¤¯à¤µ":4080,"Ġà¥¨à¥¦à¥§à¥¦":4081,"à¥ªà¥¯":4082,"Ġ79":4083,"hat":4084,"Ġà¤ªà¤¸à¤°":4085,"à¤«à¤°à¤¹":4086,"Ġà¤Ĩà¤°à¤ıà¤¸à¤ıà¤¸":4087,"Ġà¤ĵà¤®à¤ª":4088,"Ġà¤ħà¤ľà¤¬":4089,"Ġà¤«à¤²à¤¦":4090,"Ġà¤¦à¤°à¤®à¤¹":4091,"Ġ89":4092,"Ġà¤Ĩà¤ªà¤Łà¤²":4093,"ram":4094,"à¤°à¤£à¤ľ":4095,"Ġà¤Ĩà¤¯à¤Łà¤®":4096,"à¤¸à¤¨à¤¹":4097,"Ġà¤Ĩà¤¢à¤³à¤£":4098,"Ġ108":4099,"onav":4100,"Ġà¤ľà¤²à¤¤à¤°à¤£":4101,"sc":4102,"à¤¹à¤¬à¤¦":4103,"Ġà¤ľà¤ķ":4104,"Ġà¤ľà¤¯à¤ķ":4105,"à¤µà¤¤à¤¯":4106,"à¤¬à¤¦à¤¬":4107,"à¤ĵà¤³à¤ĸ":4108,"à¤®à¤²à¤·":4109,"india":4110,"Ġà¤·à¤¡à¤¯":4111,"one":4112,"onavirus":4113,"dr":4114,"Ġat":4115,"à¤¹à¤µà¤°":4116,"à¤¡à¤°à¤²":4117,"Ġà¤ļà¤Łà¤£":4118,"à¤ıà¤°":4119,"Ġà¤¸à¤¨à¤¦":4120,"Ġà¥¨à¥¦à¥¦à¥¯":4121,"à¤¾]":4122,"Ġà¤¸à¤¬à¤³":4123,"à¤¶à¤ľ":4124,"Ġà¤¤à¤µ":4125,"Ġà¤¦à¤¬à¤¦à¤¬":4126,"à¤¥à¤¸à¤¹":4127,"Ġà¤Ĺà¤«":4128,"à¤Ĩà¤¯à¤ıà¤²":4129,"Ġ86":4130,"ess":4131,"400":4132,"à¤¯à¤ıà¤¸à¤Ĩà¤°":4133,"à¥ģà¥į":4134,"Ġà¤¦à¤¸à¤°":4135,"Ġà¤¦à¤¡à¤ª":4136,"à¤Łà¤¨à¤¨":4137,"Ġà¤¸à¤¹à¤ķà¤²":4138,"à¤£à¤¯à¤¹":4139,"Ġà¥¨à¥¦à¥¦à¥¦":4140,"à¤¡à¤ªà¤Ł":4141,"Ġà¤ķà¤°à¤¨":4142,"à¤¹à¤£à¤²":4143,"à¤¸à¤°à¤®à¤§":4144,"à¤Ĳà¤ķ":4145,"à¤°à¤¬à¤¦":4146,"à¥Ģ(":4147,"Ġà¤ķà¤µà¤ļ":4148,"à¤Łà¤¸à¤¹":4149,"à¤ľà¤ĺ":4150,"Ġà¤°à¤ļà¤¤":4151,"à¤µà¤°à¤¦":4152,"à¤ħà¤°à¤¡":4153,"à¤ıà¤ķà¤Ł":4154,"à¥ªà¥Ń":4155,"Ġà¥®à¥¨":4156,"à¤¹à¤Ĺà¤¡":4157,"Ġà¤¨à¤®à¤¨":4158,"à¤ľà¤Ĺà¤£":4159,"Ġà¤ļà¤Łà¤ķ":4160,"à¤ĩà¤ª":4161,"Ġà¥¯à¥®":4162,"à¤Īà¤Łà¤ļ":4163,"à¤ªà¤²à¤ļ":4164,"Ġà¤Ĩà¤¯à¤ĵà¤ıà¤¸":4165,"Ġà¤¥à¤Ł":4166,"à¥ªà¥®":4167,"Ġà¤Īà¤¦à¤ļ":4168,"Ġà¥¯à¥Ń":4169,"Ġy":4170,"à¤®à¤°à¤¤":4171,"à¤¬à¤ķà¤°":4172,"Ġà¤¬à¤³à¤ľ":4173,"à¤Ĩà¤ľà¤ķ":4174,"à¤µà¤²à¤¸":4175,"Ġ96":4176,"Ġà¥§à¥¯à¥«":4177,"Ġ160":4178,"à¤ıà¤¶à¤¨à¤¨":4179,"à¤²à¤°à¤¨":4180,"à¤ªà¤¡à¤£":4181,"Ġà¤®à¤¦à¤°":4182,"à¤ħà¤ªà¤¹":4183,"à¤Ĭà¤¨à¤®à¤§":4184,"à¤ıà¤¸à¤Īà¤ļ":4185,"ds":4186,"à¤®à¤¡":4187,"Ġà¤¸à¤ľà¤Ĺ":4188,"à¤¯à¤®à¤¯":4189,"Ġà¤Ĩà¤°à¤ıà¤¸":4190,"Ġà¤µà¤°à¤µà¤°":4191,"âĢĮà¤¿":4192,"Ġà¤Ĩà¤¯à¤ıà¤¨à¤ıà¤ķ":4193,"à¤¯à¤ªà¤°":4194,"à¤²à¤Ĺà¤¤à¤ļ":4195,"Ġà¤Ĺà¤¨":4196,"Ġà¤Ĺà¤ļ":4197,"Ġà¤²à¤Łà¤ķ":4198,"Ġà¤ĸà¤¦":4199,"à¤Ŀà¤µà¤²":4200,"à¤Ŀà¤¨à¤®à¤§":4201,"à¤ĵà¤Ĺ":4202,"à¤ľà¤¸à¤ª":4203,"Ġà¥®à¥®":4204,"Ġcov":4205,"cl":4206,"ii":4207,"à¤¹à¤ķà¤°":4208,"à¤ķà¤°à¤µ":4209,"à¤£à¤ķà¤¡":4210,"Ġà¤¸à¤¬à¤¸":4211,"Ġà¤ħà¤²à¤Ĺ":4212,"à¤°à¤¸à¤¦":4213,"Ġà¥Ńà¥¦à¥¦":4214,"38":4215,"à¤ªà¤ľà¤¨à¤ķ":4216,"à¤¶à¤¬à¤°":4217,"Ġà¤¦à¤³à¤µ":4218,"Ġà¤¬à¤¹à¤²":4219,"Ġà¤¶à¤«":4220,"à¤ªà¤¤à¤Ĺ":4221,"à¤²à¤ªà¤°":4222,"à¤§à¤³à¤²":4223,"à¤¡à¤¸à¤¹":4224,"à¤¥à¤¹":4225,"à¤µà¤°à¤®à¤§":4226,"Ġà¤ıà¤ıà¤¨à¤Ĩà¤¯":4227,"Ġà¤ħà¤¨à¤Ł":4228,"à¤²à¤ķà¤Ł":4229,"à¤ĵà¤Ł":4230,"Ġà¤ªà¤Łà¤ķà¤¨":4231,"da":4232,"mah":4233,"à¤°à¤¡à¤²":4234,"à¤¨à¤¸à¤®":4235,"à¤Ńà¤®à¤¨":4236,"Ġà¤ħà¤²à¤µ":4237,"à¤Ĳà¤¤":4238,"à¦":4239,"à¤¹à¤ļà¤¤":4240,"à¤ªà¤ķà¤°":4241,"à¤Ĩà¤¯à¤ķà¤°":4242,"à¤Ĭà¤¡":4243,"Ġà¤Ĩà¤¤à¤·à¤¬":4244,"Ġà¤¥à¤ķà¤²":4245,"Ġ197":4246,"à¤¨à¤Īà¤®à¤§":4247,"Ġand":4248,"à¤¤à¤ĸ":4249,"à¤¹à¤¢":4250,"Ġà¤Ĩà¤ľà¤ķ":4251,"à¤Łà¤ķà¤¡":4252,"Ġà¤łà¤£":4253,"à¤Ĩà¤¯à¤«":4254,"Ġà¤ıà¤¸à¤¯":4255,"Ġ97":4256,"à¤¸à¤¦à¤°à¤ļ":4257,"Ġra":4258,"à¤°à¤Ĺà¤²":4259,"Ġà¤Ĩà¤µà¤¡à¤£":4260,"Ġà¤¸à¤¬à¤ķ":4261,"Ġà¤µà¤°à¤¦":4262,"à¤¥à¤ªà¤£":4263,"à¤Ńà¤Ł":4264,"à¤°à¤¤à¤ħà¤®":4265,"à¤ªà¤°à¤³":4266,"à¤·à¤£à¤µ":4267,"à¤µà¤°à¤£à¤®":4268,"Ġà¤ĳà¤«à¤¸":4269,"à¤¼à¤¾":4270,"ax":4271,"Ð¾":4272,"à¤¨à¤Ĺà¤¡":4273,"à¤Łà¤¸à¤¨":4274,"à¤Ĩà¤ªà¤ļ":4275,"à¤ªà¤¨à¤µ":4276,"à¥©à¥©":4277,"Ġà¤īà¤¡à¤µà¤¤":4278,"Ġ106":4279,"ate":4280,"à¤¨à¤Ł":4281,"Ġà¤Ĩà¤¡à¤¨":4282,"Ġà¤ļà¤£":4283,"Ġà¤ĺà¤¨à¤¤":4284,"Ġà¤īà¤ķà¤³à¤¤":4285,"201718":4286,"iz":4287,"Ġdi":4288,"à¤ķà¤ªà¤Ł":4289,"à¤ķà¤ªà¤ļ":4290,"Ġà¤ªà¤¡à¤³à¤ķà¤°":4291,"Ġà¤°à¤ľà¤¤":4292,"Ġà¤ĺà¤¶":4293,"à¤¬à¤Īà¤ħà¤¹à¤®à¤¦":4294,"à¤¸à¤¨à¤Ĺà¤°":4295,"Ġà¤ħà¤ľà¤®":4296,"Ġ2030":4297,"à¤Ĩà¤°à¤Ĩà¤¯":4298,"à¥¬à¥«":4299,"Ġday":4300,"Ġà¤¸à¤«à¤²":4301,"Ġà¤ħà¤µà¤°":4302,"Ġà¤ķà¤°à¤®à¤£":4303,"Ġà¤¬à¤²à¤µ":4304,"Ġà¤¬à¤±à¤¯":4305,"Ġà¤ļà¤¹à¤°":4306,"Ġà¤ļà¤¢à¤¤":4307,"à¤¬à¤°à¤ł":4308,"Ġà¤Ĩà¤¯à¤¬":4309,"à¤ĩà¤²à¤ļ":4310,"à¤®à¤ķà¤¥":4311,"à¤¦à¤¨à¤¹":4312,"à¤¸à¤®à¤ľ":4313,"Ġ88":4314,"Ġà¤¬à¤³à¤ľà¤¬à¤°":4315,"à¤¯à¤°à¤®à¤§":4316,"à¤¯à¤ľà¤®":4317,"Ġà¤ħà¤²à¤ķ":4318,"Ġà¤Ŀà¤ķ":4319,"Ġà¤īà¤¸à¤³":4320,"Ġà¤ħà¤ľà¤¹à¤°":4321,"Ġà¤ħà¤µà¤Ĺà¤¤":4322,"Ġse":4323,"Ġà¤Ĺà¤¡à¥Ł":4324,"Ġbcci":4325,"31":4326,"og":4327,"à¤¸à¤¨à¤ļ":4328,"Ġà¤¸à¤µà¤°":4329,"à¤³à¤ķà¤¤":4330,"à¤°à¤¤à¤¬":4331,"Ġà¤¸à¤®à¤Ŀ":4332,"Ġà¤ĵà¤°à¤¡":4333,"Ġà¤ķà¤¸à¤°à¤¤":4334,"ort":4335,"age":4336,"coronavirus":4337,"Ġà¤²à¤¯":4338,"Ġà¤īà¤ķà¤²":4339,"Ġà¤¨à¤Ĺà¤°à¤®à¤§":4340,"Ġà¥§à¥§à¥¦":4341,"à¤¯à¤«à¤³":4342,"à¤®à¤Ŀ":4343,"Ġà¤ħà¤ĺ":4344,"Ġà¤¸à¤°à¤¬à¤¤":4345,"à¤°à¤ĸà¤°":4346,"Ġ82":4347,"Ġà¥¯à¥¨":4348,"ice":4349,"pro":4350,"à¤¨à¤¸à¤²":4351,"Ġà¤µà¤¢":4352,"à¤¡à¤°à¤¸à¤¨":4353,"Ġà¤²à¤ľ":4354,"à¤°à¤ķà¤£":4355,"Ġà¤īà¤²à¤¥":4356,"201819":4357,"90":4358,"Ġà¤²à¤ł":4359,"à¤°à¤¸à¤ļ":4360,"Ġà¤ĵà¤¤":4361,"à¤¨à¤²à¤ļ":4362,"Ġà¤ªà¤¸à¤°à¤£":4363,"ani":4364,"Ġ196":4365,"Ġà¤Ĩà¤ļà¤°à¤£":4366,"à¤ķà¤¢à¤Īà¤¤":4367,"pf":4368,"ure":4369,"à¤®à¤¹à¤°":4370,"à¤¦à¤¯à¤°":4371,"à¤¬à¤²à¤ļ":4372,"Ġà¤¬à¤Ĺ":4373,"à¤µà¤°à¤¸":4374,"Ġà¤īà¤°à¤£":4375,"à¤ħà¤ªà¤ķ":4376,"Ġà¤ıà¤ķà¤ª":4377,"Ġà¤ħà¤¨à¤®":4378,"Ġà¤¡à¤Ŀà¤¨":4379,"à¤Īà¤²à¤®à¤§":4380,"à¤µà¤¨à¤ª":4381,"à¤µà¤°à¤£à¤ªà¤¤":4382,"ank":4383,"Ġà¤ħà¤Ŀà¤¹à¤°":4384,"à¤¸à¤Łà¤¤":4385,"à¤¡à¤°à¤¸":4386,"Ġà¤ĸà¤¤à¤ª":4387,"à¤¬à¤§à¤¬":4388,"Ġup":4389,"à¤Ĺà¤°à¤ª":4390,"à¤¹à¤¤à¤Ĺ":4391,"Ġà¤ľà¤¨à¤°":4392,"à¤ıà¤¸à¤ķ":4393,"à¤ıà¤¸à¤ıà¤®à¤Ł":4394,"Ġà¤Ķà¤·":4395,"Ġshar":4396,"500":4397,"ht":4398,"ug":4399,"Ġà¤ĸà¤Ĺ":4400,"Ġà¤ĩà¤¯à¤°":4401,"Ġà¤ķà¤²à¤¬":4402,"à¤¬à¤²à¤ª":4403,"à¤ıà¤¸à¤ıà¤²à¤µ":4404,"ect":4405,"à¤Łà¤ĸ":4406,"Ġà¤ıà¤ıà¤¨":4407,"Ġà¤¨à¤µà¤µà¤°":4408,"à¤ľà¤²à¤¦":4409,"Ġà¥¨à¥¦à¥¨à¥§":4410,"Ġà¤ªà¤¸à¤°à¤µà¤¤":4411,"ee":4412,"à¤ļà¤ªà¤¦":4413,"à¤¸à¤ªà¤£":4414,"à¤¡à¤ªà¤£":4415,"Ġà¤ľà¤³à¤ľ":4416,"à¤ķà¤°à¤¸":4417,"à¤·à¤¯à¤°":4418,"à¤¤à¤¨à¤§":4419,"198":4420,"Ġà¤¬à¤¡à¤¤à¤°":4421,"Ġà¥©à¥«à¥¦":4422,"à¤¯à¤ľà¤²":4423,"à¤²à¤¬à¤ļ":4424,"à¤µà¤ľà¤¯":4425,"à¤ªà¤ķà¤¤":4426,"Ġà¤®à¤¤à¤ª":4427,"à¥ħà¤ģ":4428,"à¤²à¤ķà¤¹":4429,"à¤ĵà¤¢":4430,"Ġ92":4431,"à¥§à¥¯à¥®":4432,"Ġth":4433,"Ġindia":4434,"view":4435,"Ġà¤ĸà¤£à¤ĸà¤£":4436,"300":4437,"Ġip":4438,"à¤²à¤¸à¤¹":4439,"à¤ªà¤ķà¤²":4440,"Ġà¤®à¤Ĺà¤°":4441,"à¤³à¤ªà¤£":4442,"à¤Īà¤¹":4443,"à¤°à¤§à¤¨":4444,"Ġà¤¸à¤¹à¤¸à¤ļ":4445,"Ġà¤Ĩà¤¯à¤Ĩà¤°à¤¸":4446,"à¤ıà¤®à¤¡":4447,"à¤¶à¤ªà¤¥à¤µ":4448,"Ġà¤²à¤ªà¤²":4449,"Ġà¤ĺà¤Łà¤¤":4450,"Ġà¤łà¤Ĺ":4451,"à¤¯à¤¤à¤¶":4452,"à¤Ĩà¤°à¤®à¤§":4453,"à¤Ĩà¤ªà¤£à¤¹":4454,"Ġà¤ıà¤¨à¤Ĩà¤¯à¤ıà¤¨":4455,"à¤ıà¤«à¤¨":4456,"Ġà¤Ŀà¤³à¤ķà¤¤":4457,"Ġà¤Ĺà¤¡à¤Ĺà¤¡":4458,"Ġ170":4459,"Ġà¤ķà¤£à¤ĸà¤°":4460,"à¤²à¤ĺà¤°à¤®à¤§":4461,"à¤®à¤ķà¤¡":4462,"à¤Ĺà¤Ĺ":4463,"Ġà¤ķà¤°à¤¡":4464,"à¥¯à¥¦":4465,"Ġà¤ħà¤«à¤²":4466,"Ġcr":4467,"Ġgb":4468,"Ġà¤¸à¤«à¤¦à¤°":4469,"55":4470,"get":4471,"Ġ@":4472,"à¤²à¤°à¤ķ":4473,"à¤ķà¤Ĺ":4474,"à¤ªà¤®à¤¤":4475,"Ġà¤°à¤Īà¤¸":4476,"à¤ĸà¤²à¤ª":4477,"Ġ151":4478,"Ġ124":4479,"Ġà¥²à¤ķ":4480,"Ġgov":4481,"Ġelection":4482,"Ġà¤łà¤£à¤łà¤£":4483,"Ġà¤¦à¤¡à¤²":4484,"à¤°à¤£à¤®":4485,"pune":4486,"war":4487,"à²":4488,"à¥ĩ(":4489,"à¤°à¤®à¤²":4490,"à¤«à¤¸à¤«":4491,"Ġà¤Ĩà¤¦à¤³":4492,"Ġà¥¨à¥¦à¥¨à¥¨":4493,"à¥©à¥¬":4494,"Ġà¤ıà¤®à¤¡":4495,"Ġà¥§à¥§à¥©":4496,"Ġà¤¸à¤«à¤°à¤ļ":4497,"Ġcovid":4498,"oc":4499,"pr":4500,"à¤ķà¤Łà¤ļ":4501,"à¤ªà¤µà¤¤":4502,"à¤¦à¤ķà¤°":4503,"à¤Łà¤¨à¤°":4504,"à¤Ĺà¤¤à¤µà¤°":4505,"à¤Ĩà¤°à¤ı":4506,"Ġ2011":4507,"Ġà¤ıà¤«à¤Ĩà¤¯":4508,"Ġcaa":4509,"à¤¯à¤£à¤¨":4510,"à¤²à¤¬à¤®à¤§":4511,"ma":4512,"mi":4513,"à¥ĩà¤¾":4514,"Ġà¤µà¤£à¤µ":4515,"Ġà¤¯à¤®":4516,"à¤µà¤°à¤ķ":4517,"Ġà¤Ĺà¤ľà¤°":4518,"à¤ľà¤°à¤¨":4519,"à¤¨à¤¸à¤¶":4520,"à¥©à¥¨":4521,"à¤¯à¤¸à¤°à¤ķ":4522,"à¤Ķà¤¦":4523,"Ġà¤¬à¤°à¤¸à¤²":4524,"à¤¨à¤Īà¤²":4525,"Ġà¤ĩà¤¯":4526,"à¤¸à¤°à¤³":4527,"Ġà¤¸à¤¹à¤ª":4528,"Ġà¤ĺà¤¡à¤µà¤¤":4529,"ex":4530,"à¤£à¤Ń":4531,"à¤®à¤ªà¤°":4532,"Ġà¤Ĺà¤®à¤¤":4533,"à¤°à¤¤à¤Ńà¤°":4534,"à¤Ĩà¤ķà¤¡":4535,"à¤·à¤£à¤Ńà¤°":4536,"à¤Łà¤°à¤ªà¤°":4537,"Ġà¤ľà¤¨à¤ķ":4538,"Ġà¤ľà¤¨à¤®à¤¤":4539,"à¤ıà¤®à¤ľ":4540,"Ġà¥§à¥¦à¥ª":4541,"Ġ94":4542,"Ġthe":4543,"Ġà¤ľà¤³à¤ľà¤³":4544,"ian":4545,"à¤¹à¤Ł":4546,"Ġà¤ĩà¤¡":4547,"Ġà¤§à¤¬à¤§à¤¬":4548,"Ġà¤µà¤¸à¤Ī":4549,"à¤µà¤§à¤°":4550,"Ġ107":4551,"Ġ98":4552,"Ġ115":4553,"Ġ302":4554,"Ġà¤īà¤łà¤µà¤¤":4555,"ack":4556,"à¤¯à¤ĸà¤³":4557,"à¤Ĥà¤Ĥ":4558,"Ġà¤Ĩà¤Ĭ":4559,"à¤Ĺà¤°à¤£":4560,"à¤ľà¤ķà¤¡":4561,"à¤¡à¤¨à¤²":4562,"à¤¬à¤¸à¤ļ":4563,"Ġà¤Ĺà¤¡à¤Ĺ":4564,"Ġà¤īà¤¦à¤°à¤¨":4565,"à¤°à¤ķà¤®à¤§":4566,"Ġà¤ĩà¤Ĺ":4567,"Ġà¤Ĩà¤®à¤¸à¤Ń":4568,"Ġà¤ķà¤®à¤¬":4569,"Ġà¤¤à¤ªà¤ķ":4570,"Ġà¤ĵà¤¤à¤£":4571,"Ġà¤ıà¤®à¤Ĩà¤¯à¤ıà¤®":4572,"à¤Ĳà¤¨":4573,"Ġà¤¨à¤µà¤²à¤ĸ":4574,"data":4575,"Ñģ":4576,"à¤¨à¤µà¤¡":4577,"à¤¹à¤ļà¤µà¤£":4578,"à¤¸à¤į":4579,"Ġà¤¬à¤¸à¤¨":4580,"à¤ķà¤°à¤®à¤§":4581,"Ġ117":4582,"Ġà¥§à¥®à¥¦":4583,"bs":4584,"à¤¦à¤°à¤ª":4585,"Ġà¤¨à¤Ł":4586,"Ġà¤īà¤Ŀà¤¬":4587,"à¤Ĩà¤¦à¤°":4588,"à¤Ĩà¤µà¤¡à¤¤":4589,"à¤¢à¤³":4590,"à¤Ĩà¤¯à¤Ĩà¤¯":4591,"Ġ2012":4592,"Ġ122":4593,"Ġcon":4594,"Ġà¤ıà¤¨à¤Ĩà¤¯à¤ıà¤ķà¤¡":4595,"à¤ħà¤ªà¤¹à¤°à¤£":4596,"34":4597,"Ġà¤¨à¤Łà¤²":4598,"Ġà¤°à¤®à¤²":4599,"Ġà¤ªà¤°à¤ĸà¤¡":4600,"Ġà¤¸à¤¹à¤ľà¤¤":4601,"Ġà¤Ĩà¤¯à¤ľ":4602,"à¤ıà¤®à¤Ĩà¤¯":4603,"à¥¬à¥¯":4604,"Ġmodi":4605,"à¤°à¤Ĺà¤³":4606,"à¤¸à¤ªà¤°":4607,"Ġà¤¹à¤°à¤¸":4608,"Ġà¤ľà¤¡à¤£":4609,"à¤Ĩà¤Īà¤¨":4610,"Ġà¤¸à¤®à¤²":4611,"à¤ľà¤¨à¤¸":4612,"à¤ĩà¤®à¤°":4613,"Ġ256":4614,"à¤ĩà¤¤à¤°à¤¹":4615,"37":4616,"à¤°à¤³à¤²":4617,"Ġà¤ĺà¤°à¤ķ":4618,"à¤¯à¤ķà¤ļ":4619,"Ġ(@":4620,"à¤ıà¤®à¤ı":4621,"Ġà¤ĩà¤¤à¤°à¤¤":4622,"Ġà¤ħà¤Łà¤³":4623,"à¤Łà¥Łà¤µà¤§":4624,"Ġà¤¬à¤¬à¤¨à¤°":4625,"à¤¨à¤¦à¤°à¤®":4626,"à¤®à¤°à¤¨":4627,"Ġà¤Ĩà¤¯à¤ķ":4628,"Ġà¤Ĩà¤ķà¤²à¤¨":4629,"à¤§à¤¸":4630,"à¤°à¤¸à¤®":4631,"Ġà¤ªà¤¤à¤§":4632,"à¤īà¤ľà¤µ":4633,"à¤¹à¤³à¤¦":4634,"Ġà¥§à¥¨à¥®":4635,"Ġ119":4636,"ang":4637,"Ġfir":4638,"Ġà¤¦à¤¡à¤ªà¤¶":4639,"370":4640,"Ġis":4641,"à¤¯à¤®à¤§":4642,"à¤¹à¤¸à¤ļ":4643,"à¤ļà¤ªà¤°":4644,"Ġà¤Ĩà¤·":4645,"Ġà¤µà¤³à¤µà¤²":4646,"à¤µà¤°à¤³":4647,"Ġà¤Ńà¤°à¤µà¤£":4648,"Ġà¤ıà¤£":4649,"Ġà¤ıà¤ļà¤¸":4650,"à¤µà¤¸à¤¹":4651,"Ġà¤Ĩà¤¯à¤¶":4652,"Ġà¤®à¤¦à¤¤à¤¹":4653,"à¤Ĩà¤°à¤Ĩà¤°":4654,"Ġ450":4655,"Ġpm":4656,"ore":4657,"Ġto":4658,"Ġz":4659,"Ġà¤Ļ":4660,"à¤²à¤¨à¤ļ":4661,"à¤¦à¤¶à¤¹":4662,"à¤Łà¤¬à¤¦":4663,"à¤Ĺà¤«":4664,"Ġà¤ļà¤·":4665,"Ġà¤§à¤µà¤²":4666,"Ġà¤¸à¤°à¤ķà¤²":4667,"à¤¹à¤²à¤®à¤§":4668,"Ġà¤ıà¤®à¤Ł":4669,"à¤ĸà¤µà¤Ł":4670,"à¤¥à¤µà¤°":4671,"à¤Ĩà¤ī":4672,"à¤¦à¤°à¤¹":4673,"à¤¸à¤°à¤µà¤°":4674,"à¤µà¤¤à¤¸":4675,"à¤Łà¤²à¤²":4676,"à¤®à¤¨à¤ļ":4677,"Ġà¤Ĩà¤¯à¤ıà¤¸à¤Ĩà¤¯":4678,"à¤°à¤ľà¤µà¤³":4679,"à¤Ĩà¤¯à¤Ĩà¤°à¤¸":4680,"à¤īà¤ľ":4681,"Ġà¤¹à¤°à¤Ńà¤°":4682,"udget":4683,"Ġacid":4684,"ff":4685,"Ġà¤Ĩà¤ĸà¤¤":4686,"Ġà¤®à¤¡à¤Ĺ":4687,"à¤Ĺà¤°à¤ķ":4688,"à¤³à¤Ń":4689,"à¤ĺà¤µà¤¨":4690,"Ġà¤ıà¤ķà¤ıà¤ķ":4691,"à¤ªà¤°à¤«":4692,"à¤ĵà¤°":4693,"Ġà¤ħà¤¦à¤ĸà¤²à¤ª":4694,"Ġà¤ľà¤¨à¤¸à¤®":4695,"Ġ145":4696,"Ġnrc":4697,"olt":4698,"ĠâĢĭâĢĭ":4699,"32":4700,"Ġà¤¨à¤Łà¤°":4701,"Ġà¤ľà¤ªà¤²":4702,"à¤Ĩà¤°à¤ľ":4703,"à¤Ĩà¤°à¤¨":4704,"Ġà¤ıà¤ķà¤ķ":4705,"à¤ľà¤¯à¤µ":4706,"à¤īà¤¶":4707,"à¥©à¥®":4708,"à¤ıà¤²à¤¡":4709,"Ġà¥¯à¥§":4710,"Ġ114":4711,"Ġà¤ıà¤®à¤ıà¤¸à¤ıà¤®à¤Ī":4712,"po":4713,"à¤ķà¤¤à¤ļ":4714,"Ġà¤®à¤³à¤®à¤³":4715,"à¤ħà¤°à¤¨":4716,"à¤°à¤®à¤®à¤§":4717,"Ġà¤ĳà¤ĩà¤²":4718,"à¤īà¤ķ":4719,"à¥«à¥«":4720,"à¤µà¤°à¤£à¤ª":4721,"Ġà¤Īà¤¡à¤¨":4722,"Ġà¤įà¤¥à¤²":4723,"à¤°à¤¬à¤¦à¤²":4724,"Ġà¥¨à¥¦à¥¦à¥Ń":4725,"Ġ201617":4726,"Ġà¥§à¥§à¥«":4727,"Ġà¥§à¥§à¥¯":4728,"ingh":4729,"kar":4730,"à¤®à¤ľà¤²":4731,"Ġà¤¨à¤µà¤¸":4732,"Ġà¤¤à¤¡à¤µ":4733,"à¤ĺà¤Ĺà¤°":4734,"Ġà¤ıà¤ķà¤²":4735,"à¤°à¤µà¤¯":4736,"Ġà¤¸à¤°à¤«à¤°":4737,"à¤ľà¤¨à¤µà¤°":4738,"à¤Ĩà¤¯à¤ıà¤«":4739,"à¤¯à¤¨à¤¨":4740,"à¤Ĺà¤¡à¤®à¤§":4741,"Ġ140":4742,"Ġcbi":4743,"pn":4744,"Ġà¤ķà¤®à¤µ":4745,"Ġà¤ĸà¤°à¤¬":4746,"Ġnew":4747,"Ġwww":4748,"ill":4749,"Ġà¤¦à¤®à¤Ľ":4750,"à¤¹à¤°à¤¸":4751,"à¤ķà¤ļà¤°":4752,"à¤ıà¤ľ":4753,"à¤ľà¤¨à¤°à¤²":4754,"0000":4755,"à¤ľà¤²à¤µ":4756,"Ġà¤¨à¤®à¤µà¤²":4757,"Ġà¤¨à¤Ĺà¤°à¤ªà¤°":4758,"Ġinst":4759,"oss":4760,"act":4761,"à¤¨à¤°à¤ĸ":4762,"Ġà¤¨à¤®à¤µ":4763,"Ġà¤¤à¤³à¤²":4764,"à¤ĸà¤¨à¤¨":4765,"à¤Īà¤¨à¤®à¤§":4766,"à¤°à¤£à¤¯":4767,"Ġà¤¡à¤¹":4768,"à¤Łà¤²à¤µà¤°":4769,"à¤ľà¤¨à¤®à¤§":4770,"Ġby":4771,"à¥¨à¥¦à¥§à¥§":4772,"à¤µà¤Īà¤ķà¤°":4773,"Ġà¤Ĩà¤°à¤ıà¤¸à¤ıà¤¸à¤ļ":4774,"à¯":4775,"à¥ĩà¤ĥ":4776,"à¤ļà¤°à¤£":4777,"à¤µà¤Łà¤°à¤µà¤°":4778,"à¤®à¤¥":4779,"à¤®à¤¦à¤¨":4780,"à¤¦à¤µà¤°":4781,"à¤Īà¤ªà¤²":4782,"à¤Ĩà¤Īà¤²":4783,"à¤ħà¤¸à¤¤":4784,"à¤ľà¤ªà¤¤à¤°":4785,"à¤Ĺà¤¤à¤¦":4786,"à¤Łà¤°à¤«":4787,"à¤ªà¤¨à¤¦":4788,"à¤ĩà¤Łà¤ļ":4789,"Ġà¤ªà¤¦à¤¯":4790,"à¤ıà¤²à¤¬":4791,"Ġ5000":4792,"à¤²à¤¶à¤¨":4793,"Ġà¤¦à¤¬à¤²":4794,"à¤¬à¤ª":4795,"Ġà¤ľà¤Ĺà¤²":4796,"à¤ħà¤ķà¤°":4797,"Ġà¤ªà¤°à¤ª":4798,"à¤·à¤£à¤ļ":4799,"à¤¬à¤°à¤¡":4800,"Ġà¤®à¤¨à¤°":4801,"Ġà¤ľà¤Ĺà¤¨à¤®":4802,"Ġ109":4803,"à¤ľà¤µà¤³à¤ľà¤µà¤³":4804,"à¤²à¤®à¤¡":4805,"Ġà¤«à¤³à¤¬":4806,"Ġà¥§à¥§à¥ª":4807,"à¤¼à¥ĩ":4808,"Ġà¤ıà¤¨à¤ıà¤¸à¤ľ":4809,"64":4810,"67":4811,"à¤°à¤Ĺà¤£":4812,"à¤¨à¤®à¤ļ":4813,"à¤Łà¤ĩ":4814,"à¤¡à¤§":4815,"à¤·à¤ľ":4816,"Ġà¤¬à¤Ĺà¤¦":4817,"Ġà¤¶à¤²":4818,"à¤Ĩà¤Ĭ":4819,"Ġà¥ŀ":4820,"à¤¯à¤®à¤¶":4821,"à¤ľà¤¨à¤²":4822,"Ġà¤¸à¤¤à¤¤à¤ļ":4823,"à¤ļà¤²à¤®à¤§":4824,"Ġà¤Ĺà¤°à¤ľà¤¹":4825,"à¤Ńà¤µà¤µ":4826,"Ġà¤¸à¤Ĺà¤³à¤¯":4827,"à¤ļà¤µà¤Ł":4828,"Ġà¥§à¥¬à¥¦":4829,"ens":4830,"Ġà¤ıà¤¨à¤Ĩà¤¯à¤ıà¤ļ":4831,"Ġun":4832,"à¤¤à¤«":4833,"à¤ķà¤µà¤¸":4834,"Ġà¤Ĩà¤¯à¤¤":4835,"Ġà¤Ĩà¤¡à¤ķ":4836,"à¤ªà¤Łà¤¨":4837,"à¤¦à¤¶à¤¹à¤°":4838,"Ġà¤¤à¤±":4839,"Ġà¤ľà¤¯à¤¤":4840,"Ġà¤Ŀà¤Ĺ":4841,"à¤ľà¤¯à¤ļ":4842,"Ġà¤īà¤ªà¤¸à¤°à¤ª":4843,"à¤²à¤°à¤µà¤°":4844,"ali":4845,"à¥¨à¥¦à¥§à¥¨":4846,"ast":4847,"à¤łà¤®à¤²":4848,"Ġà¤Ĺà¤¡à¤²":4849,"Ġà¤ªà¤°à¤¶":4850,"Ġà¤ĵà¤¢à¤µ":4851,"à¤ķà¤°à¤£à¤¹":4852,"à¥©à¥Ń":4853,"Ġà¤įà¤®":4854,"Ġco":4855,"Ġà¤īà¤§à¤³à¤£":4856,"ult":4857,"ational":4858,"à¥ĭà¥ĩ":4859,"Ġà¤ħà¤®à¤¨":4860,"Ġà¤ļà¤¢à¤£":4861,"Ġà¤²à¤ªà¤µà¤²":4862,"à¤Īà¤ĺ":4863,"à¤ªà¤°à¤Ńà¤£":4864,"à¥ħà¤¾":4865,"Ġà¤¡à¤Ĺà¤®":4866,"Ġà¤īà¤®à¤Ł":4867,"Ġà¤ªà¤ķà¤¡à¤¤":4868,"Ġà¤¤à¤¡à¤«":4869,"ity":4870,"à¤ħà¤«à¤µ":4871,"à¤ļà¤ĸ":4872,"Ġà¤Ĩà¤µà¤°à¤£":4873,"Ġà¤Ĩà¤ĩà¤¸":4874,"Ġà¤Ĩà¤³à¤¸":4875,"à¤Ĺà¤¯":4876,"Ġà¤¹à¤°à¤£":4877,"Ġà¤ļà¤ªà¤°":4878,"Ġà¤²à¤¬":4879,"Ġà¤īà¤łà¤¤":4880,"Ġà¤«à¤¡":4881,"Ġà¤ĩà¤¨à¤ķ":4882,"à¤ıà¤ıà¤¨":4883,"Ġà¤Ĩà¤¤à¤®à¤§":4884,"à¤°à¤¹à¤ľà¤°":4885,"à¥§à¥¦à¥¦":4886,"à¤¤à¤®à¤§à¤²":4887,"à¤«à¤°à¤¨à¤Ĺà¤°":4888,"Ġà¤ľà¤¯à¤¦à¤¤":4889,"Ġà¤¸à¤«à¤¦à¤°à¤ľ":4890,"ain":4891,"à¤¹à¤¹":4892,"à¤ļà¤ķà¤Ł":4893,"à¤µà¤¤à¤°":4894,"à¤Łà¤°à¤ķà¤¡":4895,"Ġà¤ľà¤²à¤ª":4896,"à¤ħà¤ªà¤°":4897,"à¤ĩà¤ķà¤¡":4898,"à¤¨à¤µà¤¨à¤µ":4899,"Ġà¤ıà¤¨à¤ľ":4900,"Ġà¤ıà¤¨à¤ıà¤ļ":4901,"Ġ2009":4902,"Ġà¤ħà¤Łà¤²à¤ľ":4903,"Ġà¤Ĺà¤¡à¤Ĺà¤¡à¤²":4904,"à¤¤à¤³à¤£":4905,"à¤ķà¤Ĩà¤Ĭà¤Ł":4906,"à¤ªà¤ķà¤¡":4907,"à¤¬à¤®":4908,"à¤°à¤¤à¤Ń":4909,"à¤Ĩà¤¹à¤¸":4910,"à¤ķà¤°à¤¬à¤°":4911,"Ġà¤¸à¤°à¤¶":4912,"à¤¬à¤°à¤¹":4913,"à¤Ĩà¤¯à¤°":4914,"à¤īà¤§":4915,"à¤īà¤°à¤²":4916,"à¥«à¥¬":4917,"à¤ıà¤«à¤Ĩà¤¯":4918,"Ġà¤ıà¤®à¤ıà¤®à¤Ĩà¤°à¤¡":4919,"Ġà¤Ĭà¤¨":4920,"Ġ10000":4921,"Ġ188":4922,"à¤°à¤«à¤³":4923,"Ġà¥§à¥§à¥¨":4924,"49":4925,"hone":4926,"à¤¨à¤®à¤¸":4927,"à¤¹à¤®à¤§":4928,"à¤¸à¤ħà¤ª":4929,"à¤Łà¤®à¤¨":4930,"Ġà¤ħà¤µà¤¨":4931,"Ġà¤¨à¤Ĺà¤£":4932,"Ġà¤²à¤Łà¤ķà¤²":4933,"à¤°à¤ķà¤±à¤£":4934,"à¤¤à¤°à¤ľ":4935,"à¤Ŀà¤¸":4936,"à¤ıà¤¸à¤¯":4937,"à¤ıà¤®à¤¬":4938,"Ġ116":4939,"Ġà¤ıà¤²à¤Ĩà¤¯à¤¸":4940,"Ġà¥¨à¥¦à¥¦à¥¨":4941,"à¤Łà¤Ńà¤°":4942,"à¤¶à¤Ł":4943,"Ġà¤ľà¤³à¤¤":4944,"à¤ĸà¤Łà¤²":4945,"Ġà¤Ńà¤°à¤®à¤¸":4946,"à¤Ĩà¤ľà¤ª":4947,"à¤¢à¤¯":4948,"à¤ıà¤®à¤§":4949,"à¤Ŀà¤ļ":4950,"Ġà¤¥à¤²":4951,"à¤·à¤¯à¤¸":4952,"Ġà¤®à¤¦à¤¤à¤¨":4953,"à¥ªà¥¬":4954,"Ġà¤ıà¤®à¤ª":4955,"Ġà¥§à¥¦à¥¬":4956,"Ġà¤įà¤²":4957,"Ġà¤°à¤®à¤ľ":4958,"Ð¾Ð":4959,"à¤¹à¤®à¤¨":4960,"à¤£à¤°":4961,"à¤®à¤¦à¤°":4962,"Ġà¤ħà¤¹à¤®à¤¦à¤¨":4963,"Ġà¤°à¤Ŀ":4964,"Ġà¤ĸà¤µ":4965,"à¤°à¤®à¤ª":4966,"Ġà¤§à¤¸à¤ķ":4967,"à¤¸à¤¹à¤Ń":4968,"à¤īà¤ªà¤¨":4969,"à¤®à¤²à¤²":4970,"à¤Łà¤®à¤§à¤²":4971,"à¤ıà¤²à¤¸":4972,"Ġà¥§à¥¦à¥¯":4973,"Ġà¥¯à¥¦à¥¦":4974,"Ġà¤ıà¤«à¤¡":4975,"Ġà¤«à¤¸à¤µà¤²":4976,"esh":4977,"à¥¨à¥¦à¥§à¥©":4978,"Ġà¤īà¤ľà¤³":4979,"Ġà¤ľà¤¡à¤£à¤ĺà¤¡à¤£":4980,"Ġà¤¸à¤ªà¤¨":4981,"à¤¬à¤ĺà¤¤":4982,"à¤¥à¤®à¤§":4983,"à¤Ĺà¤²à¤µ":4984,"Ġà¤ľà¤¨à¤¶à¤ķ":4985,"Ġà¤Ķà¤¤":4986,"à¤ıà¤²à¤ª":4987,"Ġà¥§à¥¦à¥Ń":4988,"Ġ2008":4989,"Ġop":4990,"33":4991,"42":4992,"à¤²à¤®à¤°":4993,"à¤¨à¤Īà¤¨":4994,"à¤£à¤¶":4995,"Ġà¤Ĩà¤ļà¤°":4996,"Ġà¤ķà¤¯":4997,"Ġà¤¹à¤¶":4998,"Ġà¤¦à¤®à¤£":4999,"Ġà¤²à¤ªà¤µà¤£":5000,"Ġà¤Ĩà¤²à¤¬":5001,"Ġà¤«à¤ľ":5002,"à¤Ĭà¤¬":5003,"à¤Ĭà¤¦à¤ļ":5004,"Ġà¤ķà¤°à¤¤à¤ļ":5005,"à¤Łà¤°à¤¬":5006,"à¤¤à¤¸à¤¹":5007,"à¤·à¤ķà¤¹":5008,"à¤Ĩà¤¯à¤¶":5009,"Ġboss":5010,"Ġtest":5011,"Ġà¤Ĺà¤µà¤¸à¤²":5012,"sk":5013,"à¤µà¤°à¤®":5014,"Ġà¤īà¤Ĺà¤®":5015,"à¤°à¤¤à¤¸":5016,"à¤¯à¤®à¤¹":5017,"à¤Łà¤¨à¤¹":5018,"à¤Łà¤¨à¤ª":5019,"à¤Ŀà¤¨à¤ļ":5020,"Ġà¤¡à¤Ĺ":5021,"à¤ªà¤¯à¤¶":5022,"Ġà¤¶à¤¹à¤°à¤µ":5023,"Ġà¤ħà¤¬à¤ķ":5024,"Ġ1500":5025,"77":5026,"à¤²à¤¸à¤°":5027,"à¤¸à¤¡":5028,"Ġà¤¤à¤ĸ":5029,"à¤¬à¤ªà¤°":5030,"Ġà¤Ĺà¤µà¤¤":5031,"Ġà¤ĸà¤¯":5032,"à¤°à¤ªà¤¡":5033,"à¤¹à¤¤à¤µ":5034,"à¤µà¤³à¤ª":5035,"Ġà¤¤à¤ªà¤¸":5036,"Ġà¤ĵà¤¹":5037,"à¥©à¥ª":5038,"à¥©à¥¯":5039,"à¤µà¤¢à¥Ł":5040,"Ġà¤ªà¤°à¤µà¤¡à¤¤":5041,"all":5042,"Ġpl":5043,"Ġà¤ªà¤°à¤®à¤¬":5044,"Ġà¤ªà¤ļà¤¨à¤ķ":5045,"à¥ľ":5046,"à¤ļà¤¬":5047,"à¤£à¤ªà¤¶":5048,"Ġà¤¹à¤°à¤µà¤¤":5049,"à¤Ĩà¤Ń":5050,"Ġà¤§à¤¸":5051,"Ġà¤Ĩà¤¯à¤²":5052,"à¤¯à¤²à¤®à¤§":5053,"à¤¡à¤£à¤ķà¤°":5054,"Ġà¤®à¤¨à¤Ĺà¤Ł":5055,"Ġ2025":5056,"Ġà¤īà¤ļà¤²à¤¬":5057,"Ġsingh":5058,"Ġà¤¹à¤³à¤¹":5059,"ox":5060,"à¤ķà¤ħ":5061,"à¤®à¤¬à¤°":5062,"à¤Łà¤ľ":5063,"à¤ªà¤°à¤ľ":5064,"Ġà¤§à¤£":5065,"Ġà¤īà¤ªà¤¹":5066,"à¤·à¤£à¤¸":5067,"à¤¤à¤ķà¤£":5068,"Ġ230":5069,"à¤¨à¤µà¤Ł":5070,"à¤ķà¤¨à¤Ĺà¤°":5071,"Ġà¤ĸà¤³à¤ĸà¤³":5072,"à¤ĩà¤²à¤µà¤°":5073,"Ġsp":5074,"à¤¦à¤Ĺà¤¡à¤«":5075,"Ġic":5076,"à¤²à¤¤à¤ļ":5077,"Ġà¤µà¤·":5078,"Ġà¤¬à¤¶":5079,"Ġà¤īà¤¦à¤¯à¤ª":5080,"à¤ıà¤¨à¤Ł":5081,"à¤ıà¤«à¤ĵ":5082,"Ġà¤įà¤¡à¤®":5083,"Ġà¥§à¥ªà¥ª":5084,"à¤¬à¤¦à¤²à¤¤":5085,"à¤īà¤ªà¤ķà¤°":5086,"Ġà¤ĩà¤ķà¤¬":5087,"66":5088,"ey":5089,"od":5090,"out":5091,"Ø§":5092,"à´":5093,"Ġà¤®à¤Łà¤£":5094,"Ġà¤¨à¤°à¤µ":5095,"Ġà¤īà¤ĸ":5096,"à¤ħà¤°à¤®":5097,"Ġà¤¸à¤®à¤ķ":5098,"à¤µà¤°à¤£à¤µ":5099,"Ġà¤ħà¤¡à¤¸à¤°":5100,"Ġà¤Ĩà¤ªà¤Ĩà¤ªà¤²":5101,"Ġind":5102,"budget":5103,"à¤ªà¤¤à¤°":5104,"à¤ľà¤Ń":5105,"à¤Ńà¤¹":5106,"Ġà¤īà¤¡à¤£":5107,"Ġà¤¡à¥Ł":5108,"à¥¬à¥ª":5109,"Ġ112":5110,"Ġmi":5111,"Ġres":5112,"Ġà¤¡à¤¬à¤ĺ":5113,"Ġwi":5114,"95":5115,"bcci":5116,"ge":5117,"rum":5118,"à¤ļà¤¨à¤ļ":5119,"Ġà¤¨à¤¹":5120,"Ġà¤§à¤¨à¤Ĺà¤°":5121,"Ġà¤īà¤ªà¤ĸ":5122,"à¤īà¤Ń":5123,"Ġà¤Ĺà¤£à¤²":5124,"à¥ĩà¥į":5125,"à¤¯à¤µà¤¤":5126,"Ġà¤ķà¤¥à¤¨":5127,"à¤ªà¤¸à¤®à¤§":5128,"à¤¦à¤ľ":5129,"à¤¶à¤ªà¤¦":5130,"Ġà¤¤à¤¬à¤²":5131,"Ġà¤¬à¤µ":5132,"Ġà¤ıà¤®à¤ķ":5133,"à¤ĺà¤³":5134,"à¤¤à¤ķÂºà¤¯":5135,"à¤¯à¤²à¤¢":5136,"Ġà¤ķà¤¸à¤¬":5137,"à¤¨à¤Ĺà¤°à¤²":5138,"à¥¬à¥Ń":5139,"Ġ103":5140,"Ġà¤Ĭà¤¤":5141,"Ġà¤ħà¤®à¤²à¤¬à¤ľ":5142,"fc":5143,"à¥¥":5144,"à¤¹à¤µà¤¤":5145,"Ġà¤ķà¤µà¤¡":5146,"à¥ģà¥ģ":5147,"Ġà¤ħà¤°à¤®":5148,"Ġà¤¬à¤²à¤°":5149,"Ġà¤²à¤Ĺà¤¤à¤ļ":5150,"à¤µà¤²à¤²":5151,"à¤ıà¤ķà¤¡":5152,"à¤ľà¤ªà¤¥":5153,"à¤¨à¤µà¤µ":5154,"à¤ķà¤£à¤ķà¤µà¤²":5155,"à¤ıà¤¨à¤ıà¤ļ":5156,"Ġ135":5157,"Ġà¤ĵà¤ªà¤¨à¤®à¤§":5158,"lyte":5159,"sapp":5160,"ust":5161,"à¤®à¤¸à¤¹":5162,"Ġà¤ķà¤«":5163,"à¤¦à¤¶à¤®":5164,"Ġà¤ªà¤Łà¤µà¤°":5165,"à¤§à¤ľà¤¨":5166,"Ġà¤¹à¤°à¤¤":5167,"Ġà¤¹à¤Łà¤²":5168,"Ġà¤¹à¤Łà¤£":5169,"Ġà¤¬à¤²à¤ķ":5170,"à¤«à¤ĸ":5171,"à¤¤à¤ªà¤¶":5172,"à¤¬à¤Īà¤¤à¤ļ":5173,"à¤®à¤¤à¤ļ":5174,"à¤¯à¤¨à¤®à¤§":5175,"Ġà¤µà¤¡à¤Ĺ":5176,"Ġà¤Ĺà¤Łà¤µ":5177,"Ġ137":5178,"à¤¯à¤Łà¤¨à¤®":5179,"à¤ķà¤¬à¤¡":5180,"Ġà¤¤à¤®à¤¨":5181,"à¤ĸà¤¡à¤ķ":5182,"Ġà¤Ńà¤°à¤µà¤¸":5183,"Ġà¤¸à¤¹à¤Ĩà¤¯":5184,"à¤Ĩà¤¯à¤ľ":5185,"Ġà¤ĵà¤¢à¤£":5186,"à¥¨à¥¦à¥¨à¥¦":5187,"Ġ93":5188,"Ġsh":5189,"Ġà¥¨à¥¦à¥¦à¥«":5190,"Ġà¥²à¤¨":5191,"à¤ħà¤Łà¤²à¤¬":5192,"à¤¯à¤±":5193,"à¤ľà¤ĺà¤°":5194,"Ġà¤µà¤£à¤µà¤£":5195,"Ġà¤¬à¤ķà¤°":5196,"à¤¥à¤°à¤²":5197,"Ġà¤ĸà¤®":5198,"Ġà¤«à¤¨":5199,"Ġà¤ľà¤¨à¤¨":5200,"Ġ900":5201,"Ġ05":5202,"big":5203,"hatsapp":5204,"à¤ªà¤Łà¤ķ":5205,"Ġà¤¹à¤°à¤µà¤£":5206,"à¤³à¤¬":5207,"à¤ĸà¤ª":5208,"Ġà¤Ńà¤ľà¤¨":5209,"à¤Īà¤ķà¤²":5210,"à¤Ŀà¤²à¤µ":5211,"à¤Łà¤ķà¤¸à¤°":5212,"à¤ªà¤¤à¤ļ":5213,"à¤īà¤ªà¤µ":5214,"à¤°à¤¹à¤ľ":5215,"à¤¸à¤®à¤¯":5216,"à¤ıà¤ķà¤¨":5217,"à¥ªà¥¨":5218,"à¤µà¤§à¤ªà¤£":5219,"à¤®à¤°à¤£à¤¶à¤ķ":5220,"Ġà¤¹à¤®à¤ĸ":5221,"agram":5222,"umb":5223,"Ġà¤°à¤¥à¤¯":5224,"Ġle":5225,"à¤²à¤¬à¤¦":5226,"à¤¸à¤µà¤°à¤¹":5227,"à¤ªà¤µà¤¨":5228,"à¤ªà¤¥à¤ķ":5229,"Ġà¤ªà¤ļ":5230,"Ġà¤ħà¤¹à¤²":5231,"Ġà¤µà¤ļà¤ķ":5232,"Ġà¤ľà¤¬à¤²à¤ª":5233,"à¤łà¤Ĺ":5234,"à¤ĺà¤³à¤¤":5235,"Ġà¤«à¤¤à¤µ":5236,"à¤°à¤®à¤ľ":5237,"à¤µà¤²à¤ķ":5238,"à¤Łà¤ķà¤ķ":5239,"à¤¯à¤²à¤¨":5240,"à¤ĩà¤²à¤®à¤§":5241,"Ġà¤ĳà¤²à¤°":5242,"Ġà¤Ĩà¤Ĺà¤ª":5243,"Ġà¤ªà¤°à¤¤à¤µ":5244,"Ġà¥§à¥¦à¥®":5245,"atter":5246,"Ġcom":5247,"à¤¯à¤Łà¤¨à¤¸":5248,"Ġà¥¨à¥¦à¥¦à¥ª":5249,"à¤µà¤Ĺà¤£à¤¨":5250,"à¤²à¤¢à¤ķà¤²":5251,"ta":5252,"à¤¤à¤ķà¤¡":5253,"à¤µà¤ªà¤²":5254,"Ġà¤ªà¤³à¤µà¤²":5255,"à¤¬à¤¸à¤²":5256,"Ġà¤ħà¤¸à¤Ń":5257,"à¤µà¤²à¤®à¤§":5258,"à¤¦à¤¨à¤Ĺà¤°":5259,"à¤¡à¤ķà¤³":5260,"à¥«à¥Ń":5261,"Ġà¤Ĺà¤Łà¤¬":5262,"Ġ113":5263,"Ġà¤Ĺà¤¤à¤µà¤°":5264,"à¤®à¤¶à¤¹":5265,"ence":5266,"Ġà¥²à¤¡":5267,"Ġà¤ļà¤¹à¤²à¤¨":5268,"Ġà¥§à¥§à¥Ń":5269,"à¤¨à¤Ńà¤µà¤¨":5270,"Ġà¤ıà¤ķà¤µà¤Łà¤²":5271,"ĠâĢ":5272,"à¤°à¤Ĭà¤°":5273,"Ġà¤Ĩà¤¤à¤²":5274,"Ġà¤ĸà¤µà¤³à¤²":5275,"à¤¹à¤£à¤ķà¤°":5276,"Ġà¤¡à¤°":5277,"Ġà¤ħà¤ªà¤ª":5278,"Ġà¤īà¤ªà¤¸à¤®":5279,"Ġà¤®à¤¨à¤¦":5280,"Ġà¤¨à¤ķà¤³à¤¤":5281,"Ġà¤Ľà¤Ł":5282,"Ġà¤ľà¤Ĺà¤ª":5283,"à¤°à¤Ńà¤ķ":5284,"à¤Ĺà¤¡à¤¬à¤¡":5285,"Ġà¤¬à¤²à¤¸":5286,"Ġfin":5287,"Ġfor":5288,"Ġà¥§à¥§à¥¬":5289,"Ġlive":5290,"Ġex":5291,"à°":5292,"à¤¤à¤ľà¤®":5293,"à¤Ĺà¤°à¤²":5294,"Ġà¤ħà¤¬à¤°":5295,"Ġà¤ħà¤¸à¤Ĺà¤°":5296,"Ġà¤ĺà¤Ī":5297,"Ġà¤īà¤¬":5298,"Ġà¤Ĩà¤²à¤®":5299,"à¤ķà¤°à¤¹":5300,"à¤¸à¤°à¤¶":5301,"à¤¤à¤ķà¤²":5302,"à¤ĩà¤¨à¤®à¤§":5303,"Ġà¤®à¤¨à¤§à¤°à¤£":5304,"à¥«à¥¨":5305,"Ġ550":5306,"Ġà¤¨à¤Ĺà¤°à¤ļ":5307,"arm":5308,"à¥ĩ''":5309,"à¤µà¤¹à¤¨à¤®":5310,"Ġà¤¸à¤Īà¤¦à¤ļ":5311,"Ġà¤µà¤°à¤ļà¤¢":5312,"pp":5313,"Ġicc":5314,"à¥įà¤Ĥ":5315,"à¤¤à¤¨à¤µ":5316,"à¤ķà¤±à¤¯":5317,"Ġà¤¯à¤¤":5318,"Ġà¤ľà¤¯à¤µ":5319,"Ġà¤ĺà¤Łà¤£":5320,"à¤°à¤¤à¤ĳà¤¸":5321,"à¤Īà¤Ŀ":5322,"à¤°à¤¸à¤°à¤ķ":5323,"à¤ľà¤ªà¤¬à¤°":5324,"à¤°à¤¦à¤¯à¤µ":5325,"à¤¸à¤¨à¤°":5326,"à¤¯à¤¦à¤³":5327,"Ġ102":5328,"Ġ999":5329,"Ġshared":5330,"68":5331,"oh":5332,"pos":5333,"à¤°à¤°à¤¥":5334,"à¤¹à¤ĸ":5335,"à¤£à¤¡":5336,"Ġà¤Ĩà¤ªà¤¨":5337,"Ġà¤µà¤°à¤¤":5338,"Ġà¤Ĺà¤¢":5339,"Ġà¤ļà¤Ł":5340,"Ġà¤Ŀà¤®":5341,"à¤Īà¤ķà¤°":5342,"Ġà¤¸à¤°à¤²":5343,"Ġà¤ħà¤ªà¤¹":5344,"à¤¨à¤²à¤µà¤°":5345,"Ġà¤¯à¤¶à¤°":5346,"à¤¨à¤°à¤µà¤°":5347,"Ġà¤ľà¤®à¤¶":5348,"à¤ıà¤®à¤ĵ":5349,"à¤¯à¤°à¤¬":5350,"Ġà¤¬à¤³à¤ķ":5351,"Ġsbi":5352,"Ġ50000":5353,"Ġgam":5354,"Ġà¤²à¤ĸà¤¨à¤Ĭà¤®à¤§":5355,"à¤ıà¤¸à¤ıà¤¨à¤ıà¤²":5356,"à¤ķà¤Łà¤²":5357,"Ġà¤ħà¤³":5358,"Ġà¤ħà¤¦à¤¨":5359,"Ġà¤¤à¤Łà¤¸":5360,"Ġà¤Ŀà¤¡à¤ª":5361,"Ġà¤«à¤ľà¤²":5362,"à¤¤à¤²à¤Ĺ":5363,"à¤¸à¤²à¤°":5364,"à¤®à¤¤à¤¹":5365,"à¤µà¤¨à¤Ĺà¤°":5366,"Ġà¤²à¤Ĺà¤¬à¤Ĺ":5367,"à¥¬à¥®":5368,"à¤ĳà¤Ł":5369,"Ġmah":5370,"Ġread":5371,"endra":5372,"li":5373,"à¤¤à¤ľà¤£":5374,"à¤µà¤¯à¤¨":5375,"Ġà¤ħà¤ľà¤°":5376,"Ġà¤īà¤ķà¤¡à¤²":5377,"à¤Ĺà¤³à¤¤":5378,"à¤īà¤¥":5379,"à¤²à¤¤à¤¤":5380,"à¤Łà¤£à¤ķà¤°":5381,"à¤°à¤¥à¤®à¤¦à¤°":5382,"Ġ126":5383,"2013":5384,"Ġà¥§à¥Ńà¥«":5385,"Ġà¤īà¤²à¤Ĺà¤¡à¤²":5386,"Ġinstagram":5387,"57":5388,"gr":5389,"à¤¨à¤°à¤¸":5390,"à¤¨à¤®à¤¨":5391,"Ġà¤ħà¤¡à¤²":5392,"à¤¬à¤¯":5393,"à¤Īà¤¡à¤ļ":5394,"à¤Łà¤¨à¤°à¤¶":5395,"à¤¦à¤¨à¤ķ":5396,"à¤Ĩà¤°à¤ıà¤¸à¤ıà¤¸":5397,"à¤ıà¤«à¤Ĩà¤¯à¤Ĩà¤°":5398,"Ġ750":5399,"Ġà¤¨à¤®à¤µà¤¤":5400,"Ġ182":5401,"Ġsms":5402,"Ġà¤¸à¤£à¤¸à¤£":5403,"à¤ľà¤¬à¤°à¤¦à¤¸":5404,"Ġà¤Ĺà¤µà¤Ī":5405,"Ġkhan":5406,"à¤ļà¤ªà¤¦à¤¸":5407,"ach":5408,"for":5409,"io":5410,"na":5411,"à¤¨à¤ī":5412,"Ġà¤Ĺà¤¬":5413,"Ġà¤Ĺà¤³à¤ļ":5414,"Ġà¤ĺà¤¨à¤®":5415,"à¤¤à¤°à¤£à¤ļ":5416,"à¤ħà¤ªà¤¯à¤¶":5417,"à¤Ĺà¤¡à¤ķà¤°":5418,"à¥¨à¥¦à¥§à¥¦":5419,"à¤ıà¤ļà¤ĵ":5420,"Ġà¤ıà¤ļà¤Ĩà¤¯à¤µ":5421,"Ġmore":5422,"à¤°à¤Ĺà¤³à¤²":5423,"à¤Ĩà¤īà¤Ł":5424,"46":5425,"83":5426,"sbi":5427,"samp":5428,"Ð»":5429,"à¤°à¥Ł":5430,"à¤¸à¤®à¤¤":5431,"à¤¦à¤¡":5432,"Ġà¤ªà¤łà¤£":5433,"Ġà¤¤à¤¸à¤ļ":5434,"à¤·à¤µà¤£":5435,"à¤¬à¤ľà¤°":5436,"Ġà¤°à¤¡à¤²":5437,"Ġà¤¸à¤®à¤Ĺ":5438,"à¤Ĭà¤³":5439,"à¤¦à¤°à¤¡":5440,"à¤¶à¤¨à¤®":5441,"Ġà¤ĵà¤ł":5442,"à¤¯à¤¨à¤²à¤ļ":5443,"Ġ203":5444,"à¤Ńà¤°à¤¹":5445,"Ġ4000":5446,"Ġà¤ħà¤¡à¤ĸ":5447,"Ġà¥§à¥¦à¥¨":5448,"Ġà¥§à¥¨à¥¨":5449,"Ġcase":5450,"Ġà¤ıà¤²à¤ıà¤²à¤¬":5451,"Ġ162":5452,"Ġ176":5453,"Ġà¤Ĩà¤³à¤¶":5454,"Ġnews":5455,"à¤ķà¤ľà¤¨":5456,"Ġà¤¸à¤ľà¤µ":5457,"à¤Ĺà¤¦à¤°à¤®":5458,"Ġà¤µà¤¨à¤ª":5459,"à¤³à¤§":5460,"Ġà¤ļà¤ªà¤³":5461,"à¤¯à¤ķà¤²à¤ļ":5462,"à¤«à¤®à¤§":5463,"à¤°à¤ªà¤³à¤²":5464,"à¤Ĺà¤¤à¤µ":5465,"Ġà¤Ĳà¤ļ":5466,"Ġà¥§à¥«à¥¦à¥¦":5467,"Ġà¤ĵà¤°à¤¡à¤¤":5468,"Ġà¤¹à¤³à¤¹à¤³à¤²":5469,"attery":5470,"gst":5471,"ib":5472,"ÃŃ":5473,"Ġeng":5474,"à¤°à¤Ĺà¤°":5475,"à¤¯à¤ªà¤¨":5476,"à¤¨à¤¸à¤ļ":5477,"à¤ķà¤Ĩà¤°":5478,"Ġà¤¸à¤¶à¤°":5479,"à¤Łà¤°à¤¤":5480,"Ġà¤°à¤¨à¤¨":5481,"à¤ĸà¤°à¤¨":5482,"Ġà¤¶à¤°à¤¸":5483,"à¤°à¤ķà¤µà¤°":5484,"à¤°à¤¤à¤°à¤¶":5485,"à¤Ĩà¤Ŀ":5486,"à¤Ĭà¤¸à¤¹":5487,"à¤·à¤£à¤ķ":5488,"à¤µà¤³à¤®à¤§":5489,"à¤ıà¤«à¤ª":5490,"à¥¨à¥¦à¥¦à¥¯":5491,"à¤¸à¤Ĺà¤¢à¤®à¤§":5492,"nu":5493,"Ðº":5494,"à¤¯à¤¸à¤®":5495,"à¤¿à¤¾":5496,"à¤¹à¤²à¤ķ":5497,"Ġà¤Ĩà¤ĩ":5498,"à¤ªà¤ļà¤¨":5499,"à¤Ĺà¤ķà¤°":5500,"à¤·à¤ķà¤°":5501,"à¤¥à¤Ĺà¤¤":5502,"Ġà¤Ńà¤°à¤ķ":5503,"Ġà¤ıà¤ķà¤¸à¤®":5504,"Ġà¤ħà¤ªà¤¶à¤¬":5505,"Ġ3000":5506,"à¤ıà¤ķà¤ļ":5507,"à¤¤à¤¨à¤Ĺà¤°":5508,"Ġ2010":5509,"Ġà¤Ĳà¤¸":5510,"2030":5511,"Ġà¤¸à¤¨à¤¸à¤¨":5512,"à¤Īà¤ķà¤µà¤°":5513,"Ġà¥§à¥¦à¥©":5514,"ick":5515,"Ġvid":5516,"ash":5517,"à¤Ĺà¤Ŀà¤¡à¤¤":5518,"36":5519,"ca":5520,"man":5521,"ÑĢ":5522,"Ġà¤¿":5523,"à¤¨à¤Ŀ":5524,"à¤ľà¤Ńà¤°":5525,"à¤¬à¤¬":5526,"Ġà¤īà¤ķà¤¡":5527,"à¤°à¤ķà¤ª":5528,"à¤¤à¤°à¤®à¤§":5529,"à¤Ĩà¤¯à¤®":5530,"Ġà¤īà¤ªà¤īà¤ª":5531,"Ġà¤ľà¤¨à¤®":5532,"à¤¬à¤²à¤®à¤§":5533,"à¤°à¤µà¤łà¥Ł":5534,"Ġà¤ķà¤³à¤¤à¤ļ":5535,"Ġà¤ıà¤²à¤ľ":5536,"Ġà¤ĸà¤¡à¤ķà¤µ":5537,"Ġà¤ļà¤®à¤ķà¤²":5538,"à¤½à¤½":5539,"Ġthis":5540,"vir":5541,"à¤¹à¤ļà¤µ":5542,"à¤ķà¤®à¤¤":5543,"à¤¸à¤Ī":5544,"à¤¡à¤°à¤¨":5545,"Ġà¤°à¤¨à¤ļ":5546,"à¤ĸà¤ªà¤¤":5547,"à¤Ĺà¤²à¤¬":5548,"à¤ļà¤²à¤ļ":5549,"à¤ıà¤¸à¤Ĩà¤¯à¤Ĩà¤°":5550,"Ġà¥§à¥¨à¥ª":5551,"ath":5552,"Ġ142":5553,"Ġà¤īà¤§à¤®à¤ª":5554,"Ġà¤¸à¤¦à¤°à¤ļ":5555,"Ġà¥§à¥§à¥®":5556,"Ġà¤¡à¤Ĺà¤®à¤Ĺà¤²":5557,"aj":5558,"eet":5559,"à¤¹à¤Ĺ":5560,"Ġà¤¸à¤ľà¤²":5561,"Ġà¤¬à¤Łà¤°":5562,"Ġà¤īà¤łà¤£":5563,"à¤ħà¤·":5564,"à¤ķà¤°à¤¶":5565,"à¤·à¤£à¤¤à¤ľ":5566,"Ġà¤ĳà¤¥":5567,"Ġà¤ĵà¤¢à¤¤":5568,"Ġ2024":5569,"à¥«à¥¦à¥¦":5570,"à¥Ńà¥©":5571,"Ġà¤¶à¤ªà¤¥à¤ªà¤¤":5572,"Ġà¥²à¤£":5573,"Ġà¤¬à¤°à¤¸à¤¤":5574,"day":5575,"ÑĤ":5576,"à¤¨à¤¯à¤¨":5577,"à¤°à¤ķà¤¹":5578,"à¤®à¤§à¤¡":5579,"à¤°à¤µà¤ªà¤¦":5580,"à¤¶à¤¨à¤¦":5581,"à¤¯à¤²à¤Łà¤ļ":5582,"Ġà¤ħà¤ľà¤¹à¤°à¤²":5583,"Ġà¤Ĩà¤łà¤¹":5584,"à¥Ńà¥§":5585,"Ġà¤Īà¤¬":5586,"Ġà¤ªà¤°à¤µà¤¡":5587,"à¤ħà¤ªà¤µ":5588,"ard":5589,"ars":5590,"à¤¨à¤¶à¤°":5591,"à¤Ĳà¤¸":5592,"Ġà¥§à¥ªà¥¦":5593,"Ġ166":5594,"Ġà¥¨à¥¦à¥¦à¥¬":5595,"rop":5596,"201617":5597,"à¤łà¤³":5598,"Ġà¤Ńà¤°à¤µ":5599,"Ġà¤Ńà¤°à¤µà¤¶":5600,"à¤Ĩà¤łà¤µà¤£":5601,"Ġà¤łà¤ķ":5602,"à¤®à¤¨à¤µ":5603,"à¤¸à¤¨à¤¸":5604,"Ġà¤ĳà¤¨à¤¸":5605,"à¤īà¤ªà¤²à¤¬":5606,"à¤īà¤¨à¤®":5607,"à¤¶à¤²à¤®":5608,"Ġà¤ķà¤²à¤¹":5609,"à¥Ńà¥¬":5610,"à¥®à¥®":5611,"Ġà¤ľà¤¯à¤µà¤°":5612,"Ġà¤ħà¤¡à¤¸":5613,"Ġ118":5614,"Ġnz":5615,"Ġà¤ħà¤¸à¤¹à¤®à¤¤":5616,"udy":5617,"oltage":5618,"Ġgames":5619,"44":5620,"88":5621,"fo":5622,"ĠâĢĮ":5623,"à¤²à¤Łà¤²":5624,"à¤¹à¤°à¤ª":5625,"à¤¸à¤ªà¤¦":5626,"à¤®à¤¸à¤®à¤°":5627,"Ġà¤¨à¤¸à¤°":5628,"à¤ľà¤¬à¤°":5629,"Ġà¤ķà¤°à¤¸":5630,"à¤ĸà¤ł":5631,"à¤Ńà¤ļ":5632,"Ġà¤ļà¤Łà¤°":5633,"à¤ıà¤²à¤¨":5634,"à¤Łà¤¨à¤²":5635,"à¤°à¤¦à¤¯":5636,"à¤¯à¤¤à¤ļ":5637,"à¤ĩà¤Ŀ":5638,"Ġà¤®à¤¨à¤ľ":5639,"à¤¯à¤ªà¤ļ":5640,"à¤Łà¤µà¤°à¤ļ":5641,"à¤Łà¤¸à¤ħ":5642,"Ġà¤įà¤°":5643,"dian":5644,"Ġà¤¦à¤¶à¤ķà¤Ńà¤°":5645,"ie":5646,"uct":5647,"ya":5648,"yst":5649,"à¤¾à¥ħà¤Ĥ":5650,"à¤¯à¤µà¤¤à¤®":5651,"à¤µà¤ĸà¤°":5652,"à¤¸à¤Łà¤²":5653,"à¤¦à¤µà¤¡":5654,"Ġà¤¦à¤°à¤¦":5655,"Ġà¤ľà¤¸à¤µ":5656,"Ġà¤°à¤ľà¤ª":5657,"Ġà¤ķà¤°à¤¶":5658,"Ġà¤¬à¤¬à¤²":5659,"Ġà¤¶à¤°à¤®":5660,"Ġà¤Ŀà¤Ĺà¤¡":5661,"Ġà¤ıà¤Ĩà¤¯à¤ıà¤®":5662,"à¤ĺà¤¶":5663,"à¤Ĩà¤¬":5664,"à¤Ĩà¤°à¤µ":5665,"à¤¢à¤Ĺ":5666,"à¤ķà¤¡à¥Ł":5667,"à¤Ŀà¤ª":5668,"à¤¦à¤°à¤®à¤§":5669,"Ġà¤Ĩà¤®à¤²":5670,"Ġà¤ĳà¤¨à¤°":5671,"à¤¸à¤¤à¤¤à¤ļ":5672,"Ġà¤ľà¤¨à¤§à¤¨":5673,"Ġà¤īà¤®à¤¦":5674,"à¥ªà¥ª":5675,"à¤ķà¤®à¤²à¤¨":5676,"Ġà¤Ĺà¤£à¤°":5677,"Ġam":5678,"Ġà¥¨à¥¦à¥¦à¥©":5679,"ions":5680,"à¤Ĩà¤¯à¤ıà¤®à¤¡":5681,"à¤īà¤ªà¤¨à¤Ĺà¤°":5682,"à¤°à¤²à¤¯":5683,"à¤£à¤¬à¤¤":5684,"à¤¦à¤ķà¤¡":5685,"Ġà¤ªà¤¢":5686,"à¤Ĺà¤ķà¤¡":5687,"Ġà¤ħà¤łà¤°":5688,"Ġà¤ľà¤ľ":5689,"à¤ĸà¤¶":5690,"à¤ĸà¤¬":5691,"à¤¸à¤Ńà¤°":5692,"Ġà¤¥à¤°à¤ķ":5693,"à¤¡à¤ķà¤ªà¤ļ":5694,"à¥«à¥¯":5695,"à¤§à¤¤à¤¶":5696,"Ġpr":5697,"Ġ01":5698,"covid":5699,"à¤ıà¤ħà¤°à¤Ł":5700,"à¤ķà¤¸à¤¹à¤Ń":5701,"Ġvideo":5702,"bjp":5703,"à¤¯à¤Łà¤²":5704,"à¤²à¤¬à¤¹":5705,"à¤ľà¤ľ":5706,"à¤³à¤°":5707,"Ġà¤¬à¤§":5708,"Ġà¤Ńà¤ľ":5709,"Ġà¤ĸà¤ª":5710,"à¤°à¤®à¤°":5711,"à¤°à¤µà¤³":5712,"à¤µà¤£à¤ķ":5713,"à¤¶à¤¨à¤ª":5714,"Ġà¤Ĩà¤¤à¤¡":5715,"à¤ĵà¤ı":5716,"à¤Ĩà¤¯à¤ıà¤¨à¤ıà¤¸":5717,"Ġà¤®à¤²à¤Ī":5718,"Ġà¤¥à¤°à¤¥":5719,"Ġ420":5720,"à¤ıà¤®à¤Ĩà¤°à¤¸":5721,"à¥ªà¥©":5722,"à¥®à¥©":5723,"à¤ħà¤®à¤°à¤¨":5724,"Ġà¤ħà¤«à¤°":5725,"Ġ190":5726,"als":5727,"à¤®à¤¶à¤¤":5728,"Ġà¥¨à¥©à¥¦":5729,"Ġà¥¨à¥¦à¥§à¥®à¥§à¥¯":5730,"à¤ĳà¤«à¤®à¤§":5731,"à¤¤à¤¸à¤ļ":5732,"à¤²à¤¸à¤ļ":5733,"à¤¹à¤°à¤®":5734,"Ġà¤ªà¤£à¤¤":5735,"Ġà¤®à¤¶à¤°":5736,"Ġà¤¨à¤°à¤ķ":5737,"Ġà¤¹à¤³à¤µ":5738,"Ġà¤¦à¤¹à¤¨":5739,"Ġà¤°à¤®à¤¤":5740,"Ġà¤¨à¤µà¤ĸ":5741,"Ġà¤Ĩà¤®à¤Ł":5742,"à¤®à¤Ĺà¤¡":5743,"à¤ħà¤¶à¤ķ":5744,"Ġà¤ıà¤®à¤ı":5745,"à¤¡à¤°à¤°à¤¨":5746,"Ġtra":5747,"cov":5748,"und":5749,"à¥¨à¥¦à¥¦à¥®":5750,"ubg":5751,"Ġà¤¡à¤Ŀà¤¨à¤Ńà¤°":5752,"85":5753,"ow":5754,"à¤¾à¥Ģ":5755,"Ġà¤ķà¤µà¤³":5756,"Ġà¤ªà¤³à¤£":5757,"Ġà¤µà¤¯à¤¸":5758,"à¤¡à¤°à¤¶":5759,"à¤°à¤¤à¤ľ":5760,"Ġà¤ķà¤°à¤£à¤ļ":5761,"à¤Īà¤Ĺà¤¡à¤¬à¤¡":5762,"Ġà¤¸à¤®à¤¯":5763,"à¤ıà¤²à¤Ł":5764,"Ġà¤ªà¤¥à¤ķà¤¹":5765,"à¤®à¤®à¤§à¤²":5766,"Ġà¤¤à¤³à¤ªà¤¦":5767,"Ġ303":5768,"Ġà¥§à¥©à¥«":5769,"Ġ2004":5770,"Ġà¤ıà¤ħà¤°à¤¸":5771,"Ġà¥¨à¥¦à¥§à¥¬à¥§à¥Ń":5772,"à¤¤à¤¸à¤°à¤®à¤§":5773,"à¤ıà¤®à¤ıà¤²à¤ı":5774,"à¤°à¤¯à¤¸":5775,"à¤¤à¤³à¤²":5776,"à¤¯à¤¬à¤ļ":5777,"à¤²à¤¸à¤¨":5778,"à¤¨à¤¥":5779,"à¤ķà¤¦à¤²":5780,"à¤Ĺà¤¨à¤ļ":5781,"à¤ľà¤°à¤ļ":5782,"à¤²à¤¯à¤ļ":5783,"Ġà¤Ĩà¤¯à¤ıà¤®":5784,"à¤ķà¤²à¤²":5785,"à¤ħà¤°à¤¹":5786,"à¤īà¤ªà¤¯":5787,"Ġà¤ķà¤²à¤Ĺ":5788,"Ġà¤¶à¤¹à¤°à¤ª":5789,"à¤¡à¤¸à¤ĩ":5790,"Ġà¥§à¥¯à¥¦":5791,"erm":5792,"Ġà¥§à¥§à¥§":5793,"à¤¼à¥į":5794,"Ġà¤ħà¤Ŀà¤¹à¤°à¤²":5795,"umbai":5796,"69":5797,"national":5798,"à¤¯à¤¸à¤ļ":5799,"à¤¹à¤¡à¤ªà¤¸à¤°":5800,"à¤¸à¤ĳà¤«":5801,"Ġà¤¨à¤¨":5802,"à¤ľà¤±":5803,"Ġà¤°à¤®à¤¨":5804,"à¤°à¤®à¤¯":5805,"à¤°à¤®à¤¦":5806,"Ġà¤¸à¤¹à¤¨à¤¶":5807,"à¤Ĺà¤£à¤ªà¤¤":5808,"à¤£à¤¤à¤ķ":5809,"Ġ220":5810,"à¤¯à¤ļà¤¯":5811,"à¤ĵà¤ıà¤ļ":5812,"à¤¹à¤¨à¤²":5813,"à¤µà¤ķà¤¯":5814,"à¤ªà¤ļà¤¯":5815,"Ġ101":5816,"Ġà¤ıà¤ħà¤°à¤¬":5817,"Ġ164":5818,"Ġjun":5819,"ph":5820,"Ġ&":5821,"ĠÂł":5822,"à¤¯à¤ľà¤¨":5823,"à¤²à¤ł":5824,"à¤¿à¥ĩ":5825,"Ġà¤Ńà¤°à¤µà¤²":5826,"à¤Ĩà¤¢":5827,"à¤Ŀà¤°à¤®à¤§":5828,"Ġà¤¡à¤²":5829,"à¤¹à¤°à¤¹":5830,"à¤ľà¤¯à¤¶":5831,"à¤²à¤¨à¤¸":5832,"Ġà¤ĵà¤¤à¤²":5833,"à¤łà¤ķà¤¹":5834,"Ġà¤®à¤°à¤Ĺà¤³":5835,"à¤Ĩà¤ªà¤£à¤ļ":5836,"à¥Ńà¥ª":5837,"à¤ıà¤²à¤Ĩà¤¯à¤¸":5838,"Ġà¥§à¥Ńà¥¦":5839,"Ġrcb":5840,"Ġà¤ĵà¤°à¤¡à¤²":5841,"ign":5842,"Ġà¤Ĩà¤¯à¤ıà¤¸à¤Ĩà¤¯à¤ļ":5843,"electrolyte":5844,"Ġà¤®à¤¦à¤°à¤¶":5845,"bigg":5846,"ment":5847,"ok":5848,"ts":5849,"ty":5850,"à¤°à¤µà¤°à¤ļ":5851,"à¤¤à¤µà¤¤":5852,"à¤£à¤¤à¤°":5853,"à¤¶à¤ķà¤¡":5854,"Ġà¤¹à¤«":5855,"Ġà¤¦à¤Łà¤ķ":5856,"à¤¥à¤ªà¤°":5857,"à¤Ńà¤¸":5858,"à¤¯à¤ķà¤¹":5859,"à¤Ĩà¤·":5860,"à¤°à¤®à¤ķà¤¤":5861,"à¤¦à¤°à¤ªà¤£":5862,"Ġà¤¨à¤µà¤ķà¤²":5863,"à¤°à¤¦à¤ķ":5864,"à¤Ĺà¤£à¤ļ":5865,"à¤¸à¤¹à¤¸":5866,"à¤¹à¤¨à¤¤à¤³":5867,"à¥«à¥§":5868,"Ġà¤Ĳà¤°":5869,"Ġà¤Ĩà¤Īà¤ķà¤¡":5870,"à¥¯à¥¬":5871,"à¤¯à¤¶à¤°":5872,"Ġà¥§à¥¨à¥¬":5873,"Ġsc":5874,"Ġpol":5875,"ass":5876,"à¤Ĩà¤¦à¤°à¤£":5877,"ime":5878,"à¤Ĺà¤łà¤¬":5879,"201516":5880,"Ġà¤¨à¤¯à¤¨à¤¤":5881,"Ġupdat":5882,"à¤ķà¤ľà¤¨à¤¶à¤ķ":5883,"ÙĦ":5884,"à¤ļà¤ķà¤³":5885,"Ġà¤Ĩà¤¸à¤°":5886,"Ġà¤ķà¤Łà¤°":5887,"Ġà¤ªà¤ĸ":5888,"Ġà¤µà¤Łà¤µ":5889,"à¤¬à¤ļà¤¤":5890,"Ġà¤ĺà¤°à¤µ":5891,"à¤¤à¤°à¤ªà¤¶":5892,"Ġà¤ıà¤Ĩà¤¯":5893,"à¤Ĩà¤µà¤¡":5894,"à¤«à¤°à¤ķ":5895,"Ġà¤ªà¤°à¤Ĺà¤£":5896,"Ġà¤¸à¤°à¤¬à¤ľ":5897,"à¤°à¤ªà¤³à¤¤":5898,"à¤ıà¤°à¤µ":5899,"Ġà¤ħà¤¨à¤«":5900,"à¤Ĺà¤£à¤¦":5901,"à¤¯à¤¨à¤¸":5902,"à¤ıà¤ķà¤¤à¤°":5903,"à¤¨à¤ķà¤ļà¤°":5904,"Ġà¥¨à¥«à¥¬":5905,"Ġmy":5906,"Ġà¤ıà¤«à¤Ĩà¤¯à¤Ĩà¤°à¤®à¤§":5907,"à¤ıà¤¨à¤ıà¤¸à¤ľ":5908,"ÂłÂłÂłÂł":5909,"ell":5910,"Ġchamp":5911,"Ġà¤ĸà¤¦à¤ĸà¤¦":5912,"39":5913,"dt":5914,"gov":5915,"ies":5916,"tro":5917,"à¤¹à¤¸à¤°":5918,"à¤§à¤¨à¤ļ":5919,"à¤°à¤¤à¤²":5920,"à¤ĺà¤³à¤£":5921,"Ġà¤¡à¤³à¤®à¤³":5922,"à¤Ĺà¤²à¤Ł":5923,"à¤®à¤¨à¤°":5924,"à¤ıà¤®à¤µà¤°":5925,"à¤ıà¤«à¤®à¤§":5926,"à¤²à¤®à¤ľ":5927,"Ġà¥§à¥«à¥§":5928,"arendra":5929,"Ġà¥¨à¥¦à¥¦à¥§":5930,"urb":5931,"201920":5932,"à¥įà¤¾":5933,"à¤¤à¤«à¤°":5934,"à¤®à¤¸à¤¤":5935,"Ġà¤ķà¤¸à¤°":5936,"Ġà¤ªà¤²à¤ķ":5937,"Ġà¤µà¤¨à¤ķ":5938,"Ġà¤²à¤µà¤²":5939,"Ġà¤ķà¤°à¤£à¤¨":5940,"Ġà¤ĸà¤°à¤ª":5941,"à¤ħà¤¸à¤ļ":5942,"à¤ªà¤°à¤®à¤§":5943,"à¤µà¤²à¤ļ":5944,"à¤Ĭà¤£":5945,"Ġà¤ħà¤¨à¤Ń":5946,"à¤Ŀà¤Ĺ":5947,"Ġà¤¨à¤µà¤Ń":5948,"à¤°à¤ªà¤Łà¤ļ":5949,"Ġà¤¸à¤¹à¤Ĺà¤²":5950,"Ġà¤®à¤¤à¤¹":5951,"à¤Ľà¤¡":5952,"à¤¤à¤®à¤°":5953,"à¤¤à¤®à¤¸":5954,"à¥«à¥®":5955,"Ġà¤ªà¤¡à¤ĺà¤®":5956,"Ġà¤ĺà¤Łà¤ķà¤ªà¤ķ":5957,"Ġ147":5958,"ala":5959,"ctc":5960,"ctv":5961,"asian":5962,"Ġà¤łà¤³à¤ķà¤ªà¤£":5963,"Ġopen":5964,"Ġan":5965,"Ġà¤ķà¤²à¤ķà¤¤":5966,"Ġà¤¸à¤ķà¤¸":5967,"Ġà¤¸à¤ªà¤ķ":5968,"Ġà¤ªà¤Ĺà¤¡":5969,"Ġà¤®à¤¡":5970,"à¤ľà¤ķà¤²":5971,"à¤¡à¤Ń":5972,"Ġà¤²à¤¦":5973,"Ġà¤Ŀà¤Łà¤¤":5974,"Ġà¤īà¤¥à¤ª":5975,"Ġà¤®à¤¹à¤¬":5976,"à¤ªà¤°à¤¨":5977,"à¤ªà¤²à¤¨":5978,"à¤Īà¤²à¤¹":5979,"à¤ĩà¤¬":5980,"à¤ªà¤¦à¤¹":5981,"Ġà¤¬à¤¦à¤²à¤¹":5982,"à¤ªà¤Łà¤£":5983,"à¤ħà¤²à¤®":5984,"à¤¯à¤Ŀà¤°à¤ļ":5985,"à¤ĭà¤·à¤Ń":5986,"ims":5987,"ace":5988,"Ġiphone":5989,"mc":5990,"pl":5991,"uk":5992,"we":5993,"who":5994,"ĠâĢį":5995,"à¤²à¤¬à¤ľ":5996,"à¤¹à¤¡":5997,"à¤µà¤µà¤°":5998,"à¥Ĥà¥Ĥ":5999,"à¤Ĺà¤®à¤ª":6000,"Ġà¤¨à¤Ŀ":6001,"à¤¡à¤®à¤¨":6002,"à¤ĸà¤±":6003,"à¤µà¤°à¤µà¤°":6004,"Ġà¤ıà¤¹à¤¸":6005,"à¤Īà¤ıà¤¸":6006,"à¤¯à¤ķà¤²à¤¸":6007,"à¤ĺà¤¹":6008,"à¤Ĩà¤µà¤°":6009,"à¤Ĩà¤Ŀà¤®":6010,"à¤µà¤¤à¤¨":6011,"à¤Ĺà¤¤à¤ľ":6012,"Ġà¤Ĩà¤¤à¤ļ":6013,"Ġà¤®à¤²à¤¬":6014,"Ġà¤¦à¤¹à¤¶à¤µ":6015,"à¤ļà¤¨à¤¨":6016,"à¥Ńà¥Ń":6017,"à¤¸à¤®à¤§à¤²":6018,"Ġà¤ĩà¤¥à¤ªà¤°":6019,"Ġà¤ªà¤²à¤Łà¤£":6020,"Ġà¤Ĩà¤µà¤°à¤¤":6021,"irctc":6022,"char":6023,"Ġ201516":6024,"abad":6025,"Ġà¤ªà¤¥à¤¦":6026,"41":6027,"pul":6028,"ran":6029,"rbi":6030,"Ġ00":6031,"à¤°à¤ĺà¤°":6032,"à¤²à¤°à¤¹":6033,"à¤§à¤°à¤µà¤¡":6034,"Ġà¤ĺà¤¨à¤¶":6035,"Ġà¤ĺà¤¨à¤µà¤Ł":6036,"à¤ĺà¤Łà¤¸":6037,"à¤Ĩà¤°à¤¤":6038,"à¤Ĩà¤µà¤³":6039,"Ġà¤ĩà¤·":6040,"à¤¯à¤®à¤¬":6041,"Ġà¤ħà¤¶à¤°à¤«":6042,"à¤Ĺà¤³à¤¸":6043,"Ġà¤ħà¤®à¤ľà¤¦":6044,"Ġà¤ªà¤¦à¤ķà¤µ":6045,"à¤īà¤ĺà¤¡":6046,"Ġà¤ħà¤²à¤µà¤°":6047,"à¥«à¥ª":6048,"Ġà¥§à¥¦à¥§":6049,"Ġas":6050,"à¤Ĩà¤Īà¤¬":6051,"Ġà¤¸à¤«à¤²à¤¤":6052,"iss":6053,"Ġà¤ĸà¤²à¤¬à¤¤":6054,"à¤¸à¤įà¤ª":6055,"fi":6056,"so":6057,"wer":6058,"à¤¯à¤£à¤¸":6059,"à¤ķà¤ı":6060,"Ġà¤¸à¤¡à¤²":6061,"Ġà¤®à¤®":6062,"à¤§à¤µà¤°":6063,"à¤¡à¤¸à¤°":6064,"à¤¡à¤¸à¤®":6065,"Ġà¤¦à¤³":6066,"Ġà¤¦à¤«à¤¨":6067,"à¤ĸà¤ķà¤°":6068,"à¤µà¤°à¤Ĺ":6069,"Ġà¤Ĺà¤ľà¤¬":6070,"Ġà¤Ŀà¤¡à¤²":6071,"Ġà¤«à¤£à¤¸":6072,"à¤ħà¤¡à¤µ":6073,"à¤«à¤°à¤ļ":6074,"Ġà¤§à¤¨à¤¤":6075,"à¤ıà¤ıà¤®":6076,"à¤ıà¤Łà¤°à¤®à¤§":6077,"à¤¦à¤²à¤ª":6078,"à¤°à¤¨à¤ª":6079,"à¤®à¤ķà¤¹":6080,"à¤¹à¤²à¤ªà¤°":6081,"à¤¬à¤²à¤¸":6082,"à¤ıà¤ķà¤¦à¤®":6083,"à¥Ńà¥®":6084,"Ġà¤¬à¤²à¤¬":6085,"à¤²à¤ķà¤°à¤²":6086,"Ġà¤§à¤µà¤¨à¤²":6087,"Ð½":6088,"à¤´":6089,"à¤²à¤§":6090,"à¤²à¤µà¤¡":6091,"à¤ķà¤Łà¤ķ":6092,"Ġà¤¦à¤¸à¤±":6093,"à¤³à¤¦":6094,"Ġà¤Ĺà¤¹à¤¨":6095,"à¤¯à¤ķà¤®":6096,"Ġà¤ıà¤ķà¤¬":6097,"à¤ķà¤°à¤µà¤°":6098,"à¤ªà¤°à¤Ĺ":6099,"à¤ªà¤°à¤ĸ":6100,"à¤Ŀà¤°à¤²":6101,"à¤¹à¤¤à¤ķ":6102,"à¤ľà¤¨à¤¨":6103,"à¤µà¤¨à¤¦":6104,"à¤²à¤¨à¤ª":6105,"à¤µà¤°à¤£à¤¹":6106,"à¤¡à¤°à¤°à¤ļ":6107,"197":6108,"Ġà¤¬à¤¡à¤¬à¤¡":6109,"Ġwho":6110,"à¤°à¤ľà¤¨à¤¨":6111,"Ġà¤²à¤ªà¤µà¤¤":6112,"Ġà¤ªà¤¥à¤¦à¤°":6113,"Ġà¤¬à¤°à¤¸à¤£":6114,"drf":6115,"Ġà¤īà¤ĸà¤¡à¤²":6116,"sample":6117,"pho":6118,"udi":6119,"»¿":6120,"ï»¿":6121,"à¤¯à¤ĳà¤ķ":6122,"à¤¨à¤°à¤ªà¤¦":6123,"à¤ķà¤®à¤¹":6124,"à¤ķà¤¬à¤¸":6125,"à¤µà¤Ĩà¤ĺ":6126,"Ġà¤®à¤£à¤ķ":6127,"Ġà¤®à¤¤à¤ªà¤¤":6128,"à¤Łà¤ħ":6129,"Ġà¤ļà¤ªà¤²":6130,"à¤°à¤£à¤ķà¤°":6131,"Ġà¤®à¤¹à¤°":6132,"Ġà¤§à¤¨à¤°":6133,"à¤¦à¤°à¤¬":6134,"à¤Ĺà¤²à¤®":6135,"à¤Ľà¤Ĺà¤¨":6136,"Ġà¤ľà¤¨à¤¸à¤Ń":6137,"Ġà¤¯à¤¶à¤ª":6138,"Ġà¤ľà¤®à¤µà¤£":6139,"à¤¨à¤ķà¤ªà¤£":6140,"Ġà¤ªà¤£à¤¨":6141,"Ġà¤Īà¤²":6142,"à¤ķà¤ªà¤¡":6143,"Ġà¥§à¥¨à¥©":6144,"Ġà¤Ĩà¤¢à¤³à¤°":6145,"Ġ2002":6146,"Ġà¤īà¤ľà¤³à¤£":6147,"à¤ıà¤ıà¤µ":6148,"Ġà¤īà¤ķà¤³à¤²":6149,"andhi":6150,"à¤ħà¤µà¤ĺà¤¡":6151,"spect":6152,"Ġà¤ĩà¤¨à¤ķà¤®":6153,"Ġjunction":6154,"jay":6155,"ron":6156,"àª":6157,"à¤¹à¤¨à¤µ":6158,"à¤£à¥Ł":6159,"à¤ªà¤¸à¤®":6160,"à¤¦à¤¨à¤µà¤¨":6161,"Ġà¤®à¤µ":6162,"Ġà¤®à¤¡à¤ķ":6163,"à¤Łà¤Ĩà¤Ĭ":6164,"à¤µà¤°à¤ª":6165,"Ġà¤ļà¤¯":6166,"Ġà¤ĸà¤°à¤®à¤°":6167,"à¤«à¤¹":6168,"à¤°à¤¸à¤¤":6169,"Ġà¤ħà¤¨à¤¨à¤¸":6170,"Ġà¤īà¤ªà¤¨à¤¦":6171,"à¤¯à¤¤à¤¨":6172,"Ġà¤ªà¤¹à¤²":6173,"Ġà¤¨à¤°à¤¹à¤°":6174,"à¤²à¤¨à¤¹":6175,"Ġà¤ķà¤²à¤°à¤ļ":6176,"à¤ķà¤°à¤£à¤ļ":6177,"à¥¯à¥§":6178,"Ġà¤Īà¤¨":6179,"Ġà¤ıà¤¨à¤¬":6180,"à¤¹à¤³à¤¯":6181,"à¤²à¤®à¤§à¤²":6182,"à¤°à¤³à¤®à¤§à¤²":6183,"Ġà¤¹à¤°à¤ªà¤²":6184,"à¤ıà¤«à¤¡":6185,"Ġà¤ıà¤®à¤ıà¤ļ":6186,"Ġ720":6187,"à¤µà¤Ńà¤ķ":6188,"Ġà¤·à¤¡":6189,"Ġà¤ħà¤ľà¤¯à¤ħà¤¤":6190,"ics":6191,"Ġà¤¦à¤¶à¤°à¤¥":6192,"Ġte":6193,"ithi":6194,"ish":6195,"Ġà¤Ĺà¤²à¤Ĺà¤²":6196,"à¤ļà¤µà¤¡à¤ļ":6197,"Ġà¤¸à¤¬à¤®":6198,"à¤¡à¤ĺà¤¶":6199,"Ġà¤¨à¤¯à¤¨à¤°à¤®":6200,"62":6201,"ck":6202,"nb":6203,"Ġâ":6204,"à¤ķà¤²à¤ķ":6205,"à¤¦à¤ĸ":6206,"Ġà¤µà¤£":6207,"à¤¶à¤¸à¤ļ":6208,"Ġà¤¤à¤³à¤µ":6209,"à¤¬à¤±à¤¯":6210,"à¤°à¤£à¤ª":6211,"à¤ĺà¤²à¤ķ":6212,"à¤ªà¤°à¤ª":6213,"à¤ľà¤ªà¤¹":6214,"à¤Ĺà¤²à¤ķ":6215,"à¤¸à¤°à¤¡":6216,"à¤Ĺà¤£à¤®à¤§":6217,"à¤ĩà¤¯à¤¤":6218,"Ġà¤¹à¤ľà¤°à¤¤":6219,"à¤Łà¤¤à¤¯":6220,"à¤ıà¤®à¤Ĩà¤¯à¤ıà¤®à¤ļ":6221,"Ġà¤Īà¤Ł":6222,"à¤Īà¤¨à¤Ĺà¤°":6223,"Ġà¤ªà¤¡à¤¸à¤²à¤Ĺ":6224,"Ġ121":6225,"Ġà¤ıà¤«à¤Ł":6226,"Ġà¤ļà¤²à¤¨à¤µ":6227,"à¤ħà¤¡à¤ķà¤²":6228,"fl":6229,"à¤°à¤Ŀ":6230,"à¤¤à¤®à¤ļ":6231,"à¤¤à¤īà¤¦":6232,"à¤¨à¤²à¤¨":6233,"à¤¨à¤µà¤°à¤¹":6234,"à¤¹à¤²à¤ļ":6235,"à¤ķà¤ķà¤°":6236,"Ġà¤ħà¤ªà¤¨":6237,"Ġà¤¨à¤°à¤®":6238,"Ġà¤¹à¤Łà¤ķà¤²":6239,"à¤°à¤ķà¤±":6240,"à¤Īà¤ķà¤¸":6241,"à¤Ĩà¤łà¤µà¤²":6242,"à¤ħà¤³":6243,"à¤µà¤²à¤£":6244,"à¤Ŀà¤¡à¤¤":6245,"à¤Ŀà¤ªà¤¦à¤ķ":6246,"Ġà¤¸à¤¹à¤®":6247,"à¤ķà¤²à¤°":6248,"à¤¤à¤µà¤µ":6249,"Ġà¤ªà¤¦à¤¸":6250,"Ġà¤ªà¤¦à¤ªà¤¥":6251,"Ġà¤¤à¤¸à¤¤à¤¸":6252,"Ġ512":6253,"Ġà¤ªà¤Łà¤µà¤²":6254,"Ġ123":6255,"Ġà¥§à¥«à¥¯":6256,"à¤¯à¤°à¤¸à¤µà¤°":6257,"ary":6258,"Ġ138":6259,"Ġvi":6260,"Ġ225":6261,"Ġ240":6262,"idai":6263,"Ġà¥§à¥¯à¥¯à¥¯":6264,"Ġà¥§à¥¯à¥¯à¥®":6265,"à¤Ĺà¤¢à¤®à¤§":6266,"Ġà¥§à¥¯à¥®à¥¨":6267,"Ġios":6268,"electrode":6269,"à¯į":6270,"bh":6271,"nrc":6272,"à¤²à¤®à¤¨":6273,"à¤¸à¤ı":6274,"à¤¸à¤µà¤¡":6275,"à¤ªà¤¸à¤²":6276,"Ġà¤ħà¤¤à¤°":6277,"Ġà¤¹à¤¸à¤£":6278,"Ġà¤ľà¤¡à¤²":6279,"à¤¥à¤¯":6280,"Ġà¤ĺà¤®":6281,"Ġà¤ıà¤¯à¤°":6282,"à¤ħà¤®à¤²":6283,"à¤ıà¤ıà¤²":6284,"à¤Ĭà¤¬à¤¹":6285,"à¤ľà¤¨à¤ľ":6286,"à¤ĩà¤¡à¤ļ":6287,"à¤¸à¤¨à¤µ":6288,"à¤¯à¤¨à¤Ĺà¤°":6289,"à¤¶à¤²à¤µà¤°":6290,"à¤ıà¤¸à¤ıà¤²":6291,"à¤Ĺà¤¦à¤Ĺ":6292,"à¤¨à¤Ĺà¤°à¤¸":6293,"à¥¬à¥¬":6294,"Ġà¥§à¥¨à¥§":6295,"à¤ľà¤¤à¤ľ":6296,"Ġà¥§à¥¬à¥¬":6297,"à¤ħà¤ķà¤¬à¤°":6298,"Ġinter":6299,"Ġà¤ıà¤®à¤ıà¤¸à¤ķ":6300,"rophy":6301,"52":6302,"mumbai":6303,"tp":6304,"Ðµ":6305,"Ð¸":6306,"à¤¾_":6307,"à¤¤à¤§":6308,"à¤¯à¤¬à¤°à¤ļ":6309,"à¤¹à¤°à¤®à¤¨à¤ª":6310,"à¤ļà¤ķà¤°":6311,"à¤ªà¤ľ":6312,"à¤Īà¤¯":6313,"à¤ħà¤Ŀ":6314,"à¤±à¤¹":6315,"à¤°à¤¶à¤¦":6316,"à¤¦à¤µà¤¹":6317,"Ġà¤īà¤®à¤Łà¤µ":6318,"à¥Ńà¥¨":6319,"à¤µà¤Łà¤µ":6320,"Ġ127":6321,"Ġà¤¤à¤°à¤¤à¤°":6322,"Ġ146":6323,"Ġ131":6324,"à¤°à¤®à¤ķà¤ªà¤£":6325,"Ġ02":6326,"Ġà¥¨à¥¦à¥§à¥¯à¥¨à¥¦":6327,"Ġà¥ªà¥«à¥¦":6328,"Ġà¥Ńà¥«à¥¦":6329,"à¤ıà¤¨à¤Ĩà¤¯à¤µ":6330,"goo":6331,"Ġ\\":6332,"Ġà¤¸à¤°à¤µ":6333,"à¤¦à¤¶à¤ķ":6334,"à¥Ĥà¥į":6335,"Ġà¤¤à¤ªà¤¨":6336,"à¤¬à¤²à¤¤":6337,"à¤¤à¤°à¤¸":6338,"Ġà¤ıà¤°à¤µ":6339,"à¤Īà¤¡à¤²":6340,"à¤°à¤®à¤¤à¤µ":6341,"à¤µà¤¸à¤ļ":6342,"à¤ıà¤¸à¤²":6343,"à¤ıà¤Īà¤ļ":6344,"à¤īà¤¡à¤µ":6345,"Ġà¤®à¤¨à¤¨":6346,"à¤§à¤µà¤ª":6347,"à¤®à¤Ĺà¤¢":6348,"Ġà¤¦à¤²à¤µ":6349,"à¤ħà¤¨à¤¨":6350,"à¥ªà¥¦à¥¦":6351,"Ġà¤°à¤£à¤¶":6352,"à¤ıà¤«à¤¬":6353,"Ġ376":6354,"Ġà¤ĭà¤ļ":6355,"Ġtrophy":6356,"ams":6357,"Ġnia":6358,"Ġgandhi":6359,"Ġà¤ľà¤³à¤«à¤³":6360,"Ġà¤¢à¤µà¤³à¤¤":6361,"Ġà¤²à¤ĺà¤µ":6362,"à¤ļà¤µà¤¡à¤®à¤§":6363,"à¤ķà¤ħà¤ªà¤ļ":6364,"43":6365,"aut":6366,"bl":6367,"bit":6368,"ft":6369,"ob":6370,"à¤¯à¤¨à¤µ":6371,"à¤¹à¤³à¤£":6372,"à¤¹à¤°à¤ļà¤¨":6373,"à¤¸à¤°à¤ª":6374,"Ġà¤ķà¤µà¤Ł":6375,"Ġà¤¸à¤«à¤°":6376,"Ġà¤µà¤¶":6377,"Ġà¤¤à¤¹à¤°":6378,"Ġà¤¦à¤«":6379,"à¤¬à¤¹à¤²":6380,"Ġà¤ĺà¤°à¤®":6381,"à¤Ĩà¤ķà¤°":6382,"Ġà¤§à¤°à¤®à¤¶":6383,"Ġà¤¸à¤®à¤¸à¤®":6384,"à¤ıà¤Īà¤®à¤§":6385,"à¤¹à¤¤à¤ļ":6386,"à¤³à¤¤à¤ļ":6387,"à¤ļà¤¨à¤¸":6388,"à¤Ńà¤µà¤¹":6389,"Ġà¤¦à¤²à¤¬":6390,"à¥¬à¥¨":6391,"à¥Ńà¥¯":6392,"à¥®à¥¯":6393,"Ġà¤°à¤£à¤¸":6394,"à¤Īà¤Łà¤µ":6395,"à¥Ģ''":6396,"Ġà¤ıà¤µà¤¢à¥Ł":6397,"Ġà¤ķà¤³à¤ķà¤³":6398,"Ġcsk":6399,"Ġ189":6400,"Ġ136":6401,"2011":6402,"Ġà¤ľà¤¸à¤ľà¤¶":6403,"Ġ224":6404,"à¤¬à¤°à¤¦à¤°à¤®":6405,"Ġ270":6406,"Ġ360":6407,"2009":6408,"à¤ıà¤¸à¤ıà¤¨à¤ıà¤²à¤ļ":6409,"à¥ŀ":6410,"à¤¨à¤¯à¤ķ":6411,"à¤ķà¤³à¤µ":6412,"à¤¸à¤ªà¤ļ":6413,"à¤£à¤²à¤¯":6414,"à¤¦à¤¯à¤¦":6415,"à¤¦à¤®à¤¦":6416,"Ġà¤ħà¤ķà¤²":6417,"à¤ľà¤Ĺà¤¤":6418,"à¤ľà¤¬à¤¹":6419,"à¤¡à¤¬à¤°":6420,"à¤¡à¤°à¤®à¤§":6421,"Ġà¤ľà¤¸à¤²":6422,"Ġà¤°à¤¡à¤£":6423,"à¤Ńà¤Ĺà¤¤":6424,"Ġà¤Ĺà¤¤à¤ª":6425,"Ġà¤Ńà¤°à¤ļ":6426,"à¤Īà¤Ĺ":6427,"à¤ķà¤°à¤¶à¤¹":6428,"à¤ıà¤¬à¤²":6429,"Ġà¤īà¤ªà¤Ĩà¤¯":6430,"à¤Ŀà¤®à¤ļ":6431,"à¤Ĺà¤³à¤ļ":6432,"Ġà¥¨à¥¨à¥¦":6433,"à¤ļà¤¨à¤¹":6434,"Ġà¤ħà¤µà¤¤à¤°à¤²":6435,"à¥ªà¥§":6436,"Ġà¤Ĩà¤Īà¤¶":6437,"Ġà¤«à¤²à¤Łà¤£":6438,"Ġ650":6439,"Ġà¤ķà¤łà¤¡":6440,"Ġ2007":6441,"Ġ245":6442,"chem":6443,"Ġà¤ļà¤®à¤ķà¤¤":6444,"Ġà¤Ńà¤Łà¤ķà¤³":6445,"Ġà¤§à¤¡à¤ªà¤¡à¤¤":6446,"urbine":6447,"sa":6448,"}}":6449,"Ġar":6450,"Ġed":6451,"à¤¯à¤ħà¤®":6452,"à¤¹à¤Ń":6453,"à¤µà¤ĩ":6454,"à¤µà¤§à¤¨":6455,"à¤¸à¤ķà¤²":6456,"à¤¦à¤°à¤ķ":6457,"Ġà¤ªà¤¤à¤ª":6458,"à¤Ĺà¤¸à¤¹":6459,"à¤Īà¤¸à¤°":6460,"à¤ħà¤¸à¤¹":6461,"Ġà¥Ł":6462,"à¤ıà¤Ĺ":6463,"à¤¡à¤²à¤ļ":6464,"à¤Łà¤²à¤¨":6465,"à¤¯à¤²à¤®":6466,"Ġà¤ħà¤®à¤°à¤¸":6467,"à¤¹à¤¨à¤°":6468,"à¤¹à¤¨à¤¨":6469,"à¤¹à¤¨à¤ª":6470,"à¤§à¤µà¤ļ":6471,"à¤ħà¤¨à¤§":6472,"à¤ıà¤®à¤Ĩà¤°à¤ļ":6473,"à¥¯à¥«":6474,"à¥®à¥«":6475,"à¥®à¥Ń":6476,"2021":6477,"Ġà¥¯à¥¯à¥¯":6478,"Ġà¥§à¥¨à¥¦à¥¦":6479,"Ġà¤įà¤¶":6480,"Ġà¤ķà¤³à¤µà¤¤":6481,"Ġ161":6482,"Ġ165":6483,"Ġà¥§à¥¦à¥¦à¥¦à¥¦":6484,"esign":6485,"Ġà¤¢à¤ķà¤²à¤¤":6486,"Ġà¤¸à¤Īà¤¦à¤²":6487,"Ġà¥«à¥¦à¥¦à¥¦":6488,"à¤įà¤ķ":6489,"cep":6490,"Ġfinal":6491,"kr":6492,"mr":6493,"nl":6494,"ote":6495,"{{":6496,"à¤²à¤Ī":6497,"à¤²à¤Ŀ":6498,"à¤ķà¤¨à¤ļ":6499,"Ġà¤ħà¤Ĺà¤£":6500,"Ġà¤¨à¤¤à¤®à¤¸":6501,"à¤¡à¤Ńà¤°":6502,"Ġà¤ľà¤¦":6503,"à¤ĸà¤¡à¤¸":6504,"Ġà¤¬à¤Ĺà¤²":6505,"Ġà¤¶à¤¹à¤¨":6506,"Ġà¤Ĺà¤£à¤¤":6507,"Ġà¤īà¤Ĺà¤²":6508,"à¤°à¤ķà¤°à¤ļ":6509,"à¤Ĩà¤ĸ":6510,"à¤«à¤Ŀ":6511,"à¤ķà¤¡à¤ķ":6512,"à¤Ĺà¤¤à¤¹":6513,"à¤¶à¤¨à¤ķ":6514,"à¤¶à¤¨à¤ķà¤¡":6515,"à¤ľà¤¯à¤¨à¤Ĺà¤°":6516,"Ġà¤Ĩà¤µà¤³à¤£":6517,"Ġà¤®à¤²à¤ª":6518,"Ġà¤Ĩà¤¦à¤°à¤ª":6519,"à¤¶à¤²à¤ļ":6520,"à¤°à¤¹à¤¦":6521,"Ġà¤¬à¤¹à¤°à¤²":6522,"à¤ıà¤®à¤¡à¤¬":6523,"Ġà¥«à¥«à¥¦":6524,"à¤Ĭà¤¸à¤µà¤°":6525,"Ġà¤°à¤£à¤ª":6526,"à¤°à¤µà¤°à¤¹":6527,"Ġà¤ħà¤¡à¤ķà¤¤":6528,"à¤Īà¤Łà¤¹":6529,"Ġ153":6530,"Ġ1200":6531,"Ġà¤ķà¤³à¤¸à¤ķà¤°":6532,"Ġcol":6533,"Ġà¤ıà¤²à¤Ł":6534,"Ġsa":6535,"ern":6536,"err":6537,"Ġà¤¤à¤³à¤®à¤³":6538,"Ġà¥§à¥®à¥¨":6539,"à¤¶à¤®à¤§à¤²":6540,"Ġme":6541,"Ġà¤¹à¤®à¤ľ":6542,"à¤Ĩà¤¯à¤ıà¤¡":6543,"Ġà¤ļà¤¹à¤²à¤ļ":6544,"ushan":6545,"à¥¨à¥¦à¥¦à¥Ń":6546,"therm":6547,"Ġà¤ķà¤Łà¤ķà¤Ł":6548,"Ġà¤ļà¤£à¤ļà¤£":6549,"Ġà¤Ķà¤·à¤§à¤¨":6550,"à¤ªà¤Łà¤ķà¤¥":6551,"cp":6552,"par":6553,"Ġ]":6554,"à¤°à¤°à¤ļà¤¨":6555,"à¤ªà¤Ń":6556,"Ġà¤¸à¤¶":6557,"à¤¬à¤¹à¤°":6558,"Ġà¤°à¤Ĺ":6559,"Ġà¤°à¤¬à¤°":6560,"Ġà¤¬à¤¢":6561,"Ġà¤¶à¤®à¤¶":6562,"Ġà¤Ńà¤Łà¤¨":6563,"Ġà¤ĺà¤¨à¤ķà¤ļà¤°":6564,"Ġà¤īà¤ĸà¤³":6565,"Ġà¤ıà¤ļà¤ª":6566,"à¤Ĩà¤¸à¤ª":6567,"Ġà¤ĩà¤¨à¤¸":6568,"à¤Ĭà¤¸à¤¨":6569,"à¤°à¤¦à¤°à¤®":6570,"à¤Łà¤²à¤®":6571,"à¤¤à¤ķà¤°à¤£":6572,"à¤ĵà¤®à¤°":6573,"Ġà¤®à¤²à¤®":6574,"à¤īà¤ªà¤ķ":6575,"à¤®à¤²à¤¤":6576,"Ġà¤ķà¤ªà¤¸":6577,"Ġà¤Ĩà¤łà¤ľà¤£":6578,"à¤ıà¤ķà¤µ":6579,"à¤¤à¤¤à¤³":6580,"à¤ĳà¤¡":6581,"Ġà¤¬à¤¸à¤ªà¤ļ":6582,"à¥¨à¥¦à¥¨à¥¨":6583,"à¤¨à¤ªà¤¥à¤ķ":6584,"Ġ129":6585,"à¤īà¤¦à¤¯":6586,"Ġ143":6587,"Ġcctv":6588,"Ġà¤¸à¤ľà¤µà¤²":6589,"Ġai":6590,"ama":6591,"à¤¹à¤ľà¤¹":6592,"Ġwhatsapp":6593,"Ġ03":6594,"à¤¯à¤Ĺà¤¡à¤®à¤§":6595,"Ġà¤īà¤²à¤Ĺà¤¡à¤£":6596,"Ġà¥§à¥¯à¥®à¥ª":6597,"Ġà¤ıà¤ıà¤¨à¤Ĩà¤¯à¤¨":6598,"150":6599,"58":6600,"Ġim":6601,"à¤ķà¤Ŀ":6602,"à¤ķà¤¦à¤µ":6603,"à¤ļà¤²à¤ķ":6604,"Ġà¤Ĩà¤Łà¤ª":6605,"à¤ľà¤¯à¤²":6606,"à¤¡à¤¨à¤¨":6607,"à¤°à¤ķà¤®":6608,"à¤Īà¤Łà¤¨":6609,"à¤ĺà¤¸":6610,"à¤ľà¤ªà¤¸à¤¹":6611,"âĢįà¤¿":6612,"Ġà¤Ĩà¤¯à¤Īà¤¡":6613,"Ġà¥¨à¥§à¥§":6614,"à¤§à¤¨à¤¹":6615,"Ġà¤¹à¤²à¤¤":6616,"Ġà¤¹à¤²à¤µà¤¤":6617,"à¤ıà¤¸à¤®à¤§":6618,"à¤¨à¤°à¤®à¤§":6619,"à¤Ĩà¤°à¤ıà¤²":6620,"à¤°à¤Ńà¤¦":6621,"2025":6622,"Ġà¤¦à¤ĸà¤²à¤¹":6623,"Ġ1947":6624,"Ġ185":6625,"Ġ307":6626,"2012":6627,"Ġ2005":6628,"Ġbs":6629,"Ġnic":6630,"à¤µà¤Ĺà¤¨à¤ļ":6631,"olog":6632,"Ġà¤¢à¤Ĺà¤«":6633,"Ġà¥¨à¥¦à¥§à¥Ńà¥§à¥®":6634,"âĢĭâĢĭ":6635,"Ġà¥¨à¥¦à¥§à¥«à¥§à¥¬":6636,"Ġà¤ħà¤¡à¤ĸà¤³à¤¤":6637,"ithium":6638,"cbi":6639,"dfc":6640,"ral":6641,"ue":6642,"à¤°à¤Īà¤¸":6643,"à¤¸à¤¶à¤¸":6644,"Ġà¤ħà¤°à¤¶à¤¦":6645,"à¤³à¤¸à¤°":6646,"à¤¬à¤¨à¤ļ":6647,"Ġà¤Ŀà¤²":6648,"Ġà¤Łà¤¸":6649,"Ġà¤¡à¤®":6650,"à¤ľà¤ªà¤¸à¤®":6651,"à¤µà¤¡à¤ķà¤°":6652,"à¤®à¤¨à¤µà¤®":6653,"à¤¹à¤°à¤µà¤°":6654,"à¤ĵà¤³":6655,"à¤Ĩà¤¯à¤Ĩà¤¯à¤ļ":6656,"à¤Ĩà¤¯à¤ıà¤²à¤ļ":6657,"à¤īà¤¨à¤®à¤§":6658,"à¤ļà¤²à¤®":6659,"à¤ļà¤²à¤ķà¤°":6660,"Ġ330":6661,"à¤ıà¤®à¤ıà¤®":6662,"Ġà¤ıà¤¸à¤ıà¤®":6663,"à¤Ĺà¤¨à¤®à¤¤":6664,"Ġ159":6665,"à¤¸à¤Ĺà¤³à¥Ł":6666,"Ġ111":6667,"ating":6668,"Ġ304":6669,"Ġ2003":6670,"Ġ2006":6671,"Ġapp":6672,"Ġrbi":6673,"ith":6674,"Ġà¥²à¤ªà¤ļ":6675,"Ġ311":6676,"ood":6677,"Ġà¤Ĩà¤īà¤Ł":6678,"Ġupdates":6679,"gle":6680,"land":6681,"à¤¯à¤ħ":6682,"à¤µà¤Ľà¤¤":6683,"à¤¸à¤¬à¤¦":6684,"Ġà¤ħà¤¦à¤²":6685,"à¤¶à¤«":6686,"à¤¬à¤Ĺà¤¦":6687,"Ġà¤¬à¤Łà¤²":6688,"Ġà¤ĺà¤¨à¤¦":6689,"à¤°à¤£à¤¤à¤¯":6690,"à¤Ĺà¤²à¤µà¤°":6691,"à¤Łà¤²à¤ķà¤¡":6692,"à¤ĩà¤ªà¤²":6693,"Ġà¤ļà¤°à¤ĸ":6694,"à¤ļà¤²à¤ª":6695,"Ġà¤Ĩà¤ľà¤Ĺ":6696,"à¤ħà¤¸à¤ªà¤°":6697,"à¤¯à¤°à¤²à¤¹":6698,"Ġà¤ıà¤¸à¤ľ":6699,"Ġà¤ıà¤®à¤ıà¤¸à¤ª":6700,"à¤¯à¤¶à¤µ":6701,"à¤īà¤¦à¤¯à¤¨à¤°":6702,"à¤ıà¤ļà¤ıà¤¸":6703,"Ġ149":6704,"Ġ1999":6705,"Ġà¥§à¥©à¥¯":6706,"Ġab":6707,"Ġà¥²à¤¬":6708,"Ġà¤ħà¤ªà¤¹à¤°à¤£à¤ķà¤°":6709,"à¤¹à¤ļà¤µà¤²":6710,"Ġ277":6711,"Ġà¥§à¥¯à¥¯à¥¬":6712,"elhi":6713,"fat":6714,"voltage":6715,"ÑĮ":6716,"Ġil":6717,"à¤¨à¤Ĩà¤¯à¤¡":6718,"à¤¹à¤±à¤¯":6719,"à¤µà¤«":6720,"Ġà¤Ĩà¤Łà¤²":6721,"à¤ľà¤¦à¤¯":6722,"Ġà¤¦à¤ª":6723,"Ġà¤Ĺà¤ľà¤ªà¤¤":6724,"Ġà¤Ĺà¤Ŀà¤²":6725,"Ġà¤ļà¤Łà¤ķà¤¨":6726,"à¤¯à¤ķà¤¶":6727,"à¤µà¤¤à¤¶":6728,"Ġà¤Ĩà¤¯à¤ĵà¤¸":6729,"à¤·à¤ķà¤µà¤°":6730,"à¤Ĩà¤¯à¤µà¤°":6731,"à¤®à¤ķà¤¦":6732,"à¤Łà¤ļà¤°":6733,"Ġà¤Ĺà¤°à¤³":6734,"à¥¬à¥§":6735,"à¤ĺà¤°à¤«":6736,"Ġà¤ļà¤ķà¤µ":6737,"Ġ6000":6738,"int":6739,"inical":6740,"Ġà¥§à¥¨à¥¯":6741,"ata":6742,"ici":6743,"Ġà¤ĸà¤¡à¤¬à¤¡":6744,"ident":6745,"Ġà¤µà¤ļà¤¨à¤¬à¤§":6746,"irth":6747,"acc":6748,"Ġ1996":6749,"Ġà¤īà¤§à¤³à¤ªà¤Ł":6750,"78":6751,"don":6752,"ve":6753,"Ġ=":6754,"à¤°à¤¹à¤®":6755,"à¤¤à¤®à¤¨":6756,"à¤¨à¤µà¤²":6757,"à¤¹à¤®à¤ļ":6758,"à¤®à¤¢":6759,"Ġà¤Ĩà¤¦à¤²":6760,"Ġà¤¸à¤³":6761,"Ġà¤¸à¤°à¤®":6762,"Ġà¤¸à¤ªà¤¤":6763,"à¤¦à¤³à¤£":6764,"Ġà¤ªà¤¤à¤µ":6765,"à¤Łà¤ľà¤µà¤³":6766,"à¤§à¤Ĺ":6767,"à¤¬à¤Łà¥Ł":6768,"Ġà¤¬à¤¸à¤Ĺ":6769,"Ġà¤¬à¤¬à¤¨":6770,"à¤łà¤¬":6771,"à¤°à¤¤à¤¶":6772,"à¤Ĩà¤łà¤µ":6773,"à¤ħà¤µà¤ľ":6774,"à¤°à¤®à¤£à¤§":6775,"à¤«à¤Ĺ":6776,"Ġà¤¸à¤®à¤ķà¤ķ":6777,"à¤¯à¤¤à¤¦":6778,"à¤®à¤¨à¤¦":6779,"à¤ľà¤¯à¤°":6780,"à¤Ĩà¤¯à¤ıà¤¸à¤ıà¤«":6781,"à¤§à¤¨à¤Ĺ":6782,"Ġà¤īà¤®à¤Łà¤µà¤£":6783,"Ġà¤Ĩà¤Ĺà¤°à¤ķà¤°":6784,"Ġà¤Ľà¤¬":6785,"Ġà¤Ľà¤³à¤µà¤£":6786,"Ġà¥«à¥©à¥¦":6787,"à¤ıà¤¨à¤ıà¤²":6788,"Ġà¤ĩà¤¨à¤¡":6789,"Ġà¤°à¤£à¤Ĺ":6790,"à¤Łà¤µà¤°à¤¹":6791,"Ġà¤Ķà¤¸":6792,"Ġà¤¢à¤³":6793,"à¤ıà¤ļà¤¸":6794,"ance":6795,"Ġà¤§à¤¡à¤§à¤¡":6796,"Ġad":6797,"à¤¯à¤Ĺà¤¯":6798,"Ġ243":6799,"à¤Ĩà¤¯à¤ıà¤ıà¤¸":6800,"Ġ326":6801,"uper":6802,"appy":6803,"Ġà¤ıà¤«à¤Ĩà¤¯à¤Ĩ":6804,"Ġà¤Ŀà¤Ĺà¤¡à¤¤":6805,"à¤ıà¤ıà¤¨à¤Ĩà¤¯à¤¨":6806,"Ġresult":6807,"Ġà¤Ĺà¤ľà¤¬à¤ľà¤²":6808,"130":6809,"der":6810,"ear":6811,"Ġor":6812,"à¥įà¥ī":6813,"à¤§à¤ªà¤£":6814,"à¤§à¤®à¤ķ":6815,"à¤¡à¤Ł":6816,"à¤¡à¤ªà¤°":6817,"à¤¡à¤µà¤¡":6818,"Ġà¤¹à¤°à¤ª":6819,"à¤·à¤ħà¤ĸ":6820,"à¤¬à¤ķà¤²":6821,"Ġà¤ľà¤ªà¤¤":6822,"Ġà¤¬à¤§à¤²":6823,"Ġà¤¶à¤¤à¤¶":6824,"à¤¥à¤ĸ":6825,"à¤łà¤¦":6826,"Ġà¤īà¤Ĺà¤µà¤¤":6827,"à¤°à¤¤à¤ľà¤ª":6828,"à¤¤à¤°à¤µ":6829,"à¤°à¤£à¤¦":6830,"à¤Ĩà¤Īà¤¸":6831,"à¤ħà¤¥à¤µ":6832,"Ġà¤ıà¤ķà¤Łà¥Ł":6833,"à¤ķà¤°à¤ı":6834,"à¤¯à¤®à¤¸à¤¨à¤¨":6835,"à¤ıà¤²à¤²":6836,"à¤Ĭà¤¹":6837,"Ġà¤¨à¤µà¤¯":6838,"à¤ķà¤²à¤¸":6839,"à¤ļà¤²à¤°":6840,"Ġà¤Ĩà¤Ĺà¤¡":6841,"Ġà¤¬à¤°à¤¬":6842,"Ġà¤²à¤¢à¤µà¤¯":6843,"Ġà¤¸à¤ļà¤¦":6844,"Ġà¤¬à¤¨à¤ķà¤°":6845,"Ġà¤¹à¤¸à¤¨à¤ļ":6846,"à¤ıà¤²à¤Ĩà¤°":6847,"Ġà¤ĺà¤¡à¤¤à¤ļ":6848,"ina":6849,"Ġà¤įà¤ªà¤ļ":6850,"Ġà¤ıà¤«à¤¬":6851,"Ġ2001":6852,"Ġtri":6853,"Ġà¤ļà¤¢à¤µà¤¤":6854,"Ġà¥²à¤¡à¤®":6855,"Ġ239":6856,"ush":6857,"à¤¸à¤«à¤°à¤ļ":6858,"rio":6859,"à¤¤à¤ĸà¤³à¤ķà¤°":6860,"ization":6861,"ks":6862,"lithium":6863,"à¤°à¤¡à¤£":6864,"à¥ĩÃ·":6865,"à¤²à¤°à¤¶":6866,"à¤²à¤ĺà¤°à¤ļ":6867,"à¤µà¤¥":6868,"à¤µà¤¦à¤¤":6869,"à¤¸à¤®à¤ķ":6870,"à¤®à¤¬à¤¹":6871,"Ġà¤ļà¤¨":6872,"à¤°à¤¤à¤Ĩà¤«":6873,"à¤Īà¤¸à¤ļ":6874,"à¤Ĩà¤ľà¤®":6875,"à¤ĵà¤²à¤ļ":6876,"à¤Ĩà¤°à¤ıà¤¸à¤ļ":6877,"Ġà¥©à¥©à¥¦":6878,"à¤ıà¤®à¤Ĩà¤¯à¤¡":6879,"à¥®à¥¬":6880,"Ġà¤ħà¤¡à¤Ĺà¤³":6881,"ator":6882,"alme":6883,"Ġà¤ķà¤µà¤ł":6884,"amin":6885,"Ġ354":6886,"asht":6887,"oly":6888,"Ġà¤µà¤°à¤ļà¤·":6889,"ight":6890,"à¤ħà¤¡à¤¥à¤³":6891,"à¤¿Ã·à¤¾":6892,"expos":6893,"icket":6894,"56":6895,"ae":6896,"sat":6897,"Ã±":6898,"à¤¤à¤ĺ":6899,"à¤ļà¤ķà¤¡":6900,"à¤ªà¤Łà¤²":6901,"Ġà¤ªà¤°à¤®à¤µ":6902,"à¤Ĺà¤ªà¤Ł":6903,"Ġà¤ħà¤Ĺà¤¤":6904,"Ġà¤Ĩà¤¹à¤°à¤£":6905,"Ġà¤¦à¤Ĺà¤¦à¤Ĺ":6906,"à¤ĸà¤¨à¤¹":6907,"à¤łà¤°à¤²":6908,"Ġà¤Ńà¤Ĺà¤µà¤¤":6909,"Ġà¤«à¤²à¤¨":6910,"Ġà¤«à¤¡à¤µà¤£":6911,"à¤«à¤£":6912,"à¤Łà¤¨à¤¸":6913,"Ġà¤Ĩà¤¯à¤ıà¤«":6914,"Ġà¤Ĩà¤¯à¤Ĩà¤¯à¤ıà¤®":6915,"à¤ĩà¤¨à¤¸":6916,"à¤Ľà¤µ":6917,"à¤īà¤®à¤°":6918,"Ġà¤¥à¤¨à¤¬à¤°":6919,"à¤¦à¤¨à¤¨à¤Ĺà¤°":6920,"Ġà¤¤à¤¸à¤¦":6921,"Ġà¤Ľà¤ªà¤°":6922,"Ġà¤¬à¤°à¤³à¤²":6923,"à¤ķà¤ļà¤ķ":6924,"inter":6925,"à¤¨à¤¶à¤¹":6926,"à¤ĩà¤¸à¤ľ":6927,"Ġà¥§à¥©à¥®":6928,"Ġà¤ķà¤ļà¤¯":6929,"ste":6930,"Ġ227":6931,"à¤īà¤ªà¤ķà¤°à¤£":6932,"Ġà¤ĺà¤¸à¤°à¤Ĺ":6933,"Ġoff":6934,"ifi":6935,"Ġà¤ħà¤¹à¤®à¤¦à¤¨à¤Ĺà¤°à¤ļ":6936,"abaddi":6937,"chemical":6938,"73":6939,"air":6940,"battery":6941,"à¤¤à¤ªà¤°":6942,"à¤¨à¤ľà¤°":6943,"à¤ķà¤³à¤²":6944,"à¤µà¤ªà¤°":6945,"à¤µà¤Ĺà¤¤":6946,"à¤®à¤¸à¤Ń":6947,"à¤Łà¤ħà¤¨":6948,"à¤ľà¤ªà¤£":6949,"à¤ľà¤°à¤²":6950,"Ġà¤µà¤Łà¤¹":6951,"Ġà¤¹à¤°à¤¹":6952,"Ġà¤¯à¤²":6953,"à¤¬à¤¨à¤µ":6954,"Ġà¤°à¤¸à¤¦":6955,"Ġà¤«à¤¡à¤£":6956,"à¤«à¤¡":6957,"à¥Ī'":6958,"à¤µà¤²à¤Ĺ":6959,"à¤¹à¤°à¤Ń":6960,"à¤ĩà¤Ĺ":6961,"Ġà¤Ĩà¤µà¤Ł":6962,"à¤µà¤³à¤¸à¤°":6963,"à¤¤à¤µà¤¨":6964,"à¤ĵà¤¶":6965,"à¤¨à¤µà¤µà¤°":6966,"à¤¸à¤¤à¤ļ":6967,"Ġà¤¦à¤¹à¤¶":6968,"Ġà¥©à¥¨à¥¦":6969,"à¤¤à¤³à¥Ł":6970,"Ġà¤Ńà¤°à¤°à¤¸":6971,"Ġà¤Ńà¤°à¤¡à¤²":6972,"Ġà¤ªà¤Łà¤¸":6973,"à¤¶à¤®à¤¨à¤¦à¤²":6974,"Ġà¤įà¤²à¤°":6975,"Ġ148":6976,"à¤¾''":6977,"Ġsu":6978,"Ġser":6979,"Ġà¥§à¥©à¥¬":6980,"Ġà¤µà¤ľà¤¨à¤¦":6981,"Ġà¥¨à¥ªà¥¦":6982,"Ġbirth":6983,"Ġncb":6984,"ide":6985,"Ġgoo":6986,"2004":6987,"Ġà¤Ĩà¤īà¤Łà¤²":6988,"à¤ħà¤µà¤ľà¤¡":6989,"dp":6990,"happy":6991,"jee":6992,"turbine":6993,"var":6994,"wa":6995,"à¤°à¤Ĺà¤¡":6996,"à¤µà¤Łà¤®à¤§":6997,"à¤¦à¤¯à¤¸":6998,"Ġà¤ħà¤¢à¤³":6999,"Ġà¤¹à¤¯à¤Ĺà¤¯":7000,"Ġà¤¬à¤¨à¤°":7001,"à¤µà¤°à¤«":7002,"Ġà¤Ĺà¤³à¤£":7003,"à¤°à¤ķà¤¸":7004,"Ġà¤Łà¤µ":7005,"Ġà¤®à¤¹à¤²":7006,"à¤ıà¤Ĩà¤¯à¤ıà¤®":7007,"à¤Ĭà¤ªà¤£":7008,"à¤Ĺà¤²à¤®à¤§":7009,"à¤µà¤¤à¤ķà¤¡":7010,"à¤ĵà¤ªà¤¨":7011,"à¤Ĩà¤¯à¤ĵà¤¸":7012,"à¤Ľà¤ļ":7013,"à¤³à¤µà¤Ł":7014,"à¤ľà¤®à¤ľ":7015,"à¥®à¥ª":7016,"à¤Īà¤ķà¤®à¤§":7017,"Ġà¤«à¤°à¤«":7018,"à¤Īà¤Łà¤¸":7019,"Ġà¥§à¥¨à¥Ń":7020,"Ġà¥§à¥«à¥©":7021,"Ġà¤ıà¤ħà¤°à¤«":7022,"Ġà¥§à¥ªà¥¬":7023,"Ġà¥§à¥©à¥Ń":7024,"Ġass":7025,"à¤²à¤¡à¤¬":7026,"Ġfl":7027,"Ġ325":7028,"Ġà¤ĵà¤ªà¤¨à¤°":7029,"Ġkoh":7030,"à¥¨à¥¦à¥¦à¥«":7031,"à¤ıà¤¨à¤ıà¤¸à¤ıà¤¸":7032,"Ġà¤Ńà¤¡à¤ķà¤µà¤£":7033,"à¤ıà¤¨à¤Ĩà¤¯à¤ıà¤¨":7034,"cbse":7035,"Ġcrpf":7036,"Ġkohli":7037,"live":7038,"ry":7039,"à¤¤à¤¨à¤ļ":7040,"à¤¨à¤¦à¤°":7041,"à¤µà¤·":7042,"à¤µà¤Łà¤°":7043,"Ġà¤Ĩà¤ľà¤°":7044,"à¤¦à¤¤à¤ª":7045,"à¤Ĺà¤¸à¤®":7046,"Ġà¤¨à¤£":7047,"à¤¶à¤ı":7048,"à¤¶à¤¸à¤¹":7049,"Ġà¤¬à¤Ŀ":7050,"Ġà¤¶à¤®à¤²":7051,"Ġà¤ħà¤¸à¤ļ":7052,"Ġà¤²à¤ķà¤¡":7053,"Ġà¤īà¤¹":7054,"Ġà¤īà¤¥à¤³":7055,"à¤°à¤¤à¤¯":7056,"à¤°à¤¤à¤ĩ":7057,"Ġà¤ıà¤¨à¤ķ":7058,"à¤°à¤µà¤ļ":7059,"à¤ıà¤Ĩà¤¯à¤¨":7060,"à¤Ŀà¤ķ":7061,"à¤Łà¤ķà¤³à¤¤":7062,"à¤¨à¤ļà¤°":7063,"Ġà¤īà¤ªà¤¸à¤£":7064,"Ġà¤ħà¤ľà¤®à¤²":7065,"Ġà¤¹à¤²à¤²":7066,"Ġà¤ıà¤¸à¤ıà¤®à¤ı":7067,"Ġà¤įà¤¡à¤µ":7068,"Ġ375":7069,"Ġà¥§à¥©à¥¨":7070,"Ġman":7071,"à¤¤à¤¬à¤Ĺ":7072,"Ġà¤ľà¤¸à¤ľà¤¸":7073,"Ġkabaddi":7074,"2008":7075,"emb":7076,"à¤Ĺà¤łà¤¨":7077,"Ġà¤ıà¤¨à¤Ĩà¤¯à¤µ":7078,"istan":7079,"clinical":7080,"Ġà¤ĸà¤µà¤ĸà¤µà¤£":7081,"error":7082,"250":7083,"dc":7084,"oor":7085,"pe":7086,"Ġq":7087,"Ġus":7088,"à¤¤à¤¨à¤°":7089,"à¤¨à¤ľà¤¨à¤ķ":7090,"à¤ļà¤ķà¤²":7091,"à¤µà¤¶à¤ķ":7092,"à¤ªà¤Ľ":7093,"à¤¦à¤ªà¤£":7094,"Ġà¤®à¤Łà¤ķ":7095,"Ġà¤ħà¤Ĺà¤°":7096,"à¤ľà¤²à¤Ĺ":7097,"à¤¡à¤ªà¤¤":7098,"à¤Ńà¤µà¤ļ":7099,"Ġà¤ħà¤¸à¤«à¤²":7100,"Ġà¤ļà¤²à¤¤":7101,"à¤°à¤¤à¤³":7102,"à¤¢à¤¹":7103,"à¤ıà¤£":7104,"à¤ıà¤Ĩà¤¯à¤ļ":7105,"à¤°à¤¸à¤²":7106,"à¤Ŀà¤°à¤¨":7107,"âĢ²":7108,"à¤¶à¤¨à¤Ĺ":7109,"Ġà¤ħà¤ªà¤¸":7110,"Ġà¤ħà¤ªà¤Ĺ":7111,"Ġà¥¨à¥§à¥¯":7112,"Ġà¤®à¤§à¤®":7113,"à¤ªà¤¦à¤¸":7114,"Ġ20000":7115,"à¤ıà¤¸à¤ľ":7116,"Ġà¤ľà¤Ĺà¤®":7117,"à¤ıà¤®à¤¯":7118,"à¤¨à¤Ĺà¤°à¤µ":7119,"Ġà¤ıà¤¨à¤Ĩà¤¯à¤Ł":7120,"Ġà¤ıà¤®à¤Ĩà¤¯":7121,"à¤ıà¤²à¤ı":7122,"Ġà¥®à¥©à¥¦":7123,"à¤ıà¤ļà¤¯":7124,"are":7125,"Ġà¥¨à¥«à¥¦à¥¦":7126,"Ġà¥§à¥ªà¥®":7127,"Ġ169":7128,"Ġà¥©à¥¦à¥¨":7129,"Ġà¥¨à¥¬à¥¦":7130,"ung":7131,"à¤¨à¤Ńà¤¦":7132,"Ġev":7133,"Ġà¤ħà¤µà¤¯à¤µà¤¦":7134,"à¤ħà¤Łà¤²à¤ľ":7135,"Ġà¤ªà¤ªà¤Ī":7136,"axy":7137,"form":7138,"Ġà¤®à¤¡à¤ķà¤Īà¤ķà¤°":7139,"bps":7140,"jnu":7141,"ode":7142,"port":7143,"Ġen":7144,"à¤¾à¥į":7145,"à¤¯à¤¶à¤ļ":7146,"à¤ķà¤Łà¤°":7147,"Ġà¤Ĩà¤¡à¤Ĺ":7148,"Ġà¤®à¤¤à¤µ":7149,"à¤Łà¤°à¤ķ":7150,"à¥Ĥà¤ģ":7151,"à¤Ĺà¤¸à¤°à¤ķà¤°":7152,"Ġà¤¨à¤ļ":7153,"à¤¶à¤Ĺ":7154,"à¤¶à¤µà¤ª":7155,"Ġà¤¦à¤®à¤Ł":7156,"Ġà¤ķà¤°à¤ļ":7157,"à¤łà¤¹":7158,"Ġà¤²à¤³":7159,"Ġà¤ĸà¤¤à¤°à¤¨":7160,"Ġà¤ıà¤¡à¤µà¤°":7161,"à¤°à¤µà¤¨":7162,"à¤²à¤¯à¤¹":7163,"à¤¸à¤°à¤¹":7164,"à¤¸à¤°à¤Ĺ":7165,"à¤¤à¤ªà¤Ł":7166,"à¤®à¤¨à¤¨":7167,"à¤Ĺà¤°à¤¨":7168,"à¤¶à¤¨à¤ªà¤Ł":7169,"à¤¹à¤°à¤Ł":7170,"à¤ľà¤¯à¤¦":7171,"Ġà¤ĳà¤ķà¤²":7172,"à¤Ĩà¤¯à¤ıà¤ļ":7173,"à¤Łà¤ļà¤ķ":7174,"à¤ªà¤ļà¤ķ":7175,"Ġà¤ıà¤®à¤ıà¤®":7176,"à¤¬à¤ľà¤¬":7177,"à¤°à¤¡à¥Ł":7178,"Ġà¤ĺà¤Łà¤µà¤£":7179,"Ġ184":7180,"ert":7181,"ale":7182,"alaxy":7183,"Ġà¥§à¥©à¥ª":7184,"Ġmin":7185,"Ġà¤Ĺà¤µà¤Ĺà¤µ":7186,"rah":7187,"Ġà¥§à¥¯à¥¯à¥©":7188,"Ġreview":7189,"jput":7190,"Ġrajput":7191,"spectrum":7192,"72":7193,"81":7194,"gen":7195,"lic":7196,"±Ð»":7197,"Ġit":7198,"Ġqu":7199,"à¤²à¤°à¤ª":7200,"à¤®à¤Ĺà¤°":7201,"Ġà¤¸à¤¬à¤°":7202,"Ġà¤ªà¤¬à¤ľ":7203,"à¤Ĺà¤Łà¤¨":7204,"à¤§à¤Ń":7205,"Ġà¤¨à¤Īà¤®":7206,"Ġà¤µà¤¦":7207,"à¤¡à¤¡":7208,"à¤³à¤¸à¤µ":7209,"à¤·à¤µà¤¤":7210,"Ġà¤ľà¤¡à¤¤":7211,"à¤ĸà¤ľ":7212,"à¤łà¤Ńà¤°":7213,"Ġà¤²à¤¸à¤£":7214,"Ġà¤ĺà¤°à¤ª":7215,"à¤°à¤£à¤¸":7216,"Ġà¤Łà¤ļ":7217,"à¤µà¤¸à¤¤":7218,"à¤¹à¤£à¤µ":7219,"Ġà¤īà¤ªà¤¶":7220,"Ġà¤īà¤ªà¤¸à¤ļ":7221,"à¤Ĺà¤²à¤²":7222,"à¤ĸà¤²à¤«":7223,"à¤ľà¤¨à¤Ĺà¤°":7224,"Ġà¤¸à¤¹à¤ľà¤¸":7225,"à¤®à¤¤à¤Ń":7226,"Ġà¥¨à¥§à¥«":7227,"Ġà¥¨à¥§à¥Ń":7228,"à¤īà¤¬à¤¦":7229,"à¤·à¤¯à¤¹":7230,"Ġà¥ªà¥¨à¥¦":7231,"Ġà¥ªà¥©à¥¦":7232,"Ġà¤°à¤£à¤ķ":7233,"à¤Īà¤ķà¤µ":7234,"Ġ155":7235,"Ġà¤ħà¤«à¤ľà¤²":7236,"Ġà¤ĺà¤¸à¤ĺà¤¶":7237,"Ġà¥§à¥«à¥«":7238,"Ġ2500":7239,"à¤ªà¤µà¤Ī":7240,"Ġà¤ĺà¤Łà¤µ":7241,"Ġà¤ıà¤²à¤ıà¤¨à¤ľ":7242,"Ġ1800":7243,"Ġ139":7244,"Ġ377":7245,"Ġ210":7246,"Ġà¥¨à¥ªà¥©":7247,"Ġair":7248,"Ġgo":7249,"Ġà¤ķà¤¢à¤Ī":7250,"à¤ıà¤¸à¤Ĩà¤¯à¤Ĩà¤°à¤ļ":7251,"pmc":7252,"lyw":7253,"Ġà¤ıà¤¨à¤ıà¤¸à¤¯":7254,"tok":7255,"ÐºÐ°":7256,"2000":7257,"54":7258,"ding":7259,"Ø±":7260,"áĢ":7261,"à¤¤à¤°à¤¤":7262,"à¤¤à¤¬à¤°":7263,"à¤ķà¤ĸ":7264,"à¤µà¤«à¤³":7265,"Ġà¤ªà¤Ľ":7266,"Ġà¤®à¤²à¤ķ":7267,"Ġà¤µà¤°à¤£":7268,"Ġà¤¦à¤®à¤²":7269,"à¤¬à¤ķà¤¡":7270,"Ġà¤¬à¤°à¤ļ":7271,"à¤¢à¤¸":7272,"Ġà¤§à¤ľ":7273,"Ġà¤Ĩà¤®à¤°":7274,"à¤ľà¤¨à¤µ":7275,"à¤¯à¤²à¤¸":7276,"à¤µà¤³à¤Ł":7277,"à¤®à¤²à¤¦":7278,"ÂłĠ":7279,"à¤ıà¤®à¤Ĩà¤¯à¤ıà¤®":7280,"à¥¬à¥©":7281,"à¤ķà¤ļà¤³à¤µà¤³":7282,"à¤ıà¤«à¤ıà¤Ł":7283,"ins":7284,"à¤¸à¤Ĺà¤³à¤¤":7285,"Ġà¥§à¥ªà¥¯":7286,"Ġà¤§à¤µà¤¨à¤¸":7287,"Ġà¥§à¥¬à¥ª":7288,"à¤ªà¤¡à¤¦":7289,"Ġà¤Ŀà¤Łà¤ķà¤²":7290,"Ġrr":7291,"Ġnarendra":7292,"Ġà¥¨à¥©à¥¯":7293,"Ġà¥¨à¥Ńà¥Ń":7294,"Ġà¥©à¥«à¥ª":7295,"à¤¸à¤ĸà¤¸":7296,"Ġstudi":7297,"Ġà¤Ĩà¤ĩà¤¸à¤²":7298,"à¤¯à¤ħà¤²à¤°":7299,"Ġà¤«à¤°à¤«à¤Łà¤¤":7300,"1000":7301,"hon":7302,"ric":7303,"ÙĨ":7304,"ĠÐ¾Ð":7305,"à¥ĩà¤¼":7306,"à¤¨à¤¤à¤®":7307,"à¤¨à¤¬à¤¦à¤²":7308,"à¤Łà¤°à¤¶":7309,"à¤Ĺà¤¨à¤¨":7310,"à¤¡à¤Ī":7311,"à¤³à¤¸à¤¦":7312,"Ġà¤¬à¤Łà¤¨":7313,"Ġà¤¬à¤¡à¥Ł":7314,"à¤Ńà¤°à¤ļ":7315,"à¤Ńà¤Łà¤ķ":7316,"Ġà¤²à¤°":7317,"Ġà¤Łà¥Ł":7318,"à¤¤à¤²à¤µ":7319,"Ġà¤ĩà¤¨à¤µ":7320,"Ġà¤¸à¤®à¤ªà¤¦à¤¸":7321,"à¤µà¤³à¤ļ":7322,"à¤Ľà¤ªà¤µ":7323,"à¤īà¤¬":7324,"Ġà¤ĵà¤ĸ":7325,"à¤ħà¤¸à¤£":7326,"à¤¤à¤¨à¤¶":7327,"Ġà¤²à¤¢à¥Ł":7328,"à¥®à¥¨":7329,"à¤ħà¤®à¤µà¤°":7330,"Ġà¤ĩà¤¨à¤ª":7331,"Ġà¤«à¤³à¤Ń":7332,"Ġpdt":7333,"Ġà¥§à¥¬à¥§":7334,"à¤ľà¤®à¤§à¤²":7335,"Ġà¤¸à¤°à¤³à¤¸à¤°à¤³":7336,"Ġ07":7337,"Ġà¤īà¤¸à¤³à¤¤":7338,"raj":7339,"edmi":7340,"Ġà¥§à¥¯à¥¯à¥¨":7341,"Ġà¤«à¤¡à¤ķà¤µà¤²":7342,"Ġà¥¨à¥§à¥§à¥¯":7343,"Ġà¤°à¤®à¤£à¤¦":7344,"iktok":7345,"wards":7346,"à¤īà¤ķà¤³à¤¤":7347,"à¤¨à¤īà¤ĺ":7348,"virat":7349,"ystem":7350,"Ġili":7351,"ashtra":7352,"Ġbirthday":7353,"ne":7354,"à¤¯à¤ªà¤°à¤²":7355,"à¤ķà¤Łà¤¤":7356,"à¤ļà¤°à¤¨":7357,"à¤µà¤¦à¤°":7358,"à¤Łà¤¸à¤ļ":7359,"à¤Łà¤¤à¤ļ":7360,"à¤Ĺà¤®à¤¤":7361,"à¤Ĺà¤ĩà¤¨":7362,"à¤¡à¤¨à¤¹":7363,"à¤ĸà¤°à¤£":7364,"à¤Ńà¤°à¤¦":7365,"Ġà¤īà¤Ĺà¤µà¤£":7366,"Ġà¤«à¤¯":7367,"à¤ªà¤°à¤ĵà¤µ":7368,"à¤µà¤²à¤ķà¤°":7369,"âĢįà¥ĥ":7370,"à¤·à¤ķà¤«à¤²":7371,"à¤ĵà¤¥":7372,"à¤²à¤¨à¤¨":7373,"à¤¬à¤²à¤µà¤°":7374,"à¤¨à¤¨à¤Ĺà¤°":7375,"à¤ľà¤Ĺà¤ľ":7376,"à¤ıà¤¨à¤ıà¤¨":7377,"à¤µà¤¢à¤¯":7378,"Ġà¤¸à¤µà¤¯à¤ļ":7379,"à¤°à¤Ĺà¤Ł":7380,"à¤®à¤£à¤¨":7381,"Ġà¤Ĺà¤£à¤ªà¤¤à¤°":7382,"à¤¦à¤®à¤°à¤²":7383,"Ġ25000":7384,"Ġ132":7385,"Ġson":7386,"Ġà¤ªà¤²à¤Łà¤²":7387,"Ġà¥§à¥®à¥«":7388,"Ġà¥§à¥®à¥¯":7389,"Ġà¥§à¥®à¥®":7390,"Ġ174":7391,"Ġà¥§à¥Ńà¥ª":7392,"Ġà¥¨à¥¨à¥ª":7393,"Ġà¤¹à¤¸à¤¨à¤¨":7394,"Ġà¥©à¥Ńà¥¬":7395,"Ġà¤Ĩà¤µà¤°à¤²":7396,"Ġà¥¦à¥§":7397,"www":7398,"Ġà¥§à¥¯à¥Ńà¥§":7399,"Ġatt":7400,"Ġà¥§à¥§à¥©à¥¦":7401,"ÑģÑĤ":7402,"nbsp":7403,"ushant":7404,"car":7405,"Ġà¤¾":7406,"à¤¾âĢį":7407,"à¤¹à¤¸à¤¨":7408,"à¤¹à¤°à¤ķà¤¤":7409,"à¤ļà¤Ń":7410,"à¤¸Âºà¤¯":7411,"à¤®à¤¡à¤Ĺ":7412,"à¤¦à¤¸à¤¹":7413,"Ġà¤®à¤¨à¤µ":7414,"à¤Łà¤®à¤ļ":7415,"à¤Łà¤°à¤¸à¤¹":7416,"à¤§à¤¬":7417,"Ġà¤¨à¤¡à¤²":7418,"à¤ľà¤ķà¤°":7419,"à¤ľà¤ªà¤°":7420,"Ġà¤µà¤±":7421,"à¤¶à¤ªà¤£":7422,"à¤¡à¤¤à¤°":7423,"Ġà¤¹à¤ķà¤¨":7424,"Ġà¤°à¤¯à¤¤":7425,"Ġà¤¬à¤«à¤°":7426,"à¤¥à¤¬":7427,"à¤°à¤¤à¤¦à¤ķ":7428,"Ġà¤ıà¤²à¤¸":7429,"à¤ħà¤¤à¤°":7430,"Ġà¤ĩà¤¡à¤¨":7431,"à¤²à¤¯à¤®à¤§":7432,"Ġà¤µà¤°à¤µà¤°à¤ļ":7433,"à¤Ĺà¤°à¤¬":7434,"à¤£à¤¤à¤¹":7435,"à¤¹à¤°à¤«":7436,"à¤ĩà¤¨à¤°":7437,"Ġà¤īà¤¦à¤Ĺ":7438,"Ġà¤®à¤¤à¤®à¤¤":7439,"Ġà¤ĵà¤ķà¤²":7440,"Ġà¤ķà¤²à¤¶":7441,"à¤ħà¤¸à¤¦":7442,"à¤§à¤µà¤ľ":7443,"à¤µà¤ļà¤ľà¤£":7444,"Ġà¤ľà¤Ĺà¤µ":7445,"à¤¨à¤¸à¤¸":7446,"Ġà¤ĳà¤«à¤®à¤§":7447,"à¤ħà¤®à¤®à¤§":7448,"Ġà¤Īà¤ļ":7449,"Ġà¤Īà¤¦à¤²":7450,"Ġà¥¬à¥©à¥¦":7451,"à¤ķà¤®à¤³":7452,"à¤°à¤¥à¤®à¤¶":7453,"à¤Ĩà¤ľà¤µà¤°à¤ļ":7454,"à¤¤à¤¥à¤°":7455,"Ġà¤§à¤¡à¤ķà¤£":7456,"arashtra":7457,"Ġ134":7458,"Ġà¤ħà¤ľà¤¯à¤ļ":7459,"Ġà¥§à¥¬à¥«":7460,"Ġà¥§à¥¬à¥¯":7461,"Ġmov":7462,"à¤ĸà¤¡à¤¯":7463,"Ġnda":7464,"Ġà¥¨à¥Ńà¥¦":7465,"Ġ201415":7466,"à¥¨à¥¦à¥¦à¥¦":7467,"Ġà¤ļà¤®à¤ķà¤£":7468,"Ġà¥ªà¥¯à¥¯":7469,"akistan":7470,"Ġstudy":7471,"Ġà¤ĸà¤¦à¤ĸ":7472,"à¤¬à¤²à¤ļà¤ķ":7473,"Ġcollect":7474,"rahul":7475,"59":7476,"63":7477,"74":7478,"br":7479,"ling":7480,"à¤¯à¤¤à¤°":7481,"à¤®à¤²à¤¨":7482,"Ġà¤Ĩà¤ľà¤¨":7483,"à¤¦à¤Ī":7484,"à¤ŁÃ±":7485,"à¤ľà¤ĸ":7486,"à¤ľà¤µà¤¸":7487,"Ġà¤¦à¤²à¤ļ":7488,"Ġà¤¶à¤°à¤®à¤¨":7489,"Ġà¤īà¤°à¤ķà¤²":7490,"Ġà¤īà¤Ĺà¤µà¤²":7491,"Ġà¤ıà¤¡à¤²":7492,"à¤¯à¤ķà¤²à¤²":7493,"à¤¢à¤¨":7494,"à¤ħà¤²à¤ķ":7495,"à¤«à¤Łà¤ķ":7496,"Ġà¤ĩà¤ª":7497,"à¤ıà¤¨à¤ļ":7498,"à¤Ŀà¤°à¤ļ":7499,"à¤Ĺà¤°à¤¹":7500,"Ġà¤Ĩà¤¯à¤Ĩà¤°":7501,"à¤Īà¤²à¤¸":7502,"à¤¸à¤²à¤¨":7503,"à¤ĩà¤ķà¤ļ":7504,"Ġà¤ħà¤ªà¤ļà¤¨":7505,"Ġà¤ĵà¤¸à¤°":7506,"à¤§à¤¨à¤¤":7507,"à¤ħà¤¨à¤ª":7508,"à¤µà¤°à¤£à¤¸":7509,"Ġ499":7510,"à¤ķà¤®à¤ªà¤£":7511,"âĢĮà¥ħ":7512,"Ġà¤µà¤¨à¤ĸ":7513,"à¤¶à¤®à¤¨à¤ļ":7514,"Ġ192":7515,"à¤¯à¤°à¤¸à¤²":7516,"Ġà¤¸à¤ľà¤µà¤£":7517,"Ġà¤ĵà¤²à¤¸à¤°":7518,"Ġtr":7519,"Ġà¤Ńà¤µà¤¨à¤®à¤§":7520,"Ġgalaxy":7521,"Ġà¥¨à¥®à¥®":7522,"Ġ04":7523,"Ġkkr":7524,"Ġà¤īà¤ķà¤³à¤µ":7525,"Ġà¥§à¥¯à¥¯à¥¦":7526,"abha":7527,"Ġhttp":7528,"Ġà¤µà¤°à¤¦à¤¹à¤¸":7529,"Ġà¤ĩà¤Ĺà¤¤à¤ª":7530,"trol":7531,"charge":7532,"à¤¤à¤īà¤¦à¤¦":7533,"Ġà¤¦à¤¹à¤¶à¤¦à¤µ":7534,"Ġstudies":7535,"tra":7536,"tos":7537,"ui":7538,"uction":7539,"wind":7540,"Ġ$":7541,"Ġà¤£":7542,"à¤°s":7543,"à¤¤à¤¨à¤¹":7544,"à¤¿âĢį":7545,"à¤¨à¤³":7546,"à¤ķà¤¨à¤°":7547,"à¤ļà¤¸à¤¹":7548,"à¤¸à¤ªà¤¨":7549,"à¤£à¤ķà¤Ł":7550,"à¥ģ)":7551,"à¤§à¤®à¤§":7552,"à¤§à¤µà¤²":7553,"à¤ľà¤®à¤¨":7554,"Ġà¤ľà¤¹à¤°":7555,"Ġà¤ľà¤²à¤ķ":7556,"Ġà¤Ŀà¤°à¤¦":7557,"Ġà¤īà¤ĸà¤¡":7558,"à¤°à¤¤à¤ķ":7559,"à¤°à¤¤à¤¦":7560,"à¤¤à¤°à¤ĸ":7561,"Ġà¤ĸà¤µà¤¯":7562,"à¤Ĩà¤³":7563,"à¤Ĩà¤ªà¤¸":7564,"à¤ħà¤µà¤¨":7565,"Ġà¤Łà¤³":7566,"à¤«à¤°à¤²":7567,"à¤¤à¤²à¤ĸ":7568,"à¤µà¤¸à¤Ī":7569,"Ġà¤§à¤¨à¤ķ":7570,"à¤ıà¤ıà¤ļ":7571,"à¤°à¤¸à¤Ĺ":7572,"à¤Ĭà¤¥à¤ļ":7573,"à¤Ŀà¤µà¤¤":7574,"à¤Īà¤²à¤¨":7575,"Ġà¤ħà¤ªà¤¯à¤¶à¤ļ":7576,"à¤¬à¤¦à¤¦":7577,"Ġà¤īà¤¦à¤¯à¤Ń":7578,"Ġà¥¨à¥§à¥¨":7579,"à¤µà¤¨à¤ªà¤Ł":7580,"à¤īà¤ķà¤¡à¤²":7581,"à¤®à¤²à¤¬":7582,"à¤ıà¤¸à¤ıà¤®":7583,"Ġà¤¦à¤²à¤¦à¤²":7584,"Ġà¥¨à¥¦à¥©":7585,"à¥®à¥§":7586,"à¤°à¤¯à¤·":7587,"Ġ154":7588,"à¤Ĩà¤ľà¤ĺà¤¡":7589,"à¤ıà¤ļà¤Ĩà¤¯à¤µ":7590,"Ġà¤įà¤ªà¤µà¤°":7591,"ative":7592,"Ġ306":7593,"2010":7594,"Ġpra":7595,"Ġpubg":7596,"à¤³à¤¸à¤ķà¤°":7597,"Ġ178":7598,"Ġmp":7599,"Ġà¥§à¥Ńà¥¬":7600,"Ġbi":7601,"Ġà¥¨à¥§à¥¦":7602,"Ġ30000":7603,"Ġkap":7604,"adm":7605,"à¤Ĩà¤łà¤µà¤¤":7606,"à¥¨à¥¦à¥¦à¥ª":7607,"Ġà¥¦à¥«":7608,"Ġà¤«à¤¡à¤ķà¤µ":7609,"electron":7610,"ister":7611,"à¤®à¤°à¤¨à¤ľ":7612,"mm":7613,"Ġal":7614,"Ġani":7615,"à¤¾âĢĮ":7616,"à¤¤à¤Ĺà¤£":7617,"à¤¯à¤¸à¤¹":7618,"à¤ļà¤Ł":7619,"à¤¸à¤ł":7620,"Ġà¤Ĩà¤¡à¤®":7621,"à¤¦à¤°à¤¤":7622,"à¤Łà¤°à¤¸à¤¨":7623,"à¤Ĺà¤µà¤³à¤£":7624,"Ġà¤ħà¤¹à¤®":7625,"Ġà¤¨à¤ķà¤²":7626,"Ġà¤¤à¤¸à¤²":7627,"Ġà¤¤à¤¨à¤ª":7628,"à¤¡à¤ľ":7629,"Ġà¤¹à¤°à¤ľ":7630,"à¤ĸà¤¸à¤®":7631,"à¤¯à¤ķà¤¥":7632,"à¤Ĩà¤µà¤¡à¤²":7633,"à¤°à¤µà¤¡à¤µà¤²":7634,"Ġà¤ĩà¤¤à¤®":7635,"à¤Łà¤¨à¤ªà¤°":7636,"à¤Ĺà¤²à¤¤":7637,"à¤µà¤¤à¤¤":7638,"à¤ľà¤¨à¤®":7639,"à¤¬à¤Īà¤¦":7640,"à¤¬à¤Īà¤¬":7641,"à¤Łà¤°à¤µà¤°à¤¹":7642,"à¤¤à¤ķà¤ļ":7643,"à¤ĩà¤ķà¤²":7644,"à¤ĩà¤¸à¤ļ":7645,"Ġà¤ªà¤¦à¤ļ":7646,"à¤īà¤°à¤£":7647,"à¤¹à¤¨à¤¦":7648,"Ġà¤¦à¤°à¤Ń":7649,"à¤ĺà¤Łà¤¨à¤®":7650,"à¤ıà¤¸à¤Īà¤¨":7651,"à¤¸à¤®à¤Ł":7652,"Ġà¤ªà¤µà¤¨à¤ļ":7653,"Ġà¥¨à¥¦à¥¨":7654,"à¤ķà¤£à¤Ĺ":7655,"à¤¨à¤ķà¤ļ":7656,"Ġà¤īà¤ļà¤ķà¤Ł":7657,"à¤ıà¤®à¤ıà¤®à¤Ĩà¤°à¤¡":7658,"à¤¥à¤ķà¤µ":7659,"2024":7660,"à¤Īà¤¨à¤µà¤°":7661,"à¤ķà¤Łà¤¦":7662,"Ġà¤¬à¤ĺà¤¤à¤ļ":7663,"Ġà¤Ĭà¤¸à¤¤":7664,"Ġà¤§à¤¨à¤¶":7665,"Ġ157":7666,"Ġà¥§à¥«à¥ª":7667,"Ġà¤ķà¤³à¤µà¤³":7668,"à¤ķà¤®à¤§à¤²":7669,"Ġcor":7670,"ery":7671,"Ġà¥§à¥ªà¥«":7672,"Ġà¥§à¥¬à¥¨":7673,"ason":7674,"ases":7675,"asia":7676,"Ġwwe":7677,"à¤ªà¤°à¤µà¤¡à¤£":7678,"Ġà¤ªà¤ļà¤¨à¤¶à¤ķ":7679,"ship":7680,"à¤¯à¤ªà¤°à¤Ł":7681,"ize":7682,"Ġà¤¤à¤¡à¤«à¤¡":7683,"ĠâĢ¢":7684,"thermal":7685,"Ġgoogle":7686,"))":7687,"aw":7688,"ble":7689,"net":7690,"rh":7691,"uit":7692,"vice":7693,"Ġ*":7694,"ĠÐ":7695,"Ġ>>":7696,"à¥Ģà¤¼":7697,"à¤¤à¤ħà¤¸":7698,"à¤ķà¤³à¤¤":7699,"à¤µà¤®à¤¤":7700,"à¤¸à¤µà¤°à¤ļ":7701,"à¤£à¤¥à¤³":7702,"à¤®à¤ľà¤¬":7703,"Ġà¤ªà¤¤à¤¸":7704,"à¤Ĺà¤ľà¤¨à¤ķ":7705,"à¤ľà¤Ĺà¤¦":7706,"Ġà¤µà¤łà¤µà¤²":7707,"à¤¬à¤°à¤ķ":7708,"Ġà¤¬à¤Ľà¤¡":7709,"Ġà¤²à¤ĸà¤²":7710,"à¤Īà¤¦à¤ļ":7711,"à¤Īà¤Ĩà¤°à¤Ł":7712,"Ġà¤«à¤°à¤¶":7713,"Ġà¤ĩà¤ħà¤°":7714,"à¤ıà¤ıà¤¸":7715,"à¤µà¤£à¤¹":7716,"à¤Ĺà¤¤à¤¤":7717,"Ġà¤Ĩà¤¯à¤µ":7718,"à¤ĩà¤¤à¤ªà¤¤":7719,"à¤®à¤¤à¤µ":7720,"à¤§à¤µà¤¨à¤ļ":7721,"à¤¸à¤®à¤¸à¤ļ":7722,"Ġà¤īà¤Ńà¤¯à¤¤":7723,"à¤ħà¤Ńà¤¯":7724,"Ġà¤ľà¤¯à¤ĺ":7725,"Ġà¤ªà¤¡à¤µà¤³":7726,"à¤ıà¤²à¤Īà¤¡":7727,"Ġà¥Ńà¥©à¥¦":7728,"à¤¨à¤¯à¤¹":7729,"Ġà¤ħà¤¹à¤®à¤¦à¤ļ":7730,"ara":7731,"Ġà¥§à¥ªà¥¨":7732,"Ġpap":7733,"Ġpho":7734,"Ġà¤«à¤¸à¤µà¤¤":7735,"Ġ179":7736,"à¤Īà¤¸à¤ľ":7737,"Ġram":7738,"let":7739,"Ġ235":7740,"col":7741,"coun":7742,"Ġà¥©à¥¬à¥¦":7743,"Ġà¤ªà¤µà¤¨à¤ķ":7744,"iler":7745,"à¥¨à¥¦à¥¦à¥¬":7746,"Ġ337":7747,"Ġà¥©à¥¦à¥¦à¥¦":7748,"Ġà¤ħà¤¹à¤®à¤¦à¤¨à¤Ĺà¤°à¤®à¤§":7749,"Ġà¤ĺà¤¨à¤«":7750,"Ġà¥§à¥¯à¥®à¥¦":7751,"omens":7752,"Ġ1998":7753,"Ġpopul":7754,"come":7755,"à¤°à¤łà¤®à¤§":7756,"Ġà¤ĸà¤Łà¤ķà¤¤":7757,"Ġà¤Ĺà¤«à¤²à¤¤":7758,"à¤ĸà¤¡à¤ķà¤µ":7759,"Ġshah":7760,"Ġà¤ıà¤Ĩà¤¯à¤ıà¤®à¤Ĩà¤¯à¤ıà¤®à¤ļ":7761,"à¤ķà¤ıà¤ĩà¤¨":7762,"à¤Łà¤Ĩà¤Ĭà¤Łà¤®à¤§":7763,"ĠÐ¾Ð±Ð»":7764,")(":7765,"125":7766,"rd":7767,"test":7768,"vp":7769,"Î±":7770,"ðŁ":7771,"à¤©":7772,"à¤¾à¥Ī":7773,"à¤ļà¤°à¤µ":7774,"à¤ļà¤®à¤ļ":7775,"à¤ļà¤°à¤®à¤§":7776,"à¤µà¤Ĺà¤¡":7777,"Ġà¤ķà¤¦à¤°":7778,"Ġà¤ķà¤¨à¤ķ":7779,"Ġà¤ķà¤µà¤¯":7780,"à¤¦à¤ĸà¤²":7781,"à¤¦à¤¨à¤ļ":7782,"Ġà¤®à¤²à¤¯":7783,"à¤¬à¤°à¤µ":7784,"Ġà¤ľà¤²à¤¯":7785,"Ġà¤ķà¤°à¤µà¤¤":7786,"Ġà¤¶à¤Łà¤²":7787,"à¤¥à¤Ĺà¤¨":7788,"Ġà¤ĸà¤¸à¤ĸà¤¸":7789,"Ġà¤ıà¤Ĩà¤¯à¤ıà¤¡":7790,"à¤Īà¤¦à¤°à¤®":7791,"Ġà¤ĩà¤ĳà¤¨":7792,"à¤°à¤ªà¤Łà¤¨":7793,"à¤ıà¤Ĩà¤°":7794,"à¤ıà¤ħà¤°à¤¸":7795,"à¤µà¤¡à¤Ĺ":7796,"Ġà¤¤à¤°à¤¬":7797,"à¤°à¤ªà¤Łà¤ķà¤°":7798,"à¤¬à¤°à¤Ĺ":7799,"à¤ĩà¤¨à¤²":7800,"Ġà¥¨à¥§à¥®":7801,"à¤®à¤ķà¤ļ":7802,"Ġà¤ħà¤ľà¤¯à¤ķ":7803,"Ġ202":7804,"à¤¯à¤ªà¤µà¤°":7805,"Ġà¤¶à¤¹à¤ľ":7806,"Ġ630":7807,"Ġ7000":7808,"à¤¨à¤Ĺà¤°à¤ľà¤®":7809,"indian":7810,"Ġà¤įà¤Ł":7811,"Ġà¤įà¤ªà¤²":7812,"Ġà¤ĺà¤Łà¤µà¤²":7813,"Ġà¤ıà¤²à¤ĵà¤¸":7814,"Ġà¥§à¥©à¥§":7815,"roup":7816,"Ġà¥²à¤ªà¤µà¤°":7817,"Ġ06":7818,"à¤ĩà¤¶à¤°à¤¤":7819,"electrochemical":7820,"Ġà¤ļà¤ªà¤ĸà¤²":7821,"ustral":7822,"Ġchampions":7823,"Ġpopulation":7824,"cat":7825,"ti":7826,"xx":7827,"à¤°à¤¹à¤°":7828,"Ġà¤®à¤Ŀ":7829,"Ġà¤ħà¤¥à¤°":7830,"à¤§à¤¯":7831,"Ġà¤µà¤Ł":7832,"Ġà¤µà¤Ŀ":7833,"Ġà¤¦à¤®à¤¨":7834,"à¤·à¤®à¤¸":7835,"à¤¬à¤²à¤¨":7836,"Ġà¤°à¤¨à¤µ":7837,"Ġà¤ķà¤°à¤°à¤ļà¤¨":7838,"à¤Ńà¤°à¤µà¤¶":7839,"Ġà¤Ĺà¤Ĺà¤°":7840,"Ġà¤ħà¤¸à¤®à¤¤":7841,"Ġà¤ıà¤¡à¤®":7842,"Ġà¤Łà¤ķà¤²":7843,"à¤¤à¤²à¤ľ":7844,"Ġà¤§à¤Ĺ":7845,"Ġà¤¡à¤ķ":7846,"à¤¦à¤°à¤¦":7847,"à¤¶à¤¨à¤¬":7848,"Ġà¤Ĩà¤¯à¤ıà¤²":7849,"à¤¹à¤°à¤¨à¤Ĺà¤°":7850,"à¤¸à¤¨à¤¦":7851,"à¤·à¤ķà¤¦":7852,"Ġà¤ªà¤¤à¤®":7853,"à¤µà¤¨à¤ªà¤¦":7854,"à¤Ľà¤¨":7855,"Ġà¤ĵà¤¨":7856,"Ġà¤ĳà¤«à¤°à¤ļ":7857,"Ġà¤¹à¤¤à¤¬à¤²à¤¤":7858,"à¤ľà¤®à¤µ":7859,"à¤¨à¤Ĺà¤¢":7860,"Ġà¤Ĩà¤Īà¤µà¤°":7861,"à¤ķà¤ļà¤±":7862,"Ġà¤Īà¤ıà¤®à¤Ĩà¤¯":7863,"à¤¡à¤°à¤Ĺ":7864,"Ġà¤¬à¤¸à¤µà¤¤":7865,"à¤ıà¤²à¤ľ":7866,"à¤ıà¤ļà¤ª":7867,"Ġà¥§à¥«à¥¬":7868,"ana":7869,"Ġà¤¶à¤ªà¤¥à¤Ĺ":7870,"Ġ183":7871,"Ġsize":7872,"Ġà¤¤à¤³à¤®à¤ľà¤²":7873,"Ġà¥¨à¥«à¥Ń":7874,"Ġà¤§à¤°à¤£à¤ķ":7875,"aly":7876,"Ġ217":7877,"à¤°à¤«à¤Łà¤ķ":7878,"Ġ08":7879,"Ġà¤²à¤ĸà¤¨à¤Ĭà¤ļ":7880,"bil":7881,"hiv":7882,"Ġà¥§à¥¯à¥¯à¥Ń":7883,"Ġ1993":7884,"Ġ1989":7885,"ifa":7886,"Ġuidai":7887,"à¤¦à¤³à¤£à¤µà¤³à¤£":7888,"Ġà¤ıà¤«à¤Ĩà¤¯à¤Ĩà¤°à¤¹":7889,"exposure":7890,"Ġattack":7891,"duct":7892,"nd":7893,"ns":7894,"ruct":7895,"Ùħ":7896,"Ġà®":7897,"ĠØ§":7898,"à¤¾à¤¼":7899,"à¤¯à¤¬à¤²":7900,"à¤¯à¤ľà¤¨à¤ķ":7901,"à¤¯à¤ıà¤¸à¤ª":7902,"à¤²à¤²à¤¯":7903,"à¤ļà¤¤à¤ļ":7904,"à¤¸à¤¸à¤®":7905,"Ġà¤Ĩà¤¸à¤®":7906,"Ġà¤ªà¤³à¤µà¤£":7907,"à¤Ĺà¤Ĺà¤¨":7908,"Ġà¤¨à¤Ń":7909,"à¤ľà¤¸à¤¹":7910,"Ġà¤¦à¤¡à¤µ":7911,"à¤łà¤µà¤°":7912,"Ġà¤ļà¤ļ":7913,"Ġà¤ĸà¤±à¤¯":7914,"à¤Īà¤Łà¤®à¤§":7915,"à¤ĺà¤¡à¤µà¤£":7916,"à¤°à¤µà¤ļà¤¨":7917,"à¤¹à¤£à¤¨":7918,"à¤¬à¤Īà¤µ":7919,"à¤¶à¤¨à¤µ":7920,"Ġ219":7921,"à¤·à¤ķà¤µ":7922,"à¤µà¤¨à¤°":7923,"à¤īà¤¸à¤®à¤§":7924,"Ġà¤ľà¤¨à¤Ĩ":7925,"Ġà¤īà¤®à¤Łà¤£":7926,"à¤²à¤ļà¤°":7927,"à¤¶à¤ķà¤¨":7928,"à¤ľà¤Ĺà¤¨":7929,"à¤ıà¤®à¤ıà¤ļ":7930,"à¤ļà¤°à¤¬":7931,"à¤°à¤³à¤ª":7932,"Ġà¤®à¤ľà¤¦":7933,"Ġà¥§à¥¦à¥©à¥¦":7934,"Ġà¤Ĩà¤«à¤¤":7935,"Ġ257":7936,"Ġà¤®à¤¦à¤¤à¤ļ":7937,"Ġà¥§à¥Ńà¥§":7938,"Ġà¤ľà¤²à¤¶à¤ķ":7939,"à¤¶à¤ªà¤¥":7940,"Ġ280":7941,"Ġ269":7942,"Ġ310":7943,"Ġà¤ħà¤¡à¤ķà¤µ":7944,"ade":7945,"Ġà¥¦à¥¨":7946,"umar":7947,"à¤ıà¤®à¤ıà¤¸à¤ıà¤®à¤Ī":7948,"à¤¸à¤Łà¤¶":7949,"Ġseason":7950,"Ġsharma":7951,"af":7952,"ba":7953,"bo":7954,"jo":7955,"lact":7956,"à¥Ĩ":7957,"à¤¤à¤¡à¤ķ":7958,"à¤¯à¤¬à¤¸":7959,"à¤¹à¤°à¤¦":7960,"à¤¸à¤®à¤ļ":7961,"à¤£à¤®à¤¹":7962,"à¤®à¤ĺà¤°":7963,"Ġà¤¸à¤Ĺ":7964,"Ġà¤¸à¤°à¤£":7965,"à¤¦à¤¨à¤µ":7966,"Ġà¤ħà¤ĸà¤²":7967,"à¤³à¤µà¤¡":7968,"Ġà¤ħà¤¸à¤¶":7969,"à¤¤à¤°à¤ªà¤¤":7970,"Ġà¤ıà¤Ĺ":7971,"à¤Īà¤¤à¤³":7972,"à¥ĥà¥į":7973,"Ġà¤ĩà¤ļà¤²à¤ķà¤°":7974,"à¤¯à¤®à¤®":7975,"à¤°à¤¸à¤®à¤§":7976,"à¤Ŀà¤¹":7977,"à¤Ĺà¤²à¤ĸ":7978,"Ġà¤¸à¤°à¤ķà¤°":7979,"à¤²à¤ķà¤µà¤°":7980,"à¤ĩà¤Łà¤®à¤§":7981,"à¤Ĩà¤¯à¤ıà¤¸à¤ıà¤«à¤ļ":7982,"à¤īà¤¡à¤¤":7983,"Ġà¤¥à¤ª":7984,"Ġà¤¥à¤¯à¤¥":7985,"à¤¦à¤µà¤ª":7986,"à¤¡à¤ķà¤¨":7987,"à¤ªà¤ķà¤¨":7988,"Ġà¤ľà¤®à¤µà¤¤":7989,"Ġà¤¦à¤²à¤ª":7990,"à¤·à¤¦à¤ļ":7991,"Ġ430":7992,"Ġà¤Ĩà¤Īà¤¸à¤¹":7993,"Ġà¤ıà¤¸à¤ıà¤¸":7994,"à¤ıà¤«à¤ĵà¤ļ":7995,"Ġà¤Ķà¤Ł":7996,"à¤¡à¤°à¤°à¤²":7997,"indi":7998,"Ġà¤ĩà¤¶à¤°à¤¤":7999,"Ġà¥§à¥«à¥Ń":8000,"Ġà¤ķà¤³à¤ª":8001,"Ġà¤ķà¤³à¤®à¤¨":8002,"Ġà¤ıà¤«à¤ıà¤®":8003,"Ġà¤ħà¤ľà¤¯à¤¨":8004,"Ġph":8005,"Ġà¤§à¤¡à¤§":8006,"Ġà¥¨à¥ªà¥«":8007,"Ġvol":8008,"Ġà¥¨à¥¨à¥¬":8009,"dit":8010,"à¤µà¤Ĺà¤£à¤¸":8011,"à¤µà¤Ĺà¤¨à¤¨":8012,"Ġà¤¨à¤µà¤°à¤¦":8013,"Ġà¥¨à¥¦à¥¨à¥¦à¥¨à¥§":8014,"Ġà¤ħà¤Ŀà¤¹à¤°à¤ļ":8015,"Ġà¥§à¥¯à¥¯à¥«":8016,"Ġà¥§à¥¯à¥¯à¥ª":8017,"à¤µà¤¨à¤ļà¤°":8018,"Ġà¤Ńà¤°à¤ķà¤Łà¤²":8019,"Ġà¤¥à¤¯à¤¥à¤¯":8020,"71":8021,"sl":8022,"whatsapp":8023,"yn":8024,"Ã©":8025,"Ñı":8026,"à¤¦à¤¸à¤°":8027,"à¤ľà¤¦à¤¨":8028,"Ġà¤µà¤²à¤¯":8029,"à¤¶à¤ªà¤°":8030,"Ġà¤¹à¤°à¤®":8031,"Ġà¤¹à¤¸à¤®":8032,"Ġà¤¦à¤µà¤¡":8033,"à¤¥à¤Łà¤¬":8034,"à¤¤à¤°à¤ªà¤£":8035,"Ġà¤ĸà¤Łà¤ķà¤²":8036,"à¤ĺà¤¡à¤µ":8037,"à¤«à¤£à¤¸":8038,"à¥Ī)":8039,"Ġà¤īà¤ªà¤¸à¤²":8040,"à¤Ŀà¤£":8041,"à¤ľà¤ªà¤®":8042,"Ġà¤Ĩà¤°à¤ıà¤¸à¤ı":8043,"Ġà¤¸à¤¹à¤¦":8044,"à¤²à¤ķà¤ļ":8045,"à¤ĵà¤«":8046,"à¤ĵà¤²à¤¨":8047,"Ġà¤ķà¤®à¤µà¤£":8048,"Ġà¤ķà¤®à¤µà¤¤":8049,"Ġà¥¨à¥§à¥¬":8050,"Ġà¤ħà¤Łà¤ķà¤³":8051,"Ġ2023":8052,"à¥«à¥©":8053,"à¤ľà¤²à¤ª":8054,"Ġà¤ħà¤ķà¤®à¤²":8055,"Ġà¤²à¤¢à¤¯":8056,"Ġà¤Ĳà¤µà¤¢":8057,"Ġà¤Īà¤¥":8058,"Ġà¤ıà¤®à¤ıà¤²à¤¡":8059,"à¤ĩà¤¨à¤µà¤°":8060,"inc":8061,"Ġ15000":8062,"Ġà¥¯à¥©à¥¦":8063,"Ġà¥§à¥¯à¥§":8064,"Ġà¥§à¥«à¥¨":8065,"Ġà¤įà¤Łà¤°":8066,"Ġ5050":8067,"Ġ191":8068,"Ġà¤°à¤®à¤£à¤¸":8069,"Ġà¤«à¤¸à¤Ĺà¤¤":8070,"Ġndrf":8071,"ite":8072,"Ġà¤¬à¤¡à¤ľ":8073,"Ġà¥¨à¥®à¥¨":8074,"Ġ025":8075,"2005":8076,"ivo":8077,"Ġ1988":8078,"Ġà¥¨à¥§à¥§à¥¬":8079,"Ġà¥¨à¥§à¥§à¥Ń":8080,"à¤Ĩà¤°à¤ıà¤¸à¤ıà¤¸à¤ļ":8081,"Ġà¤ıà¤«à¤Ĩà¤¯à¤Ĩà¤°à¤ļ":8082,"ology":8083,"à¤¶à¤ıà¤®à¤¹":8084,"Ġà¤ĸà¤¦à¤ĸà¤¦à¤¤":8085,"cc":8086,"delhi":8087,"san":8088,"à¸":8089,"à¥Ĭ":8090,"à¤¯à¤°à¤®":8091,"à¤²à¤®à¤ļ":8092,"à¤¨à¤ĺ":8093,"à¤Ĥ)":8094,"Ġà¤ķà¤¬à¤°":8095,"à¤¦à¤µà¤¸":8096,"Ġà¤®à¤Ĺà¤ļ":8097,"à¤§à¤Ĺà¤¯":8098,"à¤ľà¤®à¤¤":8099,"à¤ľà¤¶à¤¹":8100,"Ġà¤µà¤ļà¤ª":8101,"à¤¶à¤²à¤¨":8102,"à¤¡à¤¶à¤¤à¤ķ":8103,"Ġà¤¹à¤¡à¤ª":8104,"Ġà¤ľà¤ł":8105,"Ġà¤ľà¤³à¤²":8106,"Ġà¤°à¤Ł":8107,"Ġà¤ķà¤°à¤ķà¤°":8108,"Ġà¤¬à¤«":8109,"Ġà¤¶à¤Łà¤°":8110,"à¤¥à¤¸à¤ļ":8111,"à¤łà¤ªà¤°":8112,"Ġà¤Ŀà¤µ":8113,"Ġà¤īà¤ķà¤°":8114,"à¤°à¤ķà¤ĸ":8115,"à¤¤à¤°à¤¬":8116,"à¤Īà¤¥":8117,"à¤Īà¤Łà¤²":8118,"à¤ľà¤ªà¤§":8119,"Ġà¤¸à¤°à¤ķà¤£":8120,"Ġà¤¨à¤µà¤®":8121,"à¤¶à¤¨à¤§":8122,"à¤ĩà¤Łà¤¨":8123,"à¤ķà¤²à¤¬":8124,"à¤§à¤¨à¤¸à¤Ń":8125,"à¤¸à¤¦à¤ªà¤Ł":8126,"Ġ204":8127,"à¤¸à¤®à¤Ń":8128,"Ġà¥©à¥§à¥¨":8129,"à¥¯à¥®":8130,"à¤ķà¤Łà¤ª":8131,"à¤ıà¤«à¤ıà¤«":8132,"Ġà¤ľà¤¯à¤Ńà¤Ĺà¤µ":8133,"Ġ730":8134,"Ġà¤¢à¤¸":8135,"à¤·à¤®à¤ªà¤£":8136,"Ġ156":8137,"Ġà¤Ńà¤µà¤¨à¤ļ":8138,"à¤¸à¤¬à¤ķ":8139,"Ġà¥§à¥®à¥¬":8140,"Ġà¤µà¤ľà¤¨à¤Ĺà¤Ł":8141,"Ġ171":8142,"ors":8143,"Ġà¥§à¥Ńà¥®":8144,"à¤ıà¤µà¤¢à¥Ł":8145,"Ġ264":8146,"irc":8147,"Ġ09":8148,"à¤¯à¤®à¤¸à¤¨à¤ļ":8149,"à¥¨à¥¦à¥¦à¥¨":8150,"Ġà¤Ńà¤¡à¤ķà¤µ":8151,"à¤ıà¤¸à¤ıà¤¸à¤ıà¤«":8152,"Ġà¤«à¤¡à¤ķà¤µà¤£":8153,"Ġ855":8154,"à¤§à¤µà¤¨à¤¨":8155,"Ġ1961":8156,"ÃŃà¤¥à¤ķ":8157,"Ġtrailer":8158,"Ġmovie":8159,"120":8160,"79":8161,"84":8162,"86":8163,"ef":8164,"mat":8165,"mer":8166,"nia":8167,"pri":8168,"xip":8169,"Ñĭ":8170,"àµ":8171,"à¥Ħ":8172,"à¥įà¥į":8173,"à¥ĩà¥ĩà¤Ĥ":8174,"à¤¤à¤Ŀ":8175,"à¤²à¤¬à¤¸":8176,"à¤¹à¤°à¤µà¤²":8177,"Ġà¤ªà¤¡à¤µ":8178,"Ġà¤®à¤ĸ":8179,"à¤Łà¤ªà¤¹":8180,"à¤§à¤¨à¤µ":8181,"Ġà¤µà¤¨à¤°":8182,"Ġà¤¤à¤ľà¤µ":8183,"Ġà¤¹à¤£à¤®":8184,"Ġà¤¦à¤ļà¤ķà¤²":8185,"Ġà¤°à¤¨à¤µà¤°":8186,"à¤ĸà¤°à¤²":8187,"Ġà¤ļà¤µà¤¤":8188,"Ġà¤²à¤¯à¤²":8189,"à¤Ĩà¤µà¤ķ":8190,"à¤Ĭà¤²à¤®à¤§":8191,"Ġà¤ħà¤¨à¤µ":8192,"à¤°à¤ļà¤ķ":8193,"à¤·à¤£à¤¦":8194,"Ġà¤¸à¤¹à¤ľà¤°":8195,"à¤Ĺà¤³à¤«":8196,"à¤¤à¤ķà¤¥":8197,"Ġà¤ħà¤°à¤¹":8198,"à¤²à¤ķà¤µ":8199,"à¤ķà¤²à¤ł":8200,"à¤ĵà¤ĵ":8201,"à¤ĵà¤Ĩà¤°":8202,"à¤Ĩà¤¯à¤ıà¤¸à¤Ĩà¤¯":8203,"à¤īà¤Ŀà¤¬":8204,"Ġà¤ĵà¤°à¤¸":8205,"à¤¹à¤¨à¤ªà¤°":8206,"Ġà¤ħà¤ľà¤Ĺà¤°":8207,"Ġà¤ħà¤¦à¤¯":8208,"Ġà¤ĺà¤°à¤¬à¤¸à¤²":8209,"à¤°à¤¹à¤¸":8210,"à¤ıà¤¸à¤Ĩà¤¯à¤¸":8211,"à¤®à¤Ĺà¤ļ":8212,"à¤¡à¤ķà¤Ł":8213,"à¤ıà¤®à¤µ":8214,"à¤¯à¤¸à¤ªà¤°":8215,"à¤Ĭà¤¸à¤ķà¤°":8216,"Ġà¤ıà¤¸à¤ıà¤¸à¤ª":8217,"à¤°à¤³à¤¸":8218,"Ġà¤¬à¤²à¤¦":8219,"Ġà¤ĵà¤³à¤ĸà¤¹":8220,"à¤ıà¤²à¤ıà¤«":8221,"Ġ830":8222,"ald":8223,"icon":8224,"Ġà¤¸à¤¹à¤¨à¤¶à¤ķ":8225,"Ġà¥§à¥¬à¥©":8226,"Ġà¥§à¥¬à¥®":8227,"Ġ215":8228,"ena":8229,"study":8230,"Ġ3500":8231,"Ġgst":8232,"Ġ260":8233,"à¤īà¤ªà¤Ĺ":8234,"Ġà¥¨à¥¯à¥ª":8235,"Ġwith":8236,"à¤¨à¤ķà¤°à¤¨":8237,"Ġlok":8238,"Ġ40000":8239,"à¤įà¤²":8240,"à¤įà¤®":8241,"ove":8242,"Ġ497":8243,"à¤ĳà¤«à¤¸":8244,"Ġà¤®à¤ķà¤°à¤¸":8245,"à¥¨à¥¦à¥§à¥®à¥§à¥¯":8246,"à¥²à¤ķ":8247,"hya":8248,"Ġoffice":8249,"94":8250,"cy":8251,"new":8252,"tm":8253,"wali":8254,"Ïģ":8255,"à³":8256,"à¤¾à¤¿":8257,"à¤¹à¤°à¤ķ":8258,"à¤ķà¤¬à¤³":8259,"à¤ļà¤¢":8260,"à¤µà¤Ńà¤°":8261,"à¤µà¤ĺà¤°":8262,"à¤£à¤ĸ":8263,"Ġà¤ķà¤ľ":8264,"Ġà¤ķà¤Ń":8265,"à¤ªà¤ªà¤£":8266,"Ġà¤¸à¤¤à¤²à¤ľ":8267,"Ġà¤ªà¤ļà¤£":8268,"Ġà¤®à¤Łà¤¨":8269,"à¤Ĺà¤ĸ":8270,"à¤Ĺà¤®à¤ļ":8271,"Ġà¤ħà¤ľà¤¨":8272,"Ġà¤ħà¤¡à¤¤":8273,"à¤¡à¤ķà¤¸":8274,"à¤¡à¤ħà¤ª":8275,"Ġà¤¹à¥Ł":8276,"à¤³à¤ĺ":8277,"Ġà¤ľà¤ĸ":8278,"Ġà¤¬à¤¡à¤µ":8279,"à¤¥à¤¦":8280,"à¤¥à¤Ł":8281,"à¤łà¤°à¤µ":8282,"Ġà¤Ńà¤Ĺà¤¨":8283,"Ġà¤ļà¤¢à¤µà¤£":8284,"Ġà¤īà¤°à¤ķ":8285,"Ġà¤Ĩà¤²à¤¯":8286,"Ġà¤ıà¤¨à¤µ":8287,"à¤Īà¤ķà¤¡":8288,"à¤Īà¤¸à¤ª":8289,"à¤°à¤£à¤¨":8290,"à¤ħà¤°à¤ķ":8291,"à¤ħà¤¥à¤ķ":8292,"à¤ľà¤ªà¤µà¤°à¤¹":8293,"à¤Łà¤ķà¤®":8294,"à¤ľà¤¨à¤°":8295,"Ġà¤ĳà¤Īà¤²à¤ļ":8296,"à¤°à¤ĸà¤¡à¤²":8297,"à¤ıà¤¸à¤ķà¤¡":8298,"à¤¤à¤¹à¤¸":8299,"à¤¹à¤²à¤µ":8300,"à¤µà¤ķà¤ļ":8301,"à¤ļà¤°à¤µà¤°":8302,"Ġà¤¸à¤®à¤ľà¤µ":8303,"Ġà¤ıà¤¨à¤Ī":8304,"Ġà¤Ńà¤°à¤¡":8305,"à¤²à¤°à¤ªà¤°":8306,"à¤¡à¤¨à¤µà¤°":8307,"Ġà¤ıà¤®à¤ıà¤®à¤Ł":8308,"Ġà¤ħà¤¡à¤µà¤¤":8309,"Ġà¤ĺà¤¡à¥Ł":8310,"Ġà¤ªà¤Łà¤ķà¤µà¤²":8311,"Ġà¤ıà¤«à¤ª":8312,"à¤¯à¤°à¤¸à¤ª":8313,"Ġà¤Ĩà¤ªà¤®à¤§":8314,"Ġà¥¨à¥«à¥®":8315,"Ġpa":8316,"Ġ211":8317,"Ġ2119":8318,"Ġbh":8319,"Ġbl":8320,"Ġ244":8321,"Ġ202021":8322,"Ġ286":8323,"Ġ294":8324,"à¥¨à¥¦à¥¦à¥©":8325,"Ġà¤¦à¤®à¤¡":8326,"ute":8327,"Ġà¤Ĺà¤Ĺà¤¨à¤¯":8328,"Ġ1995":8329,"Ġà¤ĸà¤Łà¤ķà¤£":8330,"à¤Ĩà¤¯à¤ıà¤¸à¤ıà¤²":8331,"Ġà¤²à¤Łà¤ķà¤µ":8332,"Ġà¤¥à¤°à¤¥à¤°à¤¤":8333,"amino":8334,"à¤¹à¤°à¤Ńà¤ľà¤¨":8335,"varia":8336,"76":8337,"be":8338,"ial":8339,"ji":8340,"la":8341,"rs":8342,"wit":8343,"zon":8344,"Ñĥ":8345,"ĠØ":8346,"Ġion":8347,"à¤¤à¤®à¤¹":8348,"à¤²à¤°à¤®":8349,"à¤¨à¤µà¤¸":8350,"à¤¨à¤®à¤²":8351,"à¤ķà¤¥à¤¨":8352,"à¤ķà¤Ĩà¤īà¤Ł":8353,"à¤µà¤¤à¤ª":8354,"à¤¸à¤µà¤²à¤¤":8355,"à¤¸à¤Īà¤¦":8356,"à¤®à¤Ńà¤ķ":8357,"Ġà¤Ĩà¤°à¤®":8358,"Ġà¤ĨÃŃà¤¥à¤ķ":8359,"à¤ªà¤³à¤Ĺ":8360,"à¤¦à¤®à¤§à¤²":8361,"Ġà¤®à¤°à¤ķ":8362,"à¤Łà¤¦à¤°à¤®":8363,"à¤ľà¤Ł":8364,"Ġà¤µà¤°à¤¸à¤Ĺ":8365,"Ġà¤¤à¤¦":8366,"à¤¡à¤¸à¤ļ":8367,"à¤·à¤²à¤Ĺ":8368,"à¤¬à¤°à¤¶":8369,"Ġà¤¶à¤µà¤ļ":8370,"à¤µà¤°à¤µ":8371,"à¤Ńà¤¶":8372,"Ġà¤Ĺà¤¢à¤µ":8373,"Ġà¤²à¤Ĺà¤¦":8374,"Ġà¤īà¤ªà¤²":8375,"Ġà¤īà¤¬à¤°":8376,"à¤°à¤ķà¤¶à¤ķ":8377,"à¤°à¤¤à¤¤":8378,"Ġà¤ıà¤¡à¤µ":8379,"à¤Īà¤«à¤¸":8380,"à¤ĺà¤ľ":8381,"à¤Ĩà¤°à¤²":8382,"Ġà¤«à¤£":8383,"Ġà¤«à¤¸à¤¤":8384,"Ġà¤«à¤ĸà¤°":8385,"Ġà¤Łà¤µà¤Łà¤µ":8386,"à¤µà¤¸à¤Īà¤¤":8387,"Ġà¤¸à¤°à¤¹à¤¦":8388,"à¥ħà¥ħ":8389,"Ġà¤§à¤¨à¤²":8390,"à¤ıà¤Ĩà¤¯à¤¸":8391,"Ġà¤¡à¤ķà¤µà¤°":8392,"à¤Ĺà¤²à¤ķà¤¡":8393,"à¤ľà¤¨à¤¬à¤¦":8394,"à¤ľà¤¨à¤§à¤¨":8395,"à¤Łà¤°à¤¡":8396,"Ġà¤¸à¤¹à¤°":8397,"à¤¶à¤¨à¤¸à¤¹":8398,"Ġà¤ħà¤Ńà¤¦":8399,"à¤µà¤³à¤ķà¤°":8400,"à¤ĵà¤ķà¤¡":8401,"Ġà¤®à¤²à¤¨":8402,"à¤µà¤¨à¤¹":8403,"à¤īà¤¸à¤«":8404,"Ġà¤ĺà¤°à¤Ł":8405,"à¤Ĩà¤°à¤Ŀ":8406,"Ġà¤¸à¤²à¤µ":8407,"à¤¯à¤ªà¤§":8408,"Ġà¤īà¤ļà¤ķ":8409,"à¤Ĺà¤µà¤Ł":8410,"Ġà¤Ĺà¤°à¤¬":8411,"à¥¯à¥Ń":8412,"Ġà¤Ńà¤°à¤Ĺà¤ļ":8413,"à¤Īà¤ķà¤¹":8414,"Ġ850":8415,"inx":8416,"Ġ1130":8417,"Ġ193":8418,"Ġsystem":8419,"ere":8420,"Ġ167":8421,"Ġ168":8422,"Ġà¤Ĺà¤¡à¤¹":8423,"Ġ173":8424,"Ġà¤Ńà¤°à¤¤à¤¨":8425,"à¤ıà¤µà¤¢à¤ļ":8426,"Ġbattery":8427,"Ġà¤īà¤²à¤Łà¤¤à¤ª":8428,"amit":8429,"Ġà¥©à¥«à¥¦à¥¦":8430,"Ġdesign":8431,"Ġ329":8432,"Ġ275":8433,"Ġà¤ħà¤¡à¤ķà¤µà¤£":8434,"Ġ340":8435,"Ġà¤¦à¤¡à¤ªà¤²":8436,"à¤ħà¤µà¤¯à¤µ":8437,"ĠÂ°":8438,"Ð°ÑģÑĤ":8439,"Ġà¤ľà¤²à¤¤à¤°à¤£à¤ªà¤Ł":8440,"iii":8441,"armers":8442,"amsung":8443,"Ġkapoor":8444,"Ġvolte":8445,"Ð°ÑģÑĤÑĮ":8446,"96":8447,"cm":8448,"ker":8449,"off":8450,"pubg":8451,"sushant":8452,"ÙĬ":8453,"à¤°à¤°à¤¤":8454,"à¤°à¤¡à¤¤":8455,"à¤¯à¤¸à¤²":8456,"à¤²à¤¢à¤¤":8457,"à¤¹à¤µà¤²":8458,"à¤¸à¤®à¤²":8459,"à¤¸à¤ķà¤°à¤²":8460,"à¤¸à¥²":8461,"à¤®à¤¯à¤ķ":8462,"à¤®à¤²à¤ķ":8463,"Ġà¤Ĩà¤¥":8464,"Ġà¤Ĩà¤Ĺà¤°":8465,"Ġà¤ķà¤Łà¤ª":8466,"à¤ªà¤Ĺà¤¡":8467,"à¤¦à¤ľà¤¨à¤ķ":8468,"à¤Ĺà¤°à¤¤":8469,"à¤Ĺà¤®à¤°":8470,"Ġà¤ħà¤ļà¤²":8471,"Ġà¤µà¤²à¤¸":8472,"à¤¡à¤¬à¤³":8473,"à¤¬à¤°à¤¸":8474,"à¤¬à¤¬à¤¤":8475,"à¤¬à¤®à¤¨":8476,"à¤¬à¤ķà¤®":8477,"à¤ĸà¤°à¤¹":8478,"Ġà¤ļà¤²à¤¬":8479,"Ġà¤īà¤¡à¤²":8480,"à¤Ĩà¤¯à¤¦":8481,"à¤ħà¤µà¤§":8482,"à¤«à¤¸à¤µ":8483,"Ġà¤¸à¤®à¤¶":8484,"Ġà¤Ĩà¤°à¤Ĩà¤°à¤Ĩà¤°":8485,"à¤·à¤£à¤¤":8486,"à¤Łà¤²à¤µ":8487,"à¤¯à¤¤à¤¤":8488,"à¤¶à¤¨à¤¦à¤°à¤®":8489,"à¤Ĺà¤£à¤ĺ":8490,"à¤¹à¤°à¤¬":8491,"à¤¯à¤²à¤Łà¤¨":8492,"à¤ĩà¤¡à¤²":8493,"à¤ľà¤¯à¤°à¤¥":8494,"Ġà¤¨à¤°à¤Ĺ":8495,"à¤ĵà¤ĸ":8496,"à¤Ĩà¤¯à¤¤à¤°":8497,"à¤¸à¤¤à¤¶":8498,"Ġà¤ĵà¤¶à¤¨":8499,"à¤ķà¤¤à¤®":8500,"à¤¶à¤²à¤¤":8501,"Ġà¤¬à¤¦à¤²à¤µ":8502,"à¤ıà¤¸à¤ĵ":8503,"Ġà¤¶à¤¹à¤°à¤¯":8504,"Ġà¥¨à¥¦à¥§":8505,"Ġà¤ľà¤¬à¤¡":8506,"à¤ľà¤Ĺà¤ª":8507,"Ġà¤§à¤ķà¤§à¤ķ":8508,"Ġà¤Ķà¤ķ":8509,"à¤¬à¤¸à¤¸":8510,"à¤®à¤£à¤ļ":8511,"Ġ1230":8512,"Ġà¤ªà¤³à¤ª":8513,"Ġà¥§à¥¯à¥ª":8514,"anode":8515,"Ġà¤ħà¤¹à¤®à¤¦à¤ª":8516,"atch":8517,"Ġ1950":8518,"Ġ133":8519,"Ġà¥§à¥ªà¥Ń":8520,"Ġaf":8521,"à¤¤à¤¶à¤¬":8522,"Ġbjp":8523,"ross":8524,"à¤ıà¤²à¤®à¤§à¤²":8525,"Ġà¥¨à¥Ńà¥«":8526,"Ġà¥¨à¥¯à¥¦":8527,"Ġdo":8528,"Ġ324":8529,"Ġ318":8530,"Ġà¤Ĺà¤²à¤¥":8531,"Ġhe":8532,"Ġkumar":8533,"Ġà¤ĵà¤¸à¤°à¤¤":8534,"à¥§à¥«à¥¦":8535,"ree":8536,"à¥§à¥¨à¥¦":8537,"Ġà¤ħà¤Ŀà¤°à¤²":8538,"Ġà¤ĵà¤°à¤¡à¤£":8539,"Ġà¤¸à¤¬à¤¬":8540,"cial":8541,"Ġà¥§à¥¯à¥®à¥©":8542,"Ġà¥§à¥¯à¥®à¥¯":8543,"the":8544,"à¤®à¤¨à¤Ĺà¤°à¤®à¤§":8545,"à¥§à¥¯à¥¯à¥¦":8546,"Ġprotest":8547,"Ġà¤ħà¤¥à¤£":8548,"à¤¥à¤°à¤¸à¤®à¤§":8549,"Ġà¥§à¥¯à¥¬à¥¨":8550,"Ġà¥§à¥¯à¥¬à¥«":8551,"à¤²à¤ĸà¤¨à¤Ĭà¤®à¤§":8552,"Ġà¤ħà¤²à¤Ĺà¤¦":8553,"Ġ1971":8554,"pnb":8555,"rump":8556,"ircuit":8557,"800":8558,"pre":8559,"val":8560,"wc":8561,"way":8562,"à¥ĺ":8563,"à¤°à¤łà¤²":8564,"à¥Ģà¤¾":8565,"à¤²à¤¸à¤£":8566,"à¤¹à¤³à¤¤":8567,"à¤¸à¤µà¤²":8568,"Ġà¤Ĩà¤³à¤µà¤²":8569,"Ġà¤ķà¤ªà¤¨":8570,"à¤¦à¤¸à¤±":8571,"à¤Łà¤¸à¤®":8572,"à¤Ĺà¤¢à¤ļ":8573,"à¤ľà¤²à¤ļ":8574,"à¤ľà¤¸à¤®":8575,"à¤¶à¤°à¤®":8576,"Ġà¤¤à¤¸à¤¤à¤¶":8577,"Ġà¤ķà¤°à¤®à¤¬":8578,"Ġà¤Ŀà¤«à¤°":8579,"Ġà¤ĸà¤µà¤²":8580,"Ġà¤«à¤¡à¤¶":8581,"à¤ħà¤¥":8582,"Ġà¤ªà¤°à¤Ĺ":8583,"Ġà¤¸à¤®à¤ª":8584,"à¤ıà¤ıà¤«":8585,"à¤°à¤¸à¤ª":8586,"à¤¬à¤°à¤ĳà¤ķ":8587,"Ġà¤ĺà¤Łà¤¨à¤¸":8588,"Ġà¤¸à¤¹à¤ħà¤Ń":8589,"Ġà¤¸à¤¹à¤ħà¤§":8590,"à¤¯à¤²à¤°":8591,"à¤ĩà¤®à¤ļ":8592,"à¤°à¤ľà¤²":8593,"Ġà¤ĸà¤°à¤Ĺà¤ª":8594,"Ġà¤Ĩà¤Ĺà¤®":8595,"à¥¯à¥©":8596,"à¤ıà¤¨à¤ıà¤®":8597,"à¤¥à¤ķà¤¬":8598,"Ġà¤ĩà¤®à¤°à¤¤":8599,"Ġà¤ıà¤®à¤Ĩà¤¯à¤ı":8600,"Ġà¤ĩà¤¥à¤µà¤°":8601,"à¤³à¤µà¤£à¤ķà¤°":8602,"à¤®à¤£à¤°":8603,"Ġà¥§à¥¯à¥¨":8604,"à¤ĸà¤¨à¤Ń":8605,"Ġ194":8606,"Ġà¤ıà¤«à¤ıà¤Ł":8607,"Ġcm":8608,"à¤¨à¤Īà¤ķà¤¡":8609,"Ġà¤Ĺà¤®à¤µà¤²":8610,"Ġà¥©à¥¦à¥ª":8611,"Ġà¥§à¥¬à¥¦à¥¦":8612,"Ġà¥§à¥®à¥ª":8613,"Ġauction":8614,"Ġà¤ľà¤²à¤ľ":8615,"Ġrss":8616,"led":8617,"Ġtrump":8618,"Ġ222":8619,"à¤¯à¤Ĺà¤¡à¤ļ":8620,"Ġà¥¨à¥¬à¥ª":8621,"à¤¬à¤¦à¤²à¤²":8622,"à¤īà¤ªà¤®à¤¹":8623,"Ġà¥¨à¥¯à¥®":8624,"Ġindian":8625,"ire":8626,"Ġà¥«à¥¦à¥¦à¥¦à¥¦":8627,"biom":8628,"chan":8629,"à¤ıà¤¨à¤Ĩà¤¯à¤ıà¤ļ":8630,"hode":8631,"Ġ1990":8632,"ake":8633,"Ġà¤ħà¤Ŀà¤°à¤¬":8634,"Ġà¤²à¤ĸà¤ªà¤¤":8635,"ugh":8636,"Ġà¤¤à¤¡à¤«à¤¦":8637,"à¤ħà¤°à¤®à¤¨à¤ªà¤¦":8638,"à¤¸à¤ıà¤ĩà¤¤":8639,"Ġaiims":8640,"Ġà¤ıà¤¸à¤ıà¤®à¤ıà¤¸à¤ļ":8641,"Ġtrials":8642,"Ġà¤ıà¤¸à¤ıà¤®à¤ıà¤¸à¤¦":8643,"Ġpaper":8644,"ĠÐ¾Ð±Ð»Ð°ÑģÑĤÑĮ":8645,"ustralia":8646,"biomass":8647,"51":8648,"pra":8649,"à§":8650,"à¤¯à¤°à¤ķ":8651,"à¤²à¤ħà¤ª":8652,"à¤¨à¤ħà¤°":8653,"à¤ķà¤ªà¤°":8654,"à¤µà¤ľà¤µ":8655,"à¤¸à¤ĸà¤²":8656,"Ġà¤¸à¤µà¤¡":8657,"à¤¦à¤Ĺà¤¤":8658,"Ġà¤ªà¤®":8659,"à¤Łà¤Ĩà¤Ĭà¤Ł":8660,"à¤¶à¤°à¤£":8661,"Ġà¤ķà¤°à¤ķ":8662,"à¤ĸà¤Ĺ":8663,"à¤¥à¤ľ":8664,"Ġà¤Ńà¤°à¤¦":8665,"Ġà¤ıà¤¸à¤ķ":8666,"à¤Īà¤Ńà¤ķ":8667,"à¤Īà¤«à¤²":8668,"à¤Ĩà¤¡à¤µ":8669,"à¤Ĩà¤³à¤¸":8670,"à¤ħà¤®à¤ļ":8671,"à¤ħà¤ľà¤®":8672,"à¤°à¤®à¤Ĺà¤¡":8673,"Ġà¤¸à¤°à¤³à¤¸":8674,"à¤¯à¤®à¤Ń":8675,"à¤ıà¤®à¤¨":8676,"Ġà¤īà¤ªà¤ħà¤Ń":8677,"Ġà¤¤à¤°à¤²":8678,"à¤Ĺà¤²à¤¸":8679,"Ġà¤¨à¤µà¤īà¤¦":8680,"Ġà¤¸à¤¹à¤Ĩà¤°":8681,"à¤²à¤ķà¤°à¤£":8682,"à¤ĩà¤²à¤¸":8683,"à¤®à¤ļà¤°à¤£":8684,"à¤¬à¤¦à¤¨":8685,"Ġà¥¨à¥§à¥©":8686,"à¤¨à¤µà¤Ń":8687,"à¤¹à¤¨à¤¤à¤¹":8688,"Ġà¤ĺà¤°à¤¹":8689,"Ġà¤¸à¤¤à¤¨":8690,"Ġà¤Ĩà¤ľà¤ĺà¤¡":8691,"Ġ208":8692,"à¤ıà¤¸à¤¡à¤¬":8693,"à¤¬à¤²à¤²":8694,"à¤¤à¤³à¤¯":8695,"Ġà¤ħà¤µà¤¤à¤°à¤£":8696,"à¤²à¤µà¤¯":8697,"à¤ıà¤®à¤Ĩà¤°à¤¨":8698,"Ġà¤īà¤²à¤¥à¤µ":8699,"à¤³à¤µà¤²à¤ķà¤°":8700,"Ġà¤ĩà¤¨à¤¬":8701,"à¤°à¤³à¤¨":8702,"Ġ158":8703,"à¤Łà¤®à¤®à¤§":8704,"à¤·à¤ªà¤¦à¤¹":8705,"à¤ıà¤ļà¤ĵà¤ļ":8706,"Ġ1400":8707,"Ġcap":8708,"Ġà¥§à¥ªà¥¦à¥¦":8709,"Ġpat":8710,"ict":8711,"Ġà¤Ĩà¤łà¤µà¤£à¤¹":8712,"Ġak":8713,"à¤¤à¤¶à¤¤":8714,"Ġbox":8715,"Ġà¥¨à¥¨à¥¨":8716,"Ġfat":8717,"à¤Īà¤ĵà¤ªà¤¦":8718,"Ġ323":8719,"Ġà¤Ŀà¤³à¤ķà¤µà¤²":8720,"Ġà¤ħà¤¡à¤ķà¤µà¤²":8721,"Ġà¤Ńà¤¡à¤ķà¤¤":8722,"Ġà¤ıà¤®à¤ıà¤¸à¤ıà¤®":8723,"omi":8724,"Ġà¤¹à¤¸à¤¤à¤®":8725,"Ġ1991":8726,"low":8727,"ika":8728,"anka":8729,"à¤¡à¤°à¤¸à¤¨à¤¨":8730,"à¤Ĩà¤¯à¤ıà¤«à¤ıà¤¸":8731,"à¤¨à¤īà¤ĺà¤¡à¤£":8732,"Ġà¤¥à¤°à¤¥à¤°":8733,"ĠØ§ÙĦ":8734,"à¤¥à¤Łà¤¬à¤®à¤§":8735,"91":8736,"93":8737,"dro":8738,"ga":8739,"mic":8740,"mit":8741,"pub":8742,"rand":8743,"Ġà¤İ":8744,"à¤²à¤¤à¤°":8745,"à¤²à¤°à¤¸à¤¨":8746,"à¤¨à¤¯à¤ļ":8747,"à¤¨à¤¸à¤¤":8748,"à¤µà¤ļà¤¨":8749,"à¤¸à¤µà¤ķ":8750,"à¤®à¤¸à¤°":8751,"à¤®à¤Łà¤£":8752,"à¤ľà¤¦à¤²":8753,"à¤¶à¤ķà¤²":8754,"à¤¡à¤ľà¤µà¤³":8755,"à¤³à¤«":8756,"à¤·à¤¯à¤²":8757,"à¤¬à¤®à¤§à¤²":8758,"à¤°à¤ķà¤¸à¤¹":8759,"Ġà¤ĸà¤¬à¤±":8760,"Ġà¤ıà¤ıà¤«à¤¸":8761,"à¤¯à¤ķà¤ķ":8762,"Ġà¤«à¤Ŀà¤²":8763,"Ġà¤ĩà¤¸à¤°":8764,"Ġà¤ĩà¤¡à¤²":8765,"Ġà¤§à¤¨à¤ª":8766,"à¤°à¤¸à¤ķà¤°":8767,"Ġà¤¡à¤¸":8768,"à¤·à¤£à¤¬":8769,"Ġà¤¨à¤µà¤ĺà¤°":8770,"à¤¬à¤Īà¤®":8771,"à¤Ĺà¤°à¤Ĺ":8772,"à¤¶à¤¨à¤ľà¤µà¤³":8773,"à¤¤à¤ķà¤¹":8774,"à¤ķà¤²à¤£":8775,"à¤¨à¤µà¤¦":8776,"à¤¨à¤µà¤±":8777,"à¤²à¤¨à¤Ĺ":8778,"Ġà¤¥à¤ķà¤µà¤²":8779,"Ġà¤ĵà¤®à¤ķ":8780,"Ġà¤ħà¤ľà¤¹à¤°à¤ļ":8781,"à¤§à¤¨à¤Ĺà¤°":8782,"Ġà¥¨à¥¦à¥¨à¥«":8783,"Ġà¤ħà¤µà¤ľ":8784,"à¤ıà¤¨à¤ıà¤«":8785,"Ġà¤Īà¤ľ":8786,"Ġà¤¸à¤¨à¤¥":8787,"Ġà¤¬à¤ĺà¤µà¤¤":8788,"à¤¦à¤ķà¤ªà¤¦":8789,"Ġà¤Ĭà¤¹":8790,"à¤°à¤¯à¤¶à¤ķ":8791,"à¤·à¤®à¤¯":8792,"Ġà¤Ŀà¤³à¤ķà¤µà¤£":8793,"arn":8794,"Ġà¤¨à¤Ĺà¤°à¤°à¤ļà¤¨":8795,"Ġà¤§à¤°à¤£à¤Ĺ":8796,"Ġ403":8797,"Ġà¥§à¥§à¥¦à¥¦":8798,"Ġ213":8799,"Ġ218":8800,"Ġ177":8801,"Ġà¤ıà¤ļà¤ıà¤¸":8802,"Ġà¥§à¥Ńà¥¨":8803,"Ġag":8804,"enz":8805,"Ġtv":8806,"Ġà¥¨à¥¨à¥«":8807,"à¤¯à¤Ĺà¤°à¤ļ":8808,"Ġà¥²à¤¥à¤²":8809,"Ġkxip":8810,"Ġ295":8811,"ook":8812,"Ġà¤Ńà¤¡à¤ķà¤£":8813,"iaomi":8814,"à¤°à¤ĺà¤³à¤£":8815,"Ġ498":8816,"acit":8817,"able":8818,"Ġà¥¨à¥§à¥§à¥«":8819,"Ġ1955":8820,"outcome":8821,"ĠâĢº":8822,"gress":8823,"Ġmygov":8824,"Ġchampion":8825,"cathode":8826,"350":8827,"bc":8828,"line":8829,"super":8830,"uc":8831,"ÙĪ":8832,"Ġirctc":8833,"à¤°à¤ı":8834,"à¤ķà¤ıà¤¤":8835,"à¤ļà¤³à¤µà¤³":8836,"à¤¸à¤µà¤£":8837,"à¤¸à¤¦à¤¨":8838,"à¤®à¤¬à¤¨":8839,"à¤ªà¤ħà¤ª":8840,"à¤¦à¤¬à¤°":8841,"Ġà¤®à¤¥à¤³":8842,"Ġà¤µà¤Łà¤²":8843,"à¤¶à¤®à¤ķ":8844,"à¤ĸà¤°à¤¤à¤°":8845,"à¤¥à¤ķà¤¡":8846,"Ġà¤ļà¤²à¤ļ":8847,"Ġà¤ļà¤ķà¤ļà¤ķ":8848,"à¤ħà¤¦à¤¨":8849,"à¤ķà¤°à¤¦à¤°":8850,"Ġà¤ĩà¤¨à¤²":8851,"à¤ķà¤¡à¤§":8852,"à¤·à¤£à¤ª":8853,"à¤·à¤£à¤ķà¤°":8854,"à¤Łà¤ķà¤Ł":8855,"à¤®à¤¨à¤²":8856,"Ġà¤Ĩà¤¯à¤Ĩà¤¯":8857,"à¤ĩà¤¨à¤ķ":8858,"à¤·à¤ķà¤ļ":8859,"à¤ĵà¤Ŀ":8860,"à¤ĵà¤ıà¤¨à¤ľ":8861,"Ġà¤ªà¤¦à¤¹":8862,"à¤Ĩà¤¯à¤ĵà¤ı":8863,"à¤Ľà¤®à¤§":8864,"à¤¯à¤¨à¤¹":8865,"Ġà¥©à¥§à¥¬":8866,"Ġà¤ħà¤µà¤¹":8867,"Ġà¤ĩà¤¨à¤«":8868,"Ġà¥¬à¥«à¥¦":8869,"à¤¸à¤Ĺà¤¢à¤ļ":8870,"Ġ506":8871,"Ġà¤ħà¤µà¤ĺà¤¡à¤²":8872,"Ġsabha":8873,"à¤¯à¤£à¤ª":8874,"à¤Ĺà¤ľà¤Ĺà¤¤":8875,"à¤°à¤Łà¤¯":8876,"Ġà¥§à¥¬à¥Ń":8877,"Ġawards":8878,"ame":8879,"Ġne":8880,"Ġà¥¨à¥©à¥ª":8881,"Ġà¤¡à¤¬à¤ķ":8882,"Ġà¤ıà¤ħà¤°à¤ķ":8883,"Ġà¥¨à¥Ńà¥¨":8884,"Ġà¥©à¥«à¥¬":8885,"ings":8886,"Ġà¤ªà¤°à¤®à¤ľ":8887,"Ġà¤Ĺà¤ľà¤Ń":8888,"reak":8889,"à¥¨à¥¦à¥¦à¥§":8890,"Ġ384":8891,"Ġà¤Ĩà¤¸à¤¨à¤¸":8892,"Ġà¤ķà¤¡à¤µà¤Ł":8893,"Ġà¤Ńà¤Łà¤ķà¤¤":8894,"Ġà¤ıà¤ıà¤¨à¤Ĩà¤¯à¤²":8895,"à¥§à¥¯à¥®à¥ª":8896,"ock":8897,"Ġà¤Ĩà¤Ĭà¤Łà¤²":8898,"Ġà¤ıà¤®à¤ıà¤ıà¤ļ":8899,"à¤µà¤«à¤²à¤ķ":8900,"steam":8901,"Ġminister":8902,"53":8903,"600":8904,"97":8905,"bol":8906,"hdfc":8907,"my":8908,"ng":8909,"à±":8910,"Ġå":8911,"Ġes":8912,"łà¤¿":8913,"à¤°à¤¬à¤²":8914,"à¤¹à¤²à¤¤":8915,"à¤ķà¤¬à¤¦":8916,"à¤ļà¤°à¤®":8917,"à¤¸à¤ľà¤¨":8918,"à¤®à¤³à¤¤":8919,"Ġà¤Ĩà¤Ļ":8920,"à¤ªà¤¸à¤¹":8921,"Ġà¤¸à¤¨à¤¸":8922,"à¤¦à¤°à¤ķà¤°":8923,"Ġà¤ªà¤ļà¤µ":8924,"à¤¾à¤Ĥ'":8925,"à¤Łà¤§":8926,"à¤§à¤Ł":8927,"à¤§à¤ªà¤¤":8928,"Ġà¤¨à¤Ĺà¤¦":8929,"Ġà¤µà¤¹à¤¨":8930,"à¤¶à¤ªà¤¤":8931,"Ġà¤¦à¤¶à¤®":8932,"Ġà¤¶à¤°à¤ľ":8933,"à¤µà¤°à¤¯":8934,"Ġà¤Ńà¤Łà¤ļ":8935,"Ġà¤²à¤ªà¤¤":8936,"Ġà¤²à¤ĸà¤µ":8937,"à¤°à¤¤à¤¡à¤²":8938,"à¤¤à¤°à¤µà¤°":8939,"à¤Īà¤ı":8940,"à¤ĺà¤Ń":8941,"à¤ħà¤¹à¤®à¤¦à¤¨":8942,"Ġà¤§à¤Ĺà¤§":8943,"Ġà¤¨à¤µà¤µà¤§":8944,"à¤µà¤¤à¤®à¤§":8945,"à¤¶à¤¨à¤¤à¤°":8946,"Ġà¤Ĩà¤¯à¤ĵà¤¨":8947,"à¤¤à¤ķà¤¤":8948,"Ġà¤ħà¤°à¤°":8949,"à¤ĩà¤¯":8950,"à¤ĩà¤Łà¤¸":8951,"à¤ĩà¤ķà¤®à¤§":8952,"Ġà¤ªà¤¦à¤®":8953,"à¤īà¤£":8954,"Ġà¤¥à¤¡":8955,"Ġà¤ĵà¤ıà¤¸":8956,"à¤ªà¤¦à¤ļ":8957,"Ġà¤ľà¤¨à¤ķà¤ª":8958,"Ġà¤¨à¤ķà¤µ":8959,"Ġà¤īà¤®à¤Ĺà¤²":8960,"Ġà¤Ľà¤³à¤¤":8961,"Ġ399":8962,"à¤¹à¤²à¤²":8963,"Ġà¥¨à¥¦à¥¨à¥ª":8964,"à¤ķà¤£à¤ļ":8965,"à¤¤à¤¨à¤ķ":8966,"à¤¤à¤¨à¤¦":8967,"Ġà¤ĳà¤«à¤ļ":8968,"Ġà¥ªà¥¦à¥¦à¥¦":8969,"Ġà¤Ĩà¤Īà¤¹":8970,"à¥¯à¥¨":8971,"à¥¯à¥ª":8972,"à¤ıà¤¨à¤ıà¤¸à¤¸":8973,"Ġà¤ľà¤°à¤¬":8974,"Ġà¤ıà¤¨à¤Ĩà¤¯à¤¸":8975,"Ġ911":8976,"Ġà¤¦à¤ĸà¤²à¤ª":8977,"à¤ıà¤ļà¤ıà¤«":8978,"Ġ1100":8979,"ater":8980,"Ġà¤ıà¤«à¤ıà¤®à¤¸":8981,"à¤¯à¤°à¤¸à¤¶":8982,"Ġà¤¹à¤Łà¤µà¤¤":8983,"Ġcho":8984,"à¤¦à¤¯à¤¸à¤®":8985,"Ġà¤ıà¤²à¤«":8986,"Ġà¥§à¥ªà¥©":8987,"Ġà¤¸à¤ľà¤Ĺà¤¤":8988,"Ġpune":8989,"Ġà¥§à¥®à¥©":8990,"Ġà¤®à¤¦à¤°à¤¸":8991,"ork":8992,"ory":8993,"à¤ĩà¤¥à¤ªà¤°":8994,"Ġà¥§à¥Ńà¥Ń":8995,"Ġà¤Ŀà¤Łà¤ķà¤¤":8996,"à¤¡à¤µà¤²à¤¦":8997,"Ġà¥¨à¥¨à¥®":8998,"amet":8999,"dis":9000,"à¤«à¤³à¤¬":9001,"à¤īà¤ªà¤ľ":9002,"Ġwe":9003,"Ġà¥©à¥Ńà¥«":9004,"Ġà¤Ńà¤Ĺà¤µà¤¦":9005,"Ġà¥©à¥¨à¥«":9006,"Ġà¥©à¥¨à¥©":9007,"Ġ290":9008,"realme":9009,"Ġà¥¦à¥¦":9010,"Ġà¥©à¥ªà¥¦":9011,"2001":9012,"Ġà¥¨à¥§à¥§à¥©":9013,"Ġ737":9014,"lob":9015,"1993":9016,"Ġelectro":9017,"Ġà¤Ńà¤°à¤ķà¤Łà¤¤":9018,"photo":9019,"à¤Ńà¤Ĺà¤¤à¤¸":9020,"Ġà¤®à¤²à¤®à¤ªà¤Ł":9021,"61":9022,"rat":9023,"uj":9024,"uv":9025,"yc":9026,"Ġà¦":9027,"à¤°à¤Ī":9028,"à¤¤à¤ĸà¤¡":9029,"à¤¯à¤Ĩ":9030,"à¤¯à¤¡à¤¸":9031,"à¤ķà¤¨à¤Ĺ":9032,"à¤ķà¤²à¤ķà¤¤":9033,"à¤ļà¤®à¤¤":9034,"à¤µà¤®à¤¸":9035,"à¤®à¤°à¤ļ":9036,"à¤ªà¤³à¤µ":9037,"Ġà¤¸à¤¬à¤µ":9038,"à¤¦à¤¬à¤¦":9039,"à¤Ĺà¤¤à¤°":9040,"à¤§à¤¤à¤¹":9041,"Ġà¤¤à¤¡à¤¤":9042,"à¤·à¤ĸà¤¬à¤°":9043,"à¤¬à¤°à¤µà¤£":9044,"Ġà¤ľà¤¸à¤°":9045,"Ġà¤ķà¤°à¤µà¤£":9046,"à¤¥à¤®à¤¨":9047,"Ġà¤Ĺà¤®à¤ķ":9048,"Ġà¤Ńà¤Ĺà¤¦":9049,"Ġà¤ıà¤®à¤µ":9050,"à¤Īà¤¬à¤¦":9051,"à¤Īà¤®à¤²":9052,"à¤Īà¤ıà¤²":9053,"à¤¯à¤ķà¤°à¤£":9054,"à¤ĺà¤¦":9055,"à¤ĺà¤¬":9056,"à¤ĺà¤²à¤¨":9057,"à¤ªà¤£à¤¹":9058,"à¤¤à¤²à¤¯":9059,"Ġà¤ĩà¤Ŀ":9060,"à¤Ĭà¤ľ":9061,"Ġà¤ħà¤¨à¤ķ":9062,"Ġà¤ħà¤¨à¤ĺ":9063,"à¤°à¤§à¤°":9064,"âĢİ":9065,"à¤¶à¤¨à¤²à¤ļ":9066,"à¤Īà¤²à¤²":9067,"à¤¤à¤¸à¤°à¤ļ":9068,"à¤ľà¤°à¤®à¤§":9069,"Ġà¤ħà¤®à¤³à¤¨":9070,"à¤ªà¤¤à¤¹":9071,"à¤īà¤¨à¤¨":9072,"Ġà¤¶à¤°à¤¥":9073,"à¤ıà¤¸à¤ıà¤¨à¤ı":9074,"à¤Ńà¤µà¤¶":9075,"Ġà¤¶à¤¹à¤°à¤Ńà¤°":9076,"Ġà¤¦à¤²à¤ľ":9077,"à¤µà¤ķà¤¹":9078,"Ġà¤Ĩà¤łà¤ļ":9079,"à¤ªà¤Łà¤¹":9080,"Ġ530":9081,"à¤Ĺà¤¡à¤®":9082,"Ġà¥«à¥§à¥¨":9083,"à¤®à¤¦à¤¹à¤¨":9084,"à¤ĳà¤ª":9085,"Ġà¤ľà¤¯à¤ªà¤°":9086,"Ġà¤ľà¤¯à¤ľà¤¯à¤ķ":9087,"à¤ķà¤³à¤ķà¤°":9088,"Ġ152":9089,"Ġà¤ħà¤«à¤Ŀà¤²":9090,"Ġà¤¶à¤¤à¤ķà¤µ":9091,"à¤¦à¤®à¤¯":9092,"Ġ255":9093,"1947":9094,"Ġ1300":9095,"Ġso":9096,"eration":9097,"Ġà¥¨à¥«à¥«":9098,"Ġpar":9099,"Ġpri":9100,"à¥§à¥¯à¥¯à¥¯":9101,"Ġmal":9102,"Ġmet":9103,"Ġà¤ľà¤²à¤ªà¤°":9104,"Ġ228":9105,"its":9106,"990":9107,"Ġà¥©à¥Ńà¥Ń":9108,"Ġ317":9109,"Ġ279":9110,"Ġà¥©à¥¨à¥¯":9111,"à¤Ĩà¤¯à¤ıà¤®à¤ı":9112,"Ġà¤°à¤ĸà¤¡à¤¤":9113,"Ġà¤ļà¤¹à¤²à¤²":9114,"Ġà¤Ńà¤¡à¤ķà¤µà¤²":9115,"à¤Łà¤ħà¤ªà¤®à¤§":9116,"à¤įà¤¸":9117,"Ġà¤īà¤²à¤Ĺà¤¡à¤¤":9118,"Ġà¥§à¥¯à¥¯à¥§":9119,"Ġ380":9120,"à¤ıà¤¸à¤ıà¤¸à¤ıà¤Ĩà¤¯":9121,"à¤°à¤ĺà¤³à¤²":9122,"Ġ1994":9123,"Ġà¤®à¤¦à¤¨à¤²":9124,"Ġà¥¨à¥§à¥§à¥®":9125,"1990":9126,"Ð°Ð":9127,"oxid":9128,"tpcr":9129,"à¤ıà¤Ĩà¤¯à¤ıà¤®à¤Ĩà¤¯à¤ıà¤®":9130,"embly":9131,"honi":9132,"Ġchampionship":9133,"sà¤ļ":9134,"wama":9135,"à¥Ģà¥ĩ":9136,"à¤¤à¤Ĩà¤²":9137,"à¤¯à¤ªà¤²":9138,"à¤²à¤µà¤°à¤ļ":9139,"à¤¿à¥ĥ":9140,"à¤¨à¤®à¤°":9141,"à¤¨à¤ħà¤®":9142,"à¤¨à¤ĸà¤¡":9143,"à¤ķà¤®à¤°":9144,"à¤ķà¤ĩà¤¨":9145,"à¤ļà¤°à¤ķ":9146,"à¤µà¤ļà¤²":9147,"à¤¸à¤°à¤®":9148,"à¤¦à¤«":9149,"à¤¦à¤±":9150,"à¤¦à¤°à¤µà¤£":9151,"à¥Ĥ/":9152,"Ġà¤ħà¤¹à¤°":9153,"à¤§à¤ĸ":9154,"à¤§à¤¸à¤¤":9155,"Ġà¤Ĩà¤¹à¤¤":9156,"Ġà¤µà¤ĸ":9157,"à¤·à¤°à¤¹":9158,"Ġà¤°à¤¨à¤°":9159,"Ġà¤¬à¤ĸ":9160,"à¤łà¤¶":9161,"Ġà¤Ĺà¤Ŀ":9162,"Ġà¤²à¤Ĺà¤¤":9163,"Ġà¤²à¤µà¤ķ":9164,"Ġà¤Ŀà¤¡":9165,"Ġà¤īà¤Łà¤£":9166,"à¤Īà¤¨à¤¹":9167,"à¤¯à¤ķà¤ªà¤£":9168,"à¤¯à¤ķà¤²à¤¨":9169,"à¤ħà¤°à¤ª":9170,"Ġà¤Łà¤ªà¤°":9171,"à¤ķà¤°à¤Ńà¤°à¤¤":9172,"à¤ªà¤°à¤¡":9173,"à¤ªà¤°à¤µà¤°":9174,"Ġà¤¸à¤°à¤¡":9175,"à¤ıà¤¶à¤¨à¤²":9176,"à¤Ĺà¤²à¤Ĺ":9177,"Ġà¤¨à¤µà¤ļ":9178,"à¤¸à¤°à¤¬à¤ľ":9179,"à¤°à¤ªà¤Łà¤¦":9180,"à¤¡à¤²à¤Ĺ":9181,"à¤Łà¤²à¤¦":9182,"à¤ľà¤¨à¤ª":9183,"à¤¬à¤°à¤°":9184,"à¤¬à¤°à¤łà¥Ł":9185,"à¤¦à¤²à¤Ĺ":9186,"à¤Īà¤²à¤ħà¤¸":9187,"§à¥¨":9188,"à¤ªà¤¨à¤²":9189,"à¤ĩà¤ķà¤¨":9190,"à¤¸à¤¨à¤ª":9191,"Ġà¤ªà¤¤à¤¨":9192,"Ġà¤¥à¤ķà¤µà¤£":9193,"Ġà¤ħà¤Łà¤ķà¤¸à¤¤":9194,"Ġà¤¶à¤°à¤¯":9195,"à¤¡à¤ķà¤°à¤µ":9196,"Ġà¤ħà¤²à¤¬":9197,"Ġà¤¬à¤¹à¤°à¤¤":9198,"Ġà¥©à¥§à¥§":9199,"Ġà¤¸à¤ķà¤ª":9200,"à¤łà¤²à¤µ":9201,"à¤ıà¤¨à¤Ĩà¤°":9202,"Ġà¤ıà¤¨à¤ıà¤¸à¤¸":9203,"Ġà¥¬à¥¦à¥¦à¥¦":9204,"Ġà¤¢à¤³à¤²":9205,"Ġà¥¯à¥«à¥¦":9206,"Ġà¤·à¤£":9207,"Ġà¤įà¤µ":9208,"Ġ1948":9209,"ari":9210,"Ġà¤Ĩà¤ªà¤¬":9211,"Ġà¤ıà¤²à¤¬":9212,"Ġsl":9213,"Ġsrh":9214,"à¤°à¤®à¤£à¤ķà¤°":9215,"Ġà¥¨à¥«à¥¨":9216,"Ġà¥§à¥©à¥©":9217,"Ġ172":9218,"Ġà¤Ńà¤°à¤¤à¤ª":9219,"Ġà¥§à¥Ńà¥¯":9220,"à¤°à¤£à¤µà¤¦":9221,"Ġban":9222,"Ġà¤ķà¤ļà¤±à¤¯":9223,"Ġrcep":9224,"Ġà¤¬à¤ķà¤±":9225,"Ġà¥²à¤¸":9226,"Ġà¤īà¤¸à¤³à¤£":9227,"Ġà¤ĵà¤¸à¤°à¤£":9228,"à¤Ĩà¤¯à¤ıà¤®à¤ıà¤¸":9229,"à¥§à¥¨à¥«":9230,"oot":9231,"urt":9232,"à¥§à¥©à¥¦":9233,"à¤°à¤ĺà¤³à¤¤":9234,"Ġ543":9235,"Ġpower":9236,"heel":9237,"à¤ıà¤Ĩà¤¯à¤¬":9238,"1998":9239,"à¤¥à¤°à¤¸à¤ļ":9240,"Ġsection":9241,"à¤¡à¤°à¤¸à¤¨à¤ļ":9242,"Ġà¤Ŀà¤Ĺà¤®à¤Ĺ":9243,"Ġled":9244,"Ġà¤ķà¤°à¤¸à¤µà¤²à¤¤":9245,"Ġà¤¦à¤«à¤¨à¤Ń":9246,"}}}":9247,"{{{":9248,"Ġà¤²à¤ĸà¤²à¤ĸ":9249,"pi":9250,"ple":9251,"rr":9252,"rt":9253,"tr":9254,"tar":9255,"à¤¯à¤ĺà¤°":9256,"à¤²à¤¡à¤ļ":9257,"à¤²à¤¬à¤¨":9258,"à¤¨à¤¸à¤®à¤µ":9259,"à¤¹à¤¬à¤°":9260,"à¤ķà¤¦à¤°à¤®":9261,"à¤ķà¤ľà¤µà¤³":9262,"à¤ķà¤¬à¤§":9263,"à¤ļà¤ķà¤¤":9264,"à¤µà¤ķà¤²":9265,"à¤¸à¤Łà¤¨":9266,"à¤®à¤®à¤¨":9267,"à¤®à¤µà¤°à¤¹":9268,"Ġà¤Ĩà¤¸à¤²":9269,"Ġà¤ķà¤£à¤¸":9270,"Ġà¤¸à¤¡à¤ª":9271,"Ġà¤ªà¤¥à¤¨":9272,"à¤Łà¤®à¤°":9273,"à¤Ĺà¤§à¤°":9274,"à¤§à¤¦":9275,"à¤ľà¤¬à¤²à¤ª":9276,"à¤¡à¤ħà¤³":9277,"Ġà¤¯à¤µà¤¤":9278,"à¤¬à¤¡à¤Ĺ":9279,"Ġà¤ľà¤²à¤ļà¤°":9280,"Ġà¤°à¤¤à¤²":9281,"Ġà¤°à¤ĸà¤¡":9282,"Ġà¤¬à¤¡à¤¨":9283,"Ġà¤Ńà¤°à¤ķà¤Ł":9284,"Ġà¤ļà¤µà¤³":9285,"Ġà¤ļà¤¹à¤°à¤¨":9286,"Ġà¤īà¤Ł":9287,"Ġà¤īà¤Ŀ":9288,"Ġà¤ķà¤°à¤£à¤µ":9289,"Ġà¤ıà¤Ĩà¤¯à¤¬":9290,"à¤«à¤¦":9291,"Ġà¤ĩà¤¦":9292,"à¤ªà¤°à¤¶":9293,"à¤ªà¤°à¤ĸà¤³":9294,"à¤¯à¤®à¤¤":9295,"à¤ıà¤®à¤²":9296,"à¤Łà¤¨à¤ķà¤¡":9297,"à¤Ŀà¤µà¤°":9298,"à¥Ģà¤Ĥà¤Ĥ":9299,"Ġà¤¸à¤¹à¤ħà¤¸":9300,"à¤ĩà¤¡à¤®à¤§":9301,"à¤°à¤ľà¤¤":9302,"à¤Ĩà¤¯à¤ĵ":9303,"à¤Ľà¤°":9304,"à¤Ľà¤³":9305,"à¤ľà¤ķà¤°à¤£":9306,"Ġà¤ķà¤²à¤µà¤°":9307,"à¤¤à¤®à¤ª":9308,"à¤ķà¤°à¤£à¤¨":9309,"à¤¡à¤ķà¤ªà¤¸":9310,"Ġ320":9311,"à¤µà¤ķà¤±à¤¯":9312,"à¤¬à¤³à¤ªà¤Ł":9313,"à¤¯à¤°à¤µà¤°":9314,"à¤µà¤ªà¤°à¤µ":9315,"Ġà¤Ĩà¤Īà¤¸à¤²":9316,"Ġà¤ıà¤¨à¤Ĩà¤°à¤Ĩà¤¯":9317,"Ġ625":9318,"Ġà¤ıà¤®à¤Ĩà¤°à¤Ĩà¤¯":9319,"Ġà¤ªà¤¡à¤¤à¤ļ":9320,"Ġà¤«à¤°à¤«à¤Ł":9321,"Ġà¤ļà¤µà¤¥":9322,"Ġ8000":9323,"Ġ865":9324,"Ġ12000":9325,"à¤²à¤®à¤ª":9326,"Ġà¥§à¥¯à¥ªà¥Ń":9327,"ann":9328,"Ġà¤ĳà¤²à¤Ĩà¤Ĭà¤Ł":9329,"Ġcl":9330,"Ġ186":9331,"Ġà¥§à¥©à¥¦à¥¦":9332,"Ġà¥«à¥¦à¥¯":9333,"Ġà¥©à¥¦à¥©":9334,"Ġpay":9335,"Ġà¤°à¤®à¤Ŀ":9336,"Ġ2118":9337,"à¤ħà¤¦à¤¬":9338,"Ġà¥¨à¥ªà¥ª":9339,"Ġà¥¨à¥ªà¥¬":9340,"Ġà¥§à¥Ńà¥©":9341,"Ġact":9342,"Ġbank":9343,"Ġredmi":9344,"Ġterror":9345,"Ġ282":9346,"à¤¹à¤ļà¤µà¤¤":9347,"Ġà¥¨à¥¯à¥¯":9348,"Ġdhoni":9349,"Ġ315":9350,"Ġà¥©à¥¨à¥¨":9351,"Ġà¥©à¥¨à¥ª":9352,"180":9353,"ayer":9354,"Ġodi":9355,"oods":9356,"Ġà¤ħà¤Ŀà¤°à¤ļ":9357,"Ġà¤ħà¤Ŀà¤²à¤¨":9358,"Ġà¥¦à¥©":9359,"à¤įà¤ª":9360,"Ġà¥ªà¥¯à¥Ń":9361,"Ġà¤ļà¤°à¤£à¤¸":9362,"à¤ıà¤¸à¤Ĩà¤¯à¤Ĩà¤°à¤¨":9363,"emi":9364,"Ġà¥§à¥¯à¥®à¥«":9365,"Ġii":9366,"à¥¯à¥¯à¥¯":9367,"à¥¨à¥¦à¥§à¥¯à¥¨à¥¦":9368,"Ġ1984":9369,"à¥§à¥¯à¥¯à¥§":9370,"Ġ201314":9371,"1984":9372,"à¤¦à¤¶à¤¹à¤°à¤®à¤§":9373,"Ġspe":9374,"à¤ªà¤ļà¤¨à¤ķ":9375,"photos":9376,"flat":9377,"fatty":9378,"Ġorg":9379,"Ġassembly":9380,"82":9381,"89":9382,"cap":9383,"cross":9384,"mo":9385,"mag":9386,"non":9387,"poly":9388,"vent":9389,"âĸ":9390,"à¥Ģà¥¥":9391,"à¤²à¤¹à¤°":9392,"à¤²à¤¡à¤ª":9393,"à¤²à¤ĸà¤¤":9394,"à¤¸à¤°à¤µ":9395,"à¤£à¤°à¤¤":9396,"Ġà¤ķà¤Ĺ":9397,"Ġà¤®à¤¸à¤²à¤¤":9398,"à¤Łà¤¬à¤°":9399,"Ġà¤ħà¤ĺà¤Ł":9400,"Ġà¤¨à¤ľà¤®":9401,"à¤ľà¤®à¤²":9402,"Ġà¤¹à¤®à¤°":9403,"à¤¬à¤µà¤°à¤¹":9404,"Ġà¤ħà¤¸à¤°":9405,"Ġà¤ĺà¤¡à¤¨":9406,"Ġà¤ıà¤Ĩà¤¯à¤¸":9407,"à¤ĺà¤°à¤ķ":9408,"à¤Ĩà¤¯à¤ķ":9409,"à¤Ĩà¤ªà¤Ł":9410,"à¤ķà¤°à¤¦à¤¨":9411,"Ġà¤¸à¤°à¤ľ":9412,"à¤ıà¤Łà¤®à¤§":9413,"à¤ıà¤Īà¤¤":9414,"à¤¹à¤¤à¤ķà¤®à¤§":9415,"à¥¦à¥¯":9416,"à¤ľà¤¨à¤Ĺà¤£à¤¨":9417,"à¤®à¤¨à¤¬":9418,"à¤Ĺà¤°à¤®à¤§":9419,"Ġà¤Ĩà¤¯à¤ıà¤¸à¤ıà¤¸à¤ıà¤«":9420,"à¤¹à¤°à¤Ĺ":9421,"Ġà¤ħà¤°à¤¬à¤ļ":9422,"à¤ĩà¤¡à¤°":9423,"à¤¸à¤¨à¤ķà¤°":9424,"à¤°à¤ľà¤ļ":9425,"à¤¤à¤µà¤¹":9426,"à¤¸à¤¹à¤®à¤¤":9427,"Ġà¤ķà¤®à¤µà¤²":9428,"à¤Ľà¤²":9429,"à¤īà¤ł":9430,"Ġà¤¥à¤µ":9431,"à¤¹à¤¨à¤®à¤§":9432,"à¤§à¤¨à¤ªà¤°":9433,"à¤ķà¤¸à¤¬":9434,"à¤¨à¤²à¤²":9435,"à¤ļà¤¨à¤®à¤§":9436,"Ġà¥©à¥§à¥¯":9437,"Ġà¥¨à¥¦à¥ª":9438,"Ġà¤Ĩà¤Īà¤ª":9439,"Ġà¤Īà¤¦à¤¨":9440,"Ġà¤¹à¤¸à¤µà¤£":9441,"à¤ıà¤«à¤²":9442,"Ġà¤ıà¤®à¤Ĩà¤¯à¤Ł":9443,"Ġ810":9444,"Ġà¤ıà¤µà¤¢à¤¯":9445,"Ġà¤įà¤Ĺ":9446,"anc":9447,"1999":9448,"Ġ18000":9449,"Ġà¤ıà¤ħà¤°à¤¬à¤¸":9450,"Ġ371":9451,"Ġà¥§à¥®à¥§":9452,"Ġ2117":9453,"Ġà¤ľà¤²à¤¸à¤®":9454,"Ġà¤¨à¤Ĭà¤ļ":9455,"Ġbo":9456,"Ġvacc":9457,"Ġà¤īà¤ľà¤³à¤²":9458,"Ġ283":9459,"Ġà¥¨à¥®à¥ª":9460,"108":9461,"chang":9462,"ream":9463,"Ġ347":9464,"ivers":9465,"urn":9466,"à¥§à¥§à¥¨":9467,"Ġ1992":9468,"à¤ıà¤¸à¤ıà¤«à¤¨":9469,"deep":9470,"10000":9471,"Ġà¤ĸà¤°à¤ļà¤Łà¤²":9472,"Ġ1983":9473,"Ġ1987":9474,"Ġà¥¨à¥§à¥§à¥ª":9475,"ife":9476,"Ġà¤ıà¤¨à¤Ĩà¤¯à¤ıà¤²":9477,"anti":9478,"cricket":9479,"epl":9480,"hydro":9481,"ÑģÐºÐ°":9482,"Ġà¤īà¤®à¤Łà¤µà¤¤":9483,"Ġà¤¤à¤¡à¤«à¤¡à¤¤":9484,"Ġà¤ļà¤Łà¤Ī":9485,"found":9486,"Ġcollection":9487,"Ġpawar":9488,"witter":9489,"900":9490,"cs":9491,"flyw":9492,"ka":9493,"pur":9494,"sgst":9495,"ton":9496,"tim":9497,"à¤°à¤Ĩà¤¢":9498,"à¤ļà¤°à¤¸":9499,"à¤¸à¤ķà¤¸":9500,"à¤¸à¤ĳà¤°":9501,"à¤£à¤¯à¤ļ":9502,"Ġà¤Ĩà¤ĩà¤¶":9503,"Ġà¤ķà¤±":9504,"à¤ªà¤¬à¤¦":9505,"à¤¦à¤¯à¤ķ":9506,"à¤¦à¤Ĺà¤²":9507,"à¤¦à¤¬à¤°à¤®":9508,"Ġà¤ªà¤łà¤¡":9509,"Ġà¤ªà¤ļà¤¤":9510,"Ġà¤®à¤¤à¤²":9511,"à¤Ĺà¤Ī":9512,"à¤Ĺà¤°à¤¸":9513,"Ġà¤ħà¤°à¤£":9514,"Ġà¤ħà¤¢":9515,"Ġà¤µà¤¨à¤ļ":9516,"Ġà¤¤à¤°à¤¸":9517,"à¤¡à¤°à¤ª":9518,"Ġà¤¹à¤®à¤¸":9519,"à¤³à¤ķà¤¡":9520,"à¤³à¤ķà¤¨à¤Ĺà¤°":9521,"Ġà¤ľà¤¨à¤µ":9522,"à¤ĸà¤¡à¥Ł":9523,"Ġà¤¬à¤¸à¤°":9524,"Ġà¤ļà¤ķà¤²":9525,"Ġà¤ļà¤ķà¤¤":9526,"Ġà¤²à¤«à¤¡":9527,"Ġà¤ĺà¤³":9528,"à¤°à¤ķà¤¦":9529,"à¤¤à¤°à¤¸à¤°à¤ķ":9530,"Ġà¤ıà¤ıà¤®à¤ª":9531,"à¤Ĩà¤®à¤§":9532,"Ġà¤«à¤°à¤¸":9533,"à¤ħà¤¨à¤²":9534,"Ġà¤Łà¤°à¤¬":9535,"à¤Ĭà¤¦à¤²":9536,"Ġà¤īà¤ªà¤µà¤°":9537,"à¤²à¤¯à¤¤":9538,"à¤²à¤¯à¤¨":9539,"à¤Ĺà¤²à¤¦":9540,"à¤ªà¤¨à¤Ĺà¤°":9541,"à¤ĩà¤«à¤²":9542,"à¤ķà¤²à¤Ĺ":9543,"à¤£à¤¯à¤ª":9544,"à¤¸à¤¹à¤²":9545,"à¤¸à¤¹à¤¨":9546,"Ġà¤īà¤¦à¤¯à¤¸":9547,"à¤ĵà¤¯":9548,"à¤¯à¤¦à¤ķ":9549,"à¤Ĩà¤¯à¤¸à¤®":9550,"à¤¯à¤¨à¤²à¤²":9551,"Ġà¤®à¤¨à¤¶":9552,"Ġà¤¹à¤µà¤¯":9553,"Ġà¤ľà¤¨à¤ķà¤²":9554,"Ġà¤¹à¤²à¤£":9555,"Ġà¤ķà¤ªà¤¡à¥Ł":9556,"à¤Ĩà¤°à¤ĵ":9557,"à¤¬à¤²à¤Ł":9558,"Ġà¥©à¥§à¥©":9559,"Ġà¥¨à¥¦à¥¨à¥©":9560,"à¤ıà¤®à¤Ĩà¤¯à¤¸":9561,"à¤ļà¤°à¤°":9562,"Ġà¥ªà¥¨à¥«":9563,"Ġà¤Ĩà¤Īà¤µ":9564,"à¤ıà¤¨à¤Ĩà¤¯à¤Ł":9565,"Ġà¤Īà¤¤":9566,"Ġà¤ıà¤¸à¤ı":9567,"à¤Łà¤£à¤®à¤®à¤§":9568,"à¤ķà¤¦à¤®":9569,"Ġà¤¬à¤²à¤¶":9570,"à¤ıà¤²à¤ĵà¤¸":9571,"à¤¹à¤°à¤£à¤ļ":9572,"Ġà¤§à¤¨à¤¬":9573,"Ġ1520":9574,"à¤Łà¤®à¤¯":9575,"à¤°à¤µà¤łà¤¯":9576,"Ġà¤¨à¤Ĺà¤°à¤ķà¤°":9577,"à¤°à¤µà¤£à¤ķà¤°":9578,"Ġ141":9579,"Ġà¤ħà¤µà¤ĺà¤¡à¤ļ":9580,"Ġcent":9581,"Ġ181":9582,"à¤¯à¤£à¤Ĺ":9583,"Ġà¥§à¥ªà¥§":9584,"Ġpan":9585,"Ġmax":9586,"Ġà¤īà¤§à¤®":9587,"Ġbe":9588,"Ġrate":9589,"Ġtime":9590,"Ġà¤ľà¤Ĺà¤¤à¤¸":9591,"diwali":9592,"Ġà¥¨à¥©à¥Ń":9593,"Ġà¤ħà¤µà¤ĺà¤¡à¤ªà¤£":9594,"Ġà¥²à¤®":9595,"Ġà¥¨à¥®à¥¦":9596,"Ġà¥¨à¥¯à¥«":9597,"Ġwc":9598,"Ġdc":9599,"old":9600,"Ġotp":9601,"à¤²à¤«à¤°à¤ķ":9602,"Ġ338":9603,"imim":9604,"Ġà¥©à¥©à¥«":9605,"à¤°à¤ĺà¤³":9606,"140":9607,"201415":9608,"à¤ıà¤®à¤ıà¤¸à¤Ĩà¤°à¤¡":9609,"Ġà¥§à¥¯à¥®à¥¬":9610,"Ġà¤ĸà¤¡à¤ķà¤ª":9611,"Ġà¤ıà¤¨à¤ıà¤¸à¤¡":9612,"à¤Ĩà¤łà¤µà¤¡à¥Ł":9613,"Ġ1951":9614,"à¤¸à¤įà¤ªà¤ļ":9615,"à¤ķà¤ħà¤ªà¤¨":9616,"Ġmaharashtra":9617,"Ġà¤ıà¤Ĩà¤¯à¤ıà¤®à¤Ĩà¤¯à¤ıà¤®":9618,"ission":9619,"paramet":9620,"Ġà¥¨à¥§à¥§à¥¦":9621,"à¤ķà¤°à¤ıà¤¹à¤¸":9622,"Ġphoto":9623,"ructure":9624,"flywheel":9625,"92":9626,"98":9627,"gi":9628,"hz":9629,"ris":9630,"rss":9631,"ÛĮ":9632,"Ġ000":9633,"à¤°à¤īà¤¦":9634,"à¥ĩâĢĮ":9635,"à¤¯à¤¸à¤°":9636,"à¤¨à¤¡à¤®à¤§":9637,"à¤¹à¤«":9638,"à¤¹à¤Ĺà¤²":9639,"à¤ķà¤¸à¤¤":9640,"à¤£à¤¬à¤§":9641,"à¤®à¤Ĭ":9642,"à¤®à¤Łà¤¨":9643,"à¤®à¤¶à¤°":9644,"à¤ªà¤ķà¤¡à¤²":9645,"Ġà¤®à¤Ĺà¤¦":9646,"à¤Łà¤µà¤¤":9647,"à¤Łà¤¸à¤¨à¤¨":9648,"à¤§à¤°à¤¤":9649,"Ġà¤¨à¤®à¤¤":9650,"Ġà¤¤à¤Łà¤¬":9651,"à¤¡à¤°à¤¹":9652,"à¤¡à¤¬à¤²":9653,"Ġà¤¹à¤°à¤ķ":9654,"Ġà¤¦à¤¨":9655,"Ġà¤¦à¤°à¤ķà¤ª":9656,"à¤³à¤µà¤°":9657,"Ġà¤ľà¤°à¤¤":9658,"Ġà¤ľà¤«":9659,"Ġà¤ķà¤°à¤Ĩà¤ķ":9660,"Ġà¤¬à¤®":9661,"à¤¥à¤¨à¤¹":9662,"Ġà¤Ŀà¤Łà¤£":9663,"à¤°à¤¤à¤ªà¤£":9664,"à¤¤à¤°à¤¶":9665,"Ġà¤Ĩà¤²à¤Ł":9666,"Ġà¤ķà¤°à¤£à¤¸":9667,"Ġà¤ĸà¤ļà¤¤":9668,"à¤Īà¤Łà¤°":9669,"à¤°à¤£à¤ķ":9670,"à¤ĺà¤¸à¤¹à¤ķ":9671,"à¤ªà¤£à¤µ":9672,"à¤«à¤ľ":9673,"à¤µà¤¸à¤¨à¤®":9674,"à¤ķà¤¡à¤¯":9675,"Ġà¤§à¤°à¤¸":9676,"Ġà¤īà¤ªà¤Ĺà¤Ł":9677,"Ġà¤īà¤ªà¤īà¤ļ":9678,"Ġà¤¤à¤°à¤²à¤¤":9679,"Ġà¤Ĩà¤°à¤¶":9680,"à¤Łà¤²à¤¬":9681,"à¤¬à¤Īà¤ķ":9682,"Ġà¤Ĩà¤¯à¤¯":9683,"à¤ªà¤¨à¤¶":9684,"Ġà¤ħà¤ªà¤ļ":9685,"Ġà¤ħà¤ªà¤ķà¤®":9686,"Ġà¤ªà¤¦à¤ķà¤¤":9687,"Ġà¥¨à¥§à¥ª":9688,"Ġà¤ĵà¤®à¤¨":9689,"à¤§à¤¨à¤ª":9690,"à¤§à¤¨à¤®à¤§":9691,"à¤¶à¤²à¤²":9692,"Ġà¤ľà¤¨à¤Ń":9693,"Ġà¤Ĩà¤ľà¤ħà¤ĸ":9694,"Ġ206":9695,"Ġ2050":9696,"à¤²à¤¤à¤Ń":9697,"Ġà¤Ĩà¤µà¤¶à¤ķ":9698,"à¤µà¤ļà¤£":9699,"Ġà¤¬à¤°à¤Ĺà¤¡":9700,"Ġà¤ľà¤Ĺà¤ļ":9701,"à¤ªà¤ķà¤ªà¤£":9702,"Ġà¥©à¥§à¥¦":9703,"Ġà¥©à¥§à¥«":9704,"à¤ľà¤²à¤¤à¤°à¤£":9705,"à¤¤à¤¤à¤ľ":9706,"Ġà¥¨à¥¦à¥«":9707,"Ġà¥¨à¥¦à¥®":9708,"Ġ425":9709,"à¤µà¤¯à¤¸":9710,"Ġà¤¸à¤®à¤ľà¤µà¤£":9711,"Ġà¤µà¤¡à¤¨à¤Ĺà¤°":9712,"à¤ĳà¤«à¤ļ":9713,"Ġà¤µà¤¸à¤Īà¤¤":9714,"à¤¤à¤¡à¤ľ":9715,"à¤¡à¤ķà¤°à¤¨":9716,"à¤°à¤Ĺà¤¢":9717,"Ġ9999":9718,"à¤¸à¤Ĺà¤³à¤¯":9719,"Ġà¥§à¥¯à¥«à¥¦":9720,"Ġà¥§à¥«à¥®":9721,"Ġ509":9722,"Ġà¤§à¤¡à¤ķà¤¨":9723,"à¤¦à¤³à¤Ĺ":9724,"atest":9725,"à¤°à¤¬à¤¨":9726,"Ġcp":9727,"Ġceo":9728,"Ġcircuit":9729,"Ġà¤Ĳà¤ķà¤µà¤²":9730,"Ġ1857":9731,"Ġà¤¤à¤³à¤¹":9732,"Ġà¥¨à¥«à¥ª":9733,"Ġà¤«à¤³à¤ª":9734,"à¤¯à¤Łà¤¨à¤µ":9735,"Ġà¥©à¥¦à¥¬":9736,"Ġà¥©à¥¦à¥Ń":9737,"Ġ212":9738,"à¤³à¤¸à¤ªà¤£":9739,"à¤°à¤«à¤¡":9740,"Ġà¤§à¤¡à¤ķà¤¤":9741,"Ġà¤Ńà¤¯à¤ªà¤Ł":9742,"Ġbill":9743,"Ġret":9744,"Ġrtpcr":9745,"Ġvoltage":9746,"ami":9747,"Ġ263":9748,"Ġà¤ıà¤ħà¤°à¤ļ":9749,"Ġà¥¨à¥¯à¥¨":9750,"Ġinf":9751,"Ġhdfc":9752,"coh":9753,"Ġà¥©à¥¨à¥¬":9754,"ily":9755,"Ġà¥¦à¥§à¥¦":9756,"Ġà¥©à¥©à¥¬":9757,"2007":9758,"abase":9759,"udd":9760,"Ġà¥¨à¥§à¥§à¥¨":9761,"à¤¸à¤®à¤¨à¤ļ":9762,"Ġxi":9763,"lok":9764,"à¥§à¥¯à¥¯à¥¨":9765,"à¥§à¥¯à¥¯à¥©":9766,"à¥¨à¥¦à¥§à¥Ńà¥§à¥®":9767,"confound":9768,"Ġ1972":9769,"press":9770,"Ġà¤Ĩà¤Ĭà¤Łà¤¸":9771,"Ġà¤Ĩà¤Ĭà¤Łà¤«":9772,"à¤µà¤¸à¤¹à¤®à¤¤":9773,"power":9774,"Ġà¤«à¤¡à¤ķà¤²":9775,"Ġinternational":9776,"Ġmedia":9777,"Ġseries":9778,"Ġfloods":9779,"à¤Ĺà¤Ĺà¤¨à¤¯":9780,"kerala":9781,"Ġà¤§à¤Ĺà¤§à¤Ĺà¤¤":9782,"__":9783,"ber":9784,"design":9785,"gp":9786,"narendra":9787,"per":9788,"pakistan":9789,"sis":9790,"yanka":9791,"Ã¢":9792,"Ġid":9793,"à¤°à¤¡à¤µ":9794,"à¤¤à¤¦à¤°":9795,"à¤¯à¤°à¤¶":9796,"à¤²à¤ħà¤¸":9797,"à¤²à¤Łà¤¤":9798,"à¤¨à¤¯à¤¶":9799,"à¤¹à¤ķà¤¡":9800,"à¤¹à¤ķà¤¤":9801,"à¤µà¤§à¤¤":9802,"à¤µà¤ľà¤µà¤³":9803,"à¤¸à¤ķà¤°à¤ļ":9804,"à¤®à¤¤à¤ª":9805,"à¤®à¤ľà¤¸":9806,"Ġà¤Ĩà¤°à¤µ":9807,"Ġà¤¸à¤§à¤¨":9808,"à¤¦à¤¦à¤°à¤®":9809,"à¤¦à¤¡à¤ªà¤£":9810,"à¤§à¤¤à¤ļ":9811,"Ġà¤¨à¤Łà¤µà¤°":9812,"à¤ľà¤¸à¤ļ":9813,"Ġà¤µà¤µ":9814,"Ġà¤¤à¤¡à¤¸":9815,"Ġà¤¦à¤ļà¤ķ":9816,"Ġà¤¯à¤¹":9817,"à¤ĸà¤¯":9818,"à¤ĸà¤Ńà¤°":9819,"Ġà¤īà¤¸à¤¨":9820,"à¤°à¤¤à¤ľà¤°":9821,"Ġà¤ıà¤¯":9822,"à¤Īà¤®à¤ļ":9823,"à¤Īà¤¨à¤¨":9824,"à¤Īà¤¨à¤¸":9825,"Ġà¤«à¤¹":9826,"à¤ķà¤°à¤ªà¤£":9827,"à¤ªà¤²à¤µ":9828,"Ġà¤§à¤¨à¤¸":9829,"Ġà¤¸à¤®à¤¦":9830,"à¤ıà¤¹":9831,"Ġà¤¤à¤°à¤³à¤²":9832,"à¤·à¤£à¤ªà¤¦":9833,"à¤¡à¤²à¤¦":9834,"à¤Ĺà¤¤à¤Ĺ":9835,"à¤¬à¤°à¤ħà¤ĸ":9836,"à¤¬à¤Īà¤¶":9837,"à¤Łà¤°à¤µà¤°à¤ļ":9838,"à¤Ĺà¤£à¤¸":9839,"Ġ299":9840,"Ġà¤īà¤¦à¤Ńà¤µà¤²":9841,"à¤¡à¤£à¤¹":9842,"Ġà¤Ĩà¤¦à¤³à¤¤":9843,"à¤ħà¤¸à¤µà¤°":9844,"Ġ205":9845,"Ġ207":9846,"à¤¹à¤²à¤ª":9847,"Ġà¤ħà¤ªà¤ĺà¤¤":9848,"Ġà¤Ĩà¤łà¤ª":9849,"à¤¬à¤²à¤°":9850,"Ġà¥©à¥§à¥®":9851,"à¤Ĩà¤¤à¤®à¤§":9852,"à¤ıà¤®à¤Ĩà¤¯à¤ļ":9853,"à¤ıà¤¨à¤Ī":9854,"Ġà¤µà¤¡à¤¨":9855,"Ġà¤ıà¤®à¤Ĩà¤°":9856,"à¤®à¤¸à¤¡à¤ķ":9857,"Ġà¥®à¥«à¥¦":9858,"à¤Łà¤¸à¤ħà¤ª":9859,"à¤²à¤ªà¤µ":9860,"à¤¯à¤°à¤¸à¤µ":9861,"190":9862,"à¤Ĳà¤µà¤¢":9863,"Ġà¤¤à¤³à¤ªà¤¤":9864,"Ġ406":9865,"Ġà¥©à¥¦à¥¯":9866,"ices":9867,"icmr":9868,"Ġ2116":9869,"Ġà¤ıà¤ļà¤ıà¤¸à¤¬":9870,"Ġà¤¨à¤Ĭà¤ľà¤£":9871,"Ġran":9872,"Ġrah":9873,"à¤³à¤®à¤³à¤£":9874,"Ġtiktok":9875,"Ġnet":9876,"Ġnot":9877,"Ġà¥¨à¥©à¥¨":9878,"Ġà¥¨à¥©à¥«":9879,"Ġà¤ļà¤®à¤ļà¤®":9880,"rom":9881,"Ġ268":9882,"Ġà¥©à¥«à¥©":9883,"Ġ272":9884,"213":9885,"isro":9886,"Ġ4500":9887,"Ġlatest":9888,"ilm":9889,"Ġà¥¨à¥¦à¥§à¥ªà¥§à¥«":9890,"ÂłÂłÂł":9891,"Ġà¥©à¥©à¥¨":9892,"2002":9893,"2003":9894,"à¤¯à¤¨à¤²à¤ªà¤°":9895,"Ġjnu":9896,"Ġà¥§à¥¯à¥®à¥Ń":9897,"à¤¤à¤Łà¤°à¤ķ":9898,"à¤Īà¤«à¤®à¤§":9899,"Ġà¥¯à¥¯à¥¦":9900,"à¥¨à¥¦à¥§à¥«à¥§à¥¬":9901,"Ġcontrol":9902,"à¤«à¤°à¤¨à¤Ĺà¤°à¤®à¤§":9903,"Ġengland":9904,"arscov":9905,"Ġscam":9906,"Ġpoll":9907,"à¤ĩà¤Ĺà¤¤à¤ª":9908,"counter":9909,"ðŁĳ":9910,"lactic":9911,"à¤ĩà¤¨à¤ķà¤®":9912,"eplus":9913,"ÑģÐºÐ°Ñı":9914,"5000":9915,"87":9916,"case":9917,"dl":9918,"kas":9919,"mill":9920,"nav":9921,"uidai":9922,"Ġà²":9923,"à¤¾à¤¾à¤Ĥ":9924,"à¤°à¤Ĩà¤¹":9925,"à¤¤à¤µà¤°à¤£":9926,"à¤¯à¤ĸ":9927,"à¤²à¤¦à¤°à¤®":9928,"à¤²à¤®à¤¸":9929,"à¤²à¤ľà¤µà¤³":9930,"à¤¨à¤¨à¤ļ":9931,"à¤¨à¤¤à¤ļ":9932,"à¤¨à¤¨à¤²":9933,"à¤ķà¤¬à¤°":9934,"à¤ķà¤¶à¤¨":9935,"à¤ļà¤¨à¤²":9936,"à¤ļà¤¤à¤®":9937,"à¤ļà¤ªà¤Ł":9938,"à¤µà¤ħà¤Ł":9939,"à¤¸à¤Ĩ":9940,"à¤¸à¤ľà¤µà¤³":9941,"Ġà¤Ĩà¤¸à¤¤":9942,"Ġà¤¸à¤¬à¤¨":9943,"Ġà¤¸à¤ľà¤¦":9944,"à¤¦à¤īà¤¨à¤¨":9945,"à¤Łà¤³":9946,"à¤Łà¤µà¤ķ":9947,"Ġà¤ħà¤µà¤ļ":9948,"à¤§à¤°à¤µ":9949,"à¤§à¤°à¤®à¤¶":9950,"à¤ľà¤°à¤¸à¤¹":9951,"Ġà¤µà¤¡à¤ķ":9952,"Ġà¤µà¤łà¤µ":9953,"Ġà¤¤à¤ķà¤²":9954,"Ġà¤¤à¤¨à¤µ":9955,"à¤¡à¤°à¤µ":9956,"à¤¡à¤¯à¤¨":9957,"Ġà¤¦à¤µà¤¡à¤²":9958,"à¤¬à¤ĺà¤£":9959,"Ġà¤¬à¤¡à¤¬":9960,"Ġà¤¶à¤¡":9961,"à¤¥à¤¨à¤Ĺà¤°":9962,"Ġà¤²à¤µà¤°":9963,"à¤¯à¤ķà¤¸":9964,"à¤Ĩà¤ļà¤°":9965,"Ġà¤«à¤¸à¤£":9966,"à¤¢à¤ª":9967,"à¤ħà¤Ŀà¤°":9968,"Ġà¤ĩà¤¯à¤¨":9969,"à¤¯à¤®à¤ķ":9970,"Ġà¤¸à¤®à¤°à¤¸":9971,"Ġà¤¸à¤®à¤°à¤¸à¤¤":9972,"à¤°à¤¸à¤°":9973,"à¤°à¤¸à¤ľ":9974,"à¤Ŀà¤®à¤§":9975,"à¤¦à¤°à¤¬à¤¨":9976,"à¤µà¤¤à¤ªà¤£":9977,"à¤®à¤¨à¤Ĺ":9978,"à¤¬à¤Īà¤Ĩà¤Ĺ":9979,"à¤Łà¤°à¤°":9980,"Ġà¤¸à¤¹à¤ľà¤ļ":9981,"à¤ķà¤²à¤¹":9982,"à¤¯à¤¦à¤¨":9983,"Ġà¤ªà¤¦à¤¨":9984,"à¤ªà¤¤à¤®à¤§":9985,"Ġà¤¥à¤ķà¤¤":9986,"à¤¹à¤¨à¤ķà¤°":9987,"à¤§à¤¨à¤¨":9988,"à¤·à¤¯à¤ªà¤¤":9989,"à¤¨à¤²à¤¹":9990,"à¤µà¤ķà¤ª":9991,"à¥Łà¤ķ":9992,"Ġà¥¨à¥¦à¥¦à¥¦à¥¦":9993,"à¤łà¤²à¤°":9994,"à¤ıà¤¨à¤ıà¤²à¤ļ":9995,"Ġà¤Īà¤ıà¤¸à¤Ĩà¤¯à¤¸":9996,"à¤ĳà¤ķà¤²":9997,"2023":9998,"à¤ķà¤Łà¤®":9999,"à¤ķà¤Łà¤Ĺ":10000,"à¤ıà¤«à¤µà¤°":10001,"Ġà¤¸à¤¨à¤®":10002,"Ġà¥Ńà¥¨à¥¦":10003,"Ġà¤¨à¤®à¤µà¤£":10004,"Ġà¤Ĩà¤¦à¤°à¤ļ":10005,"Ġà¥§à¥¯à¥¬à¥¦":10006,"Ġà¥§à¥¯à¥Ńà¥«":10007,"Ġà¤¨à¤Ĺà¤®":10008,"Ġ1965":10009,"Ġ187":10010,"Ġsit":10011,"Ġpad":10012,"Ġà¤ıà¤ļà¤¯":10013,"Ġms":10014,"esident":10015,"à¤ĩà¤¤à¤ķà¤ļ":10016,"à¤¡à¤µà¤²à¤¶":10017,"Ġrho":10018,"Ġà¥¨à¥¨à¥Ń":10019,"Ġ223":10020,"Ġneet":10021,"Ġà¥¨à¥©à¥¬":10022,"à¤¸à¤Ĺà¤¡à¤®à¤§à¤²":10023,"Ġ249":10024,"Ġà¥¨à¥¬à¥®":10025,"Ġà¥¨à¥®à¥Ń":10026,"Ġ237":10027,"Ġà¤¸à¤Īà¤¦à¤¨":10028,"Ġhock":10029,"182":10030,"china":10031,"à¤Ĩà¤łà¤ªà¤°":10032,"ose":10033,"à¤ıà¤¨à¤ıà¤¸à¤¯":10034,"Ġà¥¦à¥¬":10035,"Ġà¤¨à¤µà¤²à¤ķ":10036,"Ġjio":10037,"Ġà¤ķà¤ªà¤²à¤ļ":10038,"ube":10039,"1991":10040,"ants":10041,"à¤¸à¤°à¤¸à¤ķà¤Ł":10042,"Ġraj":10043,"Ġ1962":10044,"à¤ľà¤²à¤¦à¤Ĺà¤¤":10045,"Ġcricket":10046,"aste":10047,"outh":10048,"pulwama":10049,"Ġasia":10050,"Ġtech":10051,"à¤ĵà¤³à¤ĸà¤²":10052,"earch":10053,"enzy":10054,"reaking":10055,"à¤¦à¤īà¤¨à¤¨à¤¬":10056,"Ġhockey":10057,"bse":10058,"cars":10059,"do":10060,"hol":10061,"hav":10062,"ncb":10063,"sol":10064,"vel":10065,"vers":10066,"à¤°à¤īà¤°":10067,"à¤¯à¤ıà¤¸":10068,"à¤¨à¤¹à¤°":10069,"à¤¨à¤Ľà¤ª":10070,"à¤¹à¤°à¤µ":10071,"à¤¹à¤®à¤¤":10072,"à¤¹à¤°à¤¸à¤¹":10073,"à¤ļà¤Ĺà¤£":10074,"à¤ļà¤°à¤¹":10075,"à¤µà¤ªà¤£":10076,"à¤®à¤³à¤®à¤³":10077,"Ġà¤Ĩà¤¡à¤µà¤²":10078,"Ġà¤ķà¤µà¤£":10079,"à¥ģ'":10080,"Ġà¤¸à¤³à¤¸":10081,"Ġà¤ªà¤¥à¤¸":10082,"Ġà¤ªà¤ļà¤µà¤£":10083,"Ġà¤®à¤¸à¤²":10084,"à¥Ĥà¥Ģ":10085,"à¤Ĺà¤ªà¤°":10086,"à¤Ĺà¤¬à¤°":10087,"à¤§à¤ķà¤°":10088,"à¤§à¤Łà¤ªà¤£":10089,"Ġà¤¨à¤ª":10090,"à¤¶à¤°à¤ļ":10091,"Ġà¤¹à¤¸à¤°":10092,"Ġà¤¹à¤Łà¤¤":10093,"à¤³à¤®à¤§à¤²":10094,"à¤·à¤Łà¤ķ":10095,"à¤·à¤¸à¤¹":10096,"à¤¬à¤¸à¤¹":10097,"à¤ĸà¤ķà¤¦":10098,"Ġà¤¶à¤®à¤£":10099,"à¤Ńà¤²à¤¤":10100,"Ġà¤ħà¤¸à¤¹à¤ķ":10101,"Ġà¤²à¤®":10102,"Ġà¤ĺà¤°à¤¤":10103,"Ġà¤īà¤ľà¤¨":10104,"Ġà¤ķà¤°à¤£à¤®à¤§":10105,"Ġà¤ıà¤¤":10106,"Ġà¤ıà¤¡à¤¨":10107,"à¤Īà¤Ĩà¤°":10108,"Ġà¤Łà¤³à¤¤":10109,"à¤«à¤¤à¤ļ":10110,"Ġà¤¸à¤°à¤ªà¤Łà¤£":10111,"Ġà¤§à¤®à¤¨":10112,"à¤Łà¤ķà¤µ":10113,"à¤ľà¤¨à¤¸à¤¹":10114,"à¤®à¤¨à¤¶":10115,"à¤¬à¤°à¤Ł":10116,"Ġà¤Ĩà¤¯à¤¡à¤²":10117,"à¤¹à¤°à¤¡":10118,"à¤¯à¤²à¤Łà¤²":10119,"à¤·à¤ķà¤¶":10120,"à¤°à¤¨à¤ľ":10121,"à¤²à¤¨à¤ķ":10122,"à¤īà¤Ł":10123,"Ġà¤ĵà¤¸à¤µ":10124,"à¤®à¤²à¤ļ":10125,"à¤¦à¤¨à¤¸":10126,"Ġà¤ĸà¤°à¤¡à¤ªà¤Ł":10127,"Ġà¤²à¤ķà¤µ":10128,"à¤²à¤Ĺà¤¡":10129,"à¤°à¤ĸà¤¡":10130,"à¤ıà¤¸à¤µ":10131,"à¤¨à¤°à¤ħ":10132,"Ġà¥©à¥§à¥Ń":10133,"Ġà¥¨à¥¦à¥©à¥¦":10134,"à¤§à¤ķà¤¹":10135,"à¤µà¤ªà¤¥à¤ķ":10136,"à¤¯à¤¸à¤µ":10137,"Ġà¤īà¤²à¤Łà¥Ł":10138,"Ġà¤Īà¤«":10139,"Ġà¤ıà¤¨à¤«":10140,"Ġà¤µà¤¸à¤Īà¤µ":10141,"à¤ıà¤«à¤ı":10142,"Ġà¤ªà¤¡à¤ĺ":10143,"Ġ845":10144,"à¤ħà¤²à¤µà¤°":10145,"à¤²à¤Ńà¤ªà¤£":10146,"Ġà¤¦à¤ĸà¤²à¤ļ":10147,"à¤ľà¤ªà¤®à¤§à¤²":10148,"Ġ259":10149,"eria":10150,"Ġà¤ħà¤Łà¤¹":10151,"Ġà¤¤à¤³à¤®à¤³à¤¤":10152,"Ġà¤¸à¤£à¤īà¤¤":10153,"Ġ2114":10154,"Ġà¤ĸà¤¡à¤ĸà¤¡":10155,"orage":10156,"Ġmo":10157,"Ġà¥¨à¥ªà¥®":10158,"Ġap":10159,"Ġà¥ªà¥¦à¥©":10160,"iphone":10161,"Ġà¤ķà¤ļà¤°à¤¤":10162,"à¤¯à¤«à¤²à¤ļ":10163,"Ġà¥¨à¥©à¥©":10164,"Ġ241":10165,"Ġ356":10166,"Ġà¥¨à¥¬à¥©":10167,"ased":10168,"Ġgen":10169,"Ġà¥¨à¥®à¥«":10170,"Ġins":10171,"Ġà¤µà¤ļà¤¨à¤¨":10172,"Ġà¥©à¥¬à¥«":10173,"Ġà¥©à¥¬à¥ª":10174,"1500":10175,"Ġ480":10176,"oscars":10177,"eld":10178,"ution":10179,"à¥§à¥§à¥«":10180,"à¤ĩà¤«à¤®à¤§":10181,"Ġif":10182,"Ġ1986":10183,"Ġà¥¨à¥§à¥§à¥§":10184,"à¤ľà¤®à¤¹à¤²":10185,"Ġà¤²à¤Łà¤ķà¤µà¤£":10186,"à¦¾":10187,"Ġcourt":10188,"Ġicici":10189,"Ġresearch":10190,"bles":10191,"otec":10192,"donald":10193,"magnet":10194,"htt":10195,"nf":10196,"nda":10197,"pay":10198,"sing":10199,"volt":10200,"à¶":10201,"áŀ":10202,"à¤¾à¥¥":10203,"à¤¨à¤ªà¤Ł":10204,"à¤¨à¤°à¤µà¤£":10205,"à¤¹à¤¸à¤¤":10206,"à¤ķà¤¦à¤°":10207,"à¤ķà¤®à¤ķ":10208,"à¤ķà¤µà¤°à¤¹":10209,"à¤¸à¤µà¤¯":10210,"à¤®à¤Ńà¤°":10211,"Ġà¤Ĩà¤±":10212,"Ġà¤ķà¤¥à¤ķ":10213,"à¤ªà¤¨à¤ļ":10214,"Ġà¤¸à¤°à¤µà¤£à¤ķà¤°":10215,"à¤¦à¤¯à¤¨":10216,"Ġà¤®à¤®à¤¨":10217,"Ġà¤ħà¤°à¤ª":10218,"à¤§à¤°à¤®à¤¯":10219,"à¤ľà¤¯à¤®":10220,"à¤¡à¤Ĺà¤°":10221,"à¤¡à¤¸à¤¤":10222,"à¤·à¤Ĺ":10223,"Ġà¤°à¤¡à¤µ":10224,"Ġà¤¬à¤¦à¤ķ":10225,"Ġà¤¶à¤Łà¤¡":10226,"à¤łà¤¨":10227,"Ġà¤ļà¤¤à¤°":10228,"Ġà¤ļà¤°à¤¸":10229,"à¤°à¤ķà¤ªà¤£":10230,"Ġà¤ĸà¤Łà¤ªà¤Ł":10231,"Ġà¤ıà¤ıà¤¸":10232,"à¤Īà¤¨à¤²":10233,"à¤¯à¤ķà¤ª":10234,"à¤Ĩà¤°à¤ķà¤¡":10235,"à¥īà¤¼":10236,"Ġà¤ıà¤ķà¤²à¤µ":10237,"Ġà¤Łà¤³à¤£":10238,"Ġà¤ªà¤°à¤ľ":10239,"Ġà¤¤à¤°à¤¡":10240,"Ġà¤Ĩà¤°à¤ıà¤«":10241,"à¤Ĺà¤²à¤°":10242,"à¤·à¤£à¤¨":10243,"Ġà¤µà¤°à¤¹":10244,"Ġà¤Ĩà¤¯à¤ıà¤®à¤¡":10245,"à¤¯à¤²à¤¡":10246,"à¤ĩà¤¦":10247,"à¤ĩà¤Ĺà¤°":10248,"à¤ĩà¤ľà¤°":10249,"à¤ĩà¤¸à¤®à¤§":10250,"à¤ľà¤¯à¤¹":10251,"à¤ľà¤¯à¤Ń":10252,"à¤¤à¤¸à¤®":10253,"à¤¤à¤¸à¤°à¤²":10254,"à¤·à¤ķà¤¤à¤¤":10255,"à¤ĵà¤Ĩà¤¯à¤¸":10256,"à¤īà¤ļà¤²":10257,"Ġà¤ĵà¤°à¤¬":10258,"à¤¯à¤¨à¤ª":10259,"à¤¯à¤¨à¤ªà¤¨à¤µ":10260,"Ġ209":10261,"Ġà¤ľà¤®à¤ĸ":10262,"à¤·à¤¦à¤¹":10263,"à¤ķà¤£à¤®":10264,"Ġ416":10265,"à¤Ĺà¤¡à¤¦":10266,"Ġà¥ªà¥§à¥¦":10267,"Ġà¥ªà¥§à¥Ń":10268,"Ġà¤īà¤Ńà¤°à¤¤":10269,"Ġà¤ħà¤Ĺà¤¸":10270,"à¤ĳà¤«à¤°":10271,"à¤ıà¤«à¤ıà¤¸":10272,"Ġ1030":10273,"à¤¡à¤°à¤¬à¤¨":10274,"Ġà¥§à¥¯à¥©":10275,"à¤ıà¤ļà¤ļ":10276,"ong":10277,"anth":10278,"Ġà¤ķà¤³à¤®à¤ķà¤°":10279,"ati":10280,"ates":10281,"Ġ251":10282,"Ġ1942":10283,"Ġà¤ıà¤«à¤Ĩà¤°à¤ª":10284,"à¤Ĳà¤¨à¤µ":10285,"Ġà¤Ĳà¤ķà¤¤à¤ļ":10286,"Ġà¤ıà¤²à¤ıà¤¸":10287,"Ġà¥¨à¥«à¥©":10288,"Ġ1600":10289,"alman":10290,"Ġà¤¦à¤¬à¤ķ":10291,"à¥§à¥¯à¥®à¥¦":10292,"Ġmain":10293,"Ġà¤īà¤§à¤³à¤¤":10294,"Ġaustralia":10295,"à¤¯à¤Łà¤ķà¤¹":10296,"Ġà¥¨à¥¨à¥§":10297,"Ġ358":10298,"roh":10299,"Ġà¥²à¤¡à¤µ":10300,"Ġà¥¨à¥¯à¥©":10301,"Ġwomens":10302,"isis":10303,"à¤¼à¤¾à¤Ĥ":10304,"radi":10305,"102":10306,"105":10307,"Ġla":10308,"ild":10309,"Ġ292":10310,"à¤įà¤¨":10311,"Ġja":10312,"abh":10313,"à¤§à¤°à¤£à¤ķ":10314,"à¤®à¤ķà¤°à¤¸":10315,"Ġà¤ªà¤ļà¤¨à¤¸":10316,"Ġ675":10317,"Ġ1982":10318,"database":10319,"Ġà¤Ĺà¤łà¤¬":10320,"Ġà¤Ĩà¤īà¤Łà¤ª":10321,"à¥¨à¥¦à¥§à¥¬à¥§à¥Ń":10322,"Ġà¥§à¥¯à¥Ńà¥¨":10323,"Ġ1956":10324,"bser":10325,"Ġisis":10326,"à¤ĵà¤ıà¤ļà¤ıà¤ļ":10327,"ynam":10328,"à¤ķà¤¥à¤¨à¤ķà¤°":10329,"micro":10330,"ces":10331,"ev":10332,"group":10333,"mar":10334,"med":10335,"nm":10336,"nit":10337,"ncp":10338,"nology":10339,"pan":10340,"por":10341,"res":10342,"rest":10343,"ze":10344,"Ø³":10345,"ĠÏ":10346,"Ġur":10347,"Ġali":10348,"à¤°à¤¯à¤¨":10349,"à¥Ģ`":10350,"à¤¤à¤³à¤¤":10351,"à¤¤à¤¬à¤²":10352,"à¤¤à¤Ĺà¤Ł":10353,"à¤¯à¤ªà¤¤":10354,"à¤¯à¤¶à¤ķ":10355,"à¤¨à¤µà¤°à¤ļ":10356,"à¤ļà¤Ī":10357,"à¤¸à¤Łà¤°":10358,"à¤¸à¤¡à¤ķ":10359,"à¤¸à¤ľà¤¨à¤¤":10360,"à¤£à¤ªà¤Ł":10361,"à¤ªà¤¸à¤ļ":10362,"à¤ªà¤Łà¤¤":10363,"à¤ªà¤Łà¤ķà¤¨":10364,"Ġà¤¸à¤ªà¤ļ":10365,"à¤¦à¤¶à¤¨":10366,"Ġà¤®à¤ĺ":10367,"Ġà¤®à¤ķà¤µ":10368,"à¤Ĺà¤µà¤³":10369,"à¤Ĺà¤Łà¤ļ":10370,"Ġà¤¨à¤°à¤®à¤²":10371,"à¤ľà¤¬à¤¦":10372,"à¤ľà¤²à¤¨":10373,"Ġà¤µà¤°à¤ª":10374,"Ġà¤¤à¤²à¤¸":10375,"Ġà¤ľà¤łà¤°":10376,"Ġà¤ľà¤«à¤°à¤ļ":10377,"Ġà¤ķà¤°à¤®à¤ļ":10378,"Ġà¤¬à¤ķà¤µ":10379,"Ġà¤¶à¤°à¤¤":10380,"à¤µà¤°à¤¬à¤¦":10381,"Ġà¤Ĺà¤°à¤µ":10382,"Ġà¤Ŀà¤¬":10383,"à¤°à¤¤à¤«":10384,"à¤¤à¤°à¤¦à¤ķ":10385,"Ġà¤ĸà¤ļà¤£":10386,"Ġà¤ıà¤ıà¤®à¤¯":10387,"à¤Īà¤¨à¤°":10388,"à¤Ĩà¤¸à¤¨":10389,"à¤Ĩà¥Ł":10390,"Ġà¤«à¤Ĺ":10391,"Ġà¤ªà¤°à¤Ĺà¤¨":10392,"à¤ªà¤²à¤ķ":10393,"Ġà¤§à¤°à¤®à¤ª":10394,"à¤µà¤²à¤¦":10395,"à¤ıà¤¦":10396,"à¤ıà¤Ĩà¤°à¤¸":10397,"à¤Łà¤¨à¤¶":10398,"à¤ľà¤ªà¤Ł":10399,"à¤µà¤£à¤µ":10400,"à¤µà¤£à¤Ĺ":10401,"Ġà¤Ĩà¤°à¤ıà¤²à¤¡":10402,"à¤Ĺà¤²à¤®à¤¯":10403,"Ġà¤¨à¤µà¤¤":10404,"à¤Łà¤ķà¤®à¤§à¤²":10405,"âĢłà¤¿":10406,"à¤ľà¤¨à¤¯":10407,"à¤®à¤¨à¤ľ":10408,"Ġà¤Ĩà¤¯à¤°à¤¨":10409,"à¤¤à¤ķà¤¨à¤Ĺà¤°":10410,"à¤ĩà¤²à¤¨":10411,"à¤ĩà¤¸à¤µà¤°":10412,"à¤¸à¤¨à¤¤":10413,"à¤°à¤ľà¤ķ":10414,"à¤µà¤¨à¤¯":10415,"à¤²à¤¨à¤²":10416,"à¤²à¤¨à¤ľ":10417,"à¤īà¤²à¤«":10418,"Ġà¤¥à¤¡à¤Ĺ":10419,"à¤§à¤¨à¤²":10420,"Ġà¤ħà¤¦à¤ľ":10421,"Ġà¤ķà¤ªà¤Ł":10422,"Ġà¤īà¤®à¤°à¤Ĺ":10423,"à¤¤à¤®à¤ªà¤£":10424,"à¤¨à¤°à¤¬":10425,"à¤¶à¤ķà¤ªà¤£":10426,"à¤ıà¤ķà¤ª":10427,"Ġà¥¨à¥¦à¥¬":10428,"à¤Ĩà¤¤à¤¡":10429,"à¤ķà¤£à¤®à¤§":10430,"à¤ľà¤Ĺà¤¨à¤®":10431,"Ġ417":10432,"Ġà¥ªà¥¨à¥¨":10433,"Ġà¤Ĩà¤Īà¤¦":10434,"Ġà¤Īà¤¯":10435,"à¤ĳà¤¨à¤°":10436,"Ġà¤«à¤²à¤¶":10437,"2050":10438,"à¤ıà¤«à¤ıà¤ķ":10439,"Ġ660":10440,"Ġà¥¬à¥¬à¥¦":10441,"Ġà¤ĵà¤³à¤ĸà¤¤à¤¹":10442,"Ġà¤ıà¤®à¤ıà¤®à¤ıà¤¸":10443,"à¥¨à¥¦à¥¨à¥§":10444,"Ġà¤Ĩà¤ķà¤¡à¥Ł":10445,"ines":10446,"à¤²à¤¸à¤µà¤°":10447,"à¤²à¤ķà¤°à¤¸à¤¹":10448,"Ġà¥§à¥¨à¥©à¥¦":10449,"à¤ıà¤ļà¤ıà¤ıà¤²":10450,"à¤¦à¤¹à¤¶à¤¤":10451,"Ġ11000":10452,"à¤°à¤¥à¤®à¤¤":10453,"ona":10454,"Ġà¤ıà¤«à¤ıà¤¸":10455,"aran":10456,"Ġcar":10457,"Ġchar":10458,"à¤¨à¤Īà¤¸":10459,"Ġà¤īà¤ĺà¤¡à¤Ŀ":10460,"Ġsuper":10461,"Ġ308":10462,"Ġ163":10463,"à¤¤à¤°à¤£à¤¨":10464,"Ġà¥©à¥¦à¥«":10465,"Ġpre":10466,"Ġpak":10467,"Ġà¥§à¥Ńà¥¦à¥¦":10468,"Ġà¤¸à¤¹à¤ľà¤Ĺà¤¤":10469,"Ġns":10470,"Ġnpr":10471,"à¤ĩà¤¡à¤µà¤°":10472,"Ġ284":10473,"Ġ287":10474,"Ġgsat":10475,"Ġ231":10476,"à¥§à¥¦à¥«":10477,"Ġdd":10478,"Ġhy":10479,"Ġher":10480,"bihar":10481,"à¤¯à¤Ĺà¤¡à¤°à¤¤":10482,"à¤¯à¤¸à¤¨à¤®":10483,"Ġà¥¦à¥Ń":10484,"2006":10485,"Ġà¥©à¥¯à¥¯":10486,"à¥§à¥§à¥ª":10487,"ement":10488,"Ġà¥§à¥¯à¥®à¥§":10489,"Ġà¤Ĩà¤¸à¤¨à¤µ":10490,"Ġ1980":10491,"wwe":10492,"à¥§à¥¯à¥¯à¥Ń":10493,"à¥§à¥¯à¥¯à¥®":10494,"Ġà¤Ĩà¤īà¤Łà¤ķà¤®":10495,"Ġdeath":10496,"tocol":10497,"Ġacc":10498,"Ġà¥§à¥¯à¥«à¥«":10499,"Ġips":10500,"Ġgovern":10501,"Ġelections":10502,"Ġinstit":10503,"à¤Ĩà¤Ĭà¤Łà¤ļ":10504,"à¤ªà¤ķà¤¡à¤£":10505,"odhya":10506,"Ġà¤ħà¤¡à¤ĸà¤³à¤²":10507,"Ġtrain":10508,"Ġà¤Ĩà¤¯à¤ıà¤«à¤ıà¤¸":10509,"Ġgoa":10510,"Ġbias":10511,"àµį":10512,"Ġvaccine":10513,"'s":10514,"aic":10515,"fifa":10516,"gs":10517,"ject":10518,"mir":10519,"nh":10520,"ndrf":10521,"son":10522,"sem":10523,"sent":10524,"sms":10525,"tag":10526,"tiktok":10527,"¸ı":10528,"Ø¯":10529,"ï¸ı":10530,"Ġia":10531,"Ġà¤³":10532,"à¤¾à¥ĭ":10533,"à¤¤à¤¤à¤°":10534,"à¤¯à¤µà¤°à¤¹":10535,"à¤¯à¤°à¤ķà¤¡":10536,"à¤¯à¤£à¤ļ":10537,"à¤²à¤Ĺà¤£à¤¨":10538,"à¤¿à¥Ģ":10539,"à¤¨à¤ľà¤µà¤³":10540,"à¤¹à¤¦à¤°":10541,"à¤¸à¤µà¤¤":10542,"à¤¸à¤¦à¤¤":10543,"à¤®à¤¸à¤¨à¤²":10544,"à¥ĭà¥¤":10545,"Ġà¤Ĩà¤ªà¤¦":10546,"Ġà¤Ĩà¤¸à¤µ":10547,"Ġà¤Ĩà¤Łà¤µ":10548,"Ġà¤ķà¤¹à¤°à¤ļ":10549,"à¤ªà¤¸à¤£":10550,"à¤ªà¤¬à¤ľ":10551,"Ġà¤¸à¤Łà¤ķà¤²":10552,"Ġà¤¸à¤¢à¤³":10553,"à¤¦à¤§":10554,"à¤¦à¤Īà¤ļ":10555,"Ġà¤®à¤ķà¤¬":10556,"à¤Łà¤®à¤²":10557,"à¤Ĺà¤¤à¤²":10558,"à¤ľà¤°à¤¸":10559,"à¤ľà¤§à¤°":10560,"à¤ľà¤ĺà¤Łà¤ķ":10561,"à¤¡à¤¦à¤°à¤®":10562,"à¤¡à¤¨à¤¸":10563,"à¤¡à¤µà¤°à¤ļ":10564,"Ġà¤¹à¤®à¤¶":10565,"à¤¬à¤ªà¤²":10566,"à¤¬à¤ļà¤²":10567,"Ġà¤ľà¤«à¤°à¤¨":10568,"à¤ĸà¤³à¤²":10569,"à¤Ńà¤ľ":10570,"Ġà¤Ĺà¤¦à¤°":10571,"à¤®à¤§à¤®":10572,"Ġà¤ıà¤¸à¤µ":10573,"Ġà¤ıà¤ıà¤¸à¤Ĩà¤¯":10574,"à¤Īà¤¸à¤¹":10575,"à¤Īà¤ªà¤ļ":10576,"à¤Ĩà¤ªà¤¨":10577,"à¤°à¤®à¤¤":10578,"à¤µà¤²à¤ª":10579,"à¤ıà¤ıà¤«à¤¸":10580,"à¤Ĭà¤ļà¤°":10581,"à¤Ĭà¤¦à¤®":10582,"Ġà¤¡à¤«":10583,"Ġà¤ħà¤¸à¤²à¤®":10584,"à¤·à¤£à¤Ĺ":10585,"à¤·à¤£à¤Ń":10586,"à¤¸à¤°à¤«à¤°":10587,"à¤Łà¤ķà¤³":10588,"à¤¶à¤¨à¤Ĺà¤°":10589,"Ġà¤Ĩà¤¯à¤ĵ":10590,"Ġà¤Ĩà¤¯à¤¶à¤°":10591,"à¤¹à¤°à¤¨à¤¡":10592,"Ġà¤ħà¤®à¤°à¤ľ":10593,"à¤°à¤¨à¤µà¤°":10594,"à¤µà¤¨à¤®à¤°à¤£":10595,"à¤ħà¤°à¤®à¤§à¤²":10596,"à¤īà¤¸à¤ļ":10597,"à¤®à¤²à¤Ī":10598,"à¤ķà¤¸à¤ķ":10599,"Ġà¤ķà¤²à¤°à¤®à¤§":10600,"à¤°à¤¹à¤µ":10601,"à¤ķà¤°à¤£à¤ķ":10602,"à¤¹à¤²à¤µà¤°":10603,"à¤µà¤ķà¤ªà¤¦":10604,"Ġà¤°à¤¸à¤Ĺ":10605,"Ġà¤ħà¤²à¤®":10606,"Ġà¤Ĩà¤łà¤¶":10607,"à¤¶à¤¯à¤ªà¤£":10608,"Ġà¤¸à¤ķà¤³":10609,"à¤³à¤µà¤¦":10610,"Ġà¤¸à¤®à¤ľà¤¦":10611,"Ġà¤Īà¤¯à¤°":10612,"à¤Ĺà¤¨à¤Ĺà¤°":10613,"à¤ķà¤³à¤¸":10614,"ink":10615,"à¤®à¤£à¤ķ":10616,"Ġà¤µà¤¨à¤ħà¤§":10617,"à¤²à¤ķà¤°à¤¹":10618,"Ġà¤īà¤¤à¤°à¤µà¤¤":10619,"Ġà¤Ĩà¤¦à¤°à¤Ń":10620,"Ġà¥§à¥¯à¥Ńà¥¦":10621,"Ġ508":10622,"Ġà¤ıà¤²à¤¡":10623,"à¤¨à¤Īà¤µà¤°":10624,"Ġà¤¤à¤³à¤ĺà¤°":10625,"Ġà¥§à¥®à¥¦à¥¦":10626,"Ġ216":10627,"Ġà¤µà¤ľà¤¨à¤¹":10628,"à¤Ĺà¤®à¤§à¤²":10629,"à¤ĸà¤ķà¤¹":10630,"Ġà¥¨à¥ªà¥Ń":10631,"Ġbudget":10632,"Ġro":10633,"Ġrank":10634,"Ġver":10635,"Ġvivo":10636,"Ġ221":10637,"Ġà¥¨à¥©à¥®":10638,"à¤µà¤Ĺà¤£à¤¹":10639,"Ġfrom":10640,"idence":10641,"Ġ352":10642,"Ġ353":10643,"Ġ289":10644,"Ġà¥¨à¥¯à¥Ń":10645,"Ġdr":10646,"à¤Ķà¤ªà¤ļ":10647,"à¤ıà¤¶à¤¨à¤ķà¤¡":10648,"Ġà¥ªà¥«à¥«":10649,"Ġà¥ªà¥«à¥¦à¥¦":10650,"161":10651,"Ġà¤Ĩà¤ĸà¤¡à¤¤":10652,"Ġ365":10653,"Ġà¤Ĺà¤ľà¤¬à¤ľ":10654,"Ġà¤īà¤Ĺà¤®à¤¸":10655,"Ġ343":10656,"Ġ334":10657,"à¥¨à¥«à¥¦":10658,"Ġà¥©à¥©à¥¯":10659,"ations":10660,"Ġà¥ªà¥¯à¥«":10661,"Ġà¥ªà¥¯à¥®":10662,"Ġà¥©à¥®à¥¦":10663,">>>":10664,"Ġ491":10665,"ahub":10666,"Ġiii":10667,"Ġpoint":10668,"Ġà¤ķà¤¡à¤µà¤Łà¤ªà¤£":10669,"Ġrealme":10670,"election":10671,"Ġà¥Ńà¥©à¥Ń":10672,"Ġà¥§à¥¯à¥Ńà¥¯":10673,"crpf":10674,"Ġsec":10675,"à¤ħà¤ªà¤¹à¤°à¤£à¤ķà¤°":10676,"Ġà¤«à¤¡à¤¤à¤°":10677,"viral":10678,"ystal":10679,"Ġà¤Ĩà¤¯à¤ıà¤®à¤ıà¤«":10680,"Ġà¤Ĩà¤¯à¤ıà¤®à¤ıà¤«à¤¨":10681,"ÂłÂłÂłÂłÂłÂłÂłÂł":10682,"1971":10683,"à¤Łà¤ħà¤ªà¤ļ":10684,"Ġà¤¢à¤³à¤¢à¤³":10685,"olymp":10686,"Ġà¤²à¤ķà¤¡à¤Ĺ":10687,"Ġevm":10688,"lywood":10689,"à¤ŁÃ±à¤µ":10690,"Ġà¤ıà¤¡à¤²à¤ľ":10691,"Ġà¤ħà¤¹à¤®à¤¦à¤²":10692,"Ġà¤ªà¤µà¤¨à¤ļà¤ķ":10693,"bility":10694,"variables":10695,"à¤¸à¥²à¤ª":10696,"random":10697,"cohort":10698,"ðŁĳĩ":10699,"bhat":10700,"cis":10701,"gh":10702,"go":10703,"gas":10704,"mw":10705,"nic":10706,"ohar":10707,"pa":10708,"ras":10709,"set":10710,"sco":10711,"shiv":10712,"ver":10713,"Ġall":10714,"à¥įà¤¾à¤¾":10715,"à¤°à¤°à¤µ":10716,"à¤°à¤ªà¤²":10717,"à¤°à¤Ĩà¤²":10718,"à¤¯à¤°à¤ļà¤¨":10719,"à¤²à¤°à¤¸":10720,"à¤²à¤®à¤²":10721,"à¤²à¤Łà¤£":10722,"à¤¨à¤°à¤¹":10723,"à¤ķà¤®à¤¨":10724,"à¤ķà¥ľ":10725,"à¤ļà¤ħà¤ĸ":10726,"à¤µà¤ħà¤¨":10727,"à¤¸à¤¦à¤°à¤®":10728,"à¤£à¤¸à¤¹":10729,"Ġà¤Ĩà¤¡à¤¤":10730,"Ġà¤Ĩà¤ıà¤¶":10731,"Ġà¤ªà¤¡à¤ķ":10732,"Ġà¤®à¤°à¤ľ":10733,"à¤Łà¤¸à¤ª":10734,"à¥Ĥà¤ĥ":10735,"à¤Ĺà¤¬à¤¦":10736,"à¤Ĺà¤¸à¤¤":10737,"à¤§à¥Ł":10738,"Ġà¤µà¤¡à¤²":10739,"Ġà¤µà¤³à¤µà¤¤":10740,"Ġà¤¦à¤¶à¤¤à¤µ":10741,"Ġà¤¦à¤®à¤¬":10742,"Ġà¤¯à¤¦":10743,"à¤¬à¤Łà¤°":10744,"à¤¬à¤¸à¤¨":10745,"à¤¬à¤¨à¤Ĺà¤°":10746,"à¤¬à¤°à¤µà¤¤":10747,"à¤ĸà¤°à¤¤":10748,"Ġà¤¬à¤Ĺà¤³":10749,"Ġà¤Ńà¤°à¤µà¤¤":10750,"Ġà¤ħà¤¸à¤¨":10751,"Ġà¤²à¤Ī":10752,"Ġà¤īà¤¸à¤¨à¤µ":10753,"à¤°à¤¤à¤Ĩà¤¸":10754,"à¤Īà¤ľà¤°":10755,"à¤Ĩà¤Łà¤ª":10756,"à¤ħà¤ªà¤¤":10757,"à¤«à¤ªà¤Ł":10758,"à¤«à¤ħà¤²":10759,"Ġà¤§à¤¨à¤µ":10760,"à¤ıà¤ķà¤²":10761,"à¤Ĭà¤Łà¤µà¤°":10762,"à¤°à¤²à¤ļ":10763,"à¤¡à¤²à¤µ":10764,"à¤®à¤¨à¤Ĺà¤°à¤ļ":10765,"à¤¦à¤²à¤µ":10766,"à¤ĩà¤¨à¤¹":10767,"à¤ĩà¤ķà¤µà¤°":10768,"Ġà¤ĳà¤²à¤®":10769,"à¤µà¤³à¤µ":10770,"Ġà¤ªà¤¹à¤²à¤Ĺ":10771,"à¤¸à¤¤à¤¯":10772,"à¤īà¤°à¤°":10773,"à¤Ĭà¤¨à¤¸":10774,"à¤ľà¤ķà¤¨":10775,"Ġà¤²à¤ķà¤®à¤²":10776,"à¤ļà¤²à¤¤":10777,"à¤²à¤Ĺà¤®":10778,"à¤²à¤¤à¤¹":10779,"à¤²à¤¤à¤ľ":10780,"Ġà¤Ľà¤¦":10781,"à¤µà¤°à¤£à¤¦":10782,"Ġà¥¨à¥¦à¥Ń":10783,"à¤²à¤µà¤¶":10784,"Ġà¤ĳà¤«à¤°à¤®à¤§":10785,"à¤ıà¤®à¤ıà¤¸à¤ª":10786,"Ġà¤Ĳà¤ªà¤¤":10787,"Ġà¥ªà¥§à¥«":10788,"à¤¨à¤Ĺà¤°à¤®":10789,"Ġà¤īà¤²à¤Łà¤ļ":10790,"Ġà¤ıà¤¸à¤Ĩà¤°à¤ª":10791,"Ġà¤ıà¤¸à¤ıà¤¨à¤¡":10792,"Ġà¤¬à¤²à¤µà¤¤":10793,"à¤ķà¤Łà¤µ":10794,"Ġà¥¬à¥¨à¥«":10795,"Ġà¤ĵà¤³à¤ĸà¤ļ":10796,"Ġ1015":10797,"Ġà¤¢à¤®":10798,"à¤ļà¤µà¤¦":10799,"à¤ıà¤²à¤«":10800,"à¤µà¤Łà¤¹":10801,"Ġà¤Ĭà¤¬":10802,"à¤¹à¤ķà¤¹":10803,"à¤¶à¤µà¤¹à¤¨":10804,"à¤²à¤®à¤®à¤§":10805,"à¤¦à¤£à¤ķà¤°":10806,"Ġà¤įà¤¬":10807,"atic":10808,"Ġcbse":10809,"Ġà¤ķà¤¡à¤ķà¤ªà¤£":10810,"Ġaug":10811,"ene":10812,"Ġba":10813,"Ġà¥¨à¥¨à¥¨à¥¦":10814,"Ġnote":10815,"Ġ242":10816,"Ġ246":10817,"à¤Ĩà¤¯à¤ıà¤¸à¤ļ":10818,"ita":10819,"Ġà¥¨à¥¬à¥¯":10820,"Ġà¥²à¤Ĺ":10821,"Ġà¥¨à¥Ńà¥¯":10822,"Ġwifi":10823,"à¤Ķà¤·":10824,"Ġ316":10825,"Ġà¥©à¥¨à¥Ń":10826,"Ġà¥©à¥¨à¥®":10827,"Ġà¥©à¥¬à¥©":10828,"cho":10829,"Ġ348":10830,"128":10831,"à¤ıà¤¨à¤ıà¤¸à¤Ī":10832,"à¤ħà¤ľà¤¯à¤¨":10833,"Ġà¥©à¥ªà¥«":10834,"Ġà¥©à¥©à¥®":10835,"Ġà¥©à¥®à¥«":10836,"Ġjee":10837,"Ġ461":10838,"ave":10839,"dev":10840,"Ġà¤¹à¤°à¤Ńà¤ľà¤¨à¤¨":10841,"Ġxs":10842,"à®°":10843,"à®ķ":10844,"ssai":10845,"ific":10846,"Ġà¤Ĺà¤łà¤¨":10847,"Ġà¥§à¥¯à¥Ńà¥Ń":10848,"288":10849,"open":10850,"Ġà¤Ĩà¤°à¤ıà¤¸à¤ıà¤¸à¤µà¤°":10851,"Ġà¤ıà¤ıà¤¨à¤Ĩà¤¯à¤¶":10852,"Ġà¤īà¤ķà¤²à¤£":10853,"Ġupsc":10854,"à¤Ĩà¤°à¤Ĩà¤°à¤Ĩà¤°":10855,"Ġà¤¤à¤±à¤¹":10856,"Ġà¤¡à¤Ĺà¤®à¤Ĺà¤¤":10857,"à¤¸à¤ħà¤ªà¤µà¤°":10858,"à¤ıà¤¨à¤ıà¤ļà¤Ĩà¤°à¤¸":10859,"201314":10860,"achchan":10861,"à¤¨à¤¯à¤¨à¤¤":10862,"cept":10863,"Ġresults":10864,"Ġà¤Ĩà¤¯à¤ıà¤«à¤ıà¤¸à¤¸":10865,"windmill":10866,"Ġà¤Ĩà¤°à¤ıà¤¸à¤ıà¤¸à¤²":10867,"Ġà¤ıà¤¨à¤Īà¤ıà¤«à¤Ł":10868,"à¤ħà¤¹à¤®à¤¦à¤¨à¤Ĺà¤°à¤ļ":10869,"oxidation":10870,"times":10871,"Ġà¤®à¤¤à¤²à¤¬":10872,"Ġà¤¸à¤³à¤¸à¤³à¤¤":10873,"Ġinstitute":10874,"Ġà¤¹à¤®à¤¶à¤ķà¤²":10875,"3000":10876,"book":10877,"cent":10878,"db":10879,"df":10880,"fa":10881,"glob":10882,"hu":10883,"had":10884,"ja":10885,"modi":10886,"neet":10887,"put":10888,"vit":10889,"ïģ":10890,"Ġiv":10891,"à¤°à¤ľà¤ª":10892,"à¤°à¤¨à¤ļ":10893,"à¤°à¤¨à¤µ":10894,"à¤°à¤ħà¤ĸ":10895,"à¤°à¤łà¤ļ":10896,"à¤¤à¤±":10897,"à¤¯à¤ªà¤ķ":10898,"à¤²à¤¹à¤ķ":10899,"à¤¨à¤°à¤µ":10900,"à¤¨à¤«à¤°":10901,"à¤¹à¤Ŀ":10902,"à¤ļà¤®à¤¨":10903,"à¤ļà¤Łà¤£":10904,"à¤µà¤ķà¤¡":10905,"à¤¸à¤¶à¤ķ":10906,"à¤£à¤¬à¤°":10907,"à¤£à¤ªà¤¦":10908,"à¤®à¤°à¤ķ":10909,"Ġà¤Ĩà¤¢à¤²":10910,"à¤ªà¤µà¤°à¤¹":10911,"Ġà¤¸à¤¥":10912,"Ġà¤¸à¤µà¤¤":10913,"à¤¦à¤³à¤µ":10914,"à¤Ĺà¤¨à¤°":10915,"Ġà¤ħà¤¦à¤°":10916,"à¤§à¤µà¤£":10917,"Ġà¤¨à¤ĸà¤°":10918,"à¤¡à¤®à¤ļ":10919,"à¤¡à¤Īà¤¤":10920,"à¤¬à¤¢à¤¤":10921,"Ġà¤ľà¤¬à¤¦":10922,"Ġà¤¬à¤°à¤ķà¤¤":10923,"à¤µà¤°à¤ľ":10924,"Ġà¤Ĺà¤Ĺà¤¨à¤ļ":10925,"à¤°à¤ķà¤°à¤¨":10926,"Ġà¤ĸà¤²à¤ª":10927,"Ġà¤ıà¤¥":10928,"Ġà¤ıà¤°à¤²":10929,"à¤ħà¤µà¤®":10930,"Ġà¤Łà¤®":10931,"Ġà¤Łà¤ķà¤°":10932,"à¤°à¤µà¤¹":10933,"à¤°à¤µà¤Ł":10934,"à¤ıà¤ķà¤¸":10935,"à¤ıà¤¨à¤ķ":10936,"à¤ıà¤Ĩà¤¯à¤Ł":10937,"à¤ıà¤ħà¤°à¤²":10938,"à¤Ĭà¤®":10939,"à¤Łà¤¨à¤®":10940,"à¤Łà¤¨à¤°à¤ļ":10941,"à¤·à¤£à¤¶":10942,"Ġà¤¨à¤µà¤¶":10943,"Ġà¤Ĩà¤®à¤°à¤£":10944,"à¤¤à¤ªà¤ķ":10945,"à¥¦à¥ª":10946,"à¤°à¤ķà¤°à¤£à¤¹":10947,"à¤¡à¤²à¤¨":10948,"à¤Łà¤²à¤¸":10949,"à¤Łà¤²à¤°à¤ļ":10950,"Ġ()":10951,"à¤Ĺà¤°à¤Ń":10952,"Ġà¤¸à¤¹à¤ļ":10953,"Ġà¤Ĩà¤¯à¤ıà¤¸à¤ļ":10954,"à¤¹à¤°à¤ªà¤°":10955,"à¤¯à¤²à¤¢à¥Ł":10956,"à¤ĩà¤¨à¤¨":10957,"à¤īà¤ªà¤¹":10958,"à¤īà¤Ŀà¤°":10959,"à¤īà¤²à¤®":10960,"Ġà¤¥à¤¬à¤ķà¤²":10961,"Ġà¤ĵà¤¨à¤°":10962,"Ġà¤ĵà¤ıà¤ļ":10963,"Ġà¤ĵà¤°à¤ĸà¤¡":10964,"à¤¯à¤¨à¤²à¤¸":10965,"à¤¦à¤¨à¤¨":10966,"Ġà¤ħà¤¦à¤®":10967,"Ġà¤ħà¤¦à¤Ń":10968,"Ġà¤ľà¤¨à¤Ķà¤·à¤§":10969,"Ġà¤ķà¤¸à¤¦":10970,"à¤¥à¤³à¤¸":10971,"Ġà¤īà¤®à¤Ĺà¤¤":10972,"à¤ıà¤¸à¤ıà¤¸à¤¸":10973,"à¤¤à¤®à¤³":10974,"à¤ļà¤¨à¤ª":10975,"Ġà¤¯à¤¶à¤¦":10976,"Ġà¤¬à¤°à¤³à¤¤":10977,"à¤Ĩà¤°à¤ıà¤¸à¤¨":10978,"Ġà¤ħà¤²à¤ª":10979,"à¤ķà¤£à¤ķà¤°":10980,"Ġ521":10981,"à¤¤à¤¨à¤®":10982,"à¤ľà¤Ĺà¤¡":10983,"Ġà¥ªà¥§à¥©":10984,"Ġà¤¸à¤®à¤ľà¤¤à¤ļ":10985,"Ġà¤¬à¤ļà¤¤à¤¹":10986,"Ġà¤Īà¤ıà¤®à¤Ĩà¤¯à¤ļ":10987,"Ġà¤ıà¤¨à¤ıà¤¸à¤ıà¤¸":10988,"à¤ıà¤«à¤Ĩà¤¯à¤ļ":10989,"à¤ıà¤«à¤ĵà¤¨":10990,"Ġà¤ıà¤®à¤ıà¤®à¤Ĩà¤°":10991,"à¤¡à¤°à¤Ł":10992,"à¤ıà¤²à¤®":10993,"à¤ľà¤µà¤³à¤¹":10994,"âĢįà¥ħà¤ģ":10995,"à¤Ĩà¤ľà¤¤":10996,"Ġà¤¨à¤Ĺà¤°à¤²":10997,"Ġ502":10998,"Ġà¤¹à¤ľà¤°à¤ľà¤¬":10999,"Ġà¤īà¤ĺà¤¡à¥Ł":11000,"Ġshe":11001,"erator":11002,"Ġà¥¨à¥«à¥§":11003,"Ġà¥«à¥¦à¥«":11004,"Ġpakistan":11005,"à¥§à¥¯à¥Ńà¥§":11006,"Ġ214":11007,"Ġ1700":11008,"Ġà¤ıà¤ļà¤Ł":11009,"à¤¶à¤¤à¤ķà¤µ":11010,"Ġà¥¨à¥ªà¥¨":11011,"Ġrat":11012,"Ġnational":11013,"Ġà¤¸à¤¦à¤°à¤²":11014,"Ġà¤°à¤¤à¤¨à¤²":11015,"asa":11016,"à¤¬à¤¦à¤²à¤£":11017,"Ġgu":11018,"Ġà¥¨à¥®à¥©":11019,"Ġà¥¨à¥®à¥¯":11020,"Ġà¥¨à¥®à¥¬":11021,"Ġ265":11022,"Ġà¥©à¥«à¥¯":11023,"Ġ236":11024,"à¥§à¥¦à¥¨":11025,"Ġà¥©à¥Ńà¥ª":11026,"Ġà¤µà¤³à¤£à¤¹":11027,"raph":11028,"Ġà¤ªà¤°à¤®à¤¹":11029,"153":11030,"Ġ297":11031,"à¤Ĩà¤¯à¤ıà¤®à¤ıà¤«":11032,"ays":11033,"à¥§à¥¨à¥¨":11034,"Ġà¤īà¤Ńà¤¯à¤ªà¤ķ":11035,"à¤ıà¤¨à¤ıà¤¸à¤¡":11036,"Ġà¥©à¥ªà¥¨":11037,"Ġà¥©à¥¯à¥¨":11038,"Ġà¥ªà¥ªà¥«":11039,"how":11040,"home":11041,"Ġ540":11042,"Ġ542":11043,"abet":11044,"Ġà¤ıà¤®à¤ıà¤¸à¤Ĩà¤°à¤¡":11045,"Ġ465":11046,"Ġias":11047,"aiims":11048,"Ġà¤®à¤¦à¤¨à¤®":11049,"à¤ıà¤Ĩà¤¯à¤ıà¤«à¤ıà¤«":11050,"Ġ990":11051,"Ġà¤Ĩà¤¯à¤ıà¤¸à¤Ĩà¤¯à¤²":11052,"lock":11053,"1992":11054,"short":11055,"epid":11056,"congress":11057,"que":11058,"Ġyo":11059,"bsnl":11060,"Ġà¤Ŀà¤Ĺà¤¡à¤£":11061,"Ġplan":11062,"Ø§ÙĨ":11063,"Ġà¤Ńà¤ľà¤¨à¤ª":11064,"sampling":11065,"covery":11066,"inton":11067,"à¤ķà¤°à¤ıà¤¤à¤¯":11068,"Ġà¤§à¤¨à¤ķà¤µà¤¡":11069,"Ġdough":11070,"parameters":11071,"Ġrahul":11072,"asteur":11073,"single":11074,"rohit":11075,"ahubali":11076,"700":11077,"box":11078,"cast":11079,"cases":11080,"gdp":11081,"hd":11082,"ios":11083,"mon":11084,"mission":11085,"nc":11086,"rpm":11087,"samsung":11088,"wan":11089,"womens":11090,"xiaomi":11091,"Äģ":11092,"Ìģ":11093,"Ø©":11094,"çľ":11095,"ĠÎ":11096,"ĠÑ":11097,"Ġolymp":11098,"à¤¾`":11099,"à¤°à¤ħ":11100,"à¤¤à¤ı":11101,"à¤¨à¤ħ":11102,"à¤¨à¤ĩ":11103,"à¤¨à¤Ĺà¤µ":11104,"à¤¨à¤Ĩà¤§":11105,"à¤¨à¤°à¤¸à¤¹":11106,"à¤¨à¤Ĭà¤ļ":11107,"à¤¹à¤¸à¤£":11108,"à¤ļà¤«":11109,"à¤ļà¤ıà¤ª":11110,"à¤£à¤¯à¤ķ":11111,"à¤£à¤¦à¤°":11112,"à¤®à¤¤à¤°":11113,"à¤®à¤°à¤ľ":11114,"à¤®à¤¬à¤¦":11115,"à¤®à¤°à¤¹":11116,"à¤®à¤¸à¤®à¤Ń":11117,"Ġà¤Ĩà¤°à¤µà¤²":11118,"Ġà¤ķà¤²à¤ķ":11119,"Ġà¤ķà¤¡à¤ª":11120,"à¤ªà¤¹à¤²":11121,"Ġà¤¸à¤¡à¤£":11122,"Ġà¤ªà¤¯":11123,"Ġà¤®à¤³à¤£":11124,"Ġà¤®à¤¢à¤µ":11125,"à¤Ĺà¤Ńà¤°":11126,"Ġà¤ħà¤µà¤¡":11127,"à¤ľà¤°à¤¤":11128,"à¤ľà¤¤à¤°":11129,"Ġà¤µà¤łà¤£":11130,"Ġà¤¹à¤¸à¤µ":11131,"Ġà¤¦à¤²à¤ķ":11132,"Ġà¤¯à¤¸":11133,"Ġà¤¯à¤¡":11134,"à¤¬à¤Łà¤£":11135,"Ġà¤ľà¤¥":11136,"Ġà¤ľà¤µà¤¸":11137,"Ġà¤ľà¤°à¤¦":11138,"Ġà¤ľà¤¯à¤ļ":11139,"Ġà¤ľà¤³à¤£":11140,"à¤¥à¤ķà¤²":11141,"à¤¥à¤ļà¤ķ":11142,"à¤µà¤°à¤°":11143,"à¤Ńà¤¡à¤ķ":11144,"Ġà¤Ŀà¤Ĺà¤®":11145,"Ġà¤ĸà¤ªà¤²":11146,"Ġà¤ıà¤ıà¤®":11147,"à¤Ĩà¤¤à¤²":11148,"à¤Ĩà¤³à¤¶":11149,"Ġà¤ıà¤ķà¤Ľà¤¤":11150,"à¤«à¤µà¤°":11151,"à¤ıà¤¶à¤¨à¤®à¤§":11152,"à¤ıà¤ıà¤²à¤ļ":11153,"à¤Ĭà¤¸à¤®":11154,"à¤Ĭà¤ķà¤ļ":11155,"Ġà¤īà¤ªà¤°à¤¤":11156,"à¤Łà¤¨à¤¸à¤¹":11157,"à¤µà¤¡à¤¸à¤®":11158,"Ġà¤¤à¤°à¤¨":11159,"à¤°à¤ªà¤Łà¤ķ":11160,"à¤Łà¤ķà¤¸":11161,"à¥¦à¥«":11162,"Ġà¤µà¤°à¤¦à¤°":11163,"à¤¡à¤²à¤°":11164,"à¤²à¤ķà¤°à¤¤":11165,"à¤ªà¤¨à¤°":11166,"Ġà¤Ĩà¤¤à¤¤":11167,"à¤ĩà¤¬à¤°":11168,"à¤ĩà¤®à¤²":11169,"à¤ĩà¤®à¤µà¤°":11170,"à¤²à¤¨à¤¶":11171,"Ġà¤¥à¤®":11172,"à¤Ĭà¤¨à¤¨":11173,"à¤§à¤¨à¤®":11174,"Ġà¤ľà¤¨à¤²":11175,"Ġà¤ĺà¤°à¤ĺà¤°":11176,"à¤ļà¤²à¤¨à¤µ":11177,"Ġà¤Ĩà¤Ĺà¤°à¤µ":11178,"à¤¤à¤®à¤¯":11179,"à¤ļà¤¨à¤ķ":11180,"à¤¸à¤®à¤Ŀ":11181,"Ġà¤¸à¤²à¤Ĺà¤°":11182,"à¤¶à¤ķà¤¹":11183,"à¤Ĺà¤µà¤Ĺ":11184,"Ġà¤ĳà¤«à¤°à¤¹":11185,"Ġ419":11186,"à¤ıà¤®à¤ĵà¤¨":11187,"à¤Ĺà¤¡à¥Ł":11188,"à¥©à¥¦à¥¦":11189,"Ġà¥«à¥§à¥¬":11190,"à¤®à¤¦à¤¤à¤ķ":11191,"à¥¬à¥¦à¥¦":11192,"Ġà¤ıà¤¸à¤ıà¤¸à¤¬":11193,"Ġà¤ıà¤¨à¤ıà¤¸à¤ı":11194,"Ġà¤ıà¤¨à¤Ĩà¤°à¤ľ":11195,"à¤µà¤°à¤ļà¤°à¤£":11196,"Ġà¤¶à¤°à¤¦à¤ļ":11197,"à¤ħà¤ªà¤®":11198,"Ġà¤¨à¤¸à¤¬":11199,"à¤µà¤Łà¤³":11200,"Ġà¤¶à¤¬à¤¨à¤®":11201,"inform":11202,"à¤®à¤£à¤Ĺ":11203,"à¤²à¤ķà¤°à¤¸":11204,"à¤īà¤¦à¤¯à¤ª":11205,"Ġà¥§à¥¯à¥ªà¥¯":11206,"à¤ıà¤ļà¤Ł":11207,"Ġà¤ªà¤Łà¤ķà¤µ":11208,"ats":11209,"ated":11210,"Ġ254":11211,"Ġ1920":11212,"Ġà¤ļà¤ķà¤®à¤ķà¤¹":11213,"Ġ13999":11214,"Ġsur":11215,"Ġsarscov":11216,"à¤Ĭà¤²à¤ĸ":11217,"eral":11218,"Ġà¤¤à¤³à¤ªà¤²":11219,"Ġà¤«à¤³à¤¦":11220,"aland":11221,"Ġà¥«à¥¦à¥¬":11222,"à¤°à¤Łà¤ķà¤°":11223,"Ġmill":11224,"à¤Łà¥Łà¤ª":11225,"Ġà¤ľà¤²à¤¶":11226,"amps":11227,"Ġ229":11228,"Ġnb":11229,"dil":11230,"à¤Ĩà¤¯à¤ıà¤Ł":11231,"Ġ355":11232,"Ġà¥¨à¥¬à¥«":11233,"Ġà¥²à¤Ł":11234,"Ġgroup":11235,"Ġ267":11236,"à¤īà¤ªà¤¸à¤Ń":11237,"Ġà¥¨à¥¯à¥§":11238,"Ġwed":11239,"à¥§à¥¦à¥¬":11240,"Ġdelhi":11241,"à¤¯à¤²à¤Łà¤¸à¤¹":11242,"ism":11243,"cos":11244,"à¤¼à¥Ģ":11245,"Ġà¤ªà¤°à¤®à¤ª":11246,"Ġà¥©à¥¬à¥®":11247,"Ġà¤ªà¤µà¤¨à¤Ĭà¤°":11248,"Ġà¥¨à¥¦à¥§à¥¬à¥¨à¥¦à¥§à¥Ń":11249,"Ġloc":11250,"ilway":11251,"Ġ363":11252,"à¤ĩà¤¤à¤°à¤¤":11253,"Ġà¤°à¤ĸà¤¡à¤£":11254,"Ġ335":11255,"Ġà¤¨à¤µà¤²à¤ļ":11256,"à¤įà¤¡à¤²":11257,"à¤įà¤²à¤°":11258,"Ġà¥ªà¥¯à¥¦":11259,"à¥§à¥§à¥®":11260,"Ġà¥ªà¥¬à¥«":11261,"Ġ390":11262,"Ġà¤¹à¤°à¤Ńà¤ľà¤¨à¤¸":11263,"Ġ1981":11264,"igh":11265,"Ġà¤®à¤³à¤Ń":11266,"Ġ202122":11267,"Ġonline":11268,"1996":11269,"à¤¥à¤°à¤¸à¤²":11270,"Ġà¥§à¥¯à¥Ńà¥¬":11271,"Ġ1957":11272,"à¤ıà¤®à¤ıà¤²à¤ıà¤¨":11273,"control":11274,"à¤ľà¤Ĺà¤£à¤¤":11275,"Ġà¤²à¤Łà¤ķà¤µà¤²":11276,"axin":11277,"à¤¸à¤¨à¤Ĺà¤°à¤®à¤§":11278,"Ġ1967":11279,"Ġà¤ķà¤£à¤ĸà¤°à¤ªà¤£":11280,"Ġà¤ªà¤°à¤ĸà¤¡à¤ªà¤£":11281,"Ġfirst":11282,"Ġisro":11283,"Ġzee":11284,"à¤²à¤¸à¤°à¤ªà¤£":11285,"Ġà¤¹à¤°à¤¤à¤±":11286,"Ġexchang":11287,"à¤ıà¤«à¤Ĩà¤¯à¤Ĩà¤°à¤®à¤§":11288,"amazon":11289,"Ġbsf":11290,"Ġsuv":11291,"alysis":11292,"dition":11293,"Ġà¤ıà¤®à¤Ĩà¤¯à¤ıà¤®à¤¨":11294,"Ġcapacit":11295,"bollywood":11296,"Ġà¤¤à¤¡à¤¤à¤¡à¤²":11297,"à¤ıà¤¸à¤ıà¤¨à¤ıà¤²à¤¨":11298,"Ġà¤¬à¤¡à¤¬à¤¡à¤¤":11299,"semicon":11300,"aimim":11301,"by":11302,"csk":11303,"fr":11304,"gc":11305,"mt":11306,"pg":11307,"pol":11308,"redmi":11309,"tor":11310,"wat":11311,"Ð±":11312,"Ø¨":11313,"Øª":11314,"Ġ>":11315,"Ġæ":11316,"Ġà°":11317,"Ġï»¿":11318,"à¥Ľ":11319,"à¤¾à¥ĩà¤Ĥ":11320,"à¤°à¤°à¤¨":11321,"à¤°à¤¡à¤ķà¤°":11322,"à¥ĩà¥¥":11323,"à¤¤à¤§à¤°":11324,"à¤²à¤¦à¤°":11325,"à¤¿âĢĮ":11326,"à¤¨à¤µà¤¸à¤¨":11327,"à¤ķà¤µà¤ļ":11328,"à¤ķà¤¨à¤¹":11329,"à¤ķà¤°à¤®à¤£":11330,"à¤®à¤¶à¤¹à¤°":11331,"Ġà¤Ĩà¤¡à¤µà¤£":11332,"à¤ªà¤±à¤¯":11333,"à¥ģà¤ģ":11334,"Ġà¤¸à¤¦à¤²à¤Ĺ":11335,"à¤Łà¤Ŀ":11336,"à¤Łà¤¯à¤µà¤§":11337,"à¤Ĺà¤°à¤µ":11338,"à¤Ĺà¤¨à¤²":11339,"à¤Ĺà¤¡à¤¤":11340,"à¤Ĺà¤°à¤ķà¤¡":11341,"Ġà¤ħà¤¯à¤ª":11342,"Ġà¤¤à¤¬à¤°":11343,"à¤¡à¤¦à¤³":11344,"Ġà¤¦à¤¡à¤µà¤²":11345,"Ġà¤¯à¤ļ":11346,"à¤·à¤°à¤§":11347,"à¤·à¤±à¤¯":11348,"Ġà¤ķà¤°à¤µà¤²":11349,"Ġà¤ķà¤°à¤®à¤¤":11350,"à¤ĸà¤µà¤°":11351,"Ġà¤¶à¤¯à¤¨":11352,"à¤Ńà¤°à¤ķà¤°":11353,"Ġà¤ĺà¤°à¤¦":11354,"Ġà¤īà¤¸à¤Ĺ":11355,"à¤°à¤¤à¤¡à¤£":11356,"à¤°à¤¤à¤ĩà¤¸":11357,"Ġà¤ĸà¤¶":11358,"Ġà¤ĸà¤ªà¤¤":11359,"Ġà¤ĸà¤µà¤ļ":11360,"Ġà¤ıà¤°à¤°":11361,"Ġà¤ıà¤ľà¤¬":11362,"Ġà¤ıà¤Ĩà¤¯à¤ıà¤«":11363,"à¤Īà¤¸à¤¨":11364,"à¤Īà¤ıà¤«":11365,"à¤ĺà¤®à¤ļ":11366,"à¤ĺà¤¡à¤µà¤²":11367,"à¤Ĩà¤Ł":11368,"à¤Ĩà¤¯à¤¤":11369,"à¤Ĩà¤²à¤®":11370,"à¤¿à¤Ĥà¤Ĥ":11371,"à¤ħà¤±":11372,"Ġà¤ıà¤ķà¤°à¤ķà¤®":11373,"Ġà¤Łà¤ļà¤¸":11374,"à¤«à¤¸à¤¹":11375,"Ġà¤ĩà¤ķà¤¡à¤ļ":11376,"Ġà¤ªà¤°à¤¸à¤²":11377,"à¤ķà¤¡à¤¤":11378,"à¤°à¤¸à¤ķ":11379,"à¤Ĭà¤¤à¤¹":11380,"à¤Łà¤¨à¤µà¤°":11381,"à¤Łà¤¨à¤Ń":11382,"à¤Ŀà¤²à¤¡":11383,"à¤¦à¤°à¤ľ":11384,"à¤Ĺà¤²à¤¸à¤°":11385,"à¤°à¤ªà¤Łà¤µ":11386,"à¤¯à¤¤à¤®":11387,"Ġà¤ħà¤¶à¤«":11388,"à¤¶à¤¨à¤ªà¤°":11389,"Ġà¤Ĩà¤¯à¤ıà¤ı":11390,"à¤ĩà¤²à¤¹":11391,"à¤ĩà¤ļà¤²à¤ķà¤°":11392,"à¤Ĩà¤¯à¤Łà¤®":11393,"à¤¦à¤¨à¤²":11394,"à¤ŀà¤¹":11395,"à¤ıà¤¸à¤Ĩà¤¯à¤ļ":11396,"Ġà¤ľà¤Ĺà¤¬":11397,"Ġà¤ªà¤µà¤Īà¤¤":11398,"Ġà¥©à¥§à¥ª":11399,"à¤ıà¤ķà¤ľà¤£":11400,"Ġ510":11401,"à¤¤à¤³à¤®à¤ľà¤²":11402,"à¤ľà¤¸à¤ľà¤¸":11403,"à¤ľà¤¸à¤ľà¤¶":11404,"à¤²à¤µà¤§":11405,"à¥©à¥Ńà¥¦":11406,"Ġà¤īà¤²à¤Łà¤¤":11407,"à¤ıà¤¨à¤Ĩà¤¯à¤¸":11408,"à¥¦à¥¦à¥¦à¥¦":11409,"Ġà¤Īà¤¦à¤¸":11410,"Ġà¤ıà¤¨à¤ıà¤«":11411,"Ġà¤ıà¤¨à¤ĵà¤¸":11412,"à¤ĳà¤«à¤²":11413,"Ġ699":11414,"à¤¡à¤ķà¤°à¤²":11415,"Ġà¥Ńà¥§à¥«":11416,"à¤°à¤¥à¤®à¤µà¤°":11417,"Ġà¥®à¥¦à¥¦à¥¦":11418,"Ġà¤ķà¤¡à¤¬":11419,"Ġà¤ªà¤Łà¤ķà¤µà¤£":11420,"Ġà¤ĺà¤Łà¤ķà¤¹":11421,"Ġà¤§à¤¡à¤ķà¤ļ":11422,"Ġ1960":11423,"Ġà¤ıà¤«à¤Ĩà¤¯à¤ª":11424,"Ġcha":11425,"à¤Ĳà¤ķà¤¤":11426,"Ġà¤Ĩà¤ªà¤ĺ":11427,"Ġsamp":11428,"Ġà¤¹à¤³à¤¦à¤£à¤ķà¤°":11429,"Ġ309":11430,"à¤Ĺà¤ľà¤³":11431,"Ġpos":11432,"Ġà¥§à¥®à¥Ń":11433,"Ġ2112":11434,"Ġà¤Ńà¤°à¤¤à¤ķ":11435,"Ġà¤ħà¤£à¤µà¤¸":11436,"Ġbr":11437,"Ġbadm":11438,"Ġrs":11439,"Ġtax":11440,"Ġà¤īà¤ľà¤³à¤¤":11441,"224":11442,"à¤³à¤ªà¤Ī":11443,"ited":11444,"Ġfilm":11445,"ashi":11446,"Ġà¥¨à¥Ńà¥§":11447,"Ġà¤¬à¤ļà¤¤à¤Ĺà¤Ł":11448,"Ġdain":11449,"Ġà¥§à¥§à¥§à¥":11450,"à¤ħà¤«à¤ľà¤²":11451,"Ġ276":11452,"à¤Ńà¤¯à¤ªà¤£":11453,"use":11454,"usion":11455,"à¤¡à¤¨à¤®à¤§à¤²":11456,"Ġà¥©à¥¨à¥§":11457,"bio":11458,"olence":11459,"Ġlife":11460,"ayani":11461,"Ġout":11462,"osh":11463,"Ġà¤°à¤¡à¤¤à¤ļ":11464,"Ġà¥¦à¥ª":11465,"Ġà¥¦à¥®":11466,"indep":11467,"Ġemi":11468,"à¤ħà¤ľà¤¯à¤ļ":11469,"Ġà¥©à¥ªà¥§":11470,"Ġà¥©à¥©à¥©":11471,"Ġà¥©à¥¯à¥¦":11472,"à¥§à¥§à¥¦":11473,"aging":11474,"ague":11475,"Ġà¥ªà¥ªà¥Ń":11476,"hom":11477,"à¤Ŀà¤²à¤¡à¤ļ":11478,"Âºà¤¹":11479,"Ġ575":11480,"harat":11481,"à®¾":11482,"à®¿":11483,"lot":11484,"Ġdec":11485,"à¤ħà¤¹à¤®à¤¦à¤¨à¤Ĺà¤°à¤®à¤§":11486,"Ġà¥§à¥¯à¥¬à¥ª":11487,"Ġ1959":11488,"à¤°à¤¨à¤Ĺà¤°à¤®à¤§":11489,"à¤ĵà¤³à¤ĸà¤ªà¤¤":11490,"Ġà¥§à¥¯à¥«à¥¬":11491,"maharashtra":11492,"à¤¹à¤Łà¤²à¤¯":11493,"Ġà¤¨à¤Łà¤¸à¤®":11494,"à¤ļà¤ĸà¤³à¤Ĺ":11495,"à¤īà¤§à¤®à¤ª":11496,"à¤®à¤¦à¤°à¤¶":11497,"Ġplate":11498,"achin":11499,"ashes":11500,"à¤½à¤½à¤½":11501,"ajit":11502,"govin":11503,"Ġà¤¬à¤Łà¤²à¤°à¤¨":11504,"international":11505,"Ġà¤Ĩà¤¯à¤Ĩà¤°à¤ıà¤¨à¤ıà¤¸à¤ıà¤¸":11506,"Ġprabhat":11507,"Ġcoronavirus":11508,"à¤ħà¤µà¤¯à¤µà¤¦":11509,"Ġà¤¹à¤®à¤¸à¤«à¤°":11510,"Ġà¤ľà¤°à¤¤à¤°à¤ļ":11511,"Ġtechnology":11512,"asteurization":11513,"Ġbadminton":11514,"Ġdainik":11515,"fale":11516,"farmers":11517,"ke":11518,"no":11519,"oci":11520,"pet":11521,"rk":11522,"sun":11523,"shi":11524,"sab":11525,"tv":11526,"ura":11527,"vis":11528,"work":11529,"ÂŃ":11530,"à¥į)":11531,"à¥įà¤¼":11532,"à¤°à¤ħà¤°":11533,"à¤°à¤īà¤Ń":11534,"à¥ĢâĢį":11535,"à¤¤à¤¸à¤²":11536,"à¤¤à¤®à¤¨à¤Ĺà¤°":11537,"à¤¯à¤Ŀà¤¨":11538,"à¤²à¤Łà¤¨":11539,"à¤²à¤Ńà¤°":11540,"à¤²à¤ĺà¤µ":11541,"à¤ķà¤ªà¤¨":11542,"à¤ļà¤¹à¤²":11543,"à¤µà¤¬à¤¦à¤²":11544,"à¤®à¤ªà¤¤":11545,"à¥ĭ/":11546,"Ġà¤Ĩà¤¡à¤¸":11547,"à¤¦à¤³à¤¤":11548,"Ġà¤ªà¤ļà¤µà¤¤":11549,"à¤Łà¤±":11550,"à¤Ĺà¤¡à¤²":11551,"Ġà¤ħà¤Łà¤°":11552,"Ġà¤ħà¤¡à¤£":11553,"à¤§à¤°à¤®à¤§":11554,"Ġà¤µà¤°à¤ķà¤°à¤£":11555,"Ġà¤µà¤³à¤µà¤³":11556,"à¤¶à¤ĸ":11557,"à¤¶à¤¸à¤²":11558,"à¤¡à¤°à¤®":11559,"à¤¡à¤µà¤³":11560,"à¤¡à¤¨à¤ķ":11561,"Ġà¤¹à¤¡à¤ªà¤²":11562,"à¤³à¤®à¤®à¤§":11563,"à¤¬à¤¡à¤²":11564,"à¤¬à¤®à¤®à¤§":11565,"Ġà¤¬à¤Łà¤¬":11566,"à¤µà¤°à¤ķà¤¡":11567,"Ġà¤ļà¤¬":11568,"Ġà¤ļà¤Łà¤ªà¤Ł":11569,"Ġà¤īà¤µ":11570,"Ġà¤īà¤¦à¤°":11571,"à¤°à¤ķà¤ķ":11572,"Ġà¤ĸà¤µà¤³":11573,"Ġà¤ĸà¤®à¤ķ":11574,"Ġà¤ĸà¤°à¤¤à¤°":11575,"Ġà¤ıà¤Ĩà¤°":11576,"à¤Īà¤®à¤µà¤°":11577,"à¤Ĩà¤Ĺà¤°":11578,"à¤Ĩà¤ĩ":11579,"à¤°à¤®à¤¤à¤¦":11580,"Ġà¤ıà¤ķà¤°à¤ļ":11581,"Ġà¤łà¤¸à¤ķ":11582,"à¤µà¤¸à¤¨à¤¸":11583,"Ġà¤®à¤¹à¤¨":11584,"à¤ªà¤°à¤¬":11585,"Ġà¤ªà¤°à¤ļ":11586,"à¤ķà¤¡à¤µ":11587,"Ġà¤§à¤°à¤®":11588,"à¤¯à¤®à¤ª":11589,"Ġà¤¸à¤®à¤®":11590,"à¤ıà¤¨à¤®à¤§":11591,"à¤Ĭà¤ª":11592,"Ġà¤īà¤ªà¤µà¤¨à¤¸":11593,"à¤Ŀà¤®à¤µà¤°":11594,"à¤ľà¤ªà¤ľ":11595,"à¤¤à¤ªà¤§":11596,"à¤Łà¤²à¤°à¤¨":11597,"à¤¬à¤Īà¤ł":11598,"à¤Ĺà¤°à¤°":11599,"Ġà¤¸à¤¹à¤ªà¤°":11600,"à¤Ĺà¤£à¤ķà¤°":11601,"§à¥§à¥¨":11602,"à¤ķà¤²à¤¦":11603,"à¤ľà¤¯à¤ªà¤¥":11604,"Ġà¤ħà¤ªà¤¶à¤ķ":11605,"Ġà¤ħà¤®à¤°à¤ķ":11606,"Ġà¤¨à¤°à¤³":11607,"à¤¯à¤¦à¤¯":11608,"à¤ªà¤¤à¤§":11609,"à¤°à¤¨à¤²":11610,"à¤µà¤¨à¤Ńà¤°":11611,"à¤ħà¤°à¤ªà¤°":11612,"à¤īà¤ľà¤¨":11613,"à¤ªà¤¯à¤°":11614,"Ġà¤ĸà¤°à¤¡":11615,"Ġà¤¹à¤²à¤ļ":11616,"à¤¦à¤¤à¤¹":11617,"à¤ıà¤¸à¤Ĩà¤¯à¤ª":11618,"à¤ļà¤¨à¤¦":11619,"Ġà¤ħà¤²à¤¹":11620,"Ġà¤ħà¤²à¤¸":11621,"à¤µà¤°à¤£à¤ļ":11622,"Ġ516":11623,"à¤°à¤Ńà¤¨":11624,"à¤ľà¤®à¤¸":11625,"Ġà¥ªà¥§à¥®":11626,"à¤¯à¤¸à¤ª":11627,"Ġà¤Īà¤Ĺà¤µ":11628,"Ġà¤ıà¤¸à¤Ĩà¤¯à¤ª":11629,"à¤Īà¤¨à¤®":11630,"Ġ619":11631,"Ġà¥¬à¥§à¥¯":11632,"Ġà¥¬à¥¯à¥¯":11633,"Ġà¥Ńà¥§à¥¦":11634,"à¤ķà¤³à¤ļ":11635,"à¤ĩà¤¨à¤¦":11636,"inst":11637,"à¤Łà¤®à¤µà¤°":11638,"à¤ķà¤µà¤ł":11639,"Ġ1280":11640,"Ġ930":11641,"Ġà¥§à¥¯à¥ªà¥®":11642,"Ġà¤«à¤°à¤ķà¤¹":11643,"Ġà¤ķà¤³à¤ĺà¤®":11644,"Ġ1975":11645,"Ġ1949":11646,"arc":11647,"Ġà¤ķà¤³à¤¤à¤¯":11648,"Ġchan":11649,"1965":11650,"à¤Ĳà¤ķà¤²":11651,"à¤Ĳà¤ķà¤£":11652,"Ġà¤ħà¤ľà¤¯à¤¸":11653,"Ġ305":11654,"Ġ372":11655,"Ġ379":11656,"alth":11657,"Ġà¥©à¥¦à¥§":11658,"à¤ļà¤ªà¤¡à¤¤":11659,"Ġpi":11660,"Ġpst":11661,"Ġpart":11662,"Ġ2115":11663,"à¤Īà¤¡à¤¬":11664,"à¤¯à¤¬à¤°à¤¸":11665,"Ġà¥¨à¥ªà¥¯":11666,"Ġama":11667,"à¤²à¤¬à¤µà¤°":11668,"Ġà¥ªà¥¦à¥¬":11669,"Ġà¤Ĩà¤Ŀà¤®à¤Ĺà¤¡":11670,"Ġris":11671,"Ġtw":11672,"storage":11673,"Ġfi":11674,"Ġfarmers":11675,"roid":11676,"Ġà¥¨à¥¬à¥Ń":11677,"Ġà¤¬à¤¡à¤¦":11678,"Ġà¥¨à¥Ńà¥©":11679,"Ġà¥©à¥«à¥¨":11680,"Ġà¥¨à¥¯à¥¬":11681,"Ġindi":11682,"Ġ328":11683,"Ġ2700":11684,"Ġhdr":11685,"rab":11686,"Ġà¥ªà¥«à¥¬":11687,"104":11688,"Ġ369":11689,"Ġ293":11690,"Ġ296":11691,"Ġ298":11692,"recovery":11693,"oscar":11694,"126":11695,"Ġek":11696,"à¤ħà¤ľà¤¯à¤ħà¤¤":11697,"Ġà¥©à¥ªà¥®":11698,"à¤įà¤Ł":11699,"à¤įà¤¡":11700,"uri":11701,"Ġà¥ªà¥©à¥«":11702,"Ġà¥ªà¥©à¥¯":11703,"Ġà¥ªà¥¨à¥©":11704,"Ġà¤ķà¤¢à¤Īà¤®à¤§":11705,"Ġà¤Ĺà¤µà¤¸à¤¤":11706,"à¤ĩà¤«à¤¸":11707,"Ġà¥«à¥Ńà¥¬":11708,"Ġ1997":11709,"Ġà¥«à¥ªà¥©":11710,"heating":11711,"Ġ70000":11712,"à¤¸à¤®à¤¨à¤¨":11713,"à®¤":11714,"ifs":11715,"à¥§à¥¯à¥¯à¥ª":11716,"à¥§à¥¯à¥¯à¥¬":11717,"Ġà¤Ĩà¤īà¤Łà¤°":11718,"Ġà¤Ĩà¤īà¤Łà¤¸":11719,"Ġà¥§à¥¯à¥Ńà¥®":11720,"Ġuae":11721,"à¤¿Ã·à¤¾à¤Ĥ":11722,"england":11723,"oper":11724,"Ġ1978":11725,"protocol":11726,"asthan":11727,"Ġà¤ĸà¤µà¤ĸà¤µ":11728,"Ġplay":11729,"Ġleague":11730,"Ġview":11731,"ological":11732,"veer":11733,"Ġencounter":11734,"Ġ3103":11735,"Ġchopra":11736,"Ġaccident":11737,"Ġà¤Ŀà¤Ĺà¤®à¤Ĺà¤¤":11738,"semiconduct":11739,"*)":11740,"115":11741,"fin":11742,"fssai":11743,"gy":11744,"hp":11745,"iit":11746,"jd":11747,"sub":11748,"ule":11749,"vol":11750,"Ã³":11751,"ÃĹ":11752,"Î¹":11753,"Î¿":11754,"à·":11755,"à¤°à¤¯à¤²":11756,"à¤°à¤³à¤µ":11757,"à¥ĢâĢĮ":11758,"à¤¤à¤µà¤¡":11759,"à¤¤à¤¯à¤¶":11760,"à¤²à¤ħ":11761,"à¤²à¤µà¤¸":11762,"à¤¨à¤Łà¤ķ":11763,"à¤¨à¤¡à¤ļ":11764,"à¤ķà¤®à¤ļ":11765,"à¤ļà¤ł":11766,"à¤ļà¤¸à¤¦à¤¸":11767,"à¤µà¤Łà¤²":11768,"à¤µà¤ªà¤¨":11769,"à¤¸à¤°à¤¸à¤¹":11770,"à¤£à¤¨à¤¨":11771,"à¤®à¤ªà¤Ł":11772,"Ġà¤Ĩà¥Ł":11773,"Ġà¤¸à¤²à¤¤":11774,"Ġà¤¸à¤Ĭà¤¦":11775,"à¤¦à¤¤à¤ķ":11776,"à¤¦à¤ķà¤Ł":11777,"à¤Łà¤Ń":11778,"à¤Łà¤¦à¤°":11779,"à¤Łà¤ªà¤¦":11780,"à¤Łà¤Ńà¤Ł":11781,"à¤Ĺà¤²à¤¯":11782,"à¤Ĺà¤°à¤¦":11783,"à¤Ĺà¤Łà¤µ":11784,"Ġà¤ħà¤ĸà¤°":11785,"Ġà¤ħà¤¹à¤¸":11786,"à¤§à¤ªà¤ķ":11787,"à¤ľà¤²à¤ķ":11788,"à¤ľà¤ľà¤µà¤³":11789,"à¤¶à¤ªà¤Ł":11790,"Ġà¤¤à¤Łà¤µà¤°":11791,"à¤¡à¤ĳà¤¸":11792,"Ġà¤¹à¤ķà¤²":11793,"Ġà¤¹à¤¨à¤¨":11794,"à¤³à¤Ī":11795,"Ġà¤°à¤¯":11796,"Ġà¤°à¤¡à¤ķ":11797,"Ġà¤ķà¤°à¤¹":11798,"à¤ĸà¤¸à¤¹":11799,"Ġà¤¬à¤ª":11800,"Ġà¤¬à¤łà¤ķ":11801,"Ġà¤¬à¤¶à¤°":11802,"à¤¥à¤¨à¤ļ":11803,"à¤Ńà¤°à¤²":11804,"Ġà¤Ĺà¤¨à¤ļ":11805,"Ġà¤ļà¤ķà¤¨":11806,"Ġà¤²à¤ªà¤£":11807,"Ġà¤ĺà¤°à¤£":11808,"Ġà¤Ŀà¤ķà¤°à¤¬à¤°":11809,"à¤°à¤¤à¤ħà¤«à¤Ĺ":11810,"Ġà¤ıà¤Ĩà¤¯à¤¡":11811,"à¤Īà¤¸à¤®à¤§":11812,"à¤°à¤£à¤§":11813,"à¤¯à¤ķà¤¦":11814,"à¤¯à¤ķà¤µà¤¡":11815,"à¤ĺà¤ª":11816,"à¤Ĩà¤°à¤¶":11817,"Ġà¤«à¤°à¤¦":11818,"à¥ĥà¥ĥ":11819,"à¤¢à¤ķ":11820,"à¤¢à¤°à¤ªà¤Ł":11821,"à¤ħà¤µà¤¤":11822,"à¤ħà¤°à¤¶":11823,"à¤ħà¤¨à¤µ":11824,"à¤ªà¤£à¤ļ":11825,"Ġà¤®à¤¹à¤®à¤¦":11826,"à¥ħ/":11827,"à¤Ĭà¤¤à¤¨":11828,"à¤Łà¤¨à¤®à¤§à¤²":11829,"à¤Ŀà¤¬à¤°":11830,"à¤Ŀà¤Łà¤ªà¤Ł":11831,"à¤Ŀà¤¨à¤¶":11832,"Ġà¤¡à¤°à¤ķ":11833,"Ġà¤¡à¤«à¤²":11834,"à¤¦à¤°à¤Ń":11835,"à¤°à¤ļà¤²à¤¨":11836,"à¤¬à¤¤à¤ª":11837,"à¤Ĺà¤²à¤¹":11838,"à¤ĸà¤²à¤¹":11839,"Ġà¤¨à¤µà¤ª":11840,"Ġà¤¨à¤µà¤Łà¤ķ":11841,"Ġà¤Ĩà¤®à¤¸":11842,"à¤®à¤¨à¤¤":11843,"à¤Łà¤°à¤Ĺ":11844,"Ġà¤Ĩà¤¯à¤Ĩà¤°à¤¬":11845,"Ġà¤Ĩà¤¯à¤ĵà¤ıà¤ļ":11846,"à¤Īà¤²à¤®":11847,"à¤Īà¤²à¤§":11848,"à¤ªà¤¨à¤¹":11849,"à¤®à¤ļà¤ķ":11850,"à¤ĵà¤²à¤²":11851,"à¤ĵà¤ľà¤ļ":11852,"à¤Ĩà¤¯à¤¯":11853,"à¤ħà¤°à¤°":11854,"Ġà¤ĵà¤¬à¤°":11855,"Ġà¤ĵà¤ķà¤£":11856,"à¤®à¤ķà¤ªà¤£":11857,"à¤¹à¤¨à¤®":11858,"à¤ķà¤¶à¤ķ":11859,"à¤ľà¤ķà¤µ":11860,"à¤¹à¤®à¤¶à¤ķà¤²":11861,"à¤ķà¤¸à¤®":11862,"Ġà¤¹à¤²à¤Ĺ":11863,"Ġà¤ķà¤ªà¤®à¤§à¤²":11864,"Ġà¤Ĩà¤ľà¤¸":11865,"à¤°à¤¹à¤²":11866,"Ġ319":11867,"à¤¡à¤³à¤ļ":11868,"à¤ªà¤ķà¤¹":11869,"à¤ªà¤ķà¤ļ":11870,"Ġà¤¦à¤²à¤¹":11871,"à¤¶à¤¯à¤¹":11872,"à¤ķà¤£à¤µ":11873,"Ġ599":11874,"à¤¨à¤ķà¤³à¤¤":11875,"Ġà¤²à¤¢à¤¤à¤ļ":11876,"à¤ľà¤¸à¤µ":11877,"à¤ıà¤®à¤Ĩà¤¯à¤Ł":11878,"Ġà¤Ĳà¤Ł":11879,"à¤§à¤ķà¤ļ":11880,"à¤µà¤ªà¤¶":11881,"à¤²à¤£à¤ķà¤°":11882,"Ġà¤Ĩà¤Īà¤¬à¤°":11883,"Ġà¤īà¤²à¤ĺà¤¡":11884,"à¤¸à¤°à¤ķà¤¡":11885,"Ġà¤Īà¤¦à¤Ĺ":11886,"Ġà¤ıà¤¸à¤ĵà¤ľ":11887,"Ġà¤°à¤£à¤°":11888,"Ġà¤ıà¤¨à¤ıà¤¸à¤Ī":11889,"à¤¬à¤¸à¤ªà¤ļ":11890,"Ġ1012":11891,"Ġà¤ĩà¤¥à¤µà¤°à¤ļ":11892,"à¤ıà¤²à¤Ī":11893,"Ġà¥Ńà¥§à¥ª":11894,"à¤ħà¤ªà¤ļà¤¨":11895,"Ġà¤īà¤ĺà¤¡à¤ļ":11896,"Ġ8999":11897,"à¤°à¤Ĺà¤¡à¤ļ":11898,"Ġà¥¯à¥¨à¥«":11899,"Ġà¥¯à¥ªà¥¦":11900,"à¤Ĩà¤Ĺà¤°à¤¤à¤³":11901,"Ġà¤ªà¤³à¤¸":11902,"à¤²à¤®à¤¡à¤¤":11903,"à¤°à¤Ĺà¤¤à¤¶":11904,"Ġà¥§à¥¯à¥¦à¥¦":11905,"Ġà¤ıà¤µà¤¢à¤ļ":11906,"Ġà¤įà¤²à¤¨":11907,"onas":11908,"Ġà¤¶à¤ªà¤¥à¤¹":11909,"Ġà¤¹à¤³à¤°":11910,"eray":11911,"Ġà¤¨à¤Ĺà¤°à¤¨":11912,"à¤¤à¤°à¤£à¤¹":11913,"Ġ4045":11914,"Ġppf":11915,"Ġmm":11916,"Ġà¥ªà¥¦à¥¯":11917,"à¤ıà¤µà¤¢à¤¯":11918,"Ġbased":11919,"Ġvir":11920,"Ġà¥¨à¥¨à¥©":11921,"Ġ226":11922,"Ġà¥²à¤²":11923,"Ġà¥¨à¥Ńà¥®":11924,"Ġ233":11925,"à¥§à¥¦à¥®":11926,"Ġ273":11927,"Ġho":11928,"Ġhigh":11929,"Ġ7500":11930,"rafale":11931,"Ġà¥ªà¥«à¥ª":11932,"Ġà¥©à¥¬à¥¬":11933,"Ġlove":11934,"Ġlayer":11935,"ilicon":11936,"ulation":11937,"à¤¯à¤Ĺà¤°à¤¨":11938,"175":11939,"Ġox":11940,"Ġ342":11941,"à¤¨à¤§à¤¨à¤¹":11942,"Ġ336":11943,"Ġà¥¦à¥¨à¥«":11944,"apa":11945,"ape":11946,"à¤įà¤ªà¤²":11947,"andard":11948,"Ġà¥¬à¥ªà¥¦":11949,"Ġà¥©à¥¯à¥¬":11950,"Ġ445":11951,"Ġà¥©à¥®à¥¯":11952,"à¤ķà¤ħà¤ªà¤¸":11953,"à¤ķà¤ħà¤ªà¤®à¤§":11954,"ents":11955,"Ġà¤ĵà¤ĺà¤³":11956,"à¥¨à¥¦à¥§à¥ªà¥§à¥«":11957,"Ġà¥ªà¥¦à¥¦à¥¦à¥¦":11958,"Ġà¤«à¤¡à¤ķà¤µà¤¤":11959,"Ġ80000":11960,"à®®":11961,"log":11962,"1995":11963,"Ġà¤Ĩà¤¯à¤ıà¤¨à¤ıà¤²à¤¡":11964,"Ġ1954":11965,"epfo":11966,"Ġà¥§à¥¯à¥«à¥ª":11967,"Ġà¥§à¥¯à¥«à¥§":11968,"Ġdis":11969,"ogen":11970,"Ġà¤īà¤ķà¤²à¤²":11971,"à¤¡à¤°à¤¸à¤¨à¤²":11972,"1985":11973,"à¥§à¥¯à¥®à¥¬":11974,"ackeray":11975,"pok":11976,"à¤ıà¤«à¤Ĩà¤¯à¤ıà¤ļ":11977,"Ġplant":11978,"Ġicmr":11979,"Ġà¤¬à¤²à¤ķà¤µà¤¡":11980,"à¤¦à¤µà¤¡à¤ļ":11981,"Ġpresident":11982,"Ġpolice":11983,"Ġupdate":11984,"ukone":11985,"Ġviolence":11986,"Ġbsnl":11987,"Ġapple":11988,"Ġà¤¬à¤Łà¤²à¤°à¤ļ":11989,"à³į":11990,"vention":11991,"microbi":11992,"chool":11993,"Ġratio":11994,"epidemi":11995,"çľĮ":11996,"Ġnbfc":11997,"Ġà¤¬à¤Łà¤¬à¤Ł":11998,"<<":11999,"az":12000,"cit":12001,"cil":12002,"dra":12003,"eh":12004,"fri":12005,"face":12006,"hr":12007,"kh":12008,"np":12009,"rcb":12010,"si":12011,"sit":12012,"shar":12013,"tri":12014,"ture":12015,"wal":12016,"Î½":12017,"à½":12018,"ĪĴ":12019,"à¥ķ":12020,"à¥ļ":12021,"à¤°à¤Ĩà¤®à¤¦":12022,"à¥ĢâĢĭ":12023,"à¤¤à¤®à¤¤":12024,"à¤²à¤¸à¤®":12025,"à¤²à¤ľà¤®":12026,"à¤¨à¤°à¤®":12027,"à¤¨à¤Ĺà¤³":12028,"à¤¨à¤ķà¤²":12029,"à¤¨à¤Ĳà¤µà¤ľ":12030,"à¤Ĥà¤¾":12031,"à¤¹à¤¯à¤²":12032,"à¤¹à¤ķà¤ļ":12033,"à¤ķà¤µà¤°à¤ļ":12034,"à¤µà¤®à¤§à¤²":12035,"à¤¸à¤®à¤Ĺ":12036,"à¤®à¤µà¤¤":12037,"Ġà¤ķà¤¨à¤µ":12038,"à¤ªà¤®à¤§à¤²":12039,"Ġà¤¸à¤¤à¤ª":12040,"Ġà¤¸à¤£à¤¸":12041,"Ġà¤ªà¤ļà¤²":12042,"Ġà¤®à¤¨à¤ļ":12043,"Ġà¤®à¤¯à¤ª":12044,"à¤Łà¤¤à¤®":12045,"à¤Łà¤¶à¤¹":12046,"à¤§à¤°à¤®":12047,"Ġà¤¨à¤¨à¤µà¤°":12048,"Ġà¤µà¤¤à¤¨":12049,"à¤¶à¤°à¤¤":12050,"à¤¶à¤¸à¤®à¤§":12051,"à¤¡à¤¨à¤°":12052,"Ġà¤¦à¤¦":12053,"Ġà¤ľà¤®à¤¨":12054,"Ġà¤ķà¤°à¤Ŀ":12055,"Ġà¤¶à¤®à¤¸":12056,"à¤łà¤µà¤¡":12057,"Ġà¤²à¤¡à¤ķ":12058,"Ġà¤īà¤Ĺà¤µ":12059,"Ġà¤īà¤¬à¤Ĺ":12060,"à¤°à¤ķà¤µ":12061,"à¤°à¤ķà¤¸à¤ªà¤£":12062,"à¤°à¤¤à¤µà¤°":12063,"Ġà¤ĸà¤¤à¤°":12064,"Ġà¤ıà¤ıà¤«à¤ª":12065,"à¤Īà¤¡à¤¨":12066,"à¤Īà¤®à¤ª":12067,"à¤Ĩà¤¦à¤²":12068,"à¤Ĩà¤ķà¤¸":12069,"à¤Ĩà¤¡à¤¨":12070,"à¤ħà¤¡à¤ķ":12071,"à¤ħà¤¬à¤ķ":12072,"à¤°à¤®à¤Ĺ":12073,"Ġà¤ıà¤ķà¤µà¤°":12074,"Ġà¤ĩà¤¨à¤°":12075,"Ġà¤ĩà¤¯à¤°à¤ļ":12076,"Ġà¤ªà¤°à¤Ń":12077,"à¤ķà¤¡à¤®":12078,"à¤ķà¤¡à¤°à¤¹":12079,"Ġà¤¸à¤®à¤°à¤µ":12080,"à¤µà¤²à¤¯":12081,"à¤ıà¤Ĩà¤¯à¤ıà¤¡":12082,"à¤°à¤¸à¤£":12083,"à¤Ĭà¤¸à¤²":12084,"Ġà¤ħà¤¨à¤µà¤§":12085,"Ġà¤īà¤ªà¤ľà¤¤":12086,"à¤Ŀà¤¯":12087,"Ġà¤¡à¤¬à¤¡":12088,"à¤ľà¤ªà¤¯":12089,"à¤µà¤¡à¤¹":12090,"à¤¹à¤¤à¤ķà¤ļ":12091,"à¤¸à¤°à¤¬":12092,"à¤µà¤¤à¤µ":12093,"à¤µà¤¤à¤µà¤°à¤ļ":12094,"à¤¡à¤²à¤¸":12095,"à¤Ĺà¤¤à¤ķ":12096,"à¤¯à¤¤à¤¯":12097,"à¤Ĺà¤°à¤µà¤°":12098,"à¤¶à¤¨à¤ħ":12099,"Ġà¤Ĩà¤¯à¤ļ":12100,"à¤¯à¤²à¤°à¤ļ":12101,"à¤ĩà¤Łà¤°":12102,"à¤ĩà¤²à¤²":12103,"à¤ĩà¤®à¤ª":12104,"à¤ķà¤²à¤¶":12105,"à¤°à¤ľà¤¹":12106,"Ġà¤ªà¤¦à¤¤":12107,"à¤ªà¤¤à¤¨":12108,"à¤īà¤¸à¤¨":12109,"à¤ªà¤¦à¤ªà¤¥":12110,"à¤§à¤¨à¤¦à¤°":12111,"Ġà¤ľà¤¨à¤ªà¤¥":12112,"à¤·à¤¯à¤¸à¤¹":12113,"Ġà¤ĺà¤°à¤Ń":12114,"Ġà¤Ĩà¤ľà¤ķà¤²":12115,"à¤ıà¤¸à¤ıà¤¸à¤ª":12116,"Ġà¤Ĩà¤Ĺà¤°à¤¤à¤³":12117,"Ġà¤Ĩà¤§à¤°":12118,"Ġà¤Ľà¤ł":12119,"à¤ħà¤¨à¤¶":12120,"Ġà¤¶à¤¹à¤°à¤ļ":12121,"Ġ525":12122,"à¤łà¤²à¤¹":12123,"Ġà¤²à¤Ĺà¤¡":12124,"Ġ415":12125,"à¤ľà¤®à¤¶":12126,"Ġà¤Ĳà¤ķà¤µ":12127,"Ġà¥«à¥¨à¥¦":12128,"Ġà¥«à¥§à¥Ń":12129,"à¤¸à¤µà¤¹":12130,"à¤¸à¤µà¤Ĺà¤¤":12131,"à¤µà¤¢à¤ļ":12132,"Ġà¤Īà¤¤à¤°":12133,"à¤ĳà¤¬":12134,"Ġà¤īà¤¡à¤¦":12135,"à¤°à¤³à¤ķà¤°":12136,"Ġà¤§à¤°à¤¬":12137,"à¤ķà¤¦à¤¹":12138,"Ġà¤¹à¤¸à¤µà¤¤":12139,"Ġà¤ļà¤ķà¤®":12140,"Ġà¤Ķà¤°à¤ļ":12141,"Ġà¤ıà¤®à¤ıà¤®à¤Ĩà¤°à¤¸":12142,"Ġ740":12143,"Ġà¤Ĭà¤Ń":12144,"âĢįà¥ħà¤Ĥ":12145,"Ġà¥¯à¥§à¥«":12146,"Ġ12999":12147,"Ġà¤Ŀà¤³à¤ķà¤µ":12148,"à¤Łà¤¸à¤¨à¤ļ":12149,"à¤ľà¤¤à¤Ĺ":12150,"à¤īà¤¦à¤Ĺ":12151,"Ġà¥§à¥¯à¥¨à¥§":12152,"à¤¦à¤®à¤°à¤¤":12153,"à¤ıà¤ļà¤¬":12154,"à¤ıà¤ļà¤Ĩà¤°":12155,"Ġà¤įà¤¡à¤²":12156,"Ġ2530":12157,"arend":12158,"Ġca":12159,"1975":12160,"Ġà¤Ĩà¤ªà¤ķà¤¡":12161,"Ġscor":12162,"Ġsamsung":12163,"ero":12164,"Ġà¥¨à¥«à¥¦à¥¦à¥¦":12165,"à¤¹à¤¸à¤µà¤¡":12166,"Ġ374":12167,"Ġà¤§à¤µà¤¨à¤¸à¤¹":12168,"Ġà¥©à¥¦à¥®":12169,"Ġà¤Ĺà¤³à¥Ł":12170,"Ġmt":12171,"Ġast":12172,"à¤Ĩà¤°à¤¸à¤¹":12173,"à¤²à¤¬à¤¸à¤ļ":12174,"Ġbhat":12175,"Ġbreaking":12176,"à¤¯à¤«à¤²à¤®à¤§":12177,"Ġno":12178,"Ġà¤ħà¤µà¤ķà¤³":12179,"Ġà¤ıà¤ķà¤Łà¤¯":12180,"itive":12181,"Ġ351":12182,"Ġà¥¨à¥¬à¥§":12183,"Ġ601":12184,"à¤¯à¤Ńà¤Ł":12185,"à¤«à¤³à¤Ń":12186,"Ġà¥¨à¥®à¥§":12187,"à¥§à¥¦à¥Ń":12188,"Ġà¥©à¥Ńà¥©":12189,"Ġà¤°à¤¨à¤Ĩà¤Ĭà¤Ł":12190,"Ġlo":12191,"Ġlim":12192,"ayat":12193,"rel":12194,"Ġà¥ªà¥®à¥¦":12195,"1200":12196,"Ġ202223":12197,"à¤ªà¤¥à¤¦":12198,"à¤įà¤¥à¤²":12199,"Ġà¥©à¥¯à¥©":12200,"Ġà¥©à¥¯à¥Ń":12201,"Ġ387":12202,"Ġà¥ªà¥ªà¥¦":12203,"144":12204,"Ġà¤Ĺà¤¹à¤ľà¤¬":12205,
[...]
